{"<pad>": 0, "<eos>": 1, "a": 2, "r": 3, "z": 4, "0": 5, "d": 6, "Q": 7, "X": 8, "8": 9, "K": 10, "6": 11, "E": 12, "Z": 13, "n": 14, " ": 15, "e": 16, "t": 17, "?": 18, "~": 19, "W": 20, "R": 21, "!": 22, "(": 23, "+": 24, ")": 25, "[": 26, "j": 27, "/": 28, "\\": 29, "g": 30, "=": 31, "c": 32, "9": 33, "`": 34, "T": 35, "}": 36, "x": 37, "J": 38, "U": 39, "@": 40, "p": 41, "l": 42, "Y": 43, "F": 44, "#": 45, "m": 46, "B": 47, "-": 48, "\t": 49, ".": 50, "P": 51, "|": 52, "_": 53, ",": 54, "D": 55, "C": 56, "%": 57, "7": 58, "f": 59, "\n": 60, ":": 61, "b": 62, "u": 63, "5": 64, "<": 65, "L": 66, "4": 67, "$": 68, "M": 69, "\"": 70, "I": 71, "V": 72, "S": 73, "3": 74, "o": 75, "^": 76, "i": 77, ";": 78, "k": 79, "h": 80, ">": 81, "q": 82, "G": 83, "H": 84, "A": 85, "s": 86, "1": 87, "*": 88, "&": 89, "O": 90, "y": 91, "N": 92, "'": 93, "w": 94, "2": 95, "v": 96, "e ": 97, " t": 98, "s ": 99, "in": 100, "d ": 101, " th": 102, "er": 103, "an": 104, "on": 105, " the ": 106, "t ": 107, ", ": 108, "en": 109, "or": 110, ". ": 111, "ar": 112, "y ": 113, "at": 114, "al": 115, "re": 116, "ed ": 117, "of": 118, "it": 119, "ing": 120, "o ": 121, "st": 122, "and ": 123, "a ": 124, "ou": 125, "ic": 126, "er ": 127, "h ": 128, "on ": 129, "as ": 130, "of ": 131, "om": 132, "ing ": 133, "he ": 134, "in ": 135, "es": 136, "il": 137, "el": 138, "ed": 139, "is": 140, "= ": 141, "ac": 142, " to ": 143, "as": 144, "am": 145, "es ": 146, "is ": 147, "ro": 148, "\n ": 149, "al ": 150, "for": 151, "ec": 152, "an ": 153, "\" ": 154, "th": 155, "ur": 156, "ol": 157, "ti": 158, "was ": 159, "at ": 160, "ir": 161, "em": 162, "ow": 163, "= = ": 164, "ig": 165, "wh": 166, "im": 167, "ad": 168, "le": 169, "ati": 170, "ch": 171, "n ": 172, "The ": 173, "of the ": 174, "en ": 175, "ent": 176, "id": 177, "us": 178, "ly ": 179, "'s ": 180, ". \n ": 181, "un": 182, "and": 183, "wit": 184, "e t": 185, "et": 186, "iv": 187, "ag": 188, "os": 189, "pl": 190, "ev": 191, "l ": 192, "con": 193, "ha": 194, "fr": 195, "su": 196, "k ": 197, "ov": 198, "op": 199, "in the ": 200, "ab": 201, "ap": 202, "ear": 203, "00": 204, ". The ": 205, "19": 206, "um": 207, "s, ": 208, "by ": 209, "his ": 210, "be": 211, "( ": 212, "oun": 213, "ent ": 214, "ri": 215, "ex": 216, "ul": 217, "ter": 218, "with ": 219, "di": 220, "ot": 221, "ere ": 222, "com": 223, "ay": 224, "sh": 225, " that ": 226, "e, ": 227, "from": 228, "si": 229, "pro": 230, "for ": 231, "or ": 232, "res": 233, "cl": 234, "ep": 235, "li": 236, " to": 237, "uc": 238, "ew": 239, "ain": 240, "oc": 241, "le ": 242, "it ": 243, "igh": 244, "ic ": 245, "bu": 246, "0 ": 247, "av": 248, "ation ": 249, "our": 250, "ak": 251, "ation": 252, ", the ": 253, "od": 254, ". I": 255, ", and ": 256, "est": 257, "per": 258, "ong": 259, "rec": 260, "ce ": 261, "th ": 262, "m ": 263, "qu": 264, ". A": 265, "sp": 266, "ay ": 267, "ve ": 268, "all": 269, "str": 270, "ing the ": 271, "ed the ": 272, "se": 273, " the": 274, "ed to ": 275, "int": 276, "e the ": 277, "ers ": 278, "@ ": 279, "af": 280, "pr": 281, "from ": 282, ") ": 283, ", wh": 284, "oug": 285, "ot ": 286, "were ": 287, "iti": 288, "tion ": 289, ". H": 290, "e of ": 291, "ud": 292, "St": 293, "= = = ": 294, "oth": 295, "art": 296, "her ": 297, "had ": 298, "at the ": 299, "gr": 300, "att": 301, "ld ": 302, "ich ": 303, "end": 304, "p ": 305, " to the ": 306, "ar ": 307, "be ": 308, " @": 309, "ame ": 310, "ch ": 311, "ut": 312, "ate ": 313, "ber ": 314, "on the ": 315, "ed by ": 316, "st ": 317, ". T": 318, "we": 319, "de": 320, "Ch": 321, "s and ": 322, "are ": 323, "s of ": 324, "ir ": 325, "fir": 326, "rit": 327, "200": 328, "ary ": 329, "ant": 330, "ter ": 331, " and ": 332, "bl": 333, "wor": 334, "ect": 335, "so ": 336, "por": 337, "tion": 338, "with": 339, "its ": 340, "man": 341, "one ": 342, "ew ": 343, "e to ": 344, "ast": 345, "and the ": 346, "ard": 347, "over": 348, "ated ": 349, "ers": 350, "not ": 351, "low": 352, "ally ": 353, "ran": 354, "ill": 355, "ord": 356, "ack": 357, "20": 358, "out ": 359, "ist": 360, "comp": 361, "ity ": 362, "est ": 363, " m": 364, "cont": 365, "vi": 366, "aw": 367, "ed in ": 368, "y, ": 369, "if": 370, "ould ": 371, "er, ": 372, "duc": 373, "all ": 374, "oo": 375, ": ": 376, "ical ": 377, "y the ": 378, "ge ": 379, "ish": 380, "also ": 381, "ff": 382, "og": 383, "i ": 384, "he": 385, "ip": 386, "ser": 387, "mor": 388, "other ": 389, "s. ": 390, "201": 391, "for the ": 392, "form": 393, "but ": 394, "have ": 395, "ies ": 396, "bec": 397, "pre": 398, "18": 399, "ion": 400, "es, ": 401, "fin": 402, "inc": 403, "out": 404, "ass": 405, "ough": 406, "year": 407, "ess": 408, " their ": 409, "ob": 410, "pos": 411, "sc": 412, "off": 413, "el ": 414, "pres": 415, "par": 416, "br": 417, "enc": 418, "ous ": 419, "dis": 420, "as the ": 421, "first ": 422, "ell": 423, "wo ": 424, "fl": 425, "po": 426, "ad ": 427, "comm": 428, ".@ ": 429, ". He ": 430, "been ": 431, "dr": 432, "ong ": 433, ",@ ": 434, " tr": 435, "ug": 436, "clud": 437, "ach": 438, "il ": 439, "act": 440, "ive ": 441, "up": 442, "ure": 443, ". In ": 444, "has ": 445, "play": 446, "Un": 447, "e th": 448, "she ": 449, "ion ": 450, "ight ": 451, "= = \n ": 452, "ver": 453, "ost ": 454, ". \" ": 455, "ain ": 456, "which ": 457, "from the ": 458, "pe": 459, "anc": 460, "eg": 461, "des": 462, "ast ": 463, "= = = \n ": 464, "ign": 465, " @.@ ": 466, "  ": 467, "ath": 468, "ound": 469, "ome ": 470, "sec": 471, "am ": 472, "ind": 473, "own ": 474, "ment ": 475, "In": 476, ". S": 477, "ard ": 478, "fe": 479, "includ": 480, "ret": 481, "ound ": 482, "ted ": 483, "him": 484, "; ": 485, "with the ": 486, "ure ": 487, "fil": 488, "ack ": 489, "s in ": 490, "lat": 491, "bet": 492, "as a ": 493, "rem": 494, "ill ": 495, "by the ": 496, "tim": 497, " they ": 498, "iz": 499, "ph": 500, "2 ": 501, "ight": 502, "ember ": 503, "et ": 504, "ine ": 505, "ang": 506, "und": 507, "ber": 508, "ia ": 509, "An": 510, " @,@ ": 511, "ough ": 512, "inter": 513, "ous": 514, "sid": 515, "1 ": 516, "ens": 517, "ial ": 518, "tr": 519, "ed a ": 520, "Mar": 521, "um ": 522, "I ": 523, "ish ": 524, "mer": 525, "s to ": 526, ", which ": 527, "ann": 528, "5 ": 529, "would ": 530, "ence ": 531, "3 ": 532, "Ar": 533, "ian ": 534, "ne": 535, "Al": 536, "ever": 537, "ely ": 538, "' ": 539, " that the ": 540, "ition": 541, "char": 542, "amp": 543, " this ": 544, "o the ": 545, " tim": 546, "urn": 547, "a, ": 548, "our ": 549, "ollow": 550, "num": 551, "ust ": 552, "ile ": 553, "ubl": 554, "ell ": 555, "En": 556, "ade ": 557, "17": 558, "ow ": 559, "dec": 560, "us ": 561, "betwe": 562, "ese ": 563, "ant ": 564, "a m": 565, "cent": 566, "stor": 567, "ke ": 568, "4 ": 569, "are": 570, "fi": 571, "reg": 572, "sion": 573, "Br": 574, "age ": 575, "leas": 576, "in 19": 577, "dur": 578, "col": 579, "arr": 580, "son ": 581, "ick": 582, "f ": 583, ". It ": 584, "Wh": 585, " two ": 586, "ist ": 587, "cr": 588, "oy": 589, "port": 590, "writ": 591, "co": 592, "produc": 593, ". O": 594, "most ": 595, "gl": 596, "ed, ": 597, "own": 598, "mon": 599, "A ": 600, "plac": 601, "ited ": 602, "au": 603, "lar": 604, "illi": 605, ". \n The ": 606, "more ": 607, "s the ": 608, "id ": 609, "kn": 610, "sion ": 611, "ly": 612, "beg": 613, "ing to ": 614, "able ": 615, "coun": 616, "alb": 617, "app": 618, "red ": 619, "nam": 620, "6 ": 621, "releas": 622, "rel": 623, "after ": 624, "ern ": 625, "aus": 626, ". B": 627, "ust": 628, "e and ": 629, "bo": 630, " them": 631, "8 ": 632, "work": 633, "seas": 634, "who ": 635, "into ": 636, "enti": 637, "follow": 638, "ach ": 639, "air": 640, "ment": 641, " thr": 642, "ond": 643, "In ": 644, ". M": 645, "dev": 646, "ance ": 647, "row": 648, "publ": 649, "t of ": 650, "ich": 651, "s were ": 652, "ort": 653, "ict": 654, "sy": 655, "game ": 656, "eng": 657, "ener": 658, "any ": 659, "eth": 660, "Jo": 661, "not": 662, "ree ": 663, "cre": 664, ". \n = = ": 665, "stat": 666, "part": 667, "x ": 668, "ed that ": 669, "ail": 670, "such ": 671, "abl": 672, "sur": 673, "min": 674, "meric": 675, "serv": 676, "sel": 677, "lin": 678, "land": 679, "struc": 680, "buil": 681, "Com": 682, "pol": 683, "cc": 684, "Americ": 685, "ub": 686, "Con": 687, "sub": 688, "gu": 689, "new ": 690, "New ": 691, "her": 692, ". \n = = = ": 693, "en the ": 694, "unt": 695, "ates ": 696, "ake ": 697, "ess ": 698, ". D": 699, "9 ": 700, "ition ": 701, "befor": 702, "about ": 703, "ip ": 704, "sol": 705, "), ": 706, "ool": 707, "mar": 708, "oth ": 709, "000 ": 710, "spec": 711, "isod": 712, "ustr": 713, "only ": 714, "hel": 715, "number ": 716, "prov": 717, "ide": 718, "son": 719, "episod": 720, "over ": 721, "ory ": 722, "again": 723, "man ": 724, "ity": 725, "ost": 726, "nor": 727, "a t": 728, "up ": 729, "ship": 730, "view": 731, "\", ": 732, "leg": 733, "s of the ": 734, "ros": 735, "add": 736, "elop": 737, "Th": 738, "later ": 739, "7 ": 740, "mus": 741, "sup": 742, "inn": 743, "ite ": 744, "can ": 745, "bas": 746, ". F": 747, "end ": 748, "gre": 749, "ing a ": 750, "loc": 751, "ice ": 752, "gam": 753, "itt": 754, "ered ": 755, "sing": 756, "Nor": 757, "t the ": 758, "charac": 759, "ue ": 760, "es of ": 761, "ational ": 762, "Le": 763, "ey ": 764, "om ": 765, "mat": 766, ". Th": 767, "Joh": 768, "he was ": 769, "when ": 770, "let": 771, "ple ": 772, "sch": 773, "ing, ": 774, "inv": 775, "between ": 776, "cri": 777, "fer": 778, "United ": 779, "cer": 780, "Gr": 781, "ose ": 782, "ed on ": 783, "mov": 784, "rop": 785, "aj": 786, "record": 787, "e-": 788, "Sh": 789, "old": 790, "199": 791, "many ": 792, "az": 793, "g ": 794, "develop": 795, "eiv": 796, "arm": 797, "ry ": 798, "high": 799, "es and ": 800, "acc": 801, "sl": 802, "ef": 803, "sist": 804, "bel": 805, "Engl": 806, "ett": 807, "in a ": 808, "Aug": 809, "sul": 810, "ock": 811, "ship ": 812, "diff": 813, "film ": 814, "ed and ": 815, "near": 816, "appear": 817, ", a ": 818, "uary ": 819, "ans ": 820, "fac": 821, "call": 822, "yp": 823, "dep": 824, "s, and ": 825, "ood ": 826, "15": 827, "ct": 828, "ash": 829, "ement ": 830, "ed to the ": 831, "ond ": 832, "ext": 833, "ations ": 834, "ies": 835, "olog": 836, "Wor": 837, "pop": 838, "ed in the ": 839, "Pr": 840, ", th": 841, "outh ": 842, ", but ": 843, "ey": 844, "after": 845, ". This ": 846, "/ ": 847, "feat": 848, "e, and ": 849, "ement": 850, "oper": 851, "with a ": 852, "cap": 853, "direc": 854, "S ": 855, " that": 856, "me": 857, "him ": 858, "wat": 859, "outh": 860, "being ": 861, "reas": 862, "both ": 863, "du": 864, "ept": 865, "s that ": 866, "receiv": 867, "some ": 868, "ating ": 869, ", who ": 870, "s. The ": 871, "during the ": 872, "urr": 873, "ious ": 874, " 's ": 875, "rot": 876, "fam": 877, ". In": 878, "ek": 879, "ook": 880, "way ": 881, "land ": 882, "succ": 883, "ood": 884, "t of the ": 885, "tive ": 886, "old ": 887, "became ": 888, "ual ": 889, "owev": 890, "ther ": 891, "sever": 892, "ivers": 893, "ision ": 894, "return": 895, "overn": 896, "ult": 897, "was": 898, ". Af": 899, "offic": 900, "ative ": 901, "well ": 902, "Sp": 903, "exp": 904, "iev": 905, "descri": 906, "consid": 907, "sa": 908, "made ": 909, "way": 910, "is a ": 911, " than ": 912, "under": 913, "Fr": 914, "tiv": 915, "so": 916, "event": 917, "owever, ": 918, " to be ": 919, "ste": 920, "it was ": 921, "sm": 922, "even ": 923, "August ": 924, "album ": 925, "ular ": 926, "bro": 927, "back": 928, "song ": 929, "rev": 930, "crit": 931, "peri": 932, "udi": 933, "stem": 934, "United St": 935, "Cl": 936, "med": 937, "ers, ": 938, "before ": 939, "forc": 940, "pt": 941, "contin": 942, "ed by the ": 943, "film": 944, "e. The ": 945, "American ": 946, "org": 947, "ation of ": 948, "00 ": 949, "ok": 950, "ed for ": 951, "ings ": 952, "ed with ": 953, "als ": 954, "ie ": 955, "igin": 956, "ily ": 957, "emb": 958, "day": 959, "may ": 960, "occ": 961, " te": 962, "es to ": 963, "could ": 964, "ed at ": 965, "oci": 966, "did ": 967, "es the ": 968, "hist": 969, "resp": 970, "ten ": 971, "e. ": 972, "resul": 973, "sign": 974, "ra": 975, "early ": 976, "ib": 977, "197": 978, "had been ": 979, " @,@ 000 ": 980, "was the ": 981, "e in ": 982, "point": 983, "a f": 984, "s ( ": 985, "mis": 986, "red": 987, "te": 988, "requ": 989, "do": 990, "pass": 991, "go": 992, "e of the ": 993, "ul ": 994, "ton ": 995, "disc": 996, "s. \n ": 997, "sk": 998, "e to the ": 999, "Dec": 1000, " three ": 1001, "som": 1002, "read": 1003, "no ": 1004, "ect ": 1005, "y and ": 1006, "enn": 1007, "Oct": 1008, "pris": 1009, "centur": 1010, "World ": 1011, "C ": 1012, "lead": 1013, "lev": 1014, "several ": 1015, "illion ": 1016, ", he ": 1017, "have been ": 1018, "present": 1019, "Jan": 1020, "grou": 1021, "such as ": 1022, "194": 1023, ". A ": 1024, "ics ": 1025, "ech": 1026, "reach": 1027, "Cor": 1028, "Nov": 1029, "Sc": 1030, "ed as ": 1031, "act ": 1032, "Par": 1033, "tain": 1034, "gener": 1035, "ward": 1036, "re ": 1037, "like ": 1038, "grap": 1039, "character": 1040, ". R": 1041, "second ": 1042, "16": 1043, "196": 1044, ". The": 1045, " of ": 1046, "on, ": 1047, "pit": 1048, "origin": 1049, "giv": 1050, "mod": 1051, "song": 1052, "Bl": 1053, "into the ": 1054, "ually ": 1055, "sim": 1056, "ook ": 1057, ", \" ": 1058, "ever ": 1059, "dem": 1060, "one of the ": 1061, "ustral": 1062, "remain": 1063, "describ": 1064, "e. \n ": 1065, "each ": 1066, "previ": 1067, "dam": 1068, "ont": 1069, "school": 1070, "ign ": 1071, "first": 1072, "vis": 1073, "..": 1074, "a 's ": 1075, "tion of ": 1076, "batt": 1077, "known ": 1078, "against ": 1079, "ia": 1080, "same ": 1081, "es in ": 1082, "def": 1083, "Pl": 1084, "dist": 1085, "ty ": 1086, "episode ": 1087, "Mus": 1088, "aim": 1089, "prom": 1090, "north": 1091, "ld": 1092, "while ": 1093, "er and ": 1094, "will ": 1095, "ing of ": 1096, "John ": 1097, "including ": 1098, "0 @": 1099, "years ": 1100, "e that ": 1101, "1, ": 1102, "Ge": 1103, "hous": 1104, "build": 1105, "govern": 1106, "Austral": 1107, "y of ": 1108, "er of ": 1109, "bre": 1110, " time ": 1111, "eal": 1112, "ilit": 1113, "Ju": 1114, "system": 1115, "out the ": 1116, "continu": 1117, "run": 1118, "caus": 1119, "sequ": 1120, "wrot": 1121, "season ": 1122, "series ": 1123, "perfor": 1124, "fiel": 1125, "ince ": 1126, "0, ": 1127, "Ger": 1128, "ave ": 1129, "hy": 1130, "Jun": 1131, "fri": 1132, "198": 1133, "ian": 1134, "was a ": 1135, "Col": 1136, "hav": 1137, "Jam": 1138, "ures ": 1139, ". Al": 1140, "ebr": 1141, "ativ": 1142, "w ": 1143, "ble ": 1144, "Gre": 1145, "lik": 1146, "ular": 1147, "ax": 1148, "show": 1149, "chil": 1150, "ou ": 1151, "ft ": 1152, "er 's ": 1153, " through": 1154, "arn": 1155, "12": 1156, "did not ": 1157, ". Wh": 1158, "work ": 1159, "op ": 1160, "aw ": 1161, "ently ": 1162, "ful": 1163, "det": 1164, "14": 1165, "differ": 1166, "Tim": 1167, " through ": 1168, "Sept": 1169, "les ": 1170, "ik": 1171, "Brit": 1172, "ide ": 1173, "le, ": 1174, "ing that ": 1175, "following ": 1176, " there ": 1177, "a and ": 1178, "ts ": 1179, "larg": 1180, "ograp": 1181, "sum": 1182, "scor": 1183, "mak": 1184, "but": 1185, "cor": 1186, "var": 1187, "four ": 1188, "my ": 1189, "very ": 1190, "publish": 1191, "der": 1192, "] ": 1193, "ru": 1194, "studi": 1195, "ank": 1196, "increas": 1197, "ird ": 1198, "ale ": 1199, "North ": 1200, "is the ": 1201, "pow": 1202, "ity of ": 1203, "km ": 1204, "rat": 1205, "mag": 1206, "div": 1207, "direct": 1208, "national ": 1209, "expl": 1210, "ass ": 1211, "Or": 1212, "On ": 1213, "ing and ": 1214, "Octo": 1215, "October ": 1216, ". W": 1217, "day ": 1218, "alth": 1219, ". After ": 1220, "Re": 1221, "led ": 1222, "oot": 1223, "performan": 1224, ". L": 1225, "another ": 1226, "\" and ": 1227, "partic": 1228, "open": 1229, "ons ": 1230, "where ": 1231, "er to ": 1232, "igh ": 1233, "stud": 1234, "en, ": 1235, "ful ": 1236, "olv": 1237, "ath ": 1238, "eas": 1239, "ents ": 1240, "appro": 1241, "peo": 1242, "ed that the ": 1243, "January ": 1244, "perform": 1245, "adi": 1246, "review": 1247, "liv": 1248, "Char": 1249, "conv": 1250, "ident ": 1251, "December ": 1252, "port ": 1253, "War ": 1254, " tak": 1255, "time ": 1256, "ing in ": 1257, "found ": 1258, "music ": 1259, "Apr": 1260, "Yor": 1261, "omb": 1262, "ired ": 1263, "fur": 1264, "apt": 1265, ". They ": 1266, "rans": 1267, "ek ": 1268, "'t ": 1269, "For": 1270, "[ ": 1271, "album": 1272, "els ": 1273, " tri": 1274, ", where ": 1275, "July ": 1276, "ropical ": 1277, "lif": 1278, "Rob": 1279, "stand": 1280, "cour": 1281, "per ": 1282, "what ": 1283, "es ( ": 1284, "until ": 1285, "adv": 1286, "hand": 1287, "September ": 1288, "Sch": 1289, " in ": 1290, "bur": 1291, "ection ": 1292, "eder": 1293, " then ": 1294, "rac": 1295, "e, the ": 1296, "clos": 1297, "Car": 1298, "becaus": 1299, "struct": 1300, "Jap": 1301, "20 ": 1302, "4, ": 1303, "8, ": 1304, "s, the ": 1305, "ically ": 1306, "under ": 1307, "ed his ": 1308, "camp": 1309, "long": 1310, "ys": 1311, " million ": 1312, "began ": 1313, "person": 1314, "as well ": 1315, "Ro": 1316, "fel": 1317, "bor": 1318, "car": 1319, ". \n In ": 1320, "November ": 1321, "Coun": 1322, "aug": 1323, "June ": 1324, "post": 1325, "195": 1326, "ision": 1327, "hom": 1328, "tions ": 1329, "ed on the ": 1330, "10 ": 1331, "9, ": 1332, "pat": 1333, "contro": 1334, "z ": 1335, "April ": 1336, "decid": 1337, ") and ": 1338, "\" The ": 1339, "amb": 1340, "March ": 1341, "imp": 1342, "spe": 1343, "Fran": 1344, "II": 1345, "Mc": 1346, "ject": 1347, "fun": 1348, "vide": 1349, "craf": 1350, "omin": 1351, "list": 1352, "3, ": 1353, "south": 1354, "del": 1355, "Tr": 1356, "jo": 1357, "ord ": 1358, "attack": 1359, "New Yor": 1360, "single ": 1361, ". C": 1362, "four": 1363, "ors": 1364, "o-": 1365, "= \n ": 1366, "hum": 1367, "version ": 1368, "rist": 1369, ". E": 1370, "star": 1371, "ais": 1372, "result": 1373, "five ": 1374, "Univers": 1375, "ix": 1376, "week": 1377, "war": 1378, "err": 1379, "kill": 1380, "aff": 1381, "os ": 1382, "itu": 1383, "ather ": 1384, "nov": 1385, "ism ": 1386, "believ": 1387, "ately ": 1388, "youn": 1389, "eff": 1390, "ench ": 1391, "called ": 1392, "issu": 1393, "y 's ": 1394, "design": 1395, "United States ": 1396, "after the ": 1397, ". On ": 1398, "between the ": 1399, ". In the ": 1400, "cas": 1401, "oman ": 1402, "James ": 1403, "Be": 1404, "found": 1405, "form ": 1406, "$ ": 1407, "6, ": 1408, "prot": 1409, "able to ": 1410, "2, ": 1411, "ural ": 1412, "ith ": 1413, "chang": 1414, "state ": 1415, "hap": 1416, "year ": 1417, "ying ": 1418, "s in the ": 1419, "well": 1420, "Cr": 1421, "elev": 1422, "s a ": 1423, "commun": 1424, "critic": 1425, "still ": 1426, "want": 1427, "wer": 1428, "ern": 1429, "uch ": 1430, "comb": 1431, "ind ": 1432, "Pro": 1433, "int ": 1434, "y to ": 1435, ". However, ": 1436, "histor": 1437, "addition": 1438, "ors ": 1439, "At": 1440, "ick ": 1441, "o, ": 1442, "received ": 1443, "claim": 1444, "countr": 1445, "last ": 1446, "plan": 1447, "success": 1448, "ific": 1449, "polit": 1450, "ne ": 1451, "Qu": 1452, "ism": 1453, "final ": 1454, "ampion": 1455, "involv": 1456, " these ": 1457, "50 ": 1458, "said": 1459, "gg": 1460, "avy ": 1461, "named ": 1462, "previous ": 1463, "hal": 1464, "storm ": 1465, "club": 1466, "manag": 1467, "ott": 1468, "193": 1469, "ican": 1470, "ani": 1471, "proc": 1472, "los": 1473, ". \" \n ": 1474, "establ": 1475, "es were ": 1476, "South ": 1477, "ron": 1478, "ward ": 1479, "people ": 1480, "exc": 1481, "Eu": 1482, "arch": 1483, "dest": 1484, "suff": 1485, "cam": 1486, "east": 1487, "ok ": 1488, "prof": 1489, "during ": 1490, ". Dur": 1491, "self": 1492, "import": 1493, "ought ": 1494, "over the ": 1495, "had": 1496, " them ": 1497, "back ": 1498, "bar": 1499, "organ": 1500, "ange ": 1501, "sugg": 1502, "ut ": 1503, ". P": 1504, "king ": 1505, "la": 1506, "ograph": 1507, "iet": 1508, "pur": 1509, "cle": 1510, "ather": 1511, "lo": 1512, "conc": 1513, "French ": 1514, "off ": 1515, "establish": 1516, "complet": 1517, "built ": 1518, "aircraf": 1519, "10": 1520, "grad": 1521, "eb": 1522, "Febr": 1523, "ith": 1524, "Batt": 1525, "aur": 1526, "rest": 1527, "rang": 1528, "May ": 1529, "s on ": 1530, "Sy": 1531, "ah": 1532, "e than ": 1533, "season": 1534, "just ": 1535, "around ": 1536, "cop": 1537, "D ": 1538, "set ": 1539, "construc": 1540, "suggest": 1541, "US ": 1542, "has been ": 1543, "Ear": 1544, "s from ": 1545, "inst": 1546, " those ": 1547, "family ": 1548, "any": 1549, "ajor ": 1550, "large ": 1551, "ak ": 1552, "al t": 1553, "Mor": 1554, "Ad": 1555, "agre": 1556, " took ": 1557, "place ": 1558, "ed as a ": 1559, "it is ": 1560, "centr": 1561, "ets ": 1562, "English ": 1563, "consider": 1564, "ilitary ": 1565, "attem": 1566, "ie": 1567, "ise ": 1568, "main": 1569, "es that ": 1570, "provid": 1571, "flu": 1572, "elect": 1573, "erc": 1574, "Indi": 1575, "auth": 1576, ". G": 1577, "Ang": 1578, "30 ": 1579, "Ser": 1580, "augh": 1581, "which": 1582, "compos": 1583, "ove ": 1584, "It": 1585, "show ": 1586, "R ": 1587, "part of the ": 1588, "\" the ": 1589, "start": 1590, "ending ": 1591, "press": 1592, "ittle ": 1593, "0 @,@ ": 1594, "can": 1595, "ured ": 1596, "childr": 1597, "low ": 1598, "esp": 1599, "chart": 1600, "gen": 1601, "al, ": 1602, "play ": 1603, "coll": 1604, "lim": 1605, "British ": 1606, "ended ": 1607, "and, ": 1608, "5, ": 1609, "fic": 1610, "sal": 1611, ".S": 1612, "down": 1613, " tw": 1614, "care": 1615, "late ": 1616, " turn": 1617, "Ph": 1618, "o 's ": 1619, "area ": 1620, "mark": 1621, "Can": 1622, "ort ": 1623, "now ": 1624, "hear": 1625, "some": 1626, "bod": 1627, "u ": 1628, "ask": 1629, ", to ": 1630, "west": 1631, "mp": 1632, "was re": 1633, "player ": 1634, "U.S": 1635, "'s": 1636, "west ": 1637, "Div": 1638, "Rober": 1639, "er of the ": 1640, "idd": 1641, "written ": 1642, "since ": 1643, "de ": 1644, "ong the ": 1645, "we ": 1646, ". She ": 1647, "ers and ": 1648, "Music ": 1649, "allow": 1650, "s are ": 1651, "inj": 1652, "idge ": 1653, "for a ": 1654, "February ": 1655, "ped ": 1656, "ing \" ": 1657, "two ": 1658, "reat": 1659, "ation of the ": 1660, "of M": 1661, "refer": 1662, "Fl": 1663, "; the ": 1664, "do ": 1665, "out of ": 1666, "due to ": 1667, "simil": 1668, "prais": 1669, "enter": 1670, ", they ": 1671, "met": 1672, ". N": 1673, "De": 1674, "peak": 1675, "former ": 1676, ". His ": 1677, "ai": 1678, "how": 1679, "Bo": 1680, "feder": 1681, "Wal": 1682, "ina ": 1683, "number of ": 1684, "orge ": 1685, "sett": 1686, "down ": 1687, "ground ": 1688, "1 @,@ ": 1689, "cast": 1690, "7, ": 1691, "nat": 1692, "Christ": 1693, "ies, ": 1694, "earli": 1695, "less ": 1696, "1 @.@ ": 1697, "t 's ": 1698, "line ": 1699, "Jack": 1700, "would be ": 1701, "compar": 1702, "near ": 1703, "air ": 1704, "ident": 1705, "ing of the ": 1706, "ery ": 1707, "eight ": 1708, "friend": 1709, "George ": 1710, "represent": 1711, "ony ": 1712, "occur": 1713, "onom": 1714, "ession": 1715, "\". \n ": 1716, "Gu": 1717, "ere": 1718, "change ": 1719, "held ": 1720, "arriv": 1721, "& ": 1722, "erg": 1723, "can be ": 1724, "Reg": 1725, "13": 1726, "spir": 1727, "war ": 1728, "Man": 1729, "character ": 1730, "ed \" ": 1731, "head": 1732, "le of ": 1733, "Se": 1734, "roc": 1735, "ici": 1736, "initi": 1737, "s \" ": 1738, "tain ": 1739, "qual": 1740, "th centur": 1741, "cros": 1742, "soci": 1743, "Comm": 1744, "od ": 1745, "on 's ": 1746, "Gener": 1747, " to t": 1748, "cir": 1749, "Is": 1750, "memb": 1751, "ogn": 1752, "Rec": 1753, "video ": 1754, "attempt": 1755, "proper": 1756, "e was ": 1757, "city ": 1758, "% ": 1759, "group ": 1760, "ained ": 1761, "ty": 1762, "ycl": 1763, "surv": 1764, "es. The ": 1765, "a b": 1766, "government ": 1767, "men ": 1768, "ument": 1769, "Rus": 1770, "F ": 1771, "new": 1772, "t and ": 1773, "sex": 1774, "im ": 1775, "urrican": 1776, "damag": 1777, "east ": 1778, "other": 1779, "right": 1780, "fact": 1781, "by": 1782, "more than ": 1783, "position ": 1784, "riv": 1785, "against": 1786, "great": 1787, "Har": 1788, "in his ": 1789, "Ed": 1790, "considered ": 1791, "ress": 1792, "as well as ": 1793, "band ": 1794, "Willi": 1795, "relation": 1796, "ris": 1797, "e 's ": 1798, "in 18": 1799, "ps ": 1800, "ering ": 1801, "Lond": 1802, "New York ": 1803, "amm": 1804, "roy": 1805, "Af": 1806, "high ": 1807, "find": 1808, "campa": 1809, "become ": 1810, "book": 1811, "40 ": 1812, "respon": 1813, "side ": 1814, "possi": 1815, "V ": 1816, "if ": 1817, "is, ": 1818, "ological ": 1819, "concer": 1820, "sty": 1821, ", t": 1822, "much ": 1823, "har": 1824, "roop": 1825, " ter": 1826, "one of ": 1827, "record ": 1828, "as \" ": 1829, "John": 1830, "wind": 1831, " trad": 1832, "uk": 1833, "ney ": 1834, "world": 1835, "bi": 1836, "original ": 1837, "appl": 1838, "ink": 1839, "elevision ": 1840, "name ": 1841, "inf": 1842, "head ": 1843, "ously ": 1844, "board ": 1845, "ial": 1846, "Co": 1847, "abil": 1848, "becam": 1849, "pi": 1850, "ley ": 1851, "ing to the ": 1852, "in 200": 1853, "O ": 1854, "Sec": 1855, "Japan": 1856, "Riv": 1857, "leav": 1858, "Ital": 1859, "vent": 1860, "stri": 1861, "public ": 1862, "B ": 1863, "aut": 1864, "pen": 1865, "s with ": 1866, "again ": 1867, "six": 1868, "a l": 1869, "military ": 1870, "dat": 1871, "cat": 1872, "a s": 1873, "book ": 1874, "Mic": 1875, "al of ": 1876, "National ": 1877, "ext ": 1878, "War": 1879, "\" D": 1880, "angu": 1881, "iter": 1882, "tern": 1883, "fre": 1884, "Hol": 1885, "rep": 1886, "seven ": 1887, "ress ": 1888, ". These ": 1889, ", while ": 1890, "ities ": 1891, "pract": 1892, "Roy": 1893, "dre": 1894, "State ": 1895, "As": 1896, "was releas": 1897, "even": 1898, "ush": 1899, "ague ": 1900, "II ": 1901, "ally": 1902, "of t": 1903, "West": 1904, "dou": 1905, "second": 1906, ". He was ": 1907, "performance ": 1908, "ark": 1909, "field ": 1910, "rown ": 1911, "ary": 1912, "ean": 1913, "es, and ": 1914, "recogn": 1915, "prim": 1916, "urb": 1917, "about the ": 1918, "different ": 1919, "ation, ": 1920, "along ": 1921, "El": 1922, "ought": 1923, "influ": 1924, "re-": 1925, "ention": 1926, "a \" ": 1927, "ed an ": 1928, "s ' ": 1929, "cul": 1930, "Mon": 1931, "identi": 1932, "became the ": 1933, "Angel": 1934, "Rep": 1935, "report": 1936, "East ": 1937, ". An": 1938, "ig ": 1939, "2 @.@ ": 1940, "ler ": 1941, "further ": 1942, "e \" ": 1943, "contr": 1944, "but the ": 1945, "ictor": 1946, "ball ": 1947, "Min": 1948, "arg": 1949, "... ": 1950, "say": 1951, "short": 1952, "0 @,@ 000 ": 1953, "ough the ": 1954, "ner": 1955, "United Stat": 1956, " tow": 1957, "Pol": 1958, "never ": 1959, "scen": 1960, "yr": 1961, "s: ": 1962, "ized ": 1963, "Di": 1964, "equ": 1965, "progr": 1966, "and t": 1967, "came ": 1968, "US": 1969, "signific": 1970, "sent": 1971, "rol": 1972, "ounc": 1973, "on August ": 1974, "make ": 1975, "fig": 1976, "ali": 1977, "won ": 1978, "ing his ": 1979, "Robert ": 1980, "ock ": 1981, "however, ": 1982, "ird": 1983, "self ": 1984, "ing on ": 1985, "General ": 1986, "conn": 1987, "iqu": 1988, "cult": 1989, "ins ": 1990, "Gam": 1991, "members ": 1992, "comple": 1993, "should ": 1994, "death": 1995, "ke": 1996, "tri": 1997, "ensive ": 1998, "anim": 1999, "ire ": 2000, "ual": 2001, "ept ": 2002, "level": 2003, ". At the ": 2004, "ford ": 2005, "olu": 2006, "ine": 2007, "left ": 2008, "Em": 2009, "Dr": 2010, "uck": 2011, "agu": 2012, "ording to ": 2013, "radi": 2014, "finish": 2015, "is an ": 2016, "main ": 2017, "ated": 2018, "100": 2019, "ling ": 2020, "ploy": 2021, "Alb": 2022, "pri": 2023, "Am": 2024, "ated by ": 2025, "or, ": 2026, "= = \n = = = ": 2027, "Rom": 2028, "inste": 2029, "had a ": 2030, "replac": 2031, "hard": 2032, "squ": 2033, "best ": 2034, "arry ": 2035, "Dur": 2036, "aver": 2037, "s for ": 2038, "bus": 2039, "echn": 2040, "dition": 2041, "stre": 2042, "species ": 2043, "wid": 2044, "position": 2045, "100 ": 2046, "ourn": 2047, "month": 2048, "onn": 2049, "no": 2050, "becom": 2051, "distr": 2052, "death ": 2053, "ied ": 2054, "next ": 2055, "experi": 2056, "tion of the ": 2057, "home ": 2058, "atter": 2059, "roduc": 2060, "rank": 2061, "less": 2062, "22": 2063, "support": 2064, "field": 2065, "ae": 2066, "great ": 2067, "io ": 2068, "ence of ": 2069, "Jer": 2070, "began": 2071, "ected ": 2072, "curr": 2073, "consist": 2074, "view ": 2075, "al and ": 2076, " tit": 2077, "sw": 2078, "sport": 2079, "went ": 2080, "ely": 2081, "little ": 2082, "command": 2083, "vol": 2084, "epar": 2085, "ean ": 2086, "famil": 2087, "reached ": 2088, "entire ": 2089, "until": 2090, "Canad": 2091, "vir": 2092, "world ": 2093, " \" ": 2094, "that ": 2095, "of his ": 2096, "fav": 2097, "rul": 2098, "attack ": 2099, "Brig": 2100, "ards ": 2101, "Ac": 2102, "ection": 2103, "alk": 2104, "Thom": 2105, "ium ": 2106, "N ": 2107, "age of ": 2108, "ict ": 2109, "night": 2110, "used ": 2111, "anti": 2112, "Up": 2113, "fif": 2114, "Su": 2115, "although ": 2116, ", M": 2117, "extr": 2118, "econom": 2119, "ing it ": 2120, "Rock": 2121, "young ": 2122, "away ": 2123, "ter the ": 2124, "fut": 2125, "look": 2126, "official ": 2127, "Ex": 2128, "en 's ": 2129, ". It was ": 2130, "ers to ": 2131, "rown": 2132, "acros": 2133, "Bill": 2134, "urn ": 2135, "an and ": 2136, "Euro": 2137, "often ": 2138, "idg": 2139, "fle": 2140, ", when ": 2141, "ator ": 2142, "ject ": 2143, "ether ": 2144, "educ": 2145, "ven": 2146, "on-": 2147, "introduc": 2148, "ah ": 2149, "bomb": 2150, "ither ": 2151, "end of the ": 2152, "reli": 2153, "exec": 2154, "agg": 2155, "colon": 2156, "West ": 2157, "lant": 2158, "s to the ": 2159, "south ": 2160, "hour": 2161, "ably ": 2162, ". It is ": 2163, "marri": 2164, "England ": 2165, "= = \n = = ": 2166, "Sal": 2167, "production ": 2168, "ute ": 2169, ". There ": 2170, "vo": 2171, "rout": 2172, "discover": 2173, "Bar": 2174, "Inter": 2175, "whil": 2176, "road": 2177, "you ": 2178, "children ": 2179, "long ": 2180, "pil": 2181, " than": 2182, "under the ": 2183, "Chin": 2184, "ore ": 2185, "weak": 2186, "ep ": 2187, "Pres": 2188, "action": 2189, "appoint": 2190, "his": 2191, "priv": 2192, ". Alth": 2193, "co-": 2194, "al-": 2195, "plat": 2196, "ox": 2197, "important ": 2198, "relig": 2199, "Royal ": 2200, "iel": 2201, "erous ": 2202, "sold ": 2203, "political ": 2204, "public": 2205, "wom": 2206, "He": 2207, "Champion": 2208, "ed into ": 2209, "comment": 2210, "foot": 2211, "Australian ": 2212, "within the ": 2213, "posit": 2214, "exist": 2215, "was not ": 2216, "eth ": 2217, "mo": 2218, "cel": 2219, "eed": 2220, "driv": 2221, "financ": 2222, "eh": 2223, "ire": 2224, "exam": 2225, " team": 2226, "lef": 2227, "once ": 2228, "ences ": 2229, "story ": 2230, "small ": 2231, "ised ": 2232, "asc": 2233, "role ": 2234, "various ": 2235, "period": 2236, "= = = \n = = ": 2237, ", with ": 2238, "Res": 2239, "foc": 2240, "fort": 2241, "\n The ": 2242, "e: ": 2243, "sound": 2244, "local ": 2245, "empor": 2246, "era ": 2247, "an, ": 2248, "aid ": 2249, "Hen": 2250, "German ": 2251, "tt": 2252, ". K": 2253, "e tr": 2254, "cast ": 2255, "Lat": 2256, "estim": 2257, "she was ": 2258, "because ": 2259, "ol ": 2260, "announc": 2261, "Mad": 2262, "now": 2263, "Billboard ": 2264, "prem": 2265, "ear ": 2266, "umb": 2267, " that they ": 2268, "11": 2269, "plann": 2270, "Ros": 2271, "Sw": 2272, "ital ": 2273, "In the ": 2274, "fron": 2275, "ing with ": 2276, "Pet": 2277, "ed to be ": 2278, "award": 2279, "an 's ": 2280, "blem": 2281, "located ": 2282, "anal": 2283, "intend": 2284, "ity, ": 2285, "ment of ": 2286, "= = \n The ": 2287, "organiz": 2288, ". As ": 2289, "audi": 2290, "ink ": 2291, "live ": 2292, "in 196": 2293, "buted ": 2294, "Award": 2295, "Jackson ": 2296, "ective ": 2297, "as an ": 2298, "langu": 2299, "iss": 2300, "ularly ": 2301, "leng": 2302, "ace ": 2303, "atic ": 2304, "chest": 2305, ". On": 2306, "and th": 2307, "returned to ": 2308, "capt": 2309, "does ": 2310, "said ": 2311, "doc": 2312, "ember": 2313, "Afr": 2314, "a ( ": 2315, "South": 2316, "neg": 2317, "Micha": 2318, "ched ": 2319, "gir": 2320, "Europe": 2321, "arrang": 2322, "popul": 2323, "week ": 2324, "Atlant": 2325, "h ( ": 2326, "reduc": 2327, "ier": 2328, "clim": 2329, "Sim": 2330, "popular ": 2331, "sour": 2332, "a c": 2333, "itud": 2334, "Fin": 2335, "against the ": 2336, "compet": 2337, "interest": 2338, "without ": 2339, "aged ": 2340, "t, ": 2341, ". He also ": 2342, "activ": 2343, ". In 200": 2344, "rip": 2345, "diffic": 2346, "ially ": 2347, "carri": 2348, "lege ": 2349, "quick": 2350, "included ": 2351, "phot": 2352, "\" was ": 2353, "sci": 2354, "ulti": 2355, "ation and ": 2356, "cover": 2357, "William ": 2358, "learn": 2359, "surviv": 2360, "ound the ": 2361, "reti": 2362, "six ": 2363, "190": 2364, "bit": 2365, "school ": 2366, "medi": 2367, "of their ": 2368, "Cour": 2369, "se ": 2370, "observ": 2371, "father ": 2372, "Val": 2373, "group": 2374, "Russi": 2375, "approach": 2376, "history ": 2377, "vil": 2378, "ing her ": 2379, "e, which ": 2380, "ric": 2381, "hurrican": 2382, "cross": 2383, "compl": 2384, "ether": 2385, "We": 2386, " typ": 2387, "les": 2388, "192": 2389, "magaz": 2390, "ee ": 2391, "bodi": 2392, "5 m": 2393, "charg": 2394, "es of the ": 2395, "strong ": 2396, "and that ": 2397, "ingd": 2398, "use ": 2399, ". During the ": 2400, "eventually ": 2401, "es in the ": 2402, "Mal": 2403, "High": 2404, "17 ": 2405, "separ": 2406, "ed, and ": 2407, "ustri": 2408, "Hist": 2409, "orn": 2410, "light": 2411, "peaked at ": 2412, "es. \n ": 2413, "ed from ": 2414, "16 ": 2415, "yn": 2416, "cycl": 2417, "before the ": 2418, "ready ": 2419, "author": 2420, "ball": 2421, "associ": 2422, "Mac": 2423, "), and ": 2424, "propos": 2425, "ison ": 2426, ". \n A": 2427, "join": 2428, " trav": 2429, "\" S": 2430, "ican ": 2431, "Hous": 2432, "performanc": 2433, "\n = = = ": 2434, "contain": 2435, "Rich": 2436, "ectiv": 2437, "Leg": 2438, "ency ": 2439, "Japanese ": 2440, "ed t": 2441, "president ": 2442, "It ": 2443, "May": 2444, "fourth ": 2445, "Franc": 2446, "beh": 2447, "ants ": 2448, "km / ": 2449, "flow": 2450, "sil": 2451, "a-": 2452, "right ": 2453, "lost ": 2454, "eph": 2455, "reveal": 2456, "class ": 2457, "injur": 2458, "coast": 2459, "action ": 2460, "urch": 2461, "version": 2462, "assist": 2463, "conduc": 2464, "sat": 2465, "ated the ": 2466, "problem": 2467, "n 't ": 2468, "0 @.@ ": 2469, "mid": 2470, "ific ": 2471, "un ": 2472, "ult ": 2473, "Per": 2474, "ters ": 2475, "hold": 2476, "ten": 2477, "m ( ": 2478, "having ": 2479, "at number ": 2480, "Fil": 2481, "ther": 2482, "ings, ": 2483, "on 't ": 2484, "accoun": 2485, "Cent": 2486, "use of ": 2487, " was ": 2488, "saw ": 2489, "urch ": 2490, " through the ": 2491, "cho": 2492, "decided to ": 2493, "half ": 2494, "fail": 2495, "fall ": 2496, "hon": 2497, "Princ": 2498, "lead ": 2499, "ning ": 2500, "oon ": 2501, "which the ": 2502, "include ": 2503, "s. \" ": 2504, "24": 2505, " ( ": 2506, "ere the ": 2507, ", L": 2508, "ung": 2509, "bri": 2510, "Enter": 2511, "insp": 2512, "north ": 2513, "mean": 2514, "Comp": 2515, "later": 2516, "ett ": 2517, "aft ": 2518, "draw": 2519, "seem": 2520, "whom ": 2521, "ap ": 2522, "acqu": 2523, "ament": 2524, "water ": 2525, "broad": 2526, " to re": 2527, "Bost": 2528, "15 ": 2529, "ones ": 2530, "on a ": 2531, "e. \" ": 2532, "of a ": 2533, "forn": 2534, "res ( ": 2535, "Play": 2536, "and a ": 2537, "ate the ": 2538, "Sing": 2539, "imag": 2540, "life ": 2541, "Squ": 2542, "sens": 2543, "feel": 2544, "Ham": 2545, "\", which ": 2546, "12 ": 2547, "game 's ": 2548, "istr": 2549, "times ": 2550, "cu": 2551, "Y ": 2552, "clas": 2553, "Li": 2554, "Cart": 2555, "crim": 2556, "part of ": 2557, "subsequ": 2558, "Lab": 2559, "rock ": 2560, "Record": 2561, "tit": 2562, "alist ": 2563, "piec": 2564, "run ": 2565, "combin": 2566, " tog": 2567, "at the tim": 2568, "house ": 2569, "host": 2570, "const": 2571, "You ": 2572, "Chic": 2573, "Confeder": 2574, "y. The ": 2575, "real ": 2576, "18 ": 2577, "either ": 2578, "enth ": 2579, "rain": 2580, "ref": 2581, "streng": 2582, "188": 2583, "aval": 2584, "ank ": 2585, "ally, ": 2586, "imm": 2587, "novel": 2588, " this": 2589, "go ": 2590, "elling ": 2591, "emor": 2592, "ure of ": 2593, "ur ": 2594, "er-": 2595, "e from ": 2596, "ic, ": 2597, "men": 2598, "financial ": 2599, "frequ": 2600, "rather": 2601, "asp": 2602, "avo": 2603, "win ": 2604, "ver ": 2605, "career ": 2606, "\". The ": 2607, "3 @.@ ": 2608, "On": 2609, "ald ": 2610, "ordin": 2611, "earlier ": 2612, "Moun": 2613, "es from ": 2614, "DV": 2615, "system ": 2616, "building ": 2617, "m ) ": 2618, "utive ": 2619, "ocial ": 2620, "soon ": 2621, "ail ": 2622, "11 ": 2623, "art ": 2624, "special ": 2625, "tw": 2626, "black ": 2627, "Fir": 2628, "s, but ": 2629, "for his ": 2630, "invest": 2631, "prepar": 2632, "beginn": 2633, "most": 2634, "mast": 2635, "how ": 2636, "Dev": 2637, "have a ": 2638, "Ott": 2639, "heavy ": 2640, "gun": 2641, "edition ": 2642, "using ": 2643, "may be ": 2644, "point ": 2645, "Dav": 2646, "Sk": 2647, "third ": 2648, "Pal": 2649, "features ": 2650, "hop": 2651, "law": 2652, "ess of ": 2653, "antry ": 2654, "earch ": 2655, "tist": 2656, "rom": 2657, "i, ": 2658, "New": 2659, "ed by a ": 2660, "settl": 2661, ", there ": 2662, "sus": 2663, "in their ": 2664, "condition": 2665, "179": 2666, "mad": 2667, "few ": 2668, "emper": 2669, "of this ": 2670, "siz": 2671, "ren": 2672, "players ": 2673, "nation": 2674, "\n = = ": 2675, "World War ": 2676, "Stor": 2677, ". \n = ": 2678, "ans": 2679, "instead ": 2680, "\" T": 2681, "1  ": 2682, "team ": 2683, "break": 2684, " team ": 2685, "escap": 2686, "road ": 2687, "aliforn": 2688, "func": 2689, "uff": 2690, "University of ": 2691, "discus": 2692, "class": 2693, "well-": 2694, "ington ": 2695, "Her": 2696, "viol": 2697, "felt": 2698, "School": 2699, "let ": 2700, "light ": 2701, "Wash": 2702, ", and the ": 2703, "us, ": 2704, "mater": 2705, "known as ": 2706, "town ": 2707, "es for ": 2708, "ly, ": 2709, "good ": 2710, "depres": 2711, "ra ": 2712, "almost ": 2713, "demon": 2714, "s. B": 2715, "generally ": 2716, "Division ": 2717, "ing their ": 2718, "Dem": 2719, "den": 2720, "find ": 2721, "stag": 2722, "Tri": 2723, "government": 2724, "T ": 2725, "iment": 2726, "mission": 2727, "defe": 2728, "ply ": 2729, "clus": 2730, "conclud": 2731, "Wil": 2732, "wif": 2733, " too ": 2734, "support ": 2735, "All ": 2736, "Cre": 2737, "Que": 2738, "ed. The ": 2739, "erv": 2740, "Te": 2741, "2012": 2742, "region": 2743, "Hom": 2744, "help ": 2745, "until the ": 2746, "pot": 2747, "Scot": 2748, "Tex": 2749, "destroy": 2750, "cou": 2751, "\", and ": 2752, "need": 2753, "Henry ": 2754, "laun": 2755, "= = = \n = = = ": 2756, "( 200": 2757, "2010 ": 2758, "among ": 2759, "wide ": 2760, "winn": 2761, "remained ": 2762, "es are ": 2763, "ia, ": 2764, "production": 2765, ". While ": 2766, "or the ": 2767, "ess, ": 2768, "someth": 2769, "seen ": 2770, "alt": 2771, "storm": 2772, "ater": 2773, "Arch": 2774, "New Z": 2775, "New Zeal": 2776, "ull ": 2777, "an un": 2778, "analys": 2779, "ing t": 2780, "North": 2781, "Californ": 2782, "ivid": 2783, "originally ": 2784, "aircraft ": 2785, "es, the ": 2786, "es a ": 2787, "German": 2788, "Hot ": 2789, "nomin": 2790, "company ": 2791, "young": 2792, "sav": 2793, "ral ": 2794, "\" L": 2795, "sinc": 2796, "given ": 2797, "suppor": 2798, "yl": 2799, "studio ": 2800, "body ": 2801, "already ": 2802, "bridge ": 2803, "fied ": 2804, "Air": 2805, "Sm": 2806, "argu": 2807, "1st ": 2808, "present ": 2809, "religious ": 2810, ", in ": 2811, "edg": 2812, "Rev": 2813, "limit": 2814, "ians ": 2815, "ater ": 2816, "fem": 2817, "a. The ": 2818, "series": 2819, "= = = \n The ": 2820, " ) ": 2821, " to a ": 2822, "European ": 2823, ". \n On ": 2824, "word": 2825, "val": 2826, ", as ": 2827, "ists ": 2828, "he had ": 2829, "ed for the ": 2830, "similar": 2831, "bil": 2832, "tional ": 2833, "Str": 2834, "\" ( ": 2835, "hors": 2836, "domin": 2837, "Mag": 2838, "campaign ": 2839, "ed of ": 2840, "e to": 2841, "3  ": 2842, "occup": 2843, "game": 2844, "Viet": 2845, "s. S": 2846, "en to ": 2847, "order to ": 2848, "ly the ": 2849, "ened ": 2850, "himself ": 2851, ". After the ": 2852, "visit": 2853, "ior ": 2854, "servic": 2855, "pap": 2856, "Phil": 2857, "univers": 2858, ". Other ": 2859, "of these ": 2860, "a in ": 2861, "Georg": 2862, "hib": 2863, "responsi": 2864, "social ": 2865, "abs": 2866, "declar": 2867, "ures": 2868, "along with ": 2869, "grow": 2870, "13 ": 2871, "countri": 2872, "debuted ": 2873, "s from the ": 2874, "vers": 2875, "battle ": 2876, "gave ": 2877, ": \" ": 2878, "emo": 2879, "far": 2880, "ermin": 2881, "ality ": 2882, "liter": 2883, "Cath": 2884, "icket": 2885, "28 ": 2886, "wood ": 2887, "multi": 2888, "cut": 2889, "). The ": 2890, "a, and ": 2891, "around the ": 2892, "24 ": 2893, "27": 2894, "Cam": 2895, "areas ": 2896, "echan": 2897, "remov": 2898, "Cong": 2899, "expect": 2900, "club ": 2901, "s on the ": 2902, "ense ": 2903, "\" and \" ": 2904, "profession": 2905, "Im": 2906, "Republ": 2907, "London ": 2908, "met ": 2909, "ed with the ": 2910, "186": 2911, ", though ": 2912, "1 and ": 2913, "sound ": 2914, "ission": 2915, "drop": 2916, "from a ": 2917, "hor": 2918, "er ( ": 2919, "flood": 2920, "Isl": 2921, "One ": 2922, "ing in the ": 2923, "friend ": 2924, "ox ": 2925, ", B": 2926, "Liv": 2927, "upon ": 2928, "drew ": 2929, "a was ": 2930, "Ab": 2931, "later, ": 2932, "country": 2933, "ed out": 2934, "eir ": 2935, "jud": 2936, "formul": 2937, "every": 2938, "wr": 2939, "match ": 2940, " track": 2941, "edic": 2942, "began to ": 2943, "positive ": 2944, "list ": 2945, "counter": 2946, "No": 2947, "get ": 2948, "mix": 2949, "Sen": 2950, "Mer": 2951, "King ": 2952, "adr": 2953, "Ram": 2954, "-t": 2955, "ential ": 2956, "ston ": 2957, "won the ": 2958, "games ": 2959, "champion": 2960, "future ": 2961, "fight": 2962, "similar ": 2963, "New Zealand ": 2964, "s \"": 2965, "story": 2966, "o and ": 2967, "has a ": 2968, "Dis": 2969, "cal": 2970, "Road ": 2971, "shop": 2972, "6 @.@ ": 2973, "International ": 2974, "21 ": 2975, "number": 2976, "lack ": 2977, "series of ": 2978, "depart": 2979, "First ": 2980, "Bas": 2981, "miss": 2982, "che": 2983, "ways ": 2984, "sometimes ": 2985, "him to ": 2986, "popular": 2987, "demonstr": 2988, "certain ": 2989, "a P": 2990, "ator": 2991, "ucle": 2992, "voc": 2993, "or of ": 2994, "Los ": 2995, "30": 2996, "ospit": 2997, "relationship ": 2998, "mir": 2999, "David ": 3000, "explain": 3001, "Thomas ": 3002, "osaur": 3003, "written by ": 3004, "asion": 3005, "edit": 3006, "common ": 3007, "word ": 3008, "ing, and ": 3009, "alth ": 3010, "century ": 3011, "Govern": 3012, "Battal": 3013, "wrote ": 3014, "Jul": 3015, "oll": 3016, "Gil": 3017, "e. S": 3018, "nin": 3019, "watch": 3020, " ten ": 3021, "successful ": 3022, "control": 3023, "xim": 3024, "ribut": 3025, "in, ": 3026, "Ke": 3027, ". Acc": 3028, "prison": 3029, "bir": 3030, "of S": 3031, "general ": 3032, "The": 3033, "largest ": 3034, "liz": 3035, "might ": 3036, "earn": 3037, "nearly ": 3038, "indep": 3039, "independ": 3040, "princ": 3041, "in M": 3042, ". J": 3043, "Brigade ": 3044, "Navy ": 3045, "oti": 3046, "pitch": 3047, "far ": 3048, "e. In ": 3049, "e they ": 3050, "4 @.@ ": 3051, "9  ": 3052, "quar": 3053, "eventh ": 3054, "ston": 3055, "natural ": 3056, "person ": 3057, "ing from ": 3058, "ical": 3059, "season, ": 3060, "ed him ": 3061, ". When ": 3062, "Boston ": 3063, "sen": 3064, "pite the ": 3065, "25": 3066, "central ": 3067, ", which was ": 3068, "highway ": 3069, "advanc": 3070, "project": 3071, "individ": 3072, "active ": 3073, "along the ": 3074, "Ir": 3075, "mission ": 3076, ". I ": 3077, "le-": 3078, "just": 3079, "white ": 3080, "peaked at number ": 3081, "effect": 3082, "lov": 3083, "recover": 3084, "Des": 3085, "explor": 3086, "short ": 3087, "ingt": 3088, "anian ": 3089, "suppl": 3090, "ajor": 3091, "emporary ": 3092, "ana ": 3093, "26": 3094, "in B": 3095, "Army ": 3096, "phys": 3097, "industr": 3098, "es on ": 3099, "ground": 3100, "aint": 3101, "development ": 3102, "Los Angel": 3103, "ed at the ": 3104, "put ": 3105, "gradu": 3106, "ob ": 3107, "acy ": 3108, "night ": 3109, "quickly ": 3110, "Chicag": 3111, " troop": 3112, "parti": 3113, "impact ": 3114, "rough": 3115, "2013 ": 3116, "could not ": 3117, "clear": 3118, "Michael ": 3119, "M ": 3120, "Ev": 3121, "lab": 3122, "caused ": 3123, ", and was ": 3124, "wood": 3125, "stone ": 3126, ", she ": 3127, "in-": 3128, "employ": 3129, "shar": 3130, "usually ": 3131, "fifth ": 3132, "in its ": 3133, "guit": 3134, "ology ": 3135, "selv": 3136, "prob": 3137, "members of the ": 3138, "League ": 3139, "dar": 3140, "end of ": 3141, "Studi": 3142, "relativ": 3143, "major ": 3144, "ature ": 3145, "defeat": 3146, ". Although ": 3147, "across the ": 3148, "indic": 3149, "surpris": 3150, "ed their ": 3151, "Flor": 3152, "th-": 3153, "Latin ": 3154, "when the ": 3155, " train": 3156, "nav": 3157, "cours": 3158, "Tur": 3159, "4th ": 3160, "Mat": 3161, "a S": 3162, "cust": 3163, "Vietnam": 3164, "Emm": 3165, "in 195": 3166, "U.S. ": 3167, "er was ": 3168, "igital ": 3169, "Western ": 3170, "star ": 3171, "ori": 3172, "ed it ": 3173, "et the ": 3174, "onc": 3175, "express": 3176, "eting ": 3177, "ime ": 3178, "km ) ": 3179, "region ": 3180, "grav": 3181, "surfac": 3182, "busin": 3183, "at a ": 3184, "etres ( ": 3185, "quest": 3186, "ile the ": 3187, "rail": 3188, "law ": 3189, "Dep": 3190, "top": 3191, "born ": 3192, "all of ": 3193, "). \n ": 3194, ". Follow": 3195, "weap": 3196, "near the ": 3197, "will be ": 3198, "fore ": 3199, "know": 3200, "self-": 3201, "vill": 3202, "189": 3203, "mil": 3204, "northern ": 3205, "ient ": 3206, "amoun": 3207, "best": 3208, "ribu": 3209, "western ": 3210, "enj": 3211, "als": 3212, "scre": 3213, "up to ": 3214, " trans": 3215, "President ": 3216, "Lif": 3217, "commerc": 3218, "chas": 3219, "canc": 3220, "ed from the ": 3221, "P ": 3222, "soldi": 3223, "does not ": 3224, "both": 3225, "Jew": 3226, "mother ": 3227, "e to be ": 3228, "wall ": 3229, "instr": 3230, "wall": 3231, "ability": 3232, "Vir": 3233, "ed to a ": 3234, " tot": 3235, "including the ": 3236, "evid": 3237, "immedi": 3238, "er. The ": 3239, "icle ": 3240, ", was ": 3241, "5  ": 3242, "age, ": 3243, "ai ": 3244, "successful": 3245, "power ": 3246, "unn": 3247, "fall": 3248, "187": 3249, "a th": 3250, "River ": 3251, "front": 3252, "Upon ": 3253, "polic": 3254, "susp": 3255, "a of ": 3256, ", that ": 3257, "After ": 3258, "a new ": 3259, "Italian ": 3260, "were t": 3261, "certi": 3262, "Brown ": 3263, "zer": 3264, "attend": 3265, "played ": 3266, "journ": 3267, "part ": 3268, "Atlantic ": 3269, " throughout the ": 3270, "defend": 3271, "Victor": 3272, "Don": 3273, "in which ": 3274, "32": 3275, "real": 3276, "ivil ": 3277, "tainment ": 3278, "achiev": 3279, "room ": 3280, "characters ": 3281, "I '": 3282, "distinc": 3283, "cil ": 3284, "Mart": 3285, "writer ": 3286, "lower ": 3287, "illustr": 3288, "ness": 3289, "fru": 3290, "14 ": 3291, "appar": 3292, ". Many ": 3293, "volum": 3294, "Mi": 3295, "ody ": 3296, "is also ": 3297, "Met": 3298, "- ": 3299, "qualif": 3300, "passed ": 3301, "rop ": 3302, "Si": 3303, "compan": 3304, "ession ": 3305, ", an ": 3306, "conf": 3307, "legal ": 3308, "formation ": 3309, "ness ": 3310, "force ": 3311, "game, ": 3312, "Mil": 3313, "match": 3314, "court ": 3315, "igg": 3316, "Midd": 3317, "created ": 3318, "ingly ": 3319, "Island": 3320, "unc": 3321, "etic ": 3322, "adapt": 3323, "personal ": 3324, "featured ": 3325, " top": 3326, ", H": 3327, "Stre": 3328, "in 199": 3329, "with an ": 3330, "perc": 3331, "'s \" ": 3332, "since the ": 3333, "keep": 3334, "determin": 3335, "language ": 3336, "norm": 3337, "Air ": 3338, ", D": 3339, "age": 3340, "My ": 3341, "country ": 3342, "NY ": 3343, ". Ar": 3344, "i 's ": 3345, "aid": 3346, "on to ": 3347, "due to the ": 3348, "lav": 3349, "defin": 3350, "wind ": 3351, "on October ": 3352, ". On the ": 3353, "ers of ": 3354, "lv": 3355, "private ": 3356, "olution": 3357, "aul ": 3358, "in 197": 3359, "mach": 3360, "standing ": 3361, "college ": 3362, "earch": 3363, "vot": 3364, "regard": 3365, "antly ": 3366, "y, and ": 3367, "Virg": 3368, "ruc": 3369, "Mont": 3370, "in 194": 3371, "track ": 3372, "lyr": 3373, "aptain ": 3374, "prec": 3375, "ary of ": 3376, "relationship": 3377, "oz": 3378, "ane ": 3379, "ef ": 3380, "music": 3381, "ica ": 3382, "bour": 3383, "movement": 3384, "element": 3385, ". \n H": 3386, "\" B": 3387, "extrem": 3388, "woman ": 3389, "power": 3390, "release ": 3391, "acted ": 3392, "strength": 3393, "in 198": 3394, "hit ": 3395, "City ": 3396, "appearanc": 3397, "modern ": 3398, "176": 3399, "ings": 3400, "control ": 3401, "last": 3402, "emerg": 3403, "eastern ": 3404, " themselv": 3405, "arily ": 3406, "Court ": 3407, "red to ": 3408, "ris ": 3409, "Australia ": 3410, ". Con": 3411, "inspired ": 3412, "attr": 3413, "poem": 3414, "all the ": 3415, "neigh": 3416, "confl": 3417, "espec": 3418, "practic": 3419, "pict": 3420, "fire": 3421, "San ": 3422, "previously ": 3423, " tran": 3424, "speak": 3425, "magazine ": 3426, "days ": 3427, "Gold": 3428, "August": 3429, "agon": 3430, "ities": 3431, "Richard ": 3432, "lay": 3433, "estimated ": 3434, "as it ": 3435, "23 ": 3436, "ole ": 3437, "uch": 3438, "station ": 3439, "Ann": 3440, "particularly ": 3441, "sit": 3442, "s; ": 3443, "firm": 3444, " mi ": 3445, "Under": 3446, "E ": 3447, "purpos": 3448, "subst": 3449, ", this ": 3450, "human ": 3451, "rather than ": 3452, "past": 3453, "y-": 3454, "come ": 3455, "Minist": 3456, "with his ": 3457, "connect": 3458, "28": 3459, "version of the ": 3460, "2011": 3461, "working ": 3462, "Ne": 3463, "ence": 3464, "least ": 3465, "espite ": 3466, "TV ": 3467, "ump": 3468, "UK": 3469, "der ": 3470, "Award ": 3471, "ation for ": 3472, "X-": 3473, "led by ": 3474, "must ": 3475, "accept": 3476, "Hand": 3477, "Club": 3478, "opening ": 3479, "nec": 3480, "gi": 3481, "sun": 3482, "pret": 3483, "ief ": 3484, "crew": 3485, "Hill": 3486, "on September ": 3487, "ror ": 3488, "Arm": 3489, "d the ": 3490, "itect": 3491, "poss": 3492, "peop": 3493, "s at ": 3494, "son, ": 3495, "Park ": 3496, "when": 3497, "29": 3498, "185": 3499, "every ": 3500, "Pow": 3501, "promin": 3502, "% of the ": 3503, "3r": 3504, "3rd ": 3505, "hospit": 3506, "non-": 3507, "document": 3508, "Vi": 3509, "occurred ": 3510, "a, the ": 3511, "international ": 3512, "danc": 3513, "wound": 3514, "ique ": 3515, "2012, ": 3516, "as they ": 3517, "2012 ": 3518, "Europ": 3519, "length ": 3520, "Bay": 3521, "farm": 3522, "Road": 3523, "fire ": 3524, "vert": 3525, "has": 3526, "Pe": 3527, "or and ": 3528, "promo": 3529, "ville ": 3530, "they ": 3531, "ani ": 3532, "girl": 3533, "s, which ": 3534, "schol": 3535, "particip": 3536, "slow": 3537, "X ": 3538, "artist": 3539, "highest ": 3540, " tour": 3541, "a tropical ": 3542, "diseas": 3543, "initial ": 3544, "0s ": 3545, "BC ": 3546, "decision": 3547, "post-": 3548, "35": 3549, "White ": 3550, "Ant": 3551, "resid": 3552, ") in ": 3553, "refl": 3554, "Port": 3555, "Black ": 3556, "No. ": 3557, "s. In ": 3558, "castle ": 3559, "ion, ": 3560, "moun": 3561, "e, but ": 3562, "emy ": 3563, "ple of ": 3564, "rig": 3565, "ae ": 3566, "on was ": 3567, "er than ": 3568, "strong": 3569, "one-": 3570, "Arab": 3571, "oppos": 3572, ": \n ": 3573, "Sol": 3574, "difficult": 3575, "emat": 3576, "divid": 3577, "stated that ": 3578, "ner ": 3579, "alog": 3580, "out of the ": 3581, "order": 3582, "ould": 3583, "emon": 3584, "Grou": 3585, "ed its ": 3586, "level ": 3587, "surr": 3588, "fa": 3589, "noth": 3590, "egr": 3591, "phas": 3592, "All": 3593, "Star": 3594, "s, including ": 3595, "back to ": 3596, "ent of ": 3597, "chall": 3598, "berg": 3599, "campaign": 3600, "circ": 3601, "ed in a ": 3602, "ting ": 3603, "mid-": 3604, "million ": 3605, "specific ": 3606, "recogniz": 3607, "on and ": 3608, "Station ": 3609, "ions ": 3610, "within ": 3611, "restr": 3612, "ine, ": 3613, "Stone ": 3614, "felt ": 3615, "did": 3616, "ively ": 3617, "Singles ": 3618, ", then ": 3619, "lack of ": 3620, "ing its ": 3621, "psy": 3622, "create ": 3623, "install": 3624, "mass ": 3625, "estiv": 3626, "service ": 3627, "2010": 3628, "eption ": 3629, "favor": 3630, "able": 3631, "direct ": 3632, "avail": 3633, "Bur": 3634, "forced to ": 3635, "writing ": 3636, "its": 3637, "man 's ": 3638, " than the ": 3639, "en and ": 3640, "final": 3641, "district": 3642, "Chinese ": 3643, "meas": 3644, "necess": 3645, "And": 3646, "enjoy": 3647, "portr": 3648, "assign": 3649, "mechan": 3650, "high-": 3651, "itte": 3652, "Penn": 3653, "Produc": 3654, "pop ": 3655, "prominent ": 3656, "ham ": 3657, "aud": 3658, "2008, ": 3659, "island ": 3660, "arrison ": 3661, "Out": 3662, "professional ": 3663, "New York": 3664, "situ": 3665, "ocrat": 3666, "effort": 3667, "on B": 3668, "ams ": 3669, "Park": 3670, " to take ": 3671, "structure ": 3672, "according to ": 3673, ", T": 3674, "Confederate ": 3675, "plant": 3676, "extinc": 3677, "numerous ": 3678, "Off": 3679, "Captain ": 3680, "% of ": 3681, "experienc": 3682, "eign ": 3683, "additional ": 3684, "Mex": 3685, "water": 3686, "fish": 3687, "County ": 3688, "y in ": 3689, "oph": 3690, "Ag": 3691, "ension": 3692, "fantry ": 3693, "initially ": 3694, "ico ": 3695, "proved ": 3696, "2009": 3697, "2013": 3698, "set": 3699, "possible ": 3700, "ials ": 3701, "avalry ": 3702, "Soci": 3703, "ran ": 3704, "copies ": 3705, "reput": 3706, "Part": 3707, "approxim": 3708, "yst": 3709, "full ": 3710, " is ": 3711, "ought to ": 3712, "novel ": 3713, " time, ": 3714, "opp": 3715, " to their ": 3716, "among the ": 3717, "intell": 3718, "Associ": 3719, "may": 3720, "Gir": 3721, "brought ": 3722, "burg": 3723, " s ": 3724, "energ": 3725, "25 ": 3726, "178": 3727, "Brad": 3728, "Battle of ": 3729, "diam": 3730, "cred": 3731, "left": 3732, "eter": 3733, "island": 3734, "Med": 3735, "Jord": 3736, "cin": 3737, "kil": 3738, "60 ": 3739, "Japan ": 3740, "construction ": 3741, "summ": 3742, "on December ": 3743, "es \" ": 3744, "half": 3745, "chap": 3746, "societ": 3747, "ft ) ": 3748, "ines ": 3749, "operation ": 3750, "daugh": 3751, "i-": 3752, "lost": 3753, " taken ": 3754, "ers were ": 3755, "6  ": 3756, " teach": 3757, "; it ": 3758, "chos": 3759, "integr": 3760, "sym": 3761, "sect": 3762, " to \" ": 3763, "Division": 3764, "Luc": 3765, "Ale": 3766, "double ": 3767, "Lak": 3768, "elt": 3769, "beat": 3770, "coach ": 3771, "berg ": 3772, "ing that the ": 3773, "analysis ": 3774, "4, the ": 3775, "shap": 3776, "based ": 3777, "complete ": 3778, "top ": 3779, "2008": 3780, "property ": 3781, "Depart": 3782, "Chil": 3783, "director ": 3784, "ble": 3785, "Chart": 3786, "board": 3787, "s,": 3788, "don": 3789, "ace": 3790, "0s, ": 3791, "assum": 3792, "e of his ": 3793, "arc": 3794, "influenc": 3795, "and his ": 3796, "Roman ": 3797, "Cathol": 3798, "church ": 3799, "ric ": 3800, "some of the ": 3801, "an inter": 3802, "W ": 3803, "site ": 3804, "affect": 3805, "depression ": 3806, ". \n S": 3807, "otyp": 3808, "associated ": 3809, "Pennsy": 3810, "Pennsylv": 3811, "ania ": 3812, "Paul ": 3813, "appearance ": 3814, "known": 3815, "ush ": 3816, "member ": 3817, "21": 3818, " towards ": 3819, "Ottoman ": 3820, "2008 ": 3821, "habit": 3822, " together ": 3823, "s in a ": 3824, "ih": 3825, "ure, ": 3826, "minut": 3827, ". By ": 3828, "andid": 3829, "adop": 3830, "icip": 3831, "22 ": 3832, "a to ": 3833, "; he ": 3834, "syn": 3835, "Virgin": 3836, "one of the most ": 3837, "study ": 3838, "isher ": 3839, "descrip": 3840, "engine": 3841, "protect": 3842, "battal": 3843, "Octob": 3844, "ership ": 3845, "Red ": 3846, "s was ": 3847, ". At ": 3848, "rough ": 3849, "three ": 3850, "be the ": 3851, "Rel": 3852, "Championship": 3853, "itch": 3854, "archae": 3855, "Scott": 3856, "project ": 3857, "lin ": 3858, "fiv": 3859, "investig": 3860, "could be ": 3861, "Infantry ": 3862, "ed in": 3863, "34": 3864, "Big ": 3865, "engag": 3866, "hurricane ": 3867, "km / h ": 3868, "small": 3869, "ated in ": 3870, ", The ": 3871, "only": 3872, "his first ": 3873, "Album": 3874, "ention ": 3875, "on his ": 3876, "e that the ": 3877, "Lis": 3878, ". \n A ": 3879, "Gi": 3880, "orb": 3881, "St ": 3882, " there": 3883, "Eliz": 3884, "Time ": 3885, "it the ": 3886, "period ": 3887, "Mary ": 3888, "southern ": 3889, "Texas ": 3890, "6 and ": 3891, "Cro": 3892, "y, the ": 3893, "oon": 3894, ". \n = = = = ": 3895, "imin": 3896, "Sup": 3897, "league ": 3898, "promot": 3899, "Iow": 3900, "Ul": 3901, "primary ": 3902, "Early ": 3903, "rh": 3904, "e two ": 3905, "dram": 3906, "significant ": 3907, "launch": 3908, "repe": 3909, "s. He ": 3910, "Lew": 3911, "rad": 3912, "2  ": 3913, "songs ": 3914, "itution ": 3915, "athlet": 3916, "based on ": 3917, " that he ": 3918, "hero": 3919, "clear ": 3920, "Christm": 3921, "first-": 3922, "encour": 3923, ". Un": 3924, "album 's ": 3925, "2007": 3926, "ed this ": 3927, "Cap": 3928, "review ": 3929, "and then ": 3930, "brig": 3931, "race ": 3932, "plo": 3933, "rid": 3934, "detail": 3935, "alleg": 3936, "Camp": 3937, "AM": 3938, "CA": 3939, " third ": 3940, "source ": 3941, "produced ": 3942, "current ": 3943, "is not ": 3944, "Church": 3945, "ingdom": 3946, "veh": 3947, "bol": 3948, "o was ": 3949, "regular ": 3950, "zz": 3951, "shot ": 3952, "front ": 3953, "leading ": 3954, "bound": 3955, "respond": 3956, "deal": 3957, "spect": 3958, "Highway ": 3959, "North Americ": 3960, "cell": 3961, "exchange ": 3962, "games": 3963, "ier ": 3964, "ingu": 3965, "pleas": 3966, "184": 3967, "), the ": 3968, "pressure ": 3969, "ed, \" ": 3970, "really ": 3971, "year, ": 3972, "ouse": 3973, "vess": 3974, "cru": 3975, "ards the ": 3976, "ening ": 3977, "ing the t": 3978, "This ": 3979, "ore": 3980, "Earth ": 3981, "Film ": 3982, "Best ": 3983, "lu": 3984, "tion, ": 3985, "Bro": 3986, "don 't ": 3987, "felt that the ": 3988, "wanted to ": 3989, "Central ": 3990, "published in ": 3991, "aspect": 3992, "2005": 3993, "Bow": 3994, "others ": 3995, "child": 3996, "fath": 3997, "nearby ": 3998, "23": 3999, " their": 4000, "pun": 4001, "architect": 4002, "spent ": 4003, "becomes ": 4004, "bridg": 4005, "section ": 4006, "block": 4007, "advis": 4008, "ible ": 4009, "s by ": 4010, "command ": 4011, "examp": 4012, "ications ": 4013, "program": 4014, "2005 ": 4015, "Mark ": 4016, "urt": 4017, "Pri": 4018, "yet ": 4019, "however": 4020, "purchas": 4021, "er, and ": 4022, "ourc": 4023, "Sam": 4024, "mer ": 4025, "perf": 4026, "aught ": 4027, "29 ": 4028, "el and ": 4029, "in K": 4030, "legis": 4031, "or 's ": 4032, "eanwhil": 4033, "major": 4034, "report ": 4035, "abor": 4036, "4 and ": 4037, ". For ": 4038, "life": 4039, "expand": 4040, "el, ": 4041, "was the first ": 4042, "olution ": 4043, "where the ": 4044, "recent ": 4045, "core ": 4046, "owever": 4047, "recording ": 4048, "2011 ": 4049, "native ": 4050, "was also ": 4051, "= = \n In ": 4052, "80 ": 4053, "station": 4054, "of th": 4055, "title ": 4056, "brief": 4057, "hot": 4058, "particular ": 4059, "aps": 4060, " them to ": 4061, "brok": 4062, "rup": 4063, "The S": 4064, "ipp": 4065, "D.": 4066, "Feder": 4067, "ster ": 4068, " million view": 4069, "ations and ": 4070, "200 ": 4071, "Jos": 4072, "it \" ": 4073, "poly": 4074, "anch": 4075, "While ": 4076, "Pier": 4077, "000": 4078, "Major ": 4079, "90 ": 4080, "or to ": 4081, "ity and ": 4082, "eget": 4083, "ensi": 4084, "asy ": 4085, "ban": 4086, "breed": 4087, "hund": 4088, "Nav": 4089, "grant": 4090, "ements ": 4091, "havi": 4092, "\", \" ": 4093, "e, a ": 4094, "Council ": 4095, "will": 4096, "Johnson ": 4097, "key ": 4098, "Gal": 4099, "History ": 4100, "500": 4101, "continued to ": 4102, "when he ": 4103, "roph": 4104, " tradition": 4105, "al to ": 4106, " tried to ": 4107, ", who had ": 4108, "remark": 4109, "ed out ": 4110, "unit": 4111, "Turk": 4112, "compil": 4113, "Ty": 4114, "see ": 4115, "here ": 4116, "playing ": 4117, "wear": 4118, "about": 4119, " throughout ": 4120, "ix ": 4121, "look ": 4122, "vari": 4123, "Braz": 4124, "flight ": 4125, "and two ": 4126, "adm": 4127, "design ": 4128, "5 @.@ ": 4129, "ships ": 4130, "aircraft": 4131, "mot": 4132, "Black": 4133, "Group ": 4134, "annual ": 4135, "citi": 4136, "do not ": 4137, "in order to ": 4138, "ference ": 4139, "going to ": 4140, "High ": 4141, "pul": 4142, "greatest ": 4143, "gett": 4144, "shoot": 4145, "critical ": 4146, "voic": 4147, "satis": 4148, "Cros": 4149, "praised the ": 4150, "press ": 4151, "fund": 4152, "Hop": 4153, "b ": 4154, "maintain": 4155, "Po": 4156, "Bu": 4157, "them": 4158, "2009 ": 4159, "illion": 4160, "oft ": 4161, "development": 4162, "released ": 4163, "one, ": 4164, "prog": 4165, "longer ": 4166, "smo": 4167, ") \n ": 4168, "Way": 4169, "gain": 4170, "viron": 4171, "or of the ": 4172, "human": 4173, "younger ": 4174, "it to ": 4175, "highly ": 4176, "Star ": 4177, "acter": 4178, "altern": 4179, "e. \n The ": 4180, "edr": 4181, "ts": 4182, "Hel": 4183, "s. On ": 4184, "were the ": 4185, "always ": 4186, "Washington ": 4187, "r. ": 4188, "y was ": 4189, "room": 4190, "pal": 4191, "people": 4192, "orchest": 4193, "from his ": 4194, "brother ": 4195, "\" to ": 4196, "suffici": 4197, "for their ": 4198, "But": 4199, "ili": 4200, ". As a ": 4201, "atory ": 4202, ". An ": 4203, "y. He ": 4204, "nucle": 4205, "retired ": 4206, "commercial ": 4207, "focus": 4208, "Gill": 4209, "paid ": 4210, "ens ": 4211, "Final ": 4212, "rect": 4213, "program ": 4214, "Me": 4215, "ers ' ": 4216, "ech ": 4217, "ating the ": 4218, "edy ": 4219, "average ": 4220, "federal ": 4221, "doub": 4222, " took": 4223, "Educ": 4224, "and was ": 4225, "in an ": 4226, " though ": 4227, "radio ": 4228, "ed that": 4229, "2010, ": 4230, "oss": 4231, "would have ": 4232, "band": 4233, "up the ": 4234, "meth": 4235, "occasion": 4236, "Secret": 4237, "opin": 4238, "Vol": 4239, "fear": 4240, "on their ": 4241, "utch ": 4242, "agreement ": 4243, "nd ": 4244, "became a ": 4245, "uten": 4246, "camp ": 4247, "er in ": 4248, " ther": 4249, "break ": 4250, "ees ": 4251, "letter": 4252, "uel ": 4253, "Bel": 4254, "ree-": 4255, "ed as the ": 4256, "Lind": 4257, ". Two ": 4258, "a is ": 4259, "dol": 4260, "long-": 4261, "Sul": 4262, "write ": 4263, "contract ": 4264, "musical ": 4265, ". Their ": 4266, "Common": 4267, "whose ": 4268, "side the ": 4269, "provinc": 4270, "request": 4271, "also": 4272, "eigh": 4273, "went": 4274, "elf": 4275, "offer": 4276, "ung ": 4277, "behind ": 4278, "approximately ": 4279, "result ": 4280, " term": 4281, "ert": 4282, "o ( ": 4283, "ate, ": 4284, "love ": 4285, "Ver": 4286, "19 ": 4287, "politic": 4288, "dedic": 4289, "Entertainment ": 4290, "English": 4291, "ild": 4292, "Elizab": 4293, "ady ": 4294, "ultim": 4295, "s that the ": 4296, "resulting ": 4297, "buildings ": 4298, "rap": 4299, "aired ": 4300, "spr": 4301, "refus": 4302, "into a ": 4303, "igr": 4304, "Serv": 4305, "may have been ": 4306, ". That ": 4307, "km ( ": 4308, "behavi": 4309, ". In addition": 4310, "omer": 4311, "round ": 4312, "pair ": 4313, "oot ": 4314, "acting ": 4315, "Pear": 4316, "gent": 4317, "first tim": 4318, "sourc": 4319, "slight": 4320, "Dre": 4321, "Syri": 4322, "bord": 4323, "Ru": 4324, "London": 4325, "Russian ": 4326, "ed to": 4327, "System": 4328, "ped": 4329, "charge ": 4330, "Times ": 4331, "crow": 4332, "executive ": 4333, "aff ": 4334, "bow": 4335, "2 @,@ ": 4336, "Kr": 4337, "Mel": 4338, "atr": 4339, "performed ": 4340, "referenc": 4341, "magn": 4342, "Hear": 4343, "appe": 4344, "birth": 4345, "Union ": 4346, "bat": 4347, "behind": 4348, "FA ": 4349, "Alber": 4350, "dic": 4351, "cannot ": 4352, "RA": 4353, "ing for ": 4354, "Alth": 4355, "inch": 4356, "ichig": 4357, "a T": 4358, "put": 4359, "She": 4360, "I-": 4361, "success ": 4362, "quarter": 4363, "car ": 4364, "moved ": 4365, "seventh ": 4366, "event ": 4367, "variet": 4368, "God ": 4369, "and tr": 4370, "itself": 4371, "stand ": 4372, "a min": 4373, "ance of ": 4374, "Tow": 4375, "ugg": 4376, "vict": 4377, "victory ": 4378, "who had ": 4379, "challeng": 4380, "close ": 4381, "oul": 4382, "called the ": 4383, "During the ": 4384, "Fre": 4385, "ardi": 4386, "noted that ": 4387, "Old ": 4388, " mil": 4389, "of which ": 4390, "Pac": 4391, "ben": 4392, "respons": 4393, "featur": 4394, "ess and ": 4395, "Nintend": 4396, "feet ": 4397, "of its ": 4398, "rin": 4399, "responsible ": 4400, "developing ": 4401, "scrip": 4402, "producer ": 4403, "complex ": 4404, "'s t": 4405, "said that ": 4406, "it 's ": 4407, "in the United Stat": 4408, "Histor": 4409, "are the ": 4410, "e is ": 4411, "at least ": 4412, "th of ": 4413, ". Its ": 4414, "link": 4415, "Germany ": 4416, ". It also ": 4417, "Day ": 4418, "Gen": 4419, "vironment": 4420, "had to ": 4421, "ising ": 4422, "ash ": 4423, "ures of ": 4424, "literary ": 4425, " there was ": 4426, ". Despite ": 4427, ". Some ": 4428, "making ": 4429, "food ": 4430, "after his ": 4431, "years, ": 4432, "ation was ": 4433, "gar": 4434, "s, a ": 4435, "ander": 4436, "eel": 4437, "Ter": 4438, "Ok": 4439, "directly ": 4440, "away": 4441, "enough": 4442, "area of ": 4443, "land, ": 4444, "exhib": 4445, "Cat": 4446, "edly ": 4447, "subsequently ": 4448, " twent": 4449, "s, and the ": 4450, "ministr": 4451, "s as ": 4452, "debut ": 4453, "deal ": 4454, "2011, ": 4455, "Liber": 4456, "= = = \n In ": 4457, "aul": 4458, "CL": 4459, "itut": 4460, "ing this ": 4461, "lymp": 4462, "perfect ": 4463, "form of ": 4464, "placed ": 4465, "hi": 4466, "aries ": 4467, "d, ": 4468, "candid": 4469, "idential ": 4470, "ort of ": 4471, ". Meanwhil": 4472, "Democrat": 4473, "RI": 4474, "personn": 4475, "Spr": 4476, "fell ": 4477, "\". He ": 4478, "26 ": 4479, "Sur": 4480, "Night ": 4481, "track": 4482, "economic ": 4483, "damage ": 4484, ". Sim": 4485, "ge": 4486, "8  ": 4487, "sam": 4488, ". However": 4489, "artist ": 4490, "female ": 4491, "described the ": 4492, "lyrics ": 4493, "critics ": 4494, "for its ": 4495, "units ": 4496, "2004 ": 4497, "induc": 4498, "Follow": 4499, "body": 4500, "aves ": 4501, "Island ": 4502, "th century ": 4503, "anti-": 4504, "such as the ": 4505, "Wrest": 4506, " they were ": 4507, "student ": 4508, "Fox ": 4509, "kind ": 4510, "Back": 4511, "remain ": 4512, "rebel": 4513, "BC": 4514, "opened in ": 4515, "Gilber": 4516, "had not ": 4517, "suffer": 4518, "secur": 4519, "invit": 4520, "amin": 4521, "gun ": 4522, "Corps ": 4523, "parents ": 4524, "eum ": 4525, "Oper": 4526, "photograph": 4527, "bey": 4528, "broadcast ": 4529, "Me ": 4530, "y that ": 4531, "on the Billboard ": 4532, ". With": 4533, "higher ": 4534, "Corp": 4535, "itted ": 4536, "1920": 4537, "L ": 4538, "= = = = \n ": 4539, ". According to ": 4540, "published ": 4541, "judg": 4542, "ation to ": 4543, "s or ": 4544, "account ": 4545, "off the ": 4546, "Donald ": 4547, "ledg": 4548, "dark ": 4549, "first time ": 4550, "Congress ": 4551, "intellig": 4552, "Homer ": 4553, "formed ": 4554, "He ": 4555, "both the ": 4556, "ument ": 4557, "neighbor": 4558, "lic": 4559, "demand": 4560, "For ": 4561, "Jenn": 4562, "Gl": 4563, " tal": 4564, "with her ": 4565, "veget": 4566, " temper": 4567, "relat": 4568, "winds of ": 4569, "Great ": 4570, "ipl": 4571, "especially ": 4572, "involved in ": 4573, "me ": 4574, "coach": 4575, "numb": 4576, "most of the ": 4577, ". Sh": 4578, "following the ": 4579, "oust": 4580, "usion ": 4581, "actor ": 4582, "unable to ": 4583, " taking ": 4584, "There ": 4585, "thing ": 4586, "row ": 4587, "icket ": 4588, "When ": 4589, "influence ": 4590, ". This was ": 4591, "ley": 4592, "Harry ": 4593, "Florid": 4594, "attempt to ": 4595, "modern": 4596, "helped ": 4597, "slightly ": 4598, "Carol": 4599, "ed her ": 4600, "atter ": 4601, "Charles ": 4602, "Southern ": 4603, "Light ": 4604, "2013, ": 4605, "Simon ": 4606, " travel": 4607, "Ash": 4608, "fast": 4609, "dog": 4610, "rescu": 4611, "joint ": 4612, "k of ": 4613, "s such as ": 4614, ", R": 4615, "Rail": 4616, "Christmas ": 4617, "batter": 4618, "ard, ": 4619, "of \" ": 4620, "interest ": 4621, "cann": 4622, "iver": 4623, "help": 4624, "gameplay ": 4625, "ings and ": 4626, "dialog": 4627, "celebr": 4628, "retain": 4629, "sport ": 4630, "Far": 4631, "els": 4632, "oul ": 4633, "Tod": 4634, "Chicago ": 4635, "el 's ": 4636, " mov": 4637, "bal": 4638, "s to be ": 4639, "deploy": 4640, "famous ": 4641, "Ak": 4642, "division ": 4643, "ations": 4644, "zerb": 4645, "zerbai": 4646, "zerbaij": 4647, "status ": 4648, "manager ": 4649, "Los Angeles ": 4650, "step": 4651, "confirm": 4652, "pilot": 4653, "naval ": 4654, "in this ": 4655, "ret ": 4656, "North Vietnam": 4657, "super": 4658, "AS": 4659, "Tropical ": 4660, "suit": 4661, "occur ": 4662, "bapt": 4663, "ament ": 4664, "ism, ": 4665, "all-": 4666, " title ": 4667, "4  ": 4668, "doing ": 4669, "East": 4670, "Peter ": 4671, "Greek ": 4672, "serious ": 4673, "Northern ": 4674, "actions ": 4675, "que ": 4676, "consol": 4677, "DVD ": 4678, "facil": 4679, "and their ": 4680, "mos": 4681, "spac": 4682, "industri": 4683, "urban ": 4684, "factor": 4685, "divor": 4686, "should be ": 4687, "focus ": 4688, "something ": 4689, ". \" The ": 4690, "ers. The ": 4691, "fort ": 4692, "upper ": 4693, "bear": 4694, "recorded ": 4695, "as well as the ": 4696, "debuted at number ": 4697, "Canadian ": 4698, "Fant": 4699, "ends ": 4700, "shown ": 4701, "mut": 4702, "th and ": 4703, "works ": 4704, "return ": 4705, "auc": 4706, "stating that ": 4707, "alist": 4708, "is and ": 4709, "Edward ": 4710, "Force ": 4711, "Haw": 4712, "10, ": 4713, "kept ": 4714, "B-": 4715, "50": 4716, "along": 4717, "minim": 4718, "contemporary ": 4719, "ench": 4720, "ers of the ": 4721, "Ma": 4722, "ally the ": 4723, "master ": 4724, "who was ": 4725, "give ": 4726, "University ": 4727, "released in ": 4728, "boy": 4729, "black": 4730, " they are ": 4731, "pag": 4732, "may have ": 4733, "tions of the ": 4734, "screen": 4735, "was to ": 4736, "running ": 4737, "gold ": 4738, "a G": 4739, "resign": 4740, "ta ": 4741, "Olymp": 4742, "impl": 4743, "years old": 4744, "education ": 4745, "Il": 4746, "ayl": 4747, "ham": 4748, "election": 4749, ". Both ": 4750, "dy ": 4751, "70 ": 4752, "Bol": 4753, " television ": 4754, "dang": 4755, "killed ": 4756, "\" a ": 4757, "ief": 4758, "considered the ": 4759, "instrument": 4760, "exper": 4761, "commission": 4762, "Linc": 4763, "Lincol": 4764, "allowed ": 4765, "destruc": 4766, "ny ": 4767, "respectiv": 4768, "scienti": 4769, "and D": 4770, "ated by the ": 4771, "inosaur": 4772, "ogen": 4773, "ele": 4774, "such a ": 4775, "immediately ": 4776, "hers": 4777, "ington, ": 4778, "cover ": 4779, "gol": 4780, "Law": 4781, "Lar": 4782, "were not ": 4783, "largely ": 4784, "ij": 4785, "city": 4786, "isc": 4787, "better ": 4788, "groups ": 4789, "suppos": 4790, "iment ": 4791, ". Upon ": 4792, "poor ": 4793, " titled ": 4794, "Frank": 4795, " mon": 4796, "2 and ": 4797, "Andrew ": 4798, "ely, ": 4799, "saw": 4800, " told ": 4801, "ty-": 4802, "explos": 4803, "2nd ": 4804, "wealth ": 4805, "ers in ": 4806, "Clevel": 4807, "included the ": 4808, "ary, ": 4809, "Societ": 4810, "Hor": 4811, "know ": 4812, "Up ": 4813, ", where he ": 4814, ") to ": 4815, "nine ": 4816, "Hurrican": 4817, "low-": 4818, " mp": 4819, "Zer": 4820, "ling": 4821, "evidence ": 4822, ", which is ": 4823, "incom": 4824, "franch": 4825, "wrong": 4826, "hours ": 4827, "innings ": 4828, "collaps": 4829, "Test": 4830, "Steph": 4831, "career": 4832, "would not ": 4833, "else": 4834, "ated to ": 4835, "dict": 4836, "fill": 4837, "potential ": 4838, "2006": 4839, "colleg": 4840, "Elizabeth ": 4841, "Clar": 4842, " track ": 4843, " turned ": 4844, "and to ": 4845, "ritor": 4846, "existing ": 4847, "planet ": 4848, "ers ( ": 4849, "pan": 4850, "concern": 4851, "Sha": 4852, "novels ": 4853, "sev": 4854, "chanc": 4855, "ac ": 4856, "finally ": 4857, "e this ": 4858, "Second ": 4859, "experience ": 4860, ", or ": 4861, "formula": 4862, "media ": 4863, "dom": 4864, "a and the ": 4865, " min": 4866, "Jerse": 4867, "s for the ": 4868, "iss ": 4869, "Blue ": 4870, "serve ": 4871, "Brown": 4872, "earth": 4873, "Albums ": 4874, "year-": 4875, "pick": 4876, "Aber": 4877, "7 @.@ ": 4878, "voice ": 4879, "Drag": 4880, "expedition ": 4881, "broke ": 4882, "session": 4883, "kilom": 4884, "ing. \n ": 4885, "staff ": 4886, "mort": 4887, "icted ": 4888, "Const": 4889, "ex ": 4890, "Tony ": 4891, "es to the ": 4892, "because of ": 4893, "encourag": 4894, "adron ": 4895, "wrote that ": 4896, ". \n B": 4897, "Rol": 4898, "From ": 4899, "Cal": 4900, "girl ": 4901, "ed. \n ": 4902, "style ": 4903, "women ": 4904, "Hug": 4905, "alty ": 4906, "positive review": 4907, "s, with ": 4908, "found the ": 4909, "es from the ": 4910, "studio": 4911, ". V": 4912, "fram": 4913, "ari": 4914, "simply ": 4915, "repor": 4916, "Care": 4917, "stated ": 4918, "football ": 4919, "grew ": 4920, "minist": 4921, "platform ": 4922, "god": 4923, ") of ": 4924, "stay ": 4925, "received a ": 4926, "berl": 4927, "och": 4928, "Tour": 4929, "177": 4930, "), which ": 4931, "Stew": 4932, "alter": 4933, "rating ": 4934, "bell ": 4935, "Ich": 4936, "-8": 4937, "died ": 4938, "Pot": 4939, "son 's ": 4940, "Storm ": 4941, "used for ": 4942, "ence to ": 4943, "sac": 4944, "described as ": 4945, "emphas": 4946, "ect of ": 4947, "happen": 4948, "examin": 4949, "in that ": 4950, "nick": 4951, "left the ": 4952, "had the ": 4953, "revers": 4954, "victor": 4955, "ics": 4956, "ics, ": 4957, "gyp": 4958, "Alli": 4959, "ates": 4960, " to his ": 4961, "edge ": 4962, "ed, but ": 4963, "wish": 4964, "Lie": 4965, "pu": 4966, "led to the ": 4967, "years ag": 4968, "attach": 4969, "Bet": 4970, "video game ": 4971, "in 's ": 4972, "while the ": 4973, "ena ": 4974, "established ": 4975, "f the ": 4976, ", while the ": 4977, "box ": 4978, "provided ": 4979, "hol": 4980, "intended to ": 4981, "provide ": 4982, "align": 4983, "omic ": 4984, "Work": 4985, "discuss": 4986, "drug": 4987, "pet": 4988, "episode was ": 4989, "approach ": 4990, "ople ": 4991, "au ": 4992, "midd": 4993, "s. \n The ": 4994, "cruis": 4995, "Carl": 4996, ", the song ": 4997, "ronic ": 4998, "photograp": 4999, "environment": 5000, "agn": 5001, "hood ": 5002, "likely ": 5003, "lack": 5004, "\" by ": 5005, "sem": 5006, "role of ": 5007, "psych": 5008, "concert ": 5009, "Festiv": 5010, "Org": 5011, " take ": 5012, "regularly ": 5013, "Polish ": 5014, "onnie ": 5015, "Tenn": 5016, "eck": 5017, "Holly": 5018, "gav": 5019, "length": 5020, "open ": 5021, "company": 5022, "grand": 5023, "carry ": 5024, "location ": 5025, "2015": 5026, "ed two ": 5027, "8 and ": 5028, "ait": 5029, "ancient ": 5030, "possess": 5031, "Jak": 5032, "line, ": 5033, "runs ": 5034, "ize ": 5035, "uke ": 5036, "phil": 5037, "\" t": 5038, "Gul": 5039, "circul": 5040, "next day": 5041, "MD ": 5042, "classi": 5043, "digital ": 5044, "ger": 5045, "rely ": 5046, "eler": 5047, "nuclear ": 5048, "Cast": 5049, "hyp": 5050, "church": 5051, "cost": 5052, "meet": 5053, "s. They ": 5054, "prove ": 5055, "7th ": 5056, "captur": 5057, "Sum": 5058, "aken ": 5059, "seg": 5060, "Conserv": 5061, "on M": 5062, "collabor": 5063, "a te": 5064, "ades ": 5065, "Prot": 5066, "ying to ": 5067, "years of ": 5068, "House ": 5069, "mainly ": 5070, "by a ": 5071, "bombard": 5072, "caused by ": 5073, "March": 5074, "goal": 5075, "defeat ": 5076, "intention": 5077, "rock": 5078, "ous and ": 5079, "clusion ": 5080, "dated ": 5081, "widely ": 5082, "album, ": 5083, "Mr": 5084, "encoun": 5085, ". At": 5086, "Ach": 5087, "US $ ": 5088, "t. The ": 5089, "complex": 5090, "= = = \n A": 5091, "frequently ": 5092, "benef": 5093, "age and ": 5094, "ated to the ": 5095, "arrest": 5096, "Bridge ": 5097, "worst ": 5098, "communist ": 5099, "Publ": 5100, "identif": 5101, "university ": 5102, "7 and ": 5103, "duti": 5104, "ence, ": 5105, "Sulliv": 5106, "my": 5107, "ty, ": 5108, " ton": 5109, "ure and ": 5110, "each other ": 5111, "designated ": 5112, "combat ": 5113, "Cavalry ": 5114, "Dutch ": 5115, "Cleveland ": 5116, "Cu": 5117, "ranked ": 5118, "Ur": 5119, "reached the ": 5120, ". As of ": 5121, "Austri": 5122, "full": 5123, "moving ": 5124, "29, ": 5125, "insul": 5126, "decreas": 5127, "park": 5128, "ment, ": 5129, "2014 ": 5130, "Enterpris": 5131, "e their ": 5132, "shif": 5133, "eful ": 5134, "protest": 5135, "author ": 5136, "newsp": 5137, "newspap": 5138, "money ": 5139, "Bal": 5140, "sequence ": 5141, "office ": 5142, "pay": 5143, "ecaus": 5144, "wel": 5145, "Jon": 5146, "athan ": 5147, "himself": 5148, "advert": 5149, "spot": 5150, "ski ": 5151, "adem": 5152, "emp": 5153, "Crit": 5154, "in 190": 5155, "15, ": 5156, "Sun": 5157, ". To ": 5158, "students ": 5159, "relatively ": 5160, "institu": 5161, "overall ": 5162, "Smith ": 5163, "Week": 5164, "forces ": 5165, "cyclone ": 5166, "inspir": 5167, "pre-": 5168, "wool": 5169, "Green ": 5170, "Team ": 5171, "I 'm ": 5172, "31, ": 5173, "Nat": 5174, "severe ": 5175, "ison": 5176, "ingdom ": 5177, "and M": 5178, "a number of ": 5179, "color": 5180, "interview": 5181, "standard ": 5182, "secret": 5183, "ius ": 5184, "team": 5185, "Leaf": 5186, "es ) ": 5187, "Super ": 5188, "used to ": 5189, "any other ": 5190, "<formula": 5191, "<formula>": 5192, "pher": 5193, "independent ": 5194, "stay": 5195, "adap": 5196, "flight": 5197, "! ": 5198, "is no ": 5199, "criticiz": 5200, "New Jerse": 5201, "ipul": 5202, "Stan": 5203, " time": 5204, "peak ": 5205, "read ": 5206, "crip": 5207, "narr": 5208, "compani": 5209, "eyn": 5210, "Del": 5211, "probably ": 5212, "one": 5213, "ull": 5214, "earliest ": 5215, "uments ": 5216, "een ": 5217, "eu": 5218, "O '": 5219, "England": 5220, "ry": 5221, "150 ": 5222, "known as the ": 5223, "Stev": 5224, "eball ": 5225, " times ": 5226, "Hors": 5227, "remaind": 5228, "begin": 5229, "ing at ": 5230, "Hy": 5231, "40": 5232, "AA ": 5233, "vit": 5234, "hour ": 5235, "mostly ": 5236, "mur": 5237, "cons": 5238, "Victoria ": 5239, "constructed ": 5240, "33 ": 5241, "casual": 5242, "artill": 5243, "8th ": 5244, "adron": 5245, "much of the ": 5246, "selling ": 5247, "on March ": 5248, "as, ": 5249, "os, ": 5250, "em ": 5251, "bu ": 5252, "; and ": 5253, "atch": 5254, "ield ": 5255, "Dest": 5256, "Brazil": 5257, "merg": 5258, "defeated ": 5259, "65": 5260, "studies ": 5261, "declin": 5262, "reported ": 5263, "ate": 5264, "s = = \n ": 5265, "yl ": 5266, "ed them ": 5267, "brigade ": 5268, "teen ": 5269, "Labour ": 5270, "rais": 5271, "Bill ": 5272, "MS ": 5273, "your ": 5274, "plan ": 5275, "k and ": 5276, "history of ": 5277, "circum": 5278, "UT": 5279, "episode of ": 5280, "kne": 5281, "airs ": 5282, "astic ": 5283, "succeed": 5284, "Live ": 5285, "Thomp": 5286, "has also ": 5287, "crop ": 5288, "ega ": 5289, "Croati": 5290, "Prince ": 5291, "III": 5292, "their ": 5293, "Campbell ": 5294, "Barr": 5295, "), \" ": 5296, "increased ": 5297, "enth": 5298, "can also ": 5299, "element ": 5300, "Swed": 5301, "God": 5302, "trans": 5303, "nothing ": 5304, "31 ": 5305, "e te": 5306, "happ": 5307, "as he ": 5308, "got ": 5309, "Egyp": 5310, "Middle ": 5311, "differences ": 5312, "Kill": 5313, "sister ": 5314, "Ob": 5315, "aily ": 5316, "was \" ": 5317, "urther ": 5318, "historic ": 5319, "city of ": 5320, "1970": 5321, "echniqu": 5322, "Angl": 5323, "bs ": 5324, "Gar": 5325, "erup": 5326, "all of the ": 5327, "abov": 5328, "individual ": 5329, "s. \n In ": 5330, "abol": 5331, "fix": 5332, "ze ": 5333, "Ren": 5334, "PlayStation ": 5335, "itself ": 5336, "attempts to ": 5337, "fol": 5338, "based on the ": 5339, ". Ad": 5340, "citiz": 5341, "distingu": 5342, "erve ": 5343, "( C": 5344, "it, ": 5345, " think ": 5346, "Cen": 5347, "onder": 5348, "College ": 5349, "Foot": 5350, "-like ": 5351, "developed ": 5352, " towards the ": 5353, "axim": 5354, "weight ": 5355, "Song": 5356, "spirit": 5357, "es his ": 5358, "of The ": 5359, "ive, ": 5360, "99": 5361, "rest of the ": 5362, "prev": 5363, " theor": 5364, "ism and ": 5365, "consec": 5366, "entry ": 5367, "ed for": 5368, "kins ": 5369, "Hollywood ": 5370, "ram": 5371, "reci": 5372, "raised ": 5373, "ice of ": 5374, "feel ": 5375, "Dam": 5376, "father, ": 5377, "special": 5378, "amid ": 5379, "Wood": 5380, "found in the ": 5381, "pilot ": 5382, "time, ": 5383, "access": 5384, "auti": 5385, "usual ": 5386, "route ": 5387, "aking ": 5388, "s. H": 5389, "enough to ": 5390, "dri": 5391, "failed to ": 5392, "Tal": 5393, "ing. The ": 5394, "versi": 5395, "ing an ": 5396, "Lam": 5397, "committe": 5398, "Christian ": 5399, "not to ": 5400, "using the ": 5401, "ri ": 5402, "IG": 5403, "standard": 5404, ": 00 ": 5405, "rest ": 5406, "others, ": 5407, "Series ": 5408, "Act ": 5409, "bird": 5410, "entuck": 5411, "on February ": 5412, ". Meanwhile, ": 5413, "majority ": 5414, " took the ": 5415, "NA ": 5416, "urph": 5417, "Isra": 5418, "Alan ": 5419, "at S": 5420, "flo": 5421, "27 ": 5422, "astr": 5423, "Dar": 5424, ", which he ": 5425, "itz": 5426, "way to ": 5427, "dor": 5428, "Hum": 5429, "months ": 5430, ") was ": 5431, ". She was ": 5432, "Lincoln ": 5433, "ability to ": 5434, "struction ": 5435, "64 ": 5436, "fresh": 5437, "-up ": 5438, "ield": 5439, "otop": 5440, "respectively": 5441, "les, ": 5442, "Ber": 5443, "( the ": 5444, " that this ": 5445, "ane": 5446, "icated ": 5447, "error": 5448, "is now ": 5449, "catch": 5450, "Top ": 5451, "obtain": 5452, "oute ": 5453, "is \" ": 5454, "research ": 5455, "in the United States ": 5456, "otal ": 5457, "resulted in ": 5458, "Wilson ": 5459, "With ": 5460, "relief ": 5461, "utenant ": 5462, "successfully ": 5463, "convinc": 5464, "Tor": 5465, "extremely ": 5466, "net": 5467, "inking ": 5468, "attended ": 5469, "also the ": 5470, "dim": 5471, "ing them ": 5472, "How": 5473, "Indian ": 5474, "ing up ": 5475, "army ": 5476, "a V": 5477, "hatt": 5478, "Love ": 5479, "role": 5480, "an-": 5481, "yan ": 5482, "bank": 5483, "aband": 5484, "officials ": 5485, ". \" In ": 5486, "pool ": 5487, "rid ": 5488, "competition ": 5489, "range ": 5490, "ate and ": 5491, "s had ": 5492, "on May ": 5493, "Church ": 5494, "Show ": 5495, "certified ": 5496, "Hung": 5497, "17, ": 5498, "ues ": 5499, "guitar": 5500, "district ": 5501, "hard ": 5502, "house, ": 5503, "Hurricane ": 5504, "from their ": 5505, "These ": 5506, "how to ": 5507, "surround": 5508, "2014": 5509, "olec": 5510, "affic ": 5511, "7  ": 5512, "election ": 5513, "inal ": 5514, "group of ": 5515, "parli": 5516, "o of ": 5517, "ital": 5518, "Civil ": 5519, "physical ": 5520, "ents, ": 5521, "rant ": 5522, "key": 5523, "after a ": 5524, "vul": 5525, "north-": 5526, "ember, ": 5527, "ultimately ": 5528, "avoid": 5529, "intensi": 5530, "extrat": 5531, "related ": 5532, "ording to the ": 5533, "ou 's ": 5534, "iograph": 5535, "minute ": 5536, "Company ": 5537, "guest ": 5538, "guitar ": 5539, "? ": 5540, "Gray ": 5541, "ieval ": 5542, "hundred": 5543, "ay, ": 5544, "ping ": 5545, "industry ": 5546, "operation": 5547, ", where the ": 5548, "prevent": 5549, "ang ": 5550, "referred to ": 5551, "\" I ": 5552, "Commun": 5553, "es such as ": 5554, "reason": 5555, "proceed": 5556, "res ": 5557, "lip": 5558, "given the ": 5559, "stream ": 5560, "case ": 5561, "male ": 5562, "ressive ": 5563, "ogether": 5564, "extended ": 5565, "Iowa ": 5566, "ton": 5567, "s have ": 5568, "scholar": 5569, " 3": 5570, "morn": 5571, "rar": 5572, "onic ": 5573, "men, ": 5574, "manipul": 5575, "pursu": 5576, "ey, ": 5577, "forward ": 5578, "made the ": 5579, "he would ": 5580, "accompani": 5581, "hired ": 5582, "th-century ": 5583, "figures ": 5584, "powerful ": 5585, "currently ": 5586, "fruit ": 5587, "Philad": 5588, "Philadel": 5589, "Philadelph": 5590, "inhabit": 5591, "1 @,@ 000 ": 5592, "cut ": 5593, "by an ": 5594, "Education ": 5595, "Bri": 5596, "Cham": 5597, "ent, ": 5598, "withdraw": 5599, "virt": 5600, "on January ": 5601, "mouth ": 5602, "contact ": 5603, "planet": 5604, "C ( ": 5605, "limited ": 5606, "job": 5607, "ation is ": 5608, "Pers": 5609, "matter": 5610, "thr": 5611, "dut": 5612, "worth ": 5613, "on July ": 5614, "on S": 5615, "Advent": 5616, "above ": 5617, "19, ": 5618, "age to ": 5619, "Dani": 5620, "Tom ": 5621, "i was ": 5622, "described ": 5623, " threat": 5624, "en-": 5625, "es. ": 5626, "Railway ": 5627, "hyth": 5628, "like the ": 5629, "scal": 5630, "half-": 5631, "desp": 5632, "legisl": 5633, "Lord ": 5634, "princip": 5635, "Pict": 5636, "erson ": 5637, "bn ": 5638, "was released in ": 5639, "Irish ": 5640, "Hot 100": 5641, "Yank": 5642, "athemat": 5643, "deriv": 5644, "leg ": 5645, "Act": 5646, "Admir": 5647, "mun": 5648, "ins": 5649, "8 @.@ ": 5650, "graph": 5651, "ality": 5652, "Nich": 5653, "incident": 5654, "AF ": 5655, "e in the ": 5656, "er who ": 5657, "Rog": 5658, "Kar": 5659, "es her ": 5660, "memor": 5661, "complain": 5662, "eyonc": 5663, "lect": 5664, "space ": 5665, "es with ": 5666, "wal": 5667, "behind the ": 5668, "mist": 5669, "ask ": 5670, "kind of ": 5671, "den ": 5672, "score ": 5673, "eop": 5674, "Azerbaij": 5675, "PO": 5676, "Martin ": 5677, "Little ": 5678, "anning ": 5679, "ying": 5680, "compon": 5681, "boat ": 5682, ", K": 5683, "Prov": 5684, "Rad": 5685, "subsequent ": 5686, "stars ": 5687, "ockey ": 5688, "a B": 5689, "ecr": 5690, "Michig": 5691, "alli": 5692, "ita ": 5693, "satell": 5694, "log": 5695, "Scottish ": 5696, "s with the ": 5697, " @,@ 8": 5698, "Grand ": 5699, "equip": 5700, "excep": 5701, "Ka": 5702, "weather ": 5703, "Battalion, ": 5704, "ental ": 5705, "ony": 5706, "Sle": 5707, "StarCr": 5708, "stage ": 5709, "ampion ": 5710, "World War II": 5711, "raid": 5712, "ufact": 5713, "coast ": 5714, "s. \n = = = ": 5715, "oil ": 5716, "rare ": 5717, "variety of ": 5718, "gas ": 5719, "ently": 5720, "as a \" ": 5721, "named the ": 5722, "City": 5723, "win": 5724, "only the ": 5725, "Celt": 5726, "enge ": 5727, "Bird": 5728, "Hal": 5729, "ouble ": 5730, "Jones ": 5731, "championship ": 5732, "points ": 5733, ", who was ": 5734, "scr": 5735, "an was ": 5736, "despite the ": 5737, ", say": 5738, "storylin": 5739, ". \" \n The ": 5740, ", when the ": 5741, "Mount ": 5742, "di ": 5743, "stret": 5744, "ates the ": 5745, "Oc": 5746, "in ) ": 5747, "desc": 5748, "a few ": 5749, "function": 5750, "allow ": 5751, "ween ": 5752, "published by ": 5753, "question": 5754, "families ": 5755, "feet ( ": 5756, "ase ": 5757, "Commission ": 5758, "Street": 5759, "ic of ": 5760, "ing, \" ": 5761, "idea ": 5762, "instead": 5763, "atist": 5764, "mark ": 5765, ". There are ": 5766, "reach the ": 5767, "cm ( ": 5768, "kg ": 5769, "Pen": 5770, "es. In ": 5771, "model ": 5772, "directed by ": 5773, "controvers": 5774, "oen": 5775, "uck ": 5776, "School ": 5777, "ing from the ": 5778, "shows ": 5779, "; this ": 5780, ". \n In the ": 5781, "stop": 5782, "Catholic ": 5783, "osc": 5784, "chief ": 5785, "ica": 5786, "normally ": 5787, "of those ": 5788, "error ": 5789, "ure of the ": 5790, "appreci": 5791, "ifi": 5792, "Other ": 5793, "print": 5794, "Bre": 5795, "available ": 5796, "moved to ": 5797, "75": 5798, "Romanian ": 5799, "sle": 5800, "with their ": 5801, "mention": 5802, "m and ": 5803, "ics and ": 5804, "Street ": 5805, "aru ": 5806, "shel": 5807, "shr": 5808, "iro": 5809, "cur": 5810, "goes ": 5811, "ified ": 5812, "fight ": 5813, "stood ": 5814, ". With ": 5815, "ropical storm ": 5816, "upgrad": 5817, "enjoyed ": 5818, "Ever": 5819, "xford ": 5820, "portray": 5821, "controversi": 5822, "material ": 5823, "angr": 5824, "a that ": 5825, "reaction": 5826, "s, he ": 5827, "involved ": 5828, "ution": 5829, "Pennsylvania ": 5830, "see": 5831, ". Although the ": 5832, "ations. ": 5833, "Develop": 5834, "County": 5835, "combined ": 5836, "California ": 5837, "member of the ": 5838, "Brigad": 5839, "Sik": 5840, "side of the ": 5841, "captured ": 5842, "Award for ": 5843, "Man ": 5844, "listed ": 5845, "advent": 5846, "fellow ": 5847, "vention ": 5848, "personnel ": 5849, "appli": 5850, "Main": 5851, "oslav": 5852, "zon": 5853, "walk": 5854, "everal ": 5855, "edition": 5856, "Jewish ": 5857, "Chron": 5858, "continued ": 5859, "y. In ": 5860, "Malay": 5861, "icians ": 5862, "infr": 5863, "ations, ": 5864, "es  ": 5865, "destro": 5866, "burg ": 5867, "strat": 5868, " there were ": 5869, "ilar": 5870, "plant ": 5871, "dinosaur": 5872, "dates ": 5873, "been the ": 5874, "49 ": 5875, "other, ": 5876, "fic ": 5877, "fro": 5878, "and s": 5879, "\". ": 5880, "on her ": 5881, "as of ": 5882, "across ": 5883, "With": 5884, "pne": 5885, "pneum": 5886, "eight": 5887, "Battalion ": 5888, "impson ": 5889, "secondary ": 5890, "sequenc": 5891, "defensive ": 5892, "coastal ": 5893, "CC": 5894, "said that the ": 5895, "pain": 5896, "comic ": 5897, "milit": 5898, "2014, ": 5899, "Championship ": 5900, ". \n R": 5901, "aint ": 5902, "of her ": 5903, "obj": 5904, ". The following ": 5905, "Rock ": 5906, "Background ": 5907, "suffered ": 5908, "leave ": 5909, "ation = = \n ": 5910, "anth": 5911, " month": 5912, "term ": 5913, "its own ": 5914, "call ": 5915, "owned ": 5916, "Liver": 5917, "of two ": 5918, "Commonwealth ": 5919, ". By the ": 5920, "erly ": 5921, "emet": 5922, "emetery ": 5923, "ing as ": 5924, "+ ": 5925, ". \n \" ": 5926, ". \" D": 5927, "song was ": 5928, "issue ": 5929, "'s first ": 5930, "full-": 5931, "persu": 5932, "Production ": 5933, "crossing the ": 5934, "ation that ": 5935, "damaged ": 5936, "square ": 5937, "background ": 5938, ". After": 5939, "Conn": 5940, "ations of ": 5941, "loy": 5942, "whether ": 5943, "infl": 5944, "onal ": 5945, "preme ": 5946, "subject": 5947, " tax": 5948, "er. \n ": 5949, "remains ": 5950, "and B": 5951, "scoring ": 5952, "alongside ": 5953, "among": 5954, "acknow": 5955, "acknowledg": 5956, "Chris ": 5957, "amount": 5958, "bought ": 5959, "finds ": 5960, "hip": 5961, "rann": 5962, "jun": 5963, ". Mc": 5964, "ation with ": 5965, "13, ": 5966, ": the ": 5967, "and they ": 5968, "90": 5969, "build ": 5970, "U ": 5971, "vulner": 5972, "Greg": 5973, "Your ": 5974, "list of ": 5975, "day, ": 5976, " time, the ": 5977, "energy ": 5978, "start ": 5979, "building": 5980, "degre": 5981, "Jim ": 5982, ". Fr": 5983, "s of a ": 5984, "3 and ": 5985, "ed up ": 5986, "beginning of the ": 5987, "important": 5988, "construct": 5989, "process": 5990, "th century": 5991, "concentr": 5992, "resc": 5993, "ing him ": 5994, "merch": 5995, "orph": 5996, "Releas": 5997, "ing at the ": 5998, "astic": 5999, "[... ": 6000, "noted that the ": 6001, "Pop": 6002, "hit": 6003, "Ind": 6004, ". As the ": 6005, ". Am": 6006, "inary ": 6007, "s. T": 6008, "recall": 6009, "ence of the ": 6010, "adapted ": 6011, "poet": 6012, "south of ": 6013, "Sav": 6014, "bility ": 6015, "free ": 6016, "ed; ": 6017, "gros": 6018, "gal": 6019, "ll ": 6020, "pression": 6021, "heav": 6022, "Jake ": 6023, "protagon": 6024, "Mo": 6025, "resourc": 6026, "ed, the ": 6027, "esi": 6028, "rey ": 6029, "rhin": 6030, "ina": 6031, "conserv": 6032, "fung": 6033, "distance ": 6034, "peaking ": 6035, "1991": 6036, "Government ": 6037, "notable ": 6038, "mixed ": 6039, "spor": 6040, "served as ": 6041, "River": 6042, ", whose ": 6043, "62": 6044, "es for the ": 6045, "Span": 6046, "170": 6047, "somewhat ": 6048, "perial ": 6049, "struck ": 6050, "i and ": 6051, "itled ": 6052, "hand ": 6053, "58 ": 6054, "his father ": 6055, "afterno": 6056, "ux ": 6057, "conduct": 6058, "FS": 6059, "eless ": 6060, "regional ": 6061, "Whit": 6062, "ections ": 6063, "camera ": 6064, "used the ": 6065, "expan": 6066, ". This is ": 6067, "Tour ": 6068, "settlement ": 6069, "Organ": 6070, "perhap": 6071, "subsid": 6072, "make the ": 6073, "restaur": 6074, "Sar": 6075, "appointed ": 6076, "giving ": 6077, "Wis": 6078, "y of the ": 6079, "describes ": 6080, "crew ": 6081, "oj": 6082, "climb": 6083, "chann": 6084, "Stat": 6085, "despite ": 6086, "casualti": 6087, "artillery ": 6088, "Regiment ": 6089, "enemy ": 6090, "ing th": 6091, "required ": 6092, "deep": 6093, "heart ": 6094, "anz": 6095, "Ibn ": 6096, "reated ": 6097, "in ' ": 6098, "No ": 6099, "urg": 6100, "Cont": 6101, "jur": 6102, "lawy": 6103, "primarily ": 6104, " mus": 6105, "shortly ": 6106, "Well": 6107, "ve": 6108, "Game": 6109, "handl": 6110, "ue and ": 6111, "to": 6112, "year-old ": 6113, "e. He ": 6114, "Nichol": 6115, "singer ": 6116, "2015 ": 6117, "she is ": 6118, "ished ": 6119, "Matth": 6120, "remn": 6121, "non": 6122, "submar": 6123, "USA ": 6124, "compilation ": 6125, "Corn": 6126, "draf": 6127, "( M": 6128, "12, ": 6129, "spl": 6130, "Ass": 6131, "ented ": 6132, "Charli": 6133, "negative ": 6134, "s. \n = = ": 6135, " test ": 6136, "unit ": 6137, "ured": 6138, "daughter": 6139, "gives ": 6140, "teenth ": 6141, "ival": 6142, "Mary": 6143, "sip": 6144, "Jim": 6145, "atur": 6146, "base ": 6147, "started ": 6148, "pound": 6149, "R & ": 6150, "AF": 6151, "Av": 6152, "leaving ": 6153, "hold ": 6154, "others": 6155, "reaching ": 6156, "injury ": 6157, "Way ": 6158, "Jay": 6159, "inches ( ": 6160, "scored ": 6161, "NE": 6162, "ecraft ": 6163, "embl": 6164, "ent of the ": 6165, "sket": 6166, "AT": 6167, "km / h ( ": 6168, "Soul ": 6169, "600 ": 6170, "came to ": 6171, "magic ": 6172, "Aven": 6173, "secret ": 6174, "Emma ": 6175, "load": 6176, "couple ": 6177, "Nintendo ": 6178, ". Another ": 6179, "onna ": 6180, "igo ": 6181, "Imp": 6182, "ney": 6183, "polyplo": 6184, "Princip": 6185, "Beyonc": 6186, "motor": 6187, " trading ": 6188, "ter of ": 6189, "jour": 6190, "math ": 6191, "Lou": 6192, "ers in the ": 6193, "chem": 6194, "ema ": 6195, "used in ": 6196, "baptism ": 6197, ". \" B": 6198, "is to ": 6199, "require": 6200, "avoid ": 6201, "Digital ": 6202, "contrast": 6203, " twel": 6204, "Den": 6205, "defending ": 6206, "of them ": 6207, "Game ": 6208, "mom": 6209, "Gard": 6210, " a ": 6211, "overs ": 6212, "Mit": 6213, "14 @.@ ": 6214, "Prime ": 6215, "bit ": 6216, " miles ( ": 6217, "business": 6218, "5 million ": 6219, "process ": 6220, "where": 6221, "increasingly ": 6222, "ike ": 6223, "California": 6224, "Pacific ": 6225, "ma ": 6226, "elet": 6227, "upon the ": 6228, "s-": 6229, "Games ": 6230, ". Addition": 6231, ", two ": 6232, "unction ": 6233, "bis": 6234, "atmos": 6235, "icting ": 6236, "Department of ": 6237, "Energ": 6238, "predec": 6239, "predecess": 6240, "8 )": 6241, "organization ": 6242, "address": 6243, "My": 6244, "divorc": 6245, "advant": 6246, "inger ": 6247, "'re ": 6248, ". But ": 6249, "ain the ": 6250, "house": 6251, "depend": 6252, "Corpor": 6253, "Football ": 6254, "possib": 6255, "aximum ": 6256, "a the ": 6257, "entered the ": 6258, "release of ": 6259, "Bor": 6260, "chart ": 6261, "UK ": 6262, "Elect": 6263, "esis ": 6264, "\"  ": 6265, "sing ": 6266, "Jackson 's ": 6267, "ation. The ": 6268, "community": 6269, "Phoen": 6270, "ensu": 6271, "have to ": 6272, "A.": 6273, "Club ": 6274, "likel": 6275, "yet": 6276, "someone ": 6277, "Gall": 6278, "las ": 6279, "Adam": 6280, "parts of the ": 6281, "eat": 6282, "ruin": 6283, "expos": 6284, "izing ": 6285, "bish": 6286, "Festival ": 6287, "Harv": 6288, "son and ": 6289, "of R": 6290, "gave the ": 6291, "levels ": 6292, "freed": 6293, "multiple ": 6294, "path": 6295, "ised the ": 6296, "down the ": 6297, "pas": 6298, "a major ": 6299, "yramid ": 6300, "c.": 6301, "Benn": 6302, "ket ": 6303, "Mol": 6304, "reck": 6305, "miles ( ": 6306, " they had ": 6307, "supplies": 6308, "for each ": 6309, "medical ": 6310, "Asi": 6311, "beauti": 6312, "historical ": 6313, "Ny": 6314, "ashim": 6315, "u 's ": 6316, "distribu": 6317, "alized ": 6318, "philos": 6319, "say ": 6320, "begins ": 6321, "convection ": 6322, "depression": 6323, "deep ": 6324, "landfall ": 6325, "popularity ": 6326, "attrac": 6327, "Oxford ": 6328, "entirely ": 6329, "interested in ": 6330, "violent ": 6331, "bon ": 6332, "honor": 6333, "Tun": 6334, "up to the ": 6335, "ed to t": 6336, "ments ": 6337, "whol": 6338, "stadi": 6339, "forward": 6340, "flying ": 6341, "if the ": 6342, "Inst": 6343, "improve ": 6344, "ine and ": 6345, "undert": 6346, ") is ": 6347, "itive ": 6348, "\" C": 6349, "\". \n The ": 6350, "PA": 6351, "search": 6352, "Marc": 6353, "es = = = \n ": 6354, "aqu": 6355, "decision ": 6356, "held": 6357, "Indian": 6358, "a tr": 6359, "e tri": 6360, "= \n = = ": 6361, "oy ": 6362, "Will": 6363, "wrote the ": 6364, "Gun": 6365, "leagu": 6366, "e. However, ": 6367, "structure": 6368, "quality ": 6369, "impact": 6370, "Sky ": 6371, "On the ": 6372, "reject": 6373, "practice ": 6374, "cultural ": 6375, "in June ": 6376, "returned to the ": 6377, "appear ": 6378, "solo ": 6379, "Kh": 6380, "1960": 6381, "strateg": 6382, "60": 6383, "cris": 6384, "dub": 6385, "ium": 6386, "roughly ": 6387, "ides ": 6388, "s. This ": 6389, "source of ": 6390, "foss": 6391, ") = \n ": 6392, "Alex": 6393, "produced by ": 6394, "scenes ": 6395, "umn ": 6396, "knock": 6397, "infantry ": 6398, "unique ": 6399, "life, ": 6400, "claimed that ": 6401, "vehicle ": 6402, "1990": 6403, "are not ": 6404, "Moon ": 6405, "2000 ": 6406, "an the ": 6407, "2002 ": 6408, "Lov": 6409, "r ": 6410, "in March ": 6411, "AI": 6412, "battalion ": 6413, "ed, with ": 6414, "Colon": 6415, "wife, ": 6416, "u, ": 6417, ", where she ": 6418, "return to ": 6419, "Virginia": 6420, "led to ": 6421, "Sand": 6422, ": The ": 6423, ".com": 6424, ". Over": 6425, "otic ": 6426, "Clint": 6427, "briefly ": 6428, "used in the ": 6429, "s and the ": 6430, "Queen ": 6431, "Colleg": 6432, "a member ": 6433, "forms ": 6434, "dimension": 6435, "ritory ": 6436, "was un": 6437, "ori ": 6438, "him and ": 6439, "film 's ": 6440, "was an ": 6441, "ition of ": 6442, "Han": 6443, "i K": 6444, "officially ": 6445, "resent": 6446, "sex ": 6447, "bus ": 6448, "Cup ": 6449, "ninth ": 6450, "sixth ": 6451, "mouth": 6452, "ue to ": 6453, "division": 6454, "effectiv": 6455, "Kor": 6456, "Regiment": 6457, "rein": 6458, "reinforc": 6459, "itude of ": 6460, "African ": 6461, "sched": 6462, "D.C": 6463, "city 's ": 6464, "cerem": 6465, "ceremony ": 6466, "Sir ": 6467, "wash": 6468, "Wake ": 6469, "Up \" ": 6470, "inum ": 6471, "copies": 6472, "number one ": 6473, ", where it ": 6474, "Sam ": 6475, "Cycl": 6476, "method": 6477, "ler 's ": 6478, "increasing ": 6479, "poll": 6480, "paper ": 6481, "style": 6482, "ette ": 6483, "m2 ": 6484, "below ": 6485, "weapons ": 6486, "accur": 6487, "scri": 6488, "script": 6489, "listen": 6490, "cens": 6491, "editor ": 6492, "molec": 6493, "connection ": 6494, "requi": 6495, "wicket": 6496, "suit ": 6497, "uth": 6498, "33": 6499, " town": 6500, " @,@ 000": 6501, "figure ": 6502, "People ": 6503, "e; ": 6504, "aux": 6505, "Hill ": 6506, "DVD": 6507, "ee": 6508, "was released on ": 6509, "ously": 6510, "institution": 6511, "le, the ": 6512, "reflect": 6513, "praised ": 6514, "version of ": 6515, "supply ": 6516, "ambush": 6517, "attempted to ": 6518, "lay ": 6519, "strik": 6520, "October, ": 6521, "operations ": 6522, "all, ": 6523, "relations ": 6524, "weaken": 6525, "shall ": 6526, "Sus": 6527, "armed ": 6528, "conflict ": 6529, "substanti": 6530, "icul": 6531, "autob": 6532, "and its ": 6533, "when she ": 6534, "ains ": 6535, "\". \n = = = ": 6536, "web": 6537, "he did not ": 6538, "III ": 6539, "ider ": 6540, "played a ": 6541, "population ": 6542, "fly": 6543, "scatter": 6544, "Kingdom": 6545, "creat": 6546, "rob": 6547, "es. S": 6548, "odern ": 6549, "ena": 6550, "ary of the ": 6551, "king": 6552, "exclus": 6553, "dead ": 6554, "needed ": 6555, "es was ": 6556, "thur ": 6557, "supported ": 6558, "Russ": 6559, "chair": 6560, "e, D": 6561, "bott": 6562, "big ": 6563, "ouch": 6564, "Not": 6565, "Leagu": 6566, "es. D": 6567, "machin": 6568, "es. \n The ": 6569, "shown": 6570, "found in ": 6571, "mal": 6572, "via ": 6573, "elle ": 6574, "acoust": 6575, "riff": 6576, "ed. R": 6577, "pattern": 6578, "ances ": 6579, "lock": 6580, "Fri": 6581, "es, which ": 6582, "moral ": 6583, "oldest ": 6584, "s is ": 6585, "image ": 6586, " minut": 6587, "a man ": 6588, "ado ": 6589, "ing two ": 6590, "tion and ": 6591, "going ": 6592, "into": 6593, "ford": 6594, "disturb": 6595, "Post ": 6596, "ellow ": 6597, "Julia ": 6598, "completely ": 6599, "ical t": 6600, "each": 6601, "peopl": 6602, "mamm": 6603, "of an ": 6604, "advoc": 6605, ". \n M": 6606, "Kn": 6607, "it of the ": 6608, "apparent ": 6609, "entered ": 6610, "ittee ": 6611, "vic": 6612, "ranean ": 6613, "Wick": 6614, "one of his ": 6615, "of D": 6616, "Arab ": 6617, "Service ": 6618, "a four": 6619, "process of ": 6620, "After the ": 6621, "passeng": 6622, "iar": 6623, "preserv": 6624, "assa": 6625, "driven ": 6626, "sent ": 6627, "negoti": 6628, "reach ": 6629, "incor": 6630, "incorpor": 6631, "s. M": 6632, "Lady ": 6633, "Spanish ": 6634, "Yam": 6635, "Steve ": 6636, "ati ": 6637, ". Her ": 6638, "s, who ": 6639, "s and was ": 6640, "stress ": 6641, "aum": 6642, "research": 6643, "mass": 6644, "domest": 6645, "of the S": 6646, "afterward": 6647, "Light Hors": 6648, "Light Horse ": 6649, "conducted ": 6650, "regim": 6651, "remainder of the ": 6652, "wife ": 6653, "better": 6654, "es. He ": 6655, "month ": 6656, "26, ": 6657, "wick": 6658, "been": 6659, "vitam": 6660, "vitamin K": 6661, "Cer": 6662, "ed and the ": 6663, "sports ": 6664, "content ": 6665, "expansion ": 6666, "rannosaur": 6667, "hunt": 6668, "y. \n ": 6669, "tern ": 6670, "Sea ": 6671, "finished ": 6672, "Two ": 6673, "Fam": 6674, "bury ": 6675, "community ": 6676, "sent to ": 6677, "on June ": 6678, "weeks ": 6679, "show 's ": 6680, "arian ": 6681, "Sl": 6682, "prefer": 6683, "ling Stone ": 6684, "intens": 6685, "a tri": 6686, "ordered ": 6687, "custom": 6688, "past ": 6689, "rum": 6690, "ers from ": 6691, "24, ": 6692, "Hav": 6693, "boy ": 6694, "her to ": 6695, "Hugh": 6696, "es ' ": 6697, "e, who ": 6698, "schem": 6699, "es an ": 6700, "oke ": 6701, "s. D": 6702, "like a ": 6703, "claimed ": 6704, "es as ": 6705, "Tom": 6706, "cause ": 6707, "whole ": 6708, "distinct ": 6709, "dens": 6710, "certain": 6711, "alu": 6712, "War, ": 6713, "acquired ": 6714, "would": 6715, " think": 6716, "drew": 6717, " take the ": 6718, "That ": 6719, "although the ": 6720, "\", but ": 6721, "ogan ": 6722, "southeast ": 6723, "Tran": 6724, "get": 6725, ". One ": 6726, "patrol": 6727, "supporting ": 6728, "boot": 6729, "hardcore ": 6730, "re, ": 6731, "his own ": 6732, "considerable ": 6733, "how the ": 6734, "archaeological ": 6735, "1 m": 6736, "execut": 6737, "army": 6738, "parliament": 6739, "Association of ": 6740, "ons": 6741, "strengthen": 6742, "sust": 6743, "away from ": 6744, "ed three ": 6745, ", after ": 6746, "Bung": 6747, "Bungie ": 6748, "areas": 6749, "extensive ": 6750, "esc": 6751, "be t": 6752, "47": 6753, "acher ": 6754, "circumst": 6755, "ro ": 6756, "Although ": 6757, "Ball ": 6758, "consecutive ": 6759, "Timberl": 6760, "2007 ": 6761, "Fal": 6762, "Vict": 6763, "rural ": 6764, "rail ": 6765, "and-": 6766, "Hun": 6767, "for an ": 6768, "consum": 6769, "Argent": 6770, "itude ": 6771, "chrom": 6772, "otal of ": 6773, "similar to ": 6774, "Perc": 6775, "designed to ": 6776, "ander ": 6777, "sail": 6778, "provision": 6779, "Weekly ": 6780, "phoon ": 6781, "bar ": 6782, "Mun": 6783, "Section ": 6784, "( 198": 6785, "Boy": 6786, "ed R": 6787, "used by ": 6788, "best-": 6789, "Tit": 6790, "Hens": 6791, "engineering ": 6792, "vest": 6793, "North Vietnamese ": 6794, "ari ": 6795, "police ": 6796, "half of the ": 6797, "pian": 6798, "Madag": 6799, "strike ": 6800, "drop ": 6801, "Impact ": 6802, "disast": 6803, "polyploid": 6804, "back to the ": 6805, "kind": 6806, "y t": 6807, "Columb": 6808, "penalty ": 6809, "operated ": 6810, "Ultim": 6811, "illy ": 6812, "Chand": 6813, "evin ": 6814, "StarCraft ": 6815, "Keable ": 6816, "custody ": 6817, "Ichigo ": 6818, "Wol": 6819, "manufact": 6820, "in the early ": 6821, "-to-": 6822, "America ": 6823, "Tropical Storm ": 6824, "product": 6825, "0  ": 6826, "used as a ": 6827, "blood": 6828, "act of ": 6829, "itor": 6830, "offer ": 6831, "see the ": 6832, "ongo": 6833, "ority": 6834, "-f": 6835, "shock": 6836, "history, ": 6837, "six-": 6838, "Cret": 6839, "Prime Minist": 6840, "consul": 6841, "ation by ": 6842, "Guardi": 6843, "ing that \" ": 6844, "es. \" ": 6845, "y D": 6846, "Over": 6847, "entertain": 6848, "Daily ": 6849, "plot ": 6850, "Sax": 6851, "stead": 6852, "cell ": 6853, "mess": 6854, "ance and ": 6855, "1999": 6856, "uter": 6857, "Son": 6858, "Ubis": 6859, "Ubisoft ": 6860, "DS ": 6861, "Micros": 6862, " trade ": 6863, "ations in ": 6864, "56 ": 6865, "construction of ": 6866, "gard": 6867, ", J": 6868, "script ": 6869, "difficult ": 6870, "child ": 6871, "lock ": 6872, "We ": 6873, "'t": 6874, "-in": 6875, "Land": 6876, "ence and ": 6877, "broad ": 6878, "rated ": 6879, "patch": 6880, "icles ": 6881, "Peng": 6882, "59": 6883, ". Following the ": 6884, "Dance ": 6885, "overt": 6886, "Heal": 6887, "riev": 6888, "weapon": 6889, "ender ": 6890, "because the ": 6891, "anny ": 6892, "emotion": 6893, "\". In ": 6894, "particular": 6895, "effective ": 6896, "Doug": 6897, "che ": 6898, "departure ": 6899, "d 's ": 6900, "fant": 6901, "aspects of ": 6902, "iew": 6903, "followed by the ": 6904, "Go": 6905, "concert": 6906, "rance ": 6907, "Robert": 6908, "Lev": 6909, "band 's ": 6910, "reception ": 6911, "score of ": 6912, "\" for ": 6913, "business ": 6914, "involving ": 6915, "great-": 6916, "enz": 6917, "as well": 6918, "market ": 6919, "Nr. ": 6920, "material": 6921, "es at the ": 6922, "p and ": 6923, "500 ": 6924, "highlight": 6925, ". They were ": 6926, "eag": 6927, "istics ": 6928, "combat": 6929, "insist": 6930, "Oro": 6931, "Hit": 6932, "hail": 6933, "wind sh": 6934, "bring": 6935, "of B": 6936, "offensive ": 6937, "when they ": 6938, "disappoint": 6939, "dead": 6940, "les and ": 6941, ". As a result": 6942, "d and ": 6943, "er from ": 6944, "administr": 6945, "acceler": 6946, "Congres": 6947, "demand ": 6948, "rock and ": 6949, "2007, ": 6950, "deb": 6951, "le to ": 6952, "object": 6953, "known to ": 6954, "), a ": 6955, "Mas": 6956, "northwest ": 6957, "garrison ": 6958, "soldiers ": 6959, "in the t": 6960, "example, ": 6961, "ement, ": 6962, "Tayl": 6963, "deleg": 6964, "Kentuck": 6965, "Democratic ": 6966, "s an ": 6967, "used as ": 6968, "es or ": 6969, "bal ": 6970, "Ap": 6971, "between": 6972, " termin": 6973, "arring ": 6974, "1967": 6975, "warn": 6976, "care ": 6977, "most important ": 6978, "home to ": 6979, " thre": 6980, "loan ": 6981, "anticip": 6982, "olutionary ": 6983, "Spec": 6984, "Op": 6985, "kid": 6986, "herit": 6987, "contain ": 6988, "composition": 6989, "ene ": 6990, "providing ": 6991, "infra": 6992, "man and ": 6993, " total ": 6994, "civ": 6995, "which he ": 6996, "comed": 6997, "years. The ": 6998, "not the ": 6999, "ras": 7000, "inside ": 7001, "nob": 7002, "Alv": 7003, "ologist ": 7004, "41 ": 7005, "countries ": 7006, "fossil ": 7007, "accep": 7008, "is un": 7009, "radio": 7010, "dating ": 7011, "( The ": 7012, "Pam ": 7013, "sper": 7014, "companies ": 7015, "ipit": 7016, "Secretary of ": 7017, "orial ": 7018, "ors, ": 7019, "set of ": 7020, "restric": 7021, "drive ": 7022, "perm": 7023, " tribut": 7024, "health ": 7025, "eum": 7026, "eenth ": 7027, "lee ": 7028, ") and the ": 7029, "Simpson ": 7030, "Lee ": 7031, "reviewers ": 7032, "laid ": 7033, "sufficient ": 7034, "women 's ": 7035, "ousand": 7036, "coordin": 7037, "what": 7038, "names ": 7039, "que": 7040, "suffering ": 7041, "Mexican ": 7042, " that was ": 7043, "beaut": 7044, "enrol": 7045, "Miss": 7046, "president of the ": 7047, "depict": 7048, "involvement ": 7049, "Int": 7050, "excav": 7051, "decided ": 7052, "assigned to ": 7053, " that his ": 7054, "superi": 7055, "delay": 7056, "feature": 7057, "France ": 7058, "accused ": 7059, "plom": 7060, "improv": 7061, "Who ": 7062, "Carte ": 7063, "partner": 7064, "in November ": 7065, "3, the ": 7066, "producers ": 7067, "American": 7068, "less than ": 7069, "loss": 7070, "Spain": 7071, " tons ( ": 7072, "caught ": 7073, "here, ": 7074, "retreat": 7075, "Korean ": 7076, ". Most ": 7077, "eway": 7078, "reatment ": 7079, "chosen ": 7080, "Washington, ": 7081, "Museum ": 7082, "events ": 7083, "watched by ": 7084, "48": 7085, "attained ": 7086, "Horror ": 7087, "regist": 7088, "38": 7089, "platinum ": 7090, "sales of ": 7091, "ban ": 7092, "Irel": 7093, ", and his ": 7094, "70": 7095, "persuad": 7096, "Arn": 7097, "lung ": 7098, "cancer ": 7099, "published a ": 7100, "push": 7101, "paint": 7102, ". He": 7103, "contribut": 7104, "forced ": 7105, "Creek ": 7106, "absence of ": 7107, "Lieutenant ": 7108, "2 @,@ 000 ": 7109, "journalist ": 7110, "Wod": 7111, "biograph": 7112, "eph ": 7113, "heard ": 7114, "instruc": 7115, "; a ": 7116, "management ": 7117, "barri": 7118, " thought to ": 7119, "ege ": 7120, "es that the ": 7121, ") is an ": 7122, "la ": 7123, "La ": 7124, "Test ": 7125, "market": 7126, "collect": 7127, "rupt": 7128, "friends ": 7129, "otherw": 7130, "Jonathan ": 7131, "ed by his ": 7132, "includes ": 7133, "mel": 7134, "Pierce ": 7135, "Represent": 7136, "shire ": 7137, "set up ": 7138, "Sikor": 7139, "annivers": 7140, "odes": 7141, "became the first ": 7142, "Year": 7143, "Association ": 7144, "sequel": 7145, "predict": 7146, "Arts ": 7147, ", and it ": 7148, "causing ": 7149, "elm": 7150, "sop": 7151, "ed for a ": 7152, "th, ": 7153, "depth ": 7154, "moder": 7155, "dropp": 7156, "voy": 7157, "over a ": 7158, "extratropical ": 7159, "Az": 7160, "...": 7161, "ugu": 7162, "er C": 7163, "green ": 7164, "k, ": 7165, "Angelou 's ": 7166, "autobiograph": 7167, "ogether ": 7168, "gel": 7169, "culture ": 7170, "Scott ": 7171, ". \" A": 7172, "vocal": 7173, "have the ": 7174, "opport": 7175, "opportun": 7176, "ity to ": 7177, "he 's ": 7178, "understand": 7179, "Gold ": 7180, "etween ": 7181, "medieval ": 7182, "Icel": 7183, ". From ": 7184, "hundreds of ": 7185, "ed during the ": 7186, ". The first ": 7187, "modi": 7188, "or to the ": 7189, "Mario ": 7190, "giant ": 7191, "burn": 7192, "larger ": 7193, "rebelli": 7194, "revol": 7195, "extra": 7196, "flag": 7197, "species of ": 7198, "species, ": 7199, "move ": 7200, "Countr": 7201, "was originally ": 7202, "azing ": 7203, "Ker": 7204, "health": 7205, "United Kingdom": 7206, "libr": 7207, "espre": 7208, "introduced ": 7209, "Anth": 7210, "movie ": 7211, "up, ": 7212, "missing ": 7213, "quite ": 7214, "cost ": 7215, " turn ": 7216, "cricket ": 7217, "Pat": 7218, "speed": 7219, "s. However, ": 7220, "perform ": 7221, "electronic ": 7222, "done ": 7223, "conceiv": 7224, "s to": 7225, "basic ": 7226, "cricket": 7227, "femal": 7228, "2006, ": 7229, "seek": 7230, "ecause ": 7231, "pion": 7232, "eer ": 7233, "surface ": 7234, "movement ": 7235, "Lor": 7236, "although": 7237, "es: ": 7238, "give the ": 7239, "s, while ": 7240, "bul": 7241, "Plot ": 7242, "working on ": 7243, "favour": 7244, "several other ": 7245, "Reyn": 7246, "Music Award": 7247, ". For the ": 7248, " two-": 7249, "sympt": 7250, "suggested that ": 7251, "ension ": 7252, "must be ": 7253, "species": 7254, "ology and ": 7255, "rhinoc": 7256, "rhinocer": 7257, "fungus ": 7258, "fruit bodi": 7259, "atop": 7260, " tour ": 7261, "2000": 7262, "Mediter": 7263, "Mediterranean ": 7264, "tour ": 7265, "Jordan ": 7266, "buri": 7267, "children": 7268, "greater ": 7269, "as being ": 7270, "Lake ": 7271, "plain ": 7272, "rol ": 7273, "enabl": 7274, "ies of ": 7275, "ia and ": 7276, "skill": 7277, "motiv": 7278, "renew": 7279, "relationship with ": 7280, "concept ": 7281, "expens": 7282, "latter ": 7283, "completed ": 7284, "of tr": 7285, "acks ": 7286, "fract": 7287, "likely": 7288, "uggl": 7289, "ersh": 7290, "ert ": 7291, "bad": 7292, "crowd": 7293, "e too ": 7294, "has the ": 7295, "uary": 7296, "Card": 7297, "which was ": 7298, "Mike ": 7299, "video": 7300, "uses ": 7301, "eturn": 7302, "a mon": 7303, "duty ": 7304, "eding ": 7305, "a tw": 7306, "a two-": 7307, "fruit": 7308, "0 to ": 7309, "Amend": 7310, "pool": 7311, "k 's ": 7312, "Tyrannosaur": 7313, "Tyrannosaurus ": 7314, "of that ": 7315, "ti ": 7316, "ed, and the ": 7317, "son of ": 7318, "clin": 7319, "Turkish ": 7320, "operate ": 7321, " transfer": 7322, "icha": 7323, "recomm": 7324, "sight ": 7325, "2009, ": 7326, "certific": 7327, "Lim": 7328, "Murr": 7329, "ata ": 7330, "on November ": 7331, "idea of ": 7332, "same tim": 7333, "Chann": 7334, "saf": 7335, "attribut": 7336, "( \" ": 7337, "5th ": 7338, "rov": 7339, "enem": 7340, "began the ": 7341, "lyric": 7342, "choice ": 7343, "dropped ": 7344, "Universal ": 7345, "deg": 7346, "degree ": 7347, "Recording ": 7348, "search ": 7349, "William": 7350, "est-": 7351, "ovic ": 7352, "society ": 7353, "remember": 7354, "al of the ": 7355, "hall ": 7356, "exampl": 7357, "ly to ": 7358, "appeared ": 7359, "its releas": 7360, "eman ": 7361, "gained ": 7362, "ed to have ": 7363, "spend": 7364, "channel": 7365, "belong": 7366, "didn 't ": 7367, "she had ": 7368, "individual": 7369, "bran": 7370, "evalu": 7371, "elin": 7372, "subm": 7373, "affil": 7374, "affili": 7375, " to have ": 7376, "Kenn": 7377, "getting ": 7378, "mill ": 7379, "Prest": 7380, "wasn 't ": 7381, " metres ( ": 7382, "stream": 7383, "ceremon": 7384, "Squadron ": 7385, "multiplayer ": 7386, "16, ": 7387, "Terr": 7388, "elly ": 7389, "dance ": 7390, "Hart": 7391, "USA Tod": 7392, "poll ": 7393, "was in ": 7394, "ist, ": 7395, "witness": 7396, "shor": 7397, ". The highway ": 7398, "ing through ": 7399, "fash": 7400, ", and he ": 7401, ", however, ": 7402, "ic t": 7403, "offered ": 7404, "Manchest": 7405, "oh": 7406, " two": 7407, "occupi": 7408, "led the ": 7409, "22, ": 7410, ". If ": 7411, "onto ": 7412, "Sem": 7413, "Anti": 7414, "ributed ": 7415, "lot": 7416, "civil ": 7417, "evil": 7418, "dominant ": 7419, "during a ": 7420, "illus": 7421, "winning ": 7422, "Christop": 7423, "faced ": 7424, "intern": 7425, "sitt": 7426, "criminal ": 7427, "Fort ": 7428, "umber": 7429, "capac": 7430, "UE": 7431, "place in the ": 7432, "St. ": 7433, "140 ": 7434, "mph ( ": 7435, "Bank": 7436, "Carolina ": 7437, "portion of ": 7438, "perman": 7439, "HMS ": 7440, "nic ": 7441, "development of ": 7442, "mand": 7443, "married ": 7444, "summer of ": 7445, "and G": 7446, "neut": 7447, "followed ": 7448, "Art": 7449, "Post": 7450, "Wels": 7451, "Welsh ": 7452, "sar": 7453, "singles ": 7454, "Timberlake ": 7455, "president": 7456, "suic": 7457, "harm": 7458, "asion ": 7459, "Victor ": 7460, "Rod": 7461, "18, ": 7462, "bound ": 7463, "Fle": 7464, "Vill": 7465, "oulev": 7466, "oulevard ": 7467, "United States, ": 7468, " @,@ 000 copies ": 7469, "Paul": 7470, "satellite ": 7471, "kilometres ( ": 7472, "Ste": 7473, "stories ": 7474, "han": 7475, "raq": 7476, "Green": 7477, "chromos": 7478, "sketch": 7479, "speech ": 7480, "appeared in ": 7481, "Thompson ": 7482, "could have ": 7483, "Command ": 7484, " theme ": 7485, "UTC ": 7486, "tific": 7487, "Wall": 7488, "ports ": 7489, "ighter": 7490, "Johnny ": 7491, "\n In ": 7492, "spot ": 7493, "11, ": 7494, "is 's ": 7495, ". No ": 7496, "Row": 7497, "Stewart ": 7498, "offers ": 7499, "Rh": 7500, ". \" H": 7501, "scale ": 7502, "Warn": 7503, "PC": 7504, "Jes": 7505, "Final Fant": 7506, "Final Fantasy ": 7507, "eo ": 7508, "\" as ": 7509, " tons ": 7510, "lap": 7511, "AV": 7512, "apart": 7513, "Will ": 7514, "Wiscons": 7515, "attention": 7516, "tor": 7517, " travell": 7518, "Cur": 7519, "item": 7520, "interchange ": 7521, "ordon ": 7522, "Bret": 7523, "Hockey ": 7524, "Vin": 7525, "( 199": 7526, "roid ": 7527, "games, ": 7528, "olig": 7529, "Ep": 7530, "oud ": 7531, "compound": 7532, "feature ": 7533, "should": 7534, "th century, ": 7535, "rain ": 7536, "refin": 7537, "Columbia ": 7538, "Mori ": 7539, "abad ": 7540, "wo": 7541, "ambass": 7542, "ambassad": 7543, " may ": 7544, "hyen": 7545, "canine ": 7546, "ande ": 7547, "ollston": 7548, "Michaels ": 7549, "attracted ": 7550, "Bos": 7551, "Cenel ": 7552, "Beyonc ": 7553, "custody arrang": 7554, "= = = = \n = = = ": 7555, "sales ": 7556, "Hud": 7557, "Econ": 7558, "s. Some ": 7559, ". During ": 7560, "itute ": 7561, "gas": 7562, "Chr": 7563, "surrend": 7564, "zen ": 7565, "kingdom": 7566, "\" is a ": 7567, ", their ": 7568, "itim": 7569, "of trans": 7570, "Conference ": 7571, "Rockets ": 7572, " twelve ": 7573, "playoff": 7574, "Sac": 7575, "stra": 7576, "Show": 7577, "ing with the ": 7578, ", and a ": 7579, "losing ": 7580, "guard ": 7581, "finding ": 7582, "effect ": 7583, "series, ": 7584, "at the time ": 7585, "faction ": 7586, "dealt ": 7587, "Der": 7588, "approv": 7589, "directed ": 7590, "attemp": 7591, "decor": 7592, "ton 's ": 7593, "Kill ": 7594, "[ the ": 7595, " text": 7596, "zone ": 7597, "conver": 7598, "North American ": 7599, "role in ": 7600, "prote": 7601, "es. \n = = = ": 7602, "featuring ": 7603, "io": 7604, "ination ": 7605, "36": 7606, "iday": 7607, "reward": 7608, "railway": 7609, "ies and ": 7610, "Energy ": 7611, "Childr": 7612, "Television ": 7613, "TW": 7614, "responsible for the ": 7615, "ivor": 7616, "\". E": 7617, "single-": 7618, "middle ": 7619, ", as well as ": 7620, "Plac": 7621, "Hall of ": 7622, "Hall of F": 7623, "Hall of Fame ": 7624, "enlarg": 7625, "37 ": 7626, "possibly ": 7627, "wick ": 7628, "Wind": 7629, "single": 7630, "Singles Chart": 7631, "Hot 100 ": 7632, "s, as well as ": 7633, "music video ": 7634, "Song ": 7635, "Brand": 7636, "Le ": 7637, "ammy ": 7638, "animal ": 7639, "forest": 7640, "world 's ": 7641, "ations to ": 7642, "stop ": 7643, "y, he ": 7644, "kill ": 7645, "A-": 7646, "Herm": 7647, "If ": 7648, "comprom": 7649, "emory ": 7650, "Fut": 7651, "sense of ": 7652, "stated that the ": 7653, "iest ": 7654, "writers ": 7655, "fully ": 7656, "restor": 7657, "ulture ": 7658, "bacter": 7659, "and that the ": 7660, "s through ": 7661, "consci": 7662, "63 ": 7663, "Brook": 7664, "audience ": 7665, "freedom": 7666, "overlook": 7667, "ington": 7668, "Seatt": 7669, "Merc": 7670, "food": 7671, "when a ": 7672, "property": 7673, " trip": 7674, "southern": 7675, "e that": 7676, "railway ": 7677, "accomm": 7678, "accommod": 7679, "carried ": 7680, "ed over ": 7681, "es between ": 7682, "uel": 7683, "amount of ": 7684, "hab": 7685, "living ": 7686, "downtown ": 7687, "\", the ": 7688, "Arashim": 7689, "Bish": 7690, "breaks ": 7691, "red to the ": 7692, "dess ": 7693, "i ( ": 7694, "es on the ": 7695, "ance, ": 7696, "surviving ": 7697, "= \n = = = ": 7698, "the": 7699, "function ": 7700, ". \n = = S": 7701, "Character": 7702, "Gulf ": 7703, "prompt": 7704, "gradually ": 7705, "grade ": 7706, "Ball": 7707, "reading ": 7708, "outs ": 7709, "Day": 7710, "retire": 7711, "wave ": 7712, "hyper": 7713, "ic and ": 7714, "party ": 7715, "Princet": 7716, "Project ": 7717, "red the ": 7718, "ing C": 7719, "released on ": 7720, "Hall ": 7721, "( a ": 7722, "adult ": 7723, " ten": 7724, "which were ": 7725, "atively ": 7726, "wint": 7727, "Prof": 7728, "Direct": 7729, ": 30 ": 7730, "on an ": 7731, "iy": 7732, "s. After ": 7733, "machine ": 7734, "Summer ": 7735, "in 189": 7736, "Prim": 7737, "worked ": 7738, "entering the ": 7739, "high school ": 7740, "Republican ": 7741, "presidential ": 7742, "es and the ": 7743, "entrance ": 7744, "militi": 7745, "IC": 7746, "cil": 7747, "recognized ": 7748, "Jac": 7749, "oslav ": 7750, "= = \n = ": 7751, "Battle ": 7752, "starring ": 7753, "eles": 7754, "photograph ": 7755, "engrav": 7756, "associated with ": 7757, "knew ": 7758, "An ": 7759, "Protest": 7760, "respect": 7761, "deal with ": 7762, "British": 7763, "Hon": 7764, "Id": 7765, "Jack ": 7766, "Beat": 7767, "soundtrack": 7768, "experiment": 7769, "shore ": 7770, "continue ": 7771, "resulted ": 7772, "Virginia ": 7773, "-m": 7774, "nor ": 7775, "civil": 7776, "es; ": 7777, "urther": 7778, ". Similar": 7779, "Lu": 7780, "Walter ": 7781, "orm": 7782, "66": 7783, "years ago": 7784, "compared ": 7785, "accepted ": 7786, "scientific ": 7787, "Bak": 7788, ") \" ": 7789, "beat ": 7790, "y, and the ": 7791, "encounter": 7792, "hill ": 7793, "assumed ": 7794, "Aust": 7795, "Aches": 7796, "er for ": 7797, "Aff": 7798, "airs, ": 7799, "2: ": 7800, "Route ": 7801, "description ": 7802, "Mot": 7803, "49": 7804, "repl": 7805, "significantly ": 7806, "ative t": 7807, "applied ": 7808, "older ": 7809, "lying ": 7810, "seiz": 7811, "recorded a ": 7812, "Nam": 7813, "Africa ": 7814, "pneumon": 7815, "Ord": 7816, "efor": 7817, "eign": 7818, "2 / ": 7819, ". Des": 7820, "arris": 7821, "town": 7822, "airfield": 7823, "detach": 7824, "ment was ": 7825, "Australian": 7826, "spent": 7827, "China": 7828, "minor ": 7829, "resident": 7830, "section of the ": 7831, "e, \" ": 7832, "has two ": 7833, "groups, ": 7834, "Wom": 7835, "is in ": 7836, ". He had ": 7837, "him a ": 7838, "Heav": 7839, "championship": 7840, "Creek": 7841, "hotel ": 7842, "Om": 7843, "Union": 7844, "returning to ": 7845, "a member of the ": 7846, "Sov": 7847, "Leon": 7848, "Hanc": 7849, "outbreak ": 7850, ". Initi": 7851, "recru": 7852, "uct": 7853, ", where they ": 7854, "Tij": 7855, "announced that ": 7856, "hat": 7857, "akist": 7858, "debut": 7859, "Foreign ": 7860, "dollar": 7861, "diplom": 7862, "meeting ": 7863, "ype ": 7864, "went on to ": 7865, "recurr": 7866, "operas ": 7867, "notic": 7868, "scholar ": 7869, "2002, ": 7870, "New York City ": 7871, "keep ": 7872, "including a ": 7873, "a K": 7874, ". The two ": 7875, "crash": 7876, "ric tons ( ": 7877, "was made ": 7878, "which they ": 7879, "nak": 7880, "wake ": 7881, "whit": 7882, "farm ": 7883, "Manhatt": 7884, " and was ": 7885, "schedul": 7886, "doubl": 7887, "Federal ": 7888, "shot": 7889, "27, ": 7890, "coron": 7891, "bey ": 7892, ". The episode ": 7893, "eighth ": 7894, "on 't Wake ": 7895, "on 't Wake Me ": 7896, "on 't Wake Me Up \" ": 7897, "ARI": 7898, "Chart ": 7899, "top ten ": 7900, "land and ": 7901, "week, ": 7902, "devot": 7903, "drum": 7904, "ought the ": 7905, "1939, ": 7906, "Naz": 7907, "many of the ": 7908, "significance ": 7909, "Cha": 7910, "e in his ": 7911, "follows: ": 7912, "wav": 7913, "egory ": 7914, "160 ": 7915, "es. \n = = ": 7916, "drain": 7917, "it had ": 7918, "visible ": 7919, "IV ": 7920, "presence of ": 7921, "osh": 7922, ". Fin": 7923, "news ": 7924, "programm": 7925, "ehous": 7926, "Joseph ": 7927, "Duff": 7928, "decision to ": 7929, "could not be ": 7930, "feron ": 7931, "allowing ": 7932, "brain": 7933, "franchis": 7934, "Supreme ": 7935, " traffic ": 7936, "money": 7937, " to its ": 7938, "pron": 7939, "section of ": 7940, "phon": 7941, ". It": 7942, "skelet": 7943, "Morris ": 7944, " this time, ": 7945, "e. A": 7946, "inqu": 7947, "Er": 7948, "Tru": 7949, " to be \" ": 7950, "devast": 7951, "Harrison ": 7952, "otherwise ": 7953, "for R": 7954, "swe": 7955, "convention ": 7956, "was t": 7957, " term ": 7958, "attention ": 7959, "recently ": 7960, "2003 ": 7961, "advertis": 7962, ", but": 7963, " things ": 7964, "hits ": 7965, "ing. ": 7966, "( 197": 7967, "ie, ": 7968, "sought to ": 7969, "compared to the ": 7970, "want to ": 7971, "capital": 7972, "Civil War ": 7973, "effor": 7974, "ians, ": 7975, "licens": 7976, "ings that ": 7977, " therefore ": 7978, "user": 7979, "designed by ": 7980, "worth": 7981, "Strong": 7982, "fan": 7983, "ed that \" ": 7984, "What ": 7985, "e of S": 7986, "yn ": 7987, "reliev": 7988, "climate ": 7989, " temperat": 7990, "related to ": 7991, "ated and ": 7992, "basis ": 7993, "United N": 7994, "ks ": 7995, "applic": 7996, "example ": 7997, "able, ": 7998, "s. \n A": 7999, "Lup": 8000, "sequel ": 8001, "inform": 8002, ". Angel": 8003, "aper ": 8004, "Just": 8005, "sky": 8006, "ms ": 8007, "jo ": 8008, "yster": 8009, "Origin": 8010, "then ": 8011, "pack": 8012, "there ": 8013, "sight": 8014, "battle": 8015, "return to the ": 8016, "army, ": 8017, "apped ": 8018, "ble to ": 8019, "Committe": 8020, "Council of ": 8021, " tre": 8022, "egg": 8023, ". All ": 8024, "migr": 8025, "on 1 ": 8026, "Mann": 8027, "Arthur ": 8028, "guy ": 8029, "publication ": 8030, "arget": 8031, "widespre": 8032, "widespread ": 8033, "ling, ": 8034, "everything ": 8035, "[... ] ": 8036, "y. \" ": 8037, "for two ": 8038, "finish ": 8039, "include the ": 8040, "Journ": 8041, "al ( ": 8042, "operating ": 8043, "olin": 8044, "Prem": 8045, "han ": 8046, "Mumb": 8047, "speed ": 8048, "2006 ": 8049, "wide": 8050, "<formula> ": 8051, "resist": 8052, "interpre": 8053, "communic": 8054, "h and ": 8055, "indicat": 8056, "ouse ": 8057, "Hak": 8058, "wanted ": 8059, "acoustic ": 8060, "Reception ": 8061, "Sist": 8062, ". According to the ": 8063, "documentary ": 8064, "ordinary ": 8065, "aving ": 8066, "Ll": 8067, "Ye": 8068, "absol": 8069, "History = = \n ": 8070, "center": 8071, "character 's ": 8072, "essive ": 8073, "e took ": 8074, "Australians ": 8075, "pursue ": 8076, "counter-": 8077, "funer": 8078, ". But": 8079, ". \" \n = = ": 8080, "motion ": 8081, "northeast": 8082, "75 ": 8083, "oud": 8084, "it became ": 8085, "veter": 8086, "symptom": 8087, "cript": 8088, ") are ": 8089, "calcul": 8090, "eleph": 8091, "ants, ": 8092, "ker ": 8093, "hyd": 8094, ". While the ": 8095, "ings of the ": 8096, "seat ": 8097, "ed to have been ": 8098, "instruct": 8099, "cm ": 8100, "Earth": 8101, "e, and the ": 8102, "eter ": 8103, "solar ": 8104, "succes": 8105, "draw ": 8106, "( 18": 8107, "32 ": 8108, "s on a ": 8109, "Sab": 8110, "Leban": 8111, "-year ": 8112, " thought ": 8113, "select": 8114, "esth": 8115, "gather ": 8116, "Parth": 8117, "ewor": 8118, "risk ": 8119, "actor": 8120, "dys": 8121, "worked with ": 8122, "Head": 8123, "Buff": 8124, "Vamp": 8125, "following year": 8126, "record for ": 8127, "held the ": 8128, "Baseball ": 8129, "-class ": 8130, "Imperial ": 8131, "1 to ": 8132, "prevent ": 8133, "2016": 8134, "Bruc": 8135, "struggl": 8136, "og ": 8137, "1 @,@ 8": 8138, "ed the \" ": 8139, "Ath": 8140, "Beersh": 8141, "Beersheb": 8142, "San Franc": 8143, "San Francisc": 8144, "ynast": 8145, "Matt ": 8146, "guns ": 8147, "before being ": 8148, " there is ": 8149, "watch ": 8150, "followed by ": 8151, "awak": 8152, "weakened ": 8153, "centre ": 8154, "inspired by ": 8155, "runn": 8156, "itiv": 8157, "speed of ": 8158, " mph ": 8159, "predat": 8160, "August, ": 8161, "agreed to ": 8162, "of-": 8163, "Girl ": 8164, "death, ": 8165, "Daniel ": 8166, "firm ": 8167, "Operation ": 8168, "McC": 8169, "silver ": 8170, "medal ": 8171, "1976 ": 8172, " traditional ": 8173, "might be ": 8174, "restaurant ": 8175, "he t": 8176, "hypoth": 8177, "itor ": 8178, "us was ": 8179, "Lang": 8180, "Net": 8181, "begin ": 8182, "CR ": 8183, "ation from the ": 8184, "Earl ": 8185, "ga": 8186, "comfort": 8187, "Def": 8188, "Military ": 8189, "beyond": 8190, "Spid": 8191, "95 ": 8192, "premi": 8193, "Antar": 8194, "Antarct": 8195, "ission ": 8196, "ity in ": 8197, "gall": 8198, "with two ": 8199, "15th ": 8200, "Wy": 8201, "asser": 8202, "ators ": 8203, "obvi": 8204, "Rav": 8205, "interest in ": 8206, "ian, ": 8207, "closely ": 8208, "ighter ": 8209, "recognition ": 8210, "Rolling Stone ": 8211, "statement ": 8212, "sacri": 8213, "sacrific": 8214, "which are ": 8215, "echnical ": 8216, "Tul": 8217, " transport": 8218, "750 ": 8219, "Heart ": 8220, "s. It ": 8221, "# ": 8222, "Home ": 8223, "exceed": 8224, "in ( ": 8225, ", S": 8226, "CE": 8227, "mathemat": 8228, "age. \n ": 8229, "e of a ": 8230, "broth": 8231, "iform": 8232, "science ": 8233, "25, ": 8234, "audienc": 8235, "ple": 8236, "als and ": 8237, "reh": 8238, "Ali": 8239, "pitched ": 8240, "receiving ": 8241, "sexual ": 8242, "is believ": 8243, "New South ": 8244, "New South Wal": 8245, "ing for the ": 8246, "constitu": 8247, "c. ": 8248, "160": 8249, "was built ": 8250, "Life ": 8251, "Don ": 8252, ". Over ": 8253, "bad ": 8254, "Ferr": 8255, "intense ": 8256, "sha": 8257, "growing ": 8258, ". It has ": 8259, "Pan": 8260, "La": 8261, "sexual": 8262, "arri": 8263, "Senate ": 8264, "proced": 8265, "worked on the ": 8266, ". At the tim": 8267, "of whom ": 8268, "Natash": 8269, "herself": 8270, "-day ": 8271, "Mill": 8272, "display": 8273, "70 @,@ 000 ": 8274, "39 ": 8275, "e. \n In ": 8276, "broken ": 8277, "operational ": 8278, "is located ": 8279, "News ": 8280, ". In 198": 8281, "escor": 8282, "Scotland ": 8283, "ended in ": 8284, "bun": 8285, "ardo ": 8286, ", which": 8287, "azz": 8288, "clerg": 8289, "unt ": 8290, "being the ": 8291, "constitution ": 8292, "emphasis ": 8293, "simple ": 8294, "difficulty ": 8295, "atically ": 8296, "simpl": 8297, "Charlie ": 8298, "emeter": 8299, "a mix": 8300, "ture of ": 8301, "ley, ": 8302, "center ": 8303, "Archae": 8304, " time to ": 8305, "still": 8306, " test": 8307, "idi": 8308, "embly ": 8309, "Camer": 8310, "-year-old ": 8311, "away from the ": 8312, "Christopher ": 8313, "reign": 8314, "shack": 8315, "els, ": 8316, "guid": 8317, "= = = \n On ": 8318, "ation in the ": 8319, "UEFA ": 8320, "220 ": 8321, "dissip": 8322, "es, with ": 8323, "assass": 8324, "s, such as ": 8325, "a trans": 8326, "Coast": 8327, "itch ": 8328, ", F": 8329, "aturday ": 8330, "goal ": 8331, "an of ": 8332, "presum": 8333, "security ": 8334, "piece ": 8335, "river ": 8336, "submarine ": 8337, "interpret": 8338, " type of ": 8339, ". All": 8340, "first-class ": 8341, "escort": 8342, "auxili": 8343, "warship": 8344, "Admiral ": 8345, "large, ": 8346, "Kum": 8347, "music critic": 8348, "assistant ": 8349, " to this ": 8350, "flav": 8351, "ab ": 8352, "Mend": 8353, "circl": 8354, "paper": 8355, "monary ": 8356, "Nether": 8357, "Netherland": 8358, "Uk": 8359, "innes": 8360, "innesot": 8361, "overall": 8362, "Bridg": 8363, "ers are ": 8364, "deliv": 8365, "EP": 8366, "declared ": 8367, "Rosas ": 8368, "reb": 8369, "received by ": 8370, "difference ": 8371, "deliver": 8372, "29 @.@ ": 8373, "Radi": 8374, "who were ": 8375, "Iraq": 8376, "genetic ": 8377, "foreign ": 8378, "a total of ": 8379, "mu": 8380, "crowd ": 8381, "2004, ": 8382, "ation in ": 8383, "Ism": 8384, "prison ": 8385, " trying to ": 8386, "pressur": 8387, " mi ) ": 8388, "Israel": 8389, "ogy ": 8390, "as L": 8391, "modernist ": 8392, "El ": 8393, "ower ": 8394, "rap ": 8395, "not only ": 8396, "uter ": 8397, "FI": 8398, "Max": 8399, "was replac": 8400, "corn": 8401, "man, ": 8402, ") \n = = ": 8403, "aircraft, ": 8404, "% to ": 8405, "composed by ": 8406, "ings, and ": 8407, "Brun": 8408, "mim": 8409, "rib": 8410, "ides": 8411, "omp": 8412, "puzz": 8413, "reputation ": 8414, "ility ": 8415, "cultiv": 8416, "circu": 8417, "Schind": 8418, "acquir": 8419, "fleet": 8420, "yard ": 8421, "life and ": 8422, "Boort": 8423, "ley and ": 8424, "Wisconsin ": 8425, "Albert": 8426, "and third ": 8427, "quart": 8428, "clean": 8429, "Joe ": 8430, "Suz": 8431, "Suzuk": 8432, "ascar ": 8433, "a, but ": 8434, "contains ": 8435, "s from critic": 8436, "Industr": 8437, "in the US": 8438, "ops": 8439, "marketing ": 8440, "Metroid ": 8441, "grid ": 8442, "order ": 8443, ". Micha": 8444, "10 @,@ 000 ": 8445, "page ": 8446, "dissent": 8447, "experienced ": 8448, ". \n As ": 8449, "oured ": 8450, "cold ": 8451, "bomb ": 8452, "sud": 8453, "Ah": 8454, "contest": 8455, "pati": 8456, "Sheff": 8457, "AV-8": 8458, "performed the ": 8459, "Handel 's ": 8460, "Serb": 8461, "hyenas ": 8462, "paras": 8463, ". Ann": 8464, "death penalty ": 8465, "s about ": 8466, "aig": 8467, "Cora ": 8468, "Rain": 8469, "ollstonecraft ": 8470, "elimin": 8471, "Jerich": 8472, "adjust": 8473, "Ven": 8474, "Impact Wrest": 8475, "Knock": 8476, "Els": 8477, "avel": 8478, "Bradman ": 8479, "Lucas": 8480, "Yol": 8481, "Sibu ": 8482, "After": 8483, "WW": 8484, "expected ": 8485, "in three ": 8486, "worldwide ": 8487, "racing ": 8488, "omy ": 8489, "most popular ": 8490, "= = = \n S": 8491, "suitable ": 8492, "ina, ": 8493, "Len": 8494, "level of ": 8495, "Christ ": 8496, "faith ": 8497, "legitim": 8498, "integral ": 8499, "ongoing ": 8500, "rich": 8501, "Down": 8502, "load ": 8503, "Mid": 8504, "guard": 8505, " took over ": 8506, "Alex ": 8507, "Rocket": 8508, "impress": 8509, "close to ": 8510, "described by ": 8511, "bask": 8512, "basket": 8513, "ics. ": 8514, "once the ": 8515, "eject": 8516, "Bird ": 8517, "with S": 8518, "9 @.@ ": 8519, "a me": 8520, "ell, ": 8521, "expressed ": 8522, "concern ": 8523, "olve ": 8524, "utin": 8525, "awarded the ": 8526, "edge of the ": 8527, "ulat": 8528, "Observ": 8529, "Philip ": 8530, "rer": 8531, "dig": 8532, "cultur": 8533, "Anglo-": 8534, "stretch": 8535, "Juan ": 8536, "Plat": 8537, "Ocean ": 8538, "North America ": 8539, "organism": 8540, "cy": 8541, "are also ": 8542, "aiss": 8543, "vision ": 8544, "Disney ": 8545, "iz ": 8546, "released by ": 8547, "junction ": 8548, "ities and ": 8549, "ious": 8550, "into an ": 8551, "street": 8552, "workshop": 8553, "ines, ": 8554, "University, ": 8555, "ention of ": 8556, "it with ": 8557, "inner ": 8558, "family, ": 8559, "nerv": 8560, "personal": 8561, "oga ": 8562, "Historic ": 8563, "crown": 8564, "ellow": 8565, "green": 8566, "brown ": 8567, "93 ": 8568, "having been ": 8569, "charts in ": 8570, "on the UK ": 8571, "for \" ": 8572, "expensive ": 8573, "1995 ": 8574, "s and a ": 8575, "Grammy ": 8576, "spiritual ": 8577, "request ": 8578, "Found": 8579, "clip ": 8580, "provok": 8581, "Phoenix": 8582, "acclaim": 8583, "pair": 8584, "Bab": 8585, "I don 't ": 8586, "episode \" ": 8587, "memory ": 8588, "of T": 8589, " true ": 8590, "previous episod": 8591, "noted the ": 8592, "Douglas ": 8593, "liked the ": 8594, "made up ": 8595, "funn": 8596, "head and ": 8597, "ster": 8598, "shed ": 8599, ") in the ": 8600, "organ ": 8601, "e of M": 8602, "festiv": 8603, "in the c": 8604, "except ": 8605, "selected ": 8606, "Tu": 8607, "m, ": 8608, "dismiss": 8609, "storyline ": 8610, "issues ": 8611, "and is ": 8612, "or in ": 8613, "le 's ": 8614, "lon": 8615, "covered ": 8616, "400 ": 8617, "imal": 8618, "in the north": 8619, "sleep": 8620, "meat": 8621, "300 ": 8622, "quit": 8623, "wheel": 8624, "ed through ": 8625, "scar": 8626, "India ": 8627, "lear": 8628, "learn ": 8629, "ing about ": 8630, "59 ": 8631, "Ha": 8632, "Ig": 8633, "Arashimaru ": 8634, "Spear": 8635, "Shiro": 8636, "peac": 8637, "proper ": 8638, "pray": 8639, "ophy": 8640, "what the ": 8641, "against a ": 8642, "necessary ": 8643, "21, ": 8644, "organized ": 8645, "further": 8646, "ater, ": 8647, "circulation ": 8648, "ying the ": 8649, " turned to the ": 8650, " made ": 8651, "Every": 8652, "reviv": 8653, "excit": 8654, "ather than ": 8655, "Butter": 8656, "ho": 8657, "sole ": 8658, "plans to ": 8659, "Reag": 8660, "retirement ": 8661, "dy": 8662, ". Each ": 8663, "holds ": 8664, "applications ": 8665, "not be ": 8666, "horn": 8667, "Chap": 8668, "sell": 8669, "owned by ": 8670, "as part of ": 8671, "a.": 8672, "head of ": 8673, "scul": 8674, "sculpt": 8675, "of G": 8676, "body, ": 8677, "California, ": 8678, "Plan": 8679, "at 0": 8680, "1: ": 8681, "hospital ": 8682, "du ": 8683, "' m": 8684, "Emmy ": 8685, "Outstanding ": 8686, "cler": 8687, "job ": 8688, "Illin": 8689, "Illino": 8690, "Ohi": 8691, "loss of ": 8692, "surpass": 8693, "Rub": 8694, "ump ": 8695, "situation ": 8696, "assu": 8697, "Joint ": 8698, "Cir": 8699, "Non": 8700, "obsc": 8701, "ot, ": 8702, "Ice ": 8703, "Smith": 8704, "Bad": 8705, "5. The ": 8706, "Murph": 8707, "Pas": 8708, "elescop": 8709, "April 197": 8710, "astronom": 8711, "AA": 8712, "in of ": 8713, "an interview ": 8714, "aliz": 8715, "don ": 8716, "'s the ": 8717, "years and ": 8718, ". \" \n In ": 8719, "cab": 8720, "The W": 8721, "1952 ": 8722, "finished the ": 8723, "Afric": 8724, "sed ": 8725, ", both ": 8726, "synth": 8727, "Okin": 8728, "Okinaw": 8729, "China ": 8730, "1947 ": 8731, "less than": 8732, "of three ": 8733, "Sher": 8734, "neither ": 8735, "character, ": 8736, " t ": 8737, "isotop": 8738, "kel": 8739, "ub ": 8740, "date of ": 8741, " thus ": 8742, "conclusion ": 8743, "depos": 8744, "exact": 8745, "Office ": 8746, "for her ": 8747, "front of ": 8748, "hersel": 8749, "herself ": 8750, "hill": 8751, "ation, the ": 8752, "precipit": 8753, "content": 8754, "specific": 8755, "ity. \n ": 8756, "Department ": 8757, "article ": 8758, " techn": 8759, "spread": 8760, "pay ": 8761, "ies of the ": 8762, "idents ": 8763, "bab": 8764, "elder": 8765, ". Ab": 8766, "aughter": 8767, "You": 8768, "Ric": 8769, "Shar": 8770, "actual ": 8771, "asks ": 8772, "plane ": 8773, "advanced ": 8774, "leadership ": 8775, "for several ": 8776, "labour ": 8777, "section": 8778, "5 @,@ 000 ": 8779, "Hamp": 8780, "= = \n S": 8781, ".com ": 8782, "served ": 8783, "ion and ": 8784, "Sant": 8785, "weet ": 8786, "discovered ": 8787, "itchen ": 8788, "8. \n ": 8789, "where she ": 8790, "Stud": 8791, "of the game ": 8792, "Indiana ": 8793, "good": 8794, "Hancock ": 8795, "iet ": 8796, "outbreak of ": 8797, "Mexico ": 8798, "secure ": 8799, "leave the ": 8800, "due to his ": 8801, "Hil": 8802, "eep": 8803, "o L": 8804, "in particular ": 8805, "diplomatic ": 8806, "s, she ": 8807, "five-": 8808, "partnership ": 8809, "Gilbert and ": 8810, "suffered a ": 8811, "long-term ": 8812, "bert ": 8813, "s, \" ": 8814, "Sullivan ": 8815, "partn": 8816, "establishment ": 8817, "property, ": 8818, "tion to ": 8819, "Liverpool ": 8820, "6, a ": 8821, "deton": 8822, "00 m": 8823, "lb": 8824, "remaining ": 8825, "result of the ": 8826, "th Infantry ": 8827, "reserv": 8828, "was then ": 8829, "Division, ": 8830, "forces were ": 8831, "battalion": 8832, "Philipp": 8833, "Labor ": 8834, "ution ": 8835, "enag": 8836, "passag": 8837, "compris": 8838, "locations ": 8839, "Bank ": 8840, "University": 8841, "Tower ": 8842, "s were also ": 8843, "most-": 8844, "week of ": 8845, "broadcast": 8846, " million viewers and ": 8847, "eleventh ": 8848, ", \" The ": 8849, "ARIA ": 8850, "Urban ": 8851, "89 ": 8852, "Town ": 8853, "Cyclone ": 8854, "in 193": 8855, "9 and ": 8856, "epid": 8857, "ler, ": 8858, "forg": 8859, "NS": 8860, "Party ": 8861, "ray ": 8862, "lasted ": 8863, "3. The ": 8864, "Peninsul": 8865, " mph ( ": 8866, "rainfall ": 8867, ") to the ": 8868, "stable ": 8869, "smaller ": 8870, "ia ( ": 8871, "ed-": 8872, ". When the ": 8873, "ted and ": 8874, "lit": 8875, "grat": 8876, "Minister of ": 8877, "uring ": 8878, "ax ": 8879, "Gilbert ": 8880, "volunt": 8881, "feron bet": 8882, "depending ": 8883, "cross the ": 8884, "s to a ": 8885, "rece": 8886, "wrongdo": 8887, "es de ": 8888, "die ": 8889, "upris": 8890, "in the first ": 8891, " together": 8892, "Like ": 8893, "ed on a ": 8894, "elected to ": 8895, "post ": 8896, ". By": 8897, "Stephen ": 8898, "ong, L": 8899, "deserv": 8900, "\" as the ": 8901, "] the ": 8902, "similarly ": 8903, "Sun ": 8904, "odi": 8905, "nominated ": 8906, ", as the ": 8907, "slide ": 8908, "Jackson": 8909, "Cup": 8910, " tournam": 8911, "opera ": 8912, "Bart ": 8913, "Marge ": 8914, "need to ": 8915, "Spring": 8916, "makes ": 8917, "amus": 8918, "dedicated to ": 8919, "academ": 8920, "ki ": 8921, "a mov": 8922, "altar": 8923, "statu": 8924, "newly ": 8925, "in July ": 8926, " that \" ": 8927, ". We ": 8928, "fact that ": 8929, "neighborhood ": 8930, "Fred": 8931, "des ": 8932, "New York City": 8933, "Studio": 8934, "ed on": 8935, "acts ": 8936, "mind": 8937, "64": 8938, " total": 8939, "student": 8940, "compared to ": 8941, "rate ": 8942, "attend ": 8943, "range of ": 8944, "stein ": 8945, "chor": 8946, "electro": 8947, "advance ": 8948, "beaten ": 8949, " typically ": 8950, "many other ": 8951, "winds ": 8952, "LC": 8953, ". Further ": 8954, "ually": 8955, "uguese ": 8956, "colonial ": 8957, "doubt": 8958, "sportation ": 8959, "effici": 8960, "influenced by ": 8961, "impos": 8962, "Edg": 8963, "in C": 8964, "films ": 8965, "episode of the ": 8966, "NBC ": 8967, "between the two ": 8968, " trail": 8969, "son, who ": 8970, "atton ": 8971, "guy": 8972, "role in the ": 8973, "established in ": 8974, "was no ": 8975, "reached its ": 8976, "prime ": 8977, "World War": 8978, ". Tod": 8979, "bird ": 8980, "rescue ": 8981, "Mari": 8982, "frag": 8983, "mush": 8984, "returns to ": 8985, "local": 8986, "Pi": 8987, " territory ": 8988, "burn ": 8989, "es, a ": 8990, "ypical ": 8991, "ated with ": 8992, "journalist": 8993, "ers who ": 8994, "ing was ": 8995, "promotional ": 8996, "rank ": 8997, "ald": 8998, "ant and ": 8999, "exclusively ": 9000, "reduce ": 9001, "= = = \n After ": 9002, "Servic": 9003, "1997": 9004, "mann": 9005, "elsewhere ": 9006, "desir": 9007, "works of ": 9008, "Acad": 9009, "Academy ": 9010, "olated ": 9011, ", although ": 9012, "ideas ": 9013, ", which were ": 9014, "ties ": 9015, "represent the ": 9016, "Anthony ": 9017, "played the ": 9018, "Following the ": 9019, "bottom ": 9020, "I am ": 9021, "has received ": 9022, "J ": 9023, "features": 9024, "Niss": 9025, "EV": 9026, "diamond": 9027, " tool": 9028, "Golden ": 9029, "incident ": 9030, "mic": 9031, "and there": 9032, "aggressive ": 9033, "fast ": 9034, ", thus ": 9035, "o to ": 9036, "in some ": 9037, "ely the ": 9038, "55 ": 9039, " thes": 9040, "igious ": 9041, "itional ": 9042, "e together": 9043, "remained in ": 9044, "absolut": 9045, "you": 9046, ". Because ": 9047, "ceas": 9048, "ultural ": 9049, ". Since ": 9050, "urs": 9051, "10  ": 9052, "fact ": 9053, "used": 9054, "camer": 9055, "suggests that ": 9056, "left-": 9057, "atmospher": 9058, "her, ": 9059, "anything ": 9060, "! \" ": 9061, "responsibility ": 9062, "separate ": 9063, "Bon": 9064, "Pearl ": 9065, "enu": 9066, "ates of ": 9067, "Build": 9068, "hus": 9069, "plans ": 9070, "'ll ": 9071, "east of the ": 9072, ". \n = = Plot ": 9073, "publisher ": 9074, "s ) ": 9075, "ano ": 9076, "a were ": 9077, "winning the ": 9078, "ted": 9079, "England, ": 9080, "figure": 9081, "agger": 9082, "s, with the ": 9083, "ants were ": 9084, "cool": 9085, "appears to ": 9086, "have been record": 9087, "assess": 9088, "country 's ": 9089, "visited ": 9090, "on 4 ": 9091, "knot": 9092, "Committee ": 9093, "Bry": 9094, "acing ": 9095, "ed in 196": 9096, "Intern": 9097, "Brian ": 9098, "flown ": 9099, " they": 9100, "pretty ": 9101, "comedy ": 9102, "ies in ": 9103, "New England ": 9104, "Armen": 9105, "tifi": 9106, "siege ": 9107, "cavalry ": 9108, " that, ": 9109, "negotiations ": 9110, "ed. \n The ": 9111, "\" that ": 9112, "went to ": 9113, "one of the first ": 9114, "mother": 9115, "scene ": 9116, "host ": 9117, "e M": 9118, "reloc": 9119, "annah ": 9120, "expedition": 9121, "conflict": 9122, "Choc": 9123, "pac": 9124, "ken ": 9125, "handed ": 9126, "seasons ": 9127, "battles": 9128, "World War I": 9129, "proposal": 9130, "\" un": 9131, "orbit": 9132, " that is ": 9133, "an estimated ": 9134, ". Ev": 9135, "ate to ": 9136, "affair": 9137, "= \n The ": 9138, "Bir": 9139, "1917": 9140, "F ) ": 9141, "oman": 9142, "Mounted ": 9143, "ed a series of ": 9144, "afternoon": 9145, ". Short": 9146, "mounted ": 9147, "teux ": 9148, "San Francisco ": 9149, "OS": 9150, "height ": 9151, "court": 9152, "peas": 9153, "agric": 9154, "Lewis, ": 9155, "Cardiff": 9156, "Parli": 9157, "ation. \n The ": 9158, "observed ": 9159, "classifi": 9160, "99 ": 9161, "85 ": 9162, "ER": 9163, "on April ": 9164, "oil": 9165, "Gro": 9166, "censor": 9167, "feels ": 9168, "With the ": 9169, "Gate ": 9170, "eld": 9171, "a: ": 9172, "ise, ": 9173, "evolv": 9174, "Rang": 9175, "tenance ": 9176, "vegetabl": 9177, " tend": 9178, "amounts of ": 9179, "s and other ": 9180, "Adventure ": 9181, "). S": 9182, "ley 's ": 9183, "mul": 9184, "able of ": 9185, "ing that he ": 9186, "-of-": 9187, "prior to ": 9188, "on to the ": 9189, "consists of ": 9190, "orn ": 9191, "create a ": 9192, "he could ": 9193, "thought ": 9194, "recommend": 9195, "ector": 9196, "tru": 9197, "King George ": 9198, "brought": 9199, "emple ": 9200, "attitud": 9201, "ells ": 9202, "friendship": 9203, "especi": 9204, "bud": 9205, "impson": 9206, "north of ": 9207, ", the song debuted at number ": 9208, "Rhyth": 9209, "odg": 9210, "ebrit": 9211, "ebrity ": 9212, "Gillig": 9213, "worri": 9214, "UM": 9215, "Channel ": 9216, "N 0": 9217, "ent and ": 9218, "Cred": 9219, "liner ": 9220, "igrat": 9221, "Trin": 9222, "Ly": 9223, "demol": 9224, "ant, ": 9225, "alled ": 9226, "squadron": 9227, "battle, ": 9228, "party 's ": 9229, "ority ": 9230, "1990 ": 9231, "due to a ": 9232, ". Pr": 9233, "\" is ": 9234, "chapter ": 9235, "his time ": 9236, "opinion": 9237, "ankar": 9238, "eless, ": 9239, "made a ": 9240, "principal ": 9241, "( t": 9242, "deem": 9243, "words ": 9244, "aster": 9245, "ed that his ": 9246, "s. His ": 9247, "lies ": 9248, "Wad": 9249, "Ner": 9250, "on the Billboard Hot 100": 9251, "charting ": 9252, "highest-": 9253, "idad ": 9254, "partially ": 9255, "enh": 9256, "striking ": 9257, "genus ": 9258, "ky ": 9259, "SR": 9260, "in which the ": 9261, "Cin": 9262, "Nation": 9263, "ali ": 9264, "signature ": 9265, "ion was ": 9266, "compreh": 9267, "rio ": 9268, "lobe ": 9269, "Alf": 9270, "Alfred ": 9271, "Bul": 9272, "constitutional ": 9273, "ed with a ": 9274, "share ": 9275, "concept": 9276, "attain": 9277, "of K": 9278, "IGN ": 9279, "ether to ": 9280, "am and ": 9281, "Kim ": 9282, "ard of ": 9283, "lem": 9284, "matur": 9285, "account of the ": 9286, "scand": 9287, "Bayard ": 9288, "Governor ": 9289, "Nicholas ": 9290, "Philadelphia ": 9291, "investigation ": 9292, "rell ": 9293, "ring ": 9294, "46 ": 9295, "-minute ": 9296, "acy of ": 9297, "fleet ": 9298, "ed. C": 9299, "Andrew": 9300, "as she ": 9301, "amed ": 9302, "boat": 9303, "120 ": 9304, "song 's ": 9305, "K ": 9306, "y; ": 9307, "fiction": 9308, "fit": 9309, "Good ": 9310, "was one of the ": 9311, "looked ": 9312, "rend": 9313, "Emp": 9314, "ship was ": 9315, "ccording to ": 9316, "jaj": 9317, "eness": 9318, "Last ": 9319, ". The album ": 9320, "formed the ": 9321, "Town": 9322, "at that": 9323, "ry, ": 9324, "information ": 9325, "ers the ": 9326, ", he was ": 9327, "walking ": 9328, "Doc": 9329, "become a ": 9330, "where they ": 9331, "Syd": 9332, "Vit": 9333, "AR": 9334, " train ": 9335, "mechanical ": 9336, "s. A ": 9337, "Greater ": 9338, "horse ": 9339, "ation for the ": 9340, "difficult to ": 9341, "parent": 9342, "Ku": 9343, "illa ": 9344, "with T": 9345, "autom": 9346, "e a ": 9347, "color ": 9348, "African": 9349, "-American ": 9350, "Color": 9351, "clearly ": 9352, "000, ": 9353, "defenc": 9354, "but not ": 9355, "Leed": 9356, "NB": 9357, "Book": 9358, "Compan": 9359, "one of the greatest ": 9360, "managed to ": 9361, "players": 9362, "anderbeg": 9363, "spok": 9364, "launch ": 9365, "breach ": 9366, "e, but the ": 9367, "ure to ": 9368, "Assembly ": 9369, "whom he ": 9370, "apparently ": 9371, "of this": 9372, "Liberal ": 9373, "illian ": 9374, ". Through": 9375, "two": 9376, "such": 9377, "e trad": 9378, "whom she ": 9379, "rophy ": 9380, "juris": 9381, "jurisdic": 9382, "1, the ": 9383, "credits ": 9384, "lines": 9385, "royal ": 9386, "utton ": 9387, "chi ": 9388, "competition": 9389, "urned ": 9390, "sustained ": 9391, ", the storm ": 9392, "North Carolina ": 9393, "Maryland": 9394, "53": 9395, "antagon": 9396, "player to ": 9397, "perhaps ": 9398, "assassin": 9399, "chance to ": 9400, " tact": 9401, "alco": 9402, "alcoh": 9403, "alcohol ": 9404, "blue ": 9405, "uj": 9406, "area": 9407, "idel": 9408, "squadr": 9409, "same year": 9410, "7 ), ": 9411, "er \" ": 9412, "rapid": 9413, "decade ": 9414, "7 @,@ ": 9415, ", however": 9416, "Trust": 9417, "Ta": 9418, "Coron": 9419, "Squadron": 9420, "exerc": 9421, ". Following ": 9422, "anced ": 9423, "eor": 9424, "ninet": 9425, "another": 9426, "cock": 9427, "divided ": 9428, "speaking ": 9429, "Kumar": 9430, "itash": 9431, "itashvil": 9432, "ed again ": 9433, "ihann": 9434, "ossi": 9435, "ed a new ": 9436, "Murray ": 9437, "neph": 9438, "commonly ": 9439, "a. \n ": 9440, "World War II ": 9441, "pounds ( ": 9442, "High School": 9443, "shut": 9444, "Lisa ": 9445, "during this ": 9446, "Rit": 9447, "agent": 9448, "oxy": 9449, "monary cont": 9450, "monary contusion ": 9451, "path ": 9452, ", it ": 9453, "so-": 9454, "42 ": 9455, "Minnesot": 9456, "waters ": 9457, "everyone ": 9458, "Portsm": 9459, "Portsmouth ": 9460, "fitted ": 9461, "sey ": 9462, "flat ": 9463, "Fif": 9464, ". The t": 9465, "much": 9466, "line of ": 9467, "resembl": 9468, "axi": 9469, "I.": 9470, "credited ": 9471, "time the ": 9472, "ground station ": 9473, "ransm": 9474, "exchang": 9475, "out of five ": 9476, "vocal ": 9477, "ing them": 9478, ". \n K": 9479, "ancy ": 9480, "Roger ": 9481, "Cann": 9482, "Magaz": 9483, "Russell ": 9484, "earthqu": 9485, "POW": 9486, "fal": 9487, "estimated at ": 9488, "as are ": 9489, "molecular ": 9490, "rik": 9491, "Wool": 9492, "metal ": 9493, "town of ": 9494, "Sak": 9495, "Critical ": 9496, "irrig": 9497, "Drive ": 9498, "32X": 9499, "umbl": 9500, ". Mor": 9501, "Chief ": 9502, "violence ": 9503, "condem": 9504, "ha ": 9505, "for the first time ": 9506, "Jane ": 9507, "cit": 9508, "omet": 9509, "mph ": 9510, "upper": 9511, "a Sal": 9512, "Municip": 9513, "ke 's ": 9514, "officers ": 9515, "Z ": 9516, "Varg": 9517, "45 ": 9518, "IS": 9519, "su ": 9520, "headquarter": 9521, "rest of ": 9522, "Zero ": 9523, "decad": 9524, "e ( ": 9525, "ing down ": 9526, "in the country": 9527, "uls": 9528, "estate ": 9529, "assi": 9530, "Ble": 9531, "edd": 9532, "rebuilt ": 9533, "olds ": 9534, "Despite the ": 9535, "16 @.@ ": 9536, "ience ": 9537, "best-selling ": 9538, "volume ": 9539, "summer": 9540, "Spe": 9541, "promotion ": 9542, "y: ": 9543, "under the command ": 9544, "Brunsw": 9545, "G ": 9546, "Aberde": 9547, "Bel ": 9548, "constructed in ": 9549, "segment": 9550, "bamb": 9551, "bamboo": 9552, "contained ": 9553, "Red S": 9554, "after their ": 9555, "premium ": 9556, "youth": 9557, "flex": 9558, "evolution ": 9559, "oft": 9560, "Lewis ": 9561, "Wid": 9562, "conqu": 9563, "that the ": 9564, "Quater": 9565, "Quatermass ": 9566, "absorb": 9567, "bodies ": 9568, "appeal": 9569, "Muslim": 9570, "ethnic ": 9571, "cities ": 9572, "Emma 's ": 9573, "empt": 9574, "Barn": 9575, ". James ": 9576, "Rhodes": 9577, "herb": 9578, "Gordon ": 9579, "disput": 9580, "slav": 9581, ". Som": 9582, "iro ": 9583, "in 15": 9584, "Swiss ": 9585, "from H": 9586, "Madagascar ": 9587, "portions of the ": 9588, "Industry ": 9589, "fell": 9590, "a time ": 9591, "onucle": 9592, "entertainment ": 9593, "rear ": 9594, "buff": 9595, "ing of a ": 9596, "heim": 9597, "ipel": 9598, "Alde": 9599, "spotted ": 9600, "join the ": 9601, "soundtrack ": 9602, "4: ": 9603, "Jen": 9604, "consisted of ": 9605, "Fer": 9606, "with its ": 9607, "hot ": 9608, "Europe ": 9609, " through a ": 9610, "legacy ": 9611, "schools ": 9612, "Maver": 9613, "Vil": 9614, "soon": 9615, "obal ": 9616, "purpose ": 9617, "une": 9618, "McDonald ": 9619, "McDonald 's ": 9620, "Magn": 9621, "Development ": 9622, "Byr": 9623, "hun": 9624, "for both ": 9625, "Ahmed": 9626, ". However, the ": 9627, "Has": 9628, "supervis": 9629, "semi-": 9630, "Coast ": 9631, "pel": 9632, "commit": 9633, "marriage to ": 9634, "preced": 9635, "Vice ": 9636, "Sheffield ": 9637, "edon": 9638, "appropri": 9639, "Gilly ": 9640, ", whom ": 9641, "Patr": 9642, "ripp": 9643, "face ": 9644, "RN": 9645, "Hull ": 9646, "parasit": 9647, "). It ": 9648, "cha": 9649, "escape ": 9650, "5 to ": 9651, "a, who ": 9652, "hall": 9653, "Charle": 9654, "1. \n ": 9655, "es, \" ": 9656, "Stanford ": 9657, "Blackstone ": 9658, "Harry Pot": 9659, "-0": 9660, "profess": 9661, "arryl ": 9662, "Proper": 9663, "is considered ": 9664, "Ibn al-": 9665, "Ibn al-As": 9666, "Ibn al-Ash ": 9667, "Ibn al-Ash '": 9668, "eday": 9669, "chron": 9670, "Johnston ": 9671, "61 ": 9672, "brook": 9673, "KO ": 9674, "hip ": 9675, "Nos": 9676, "Nosy ": 9677, "Jews ": 9678, "Zul": 9679, "R & B ": 9680, "G-": 9681, "episode of Impact Wrest": 9682, "Keable 's ": 9683, "phy": 9684, "Lindwall ": 9685, "For the ": 9686, "week ending ": 9687, "Soul Re": 9688, "Ruk": 9689, "Dack": 9690, "okass": 9691, "oshack ": 9692, "al G": 9693, "al Gear ": 9694, "al Gear Sol": 9695, "Champion ": 9696, "corpor": 9697, "years in ": 9698, "manufactur": 9699, "ers. In ": 9700, "contrast ": 9701, "1950": 9702, "frequent ": 9703, "shale ": 9704, "chemical ": 9705, "in S": 9706, "price ": 9707, "life in ": 9708, "its of ": 9709, "from an ": 9710, " that a ": 9711, "described as \" ": 9712, "ize the ": 9713, "instead of ": 9714, "sign ": 9715, "as \" the ": 9716, "\". H": 9717, "-ori": 9718, "game of the ": 9719, "ept the ": 9720, "before a ": 9721, "pulled ": 9722, "champion ": 9723, ". Em": 9724, "once again ": 9725, "revenge ": 9726, "looking ": 9727, "bright ": 9728, "43": 9729, "Frey": 9730, "Allied ": 9731, "forces": 9732, "what he ": 9733, "consult": 9734, "senior ": 9735, "berg and ": 9736, "Greec": 9737, "m in ": 9738, "The Guardi": 9739, "written and ": 9740, "Hope ": 9741, "Hope. The ": 9742, "region of ": 9743, "located in ": 9744, "was part of the ": 9745, "iber": 9746, "regular": 9747, "grown ": 9748, ". Like ": 9749, "volcan": 9750, "oes, ": 9751, "a long ": 9752, "Vanc": 9753, "Vancou": 9754, "plas": 9755, "rane ": 9756, "ellular ": 9757, "2001, ": 9758, "etime ": 9759, "e. The first ": 9760, "when it ": 9761, "Imag": 9762, "format ": 9763, "as well as a ": 9764, "video gam": 9765, "Microsof": 9766, "holiday": 9767, "street ": 9768, "distinguish": 9769, "lines ": 9770, "orough": 9771, "prohib": 9772, "suburb": 9773, "industrial ": 9774, "ignor": 9775, "kin": 9776, "actors ": 9777, "Reserve ": 9778, "esame ": 9779, "production of ": 9780, "Jon ": 9781, "before it ": 9782, "relev": 9783, "arget ": 9784, "is a m": 9785, "suggested ": 9786, "father": 9787, "dealing with ": 9788, "death, the ": 9789, "s B": 9790, "statist": 9791, "live in ": 9792, "given to ": 9793, "els and ": 9794, "aircraft carri": 9795, "marked ": 9796, "Independ": 9797, "fianc": 9798, "ixon ": 9799, "often": 9800, "spin": 9801, "tail ": 9802, "whip": 9803, "fin ": 9804, "dent": 9805, "back, ": 9806, "until they ": 9807, "s at the ": 9808, "smooth": 9809, "below": 9810, "maximum ": 9811, "Dian": 9812, "Cob": 9813, "e, K": 9814, "a had ": 9815, "parts of ": 9816, "reached number ": 9817, "Vide": 9818, "Dor": 9819, "Genesis ": 9820, "al them": 9821, "pollu": 9822, ". U": 9823, "controversy ": 9824, "urrec": 9825, "len ": 9826, "ing: \" ": 9827, "likely to ": 9828, "ed. \" ": 9829, "characteriz": 9830, "Danny ": 9831, "comparing ": 9832, "Jur": 9833, "use of the ": 9834, ". If the ": 9835, ", though": 9836, "structur": 9837, "Hamlet ": 9838, "istic ": 9839, "imagin": 9840, "criticism ": 9841, "alternative ": 9842, "scap": 9843, "5 @,@ ": 9844, "oscow ": 9845, "concerts ": 9846, "al. The ": 9847, "Air Force ": 9848, "was held ": 9849, "Tennis ": 9850, "electric ": 9851, "criticised the ": 9852, "ing the game ": 9853, "Mir": 9854, "brilli": 9855, "es, and the ": 9856, "'s, ": 9857, "had never ": 9858, "knowl": 9859, "McK": 9860, "Pyramid ": 9861, "other members ": 9862, "87 ": 9863, "Poland ": 9864, "aya ": 9865, "ensur": 9866, "access to ": 9867, "wait": 9868, "water, ": 9869, "of them": 9870, "disp": 9871, "t in ": 9872, "gro": 9873, " toward ": 9874, "\" A ": 9875, "gust": 9876, "accident": 9877, "Shirohe": 9878, "leader ": 9879, "Shir": 9880, "ed by S": 9881, "ing-": 9882, "his brother ": 9883, "he can ": 9884, "grave ": 9885, "s. In the ": 9886, "= = = \n In the ": 9887, "\" of the ": 9888, "wind shear": 9889, "storms ": 9890, "JTW": 9891, "ression ": 9892, "Distr": 9893, "Nic": 9894, "status": 9895, "Vis": 9896, " ty": 9897, "in several ": 9898, "ies. \n ": 9899, "Tale of ": 9900, "exhibit ": 9901, "controversial ": 9902, "find the ": 9903, "offens": 9904, "identified ": 9905, "Ry": 9906, "died in ": 9907, "example": 9908, "Us": 9909, " twenty ": 9910, "icon": 9911, "ers can ": 9912, ". Ap": 9913, "programs, ": 9914, "chose ": 9915, "eed ": 9916, "Harold ": 9917, "odd": 9918, "power to ": 9919, "6. \n ": 9920, "30, ": 9921, "Beach ": 9922, "demand for ": 9923, "Curt": 9924, "Mac ": 9925, "stadium ": 9926, "aint-": 9927, "after he ": 9928, ", with a ": 9929, "meet ": 9930, "personally ": 9931, "lig": 9932, "form the ": 9933, "Lib": 9934, "9 to ": 9935, "istry ": 9936, ". In 196": 9937, "Institut": 9938, "march": 9939, "capture the ": 9940, "flank": 9941, "; in ": 9942, "futur": 9943, "ity. The ": 9944, "undertaken ": 9945, "\" )": 9946, "ridg": 9947, "ed only ": 9948, "Comedy ": 9949, "over three ": 9950, " that she ": 9951, "reasons ": 9952, "most likely ": 9953, "war. \n ": 9954, "a ter": 9955, "ests ": 9956, "intervention ": 9957, "legislat": 9958, "conven": 9959, "denied ": 9960, "alternativ": 9961, "animal": 9962, "lists ": 9963, "ation, and ": 9964, "course ": 9965, " trib": 9966, " that year": 9967, "Ari": 9968, "a team ": 9969, "k to ": 9970, "o in ": 9971, "s. Dur": 9972, "asco": 9973, "constantly ": 9974, "a mass": 9975, "steel ": 9976, "on 26 ": 9977, "said he ": 9978, "ing to be ": 9979, "in the third ": 9980, "Historical ": 9981, "ot of ": 9982, "belief": 9983, "Britain ": 9984, "returning to the ": 9985, "recorded and ": 9986, "a M": 9987, ". Rel": 9988, "Revolution ": 9989, "USS ": 9990, "Alask": 9991, "infrastructure ": 9992, "destroy the ": 9993, "weaken ": 9994, "Peters": 9995, "resulted in the ": 9996, "mond ": 9997, "strategy ": 9998, "Georgia ": 9999, "Jr. ": 10000, "effort to ": 10001, "engage ": 10002, "believed ": 10003, "innov": 10004, "catch ": 10005, "phras": 10006, "cart": 10007, "onto the ": 10008, "Am ": 10009, ". Further": 10010, "intentionally ": 10011, "identifi": 10012, ". Similarly, ": 10013, "Chicx": 10014, "Chicxul": 10015, "Pale": 10016, "extinction ": 10017, "z, ": 10018, "at the University of ": 10019, "contempor": 10020, "ulated ": 10021, "concluded that the ": 10022, " trigg": 10023, "6 @.@ 0": 10024, "frog": 10025, "sampl": 10026, "single \" ": 10027, "in 2011": 10028, "friendly ": 10029, "When the ": 10030, "column ": 10031, "Lex": 10032, ". At this ": 10033, ". Sm": 10034, "obtained ": 10035, "method ": 10036, "occasional ": 10037, "Fisher ": 10038, "sistant ": 10039, "opinion ": 10040, "buy": 10041, "alloc": 10042, "other countri": 10043, "echnolog": 10044, "cases ": 10045, "eps": 10046, ". About ": 10047, "permitt": 10048, "of tim": 10049, "Real ": 10050, "included a ": 10051, "Cel": 10052, "2. \n ": 10053, "result of ": 10054, "Museum": 10055, "eighteenth ": 10056, "onward": 10057, ". George ": 10058, "er and the ": 10059, "patron": 10060, "e, with the ": 10061, "Att": 10062, "Forc": 10063, "sea": 10064, "observation ": 10065, "obil": 10066, "Colonel ": 10067, " 's death ": 10068, "ness, ": 10069, "sentenc": 10070, "allowed to ": 10071, "in New York": 10072, "watched ": 10073, "Public ": 10074, "ousands of ": 10075, "Clinton ": 10076, "ico": 10077, "infection": 10078, "s in his ": 10079, "abri": 10080, "( T": 10081, "aware ": 10082, "by two ": 10083, "Rick": 10084, "Kitchen ": 10085, "in 187": 10086, "Frank ": 10087, "Shel": 10088, "beauty ": 10089, "Missou": 10090, "s, including the ": 10091, "mit": 10092, "vice ": 10093, "at his ": 10094, "objective ": 10095, "advantage ": 10096, "lie": 10097, "regiment": 10098, ". Up": 10099, "Pu": 10100, "Tijori ": 10101, "unny ": 10102, "release in ": 10103, "2009, the ": 10104, "ag ": 10105, "film was ": 10106, "Games": 10107, "e thr": 10108, "ante ": 10109, "actress ": 10110, "fing": 10111, "creative ": 10112, "ed the film ": 10113, "on K": 10114, "Claud": 10115, "resum": 10116, "conting": 10117, "Hab": 10118, "short-": 10119, "Living ": 10120, "Los Angeles": 10121, "recurring ": 10122, "serial ": 10123, "six month": 10124, "Princess ": 10125, "Sullivan": 10126, "contract": 10127, "2000, ": 10128, "participate ": 10129, "eal ": 10130, "6 to ": 10131, "fat": 10132, "52": 10133, "ed; the ": 10134, "convention": 10135, "sion of ": 10136, "onium": 10137, "explosion": 10138, "1 @,@ 4": 10139, "contamin": 10140, ". In 2006, ": 10141, "s ] ": 10142, "so they ": 10143, "easily ": 10144, "at all": 10145, "so many ": 10146, "workers ": 10147, "Film": 10148, " mid": 10149, "ewater ": 10150, "-in ": 10151, "Washington, D.C": 10152, "had taken ": 10153, "earlier": 10154, "Westmin": 10155, " million viewers, ": 10156, "ranking ": 10157, "in the week": 10158, "Rocky ": 10159, "Rocky Horror ": 10160, "e, which was ": 10161, " twenty-": 10162, "4, and ": 10163, "Por": 10164, "no one ": 10165, "34 ": 10166, "number two ": 10167, "France, ": 10168, "Fort": 10169, "\" Turn ": 10170, "9 @,@ ": 10171, "has sold ": 10172, "Arnold ": 10173, "form a ": 10174, "epidem": 10175, "smok": 10176, "otten ": 10177, "edical ": 10178, "s, t": 10179, "pointed out": 10180, "smoke ": 10181, "s of an ": 10182, " tropical ": 10183, "coast of ": 10184, "a tropical depression ": 10185, "was upgrad": 10186, "Category ": 10187, "Scal": 10188, "people were ": 10189, "sions ": 10190, "added ": 10191, "km2 ": 10192, "drainage ": 10193, "fair": 10194, "does": 10195, "association ": 10196, " treat": 10197, "develop ": 10198, "respir": 10199, "= = = \n = = = = ": 10200, "legal": 10201, "colonists ": 10202, "( D": 10203, "ately": 10204, "colony ": 10205, "surrounding the ": 10206, " then": 10207, "er is ": 10208, "spit": 10209, "\"; ": 10210, "BBC ": 10211, "umerous ": 10212, "appeared in the ": 10213, "accus": 10214, "biological ": 10215, "pro-": 10216, "neur": 10217, "growth ": 10218, "Supreme Court ": 10219, "lement ": 10220, "Marie ": 10221, "lun": 10222, "tour": 10223, ". Instead": 10224, "Queens": 10225, "elected ": 10226, " those who ": 10227, "use the ": 10228, "s \", ": 10229, "Harris": 10230, "Harrison 's ": 10231, "songwrit": 10232, "quot": 10233, "contribu": 10234, "Ian ": 10235, "on The ": 10236, "Tim ": 10237, "beautiful ": 10238, "critic ": 10239, "\" w": 10240, "ities of ": 10241, "e of Represent": 10242, "e of Representativ": 10243, "ans had ": 10244, "strength ": 10245, "visit ": 10246, "aza ": 10247, "caf": 10248, "realiz": 10249, "heat ": 10250, "Sikorski ": 10251, "ted by ": 10252, "-in-": 10253, "imprison": 10254, "birth ": 10255, "Gibr": 10256, "patr": 10257, "schools in ": 10258, "2002": 10259, ". \" He ": 10260, "al C": 10261, "ama ": 10262, "Freder": 10263, "following a ": 10264, "lengthy ": 10265, "English-": 10266, "it was not ": 10267, "Many ": 10268, "overwh": 10269, "graduating ": 10270, "fer ": 10271, "proxim": 10272, "Sn": 10273, "er, but ": 10274, "architectural ": 10275, " thought": 10276, "Clark": 10277, "Another ": 10278, "Girl": 10279, "establishment of ": 10280, "attel": 10281, "ammun": 10282, "ies were ": 10283, "day. The ": 10284, "byp": 10285, "counterattack ": 10286, "on 22 ": 10287, "November, ": 10288, "and has ": 10289, "Norwe": 10290, "Norweg": 10291, "Norwegian ": 10292, "s would ": 10293, "lossi": 10294, "downgrad": 10295, "downgraded to ": 10296, "conditions ": 10297, "due ": 10298, "Britain": 10299, "adopt": 10300, "Indon": 10301, "Indones": 10302, "or is ": 10303, "cited ": 10304, "Charter": 10305, "thre": 10306, "argued that ": 10307, "points out": 10308, "Portuguese ": 10309, "conflict between ": 10310, " that it ": 10311, "state 's ": 10312, "dwar": 10313, "dwarf ": 10314, " today ": 10315, "ary to ": 10316, "space, and ": 10317, "environmental ": 10318, "principl": 10319, ", h": 10320, "immediate ": 10321, "century": 10322, "parall": 10323, "Flow": 10324, "speech": 10325, "meaning": 10326, ", so ": 10327, "save ": 10328, "episodes ": 10329, "Bell ": 10330, "footage ": 10331, "It 's ": 10332, "Connect": 10333, "= = = \n = ": 10334, "ann ": 10335, "development of the ": 10336, "conform": 10337, "breeding ": 10338, "died": 10339, ". Between ": 10340, "and were ": 10341, "starv": 10342, "months, ": 10343, "hundred ": 10344, "breed ": 10345, "shipping ": 10346, "industry": 10347, "yard": 10348, "castle, ": 10349, "direction": 10350, "agrees to ": 10351, "kingdom ": 10352, "bos": 10353, "independence ": 10354, "ustom": 10355, "Dist": 10356, "coup ": 10357, "Texas": 10358, "had become ": 10359, "intr": 10360, "down a ": 10361, "impossi": 10362, "enough ": 10363, "Republic ": 10364, " tree ": 10365, "common": 10366, "ous, ": 10367, "aph": 10368, "over to ": 10369, "gold": 10370, "Common ": 10371, "Country ": 10372, "developed by ": 10373, "alon": 10374, "like \" ": 10375, "Hay": 10376, "inspired by the ": 10377, "solv": 10378, "actually ": 10379, "Mori": 10380, "Scul": 10381, "from her ": 10382, "allowing the ": 10383, "ed to his ": 10384, ", his ": 10385, "15 @.@ ": 10386, ". \n = = Des": 10387, "Canada": 10388, "is known ": 10389, "publishing ": 10390, "ation of a ": 10391, "wealth": 10392, "Burn": 10393, "man of the ": 10394, "some of ": 10395, "called for ": 10396, "Bob ": 10397, "Log": 10398, "bottom of the ": 10399, "other hand": 10400, "close to the ": 10401, "ando ": 10402, ", I ": 10403, " touch": 10404, "slip": 10405, "Aut": 10406, "producing ": 10407, "requir": 10408, "Nissan ": 10409, "Premier ": 10410, "Twent": 10411, "Raj": 10412, "Royals ": 10413, "s has ": 10414, "natur": 10415, "wear ": 10416, "gem": 10417, "iron ": 10418, "created by ": 10419, "revealed that ": 10420, "Special ": 10421, "urely ": 10422, "Mup": 10423, " to promot": 10424, "in both ": 10425, "had to be ": 10426, "and therefore ": 10427, "s they ": 10428, "nose ": 10429, "detect ": 10430, "pictures ": 10431, ". When he ": 10432, "Pun": 10433, "performing ": 10434, "library ": 10435, "improved ": 10436, "mac": 10437, "from this ": 10438, "ers, and ": 10439, "by K": 10440, "also known as ": 10441, "Dal": 10442, "o T": 10443, "e, an ": 10444, "uous ": 10445, "study of ": 10446, "left to ": 10447, " together with the ": 10448, "owards the ": 10449, "significant": 10450, "whether": 10451, "what she ": 10452, "want ": 10453, "pole ": 10454, "woman": 10455, "December 194": 10456, "500 m": 10457, "protection ": 10458, "0 @,@ 000": 10459, "ed at a ": 10460, "Bonnie ": 10461, "ing through the ": 10462, "5 mp": 10463, "of Mex": 10464, "became an ": 10465, "draft ": 10466, "later became ": 10467, "her family ": 10468, " third": 10469, "Dual ": 10470, "s two ": 10471, "accompanied by ": 10472, "Tej": 10473, "le. The ": 10474, "Stef": 10475, "Stefani ": 10476, "award ": 10477, "when she was ": 10478, "eginn": 10479, "as its ": 10480, "aco ": 10481, "B. ": 10482, "would later ": 10483, "4 to ": 10484, "divers": 10485, "economy ": 10486, "clesi": 10487, "clesiast": 10488, "attempting to ": 10489, "10th ": 10490, "manus": 10491, "suspect": 10492, "exagger": 10493, "ed against ": 10494, ". Ch": 10495, "shire": 10496, "1796 ": 10497, "mammoth": 10498, "first time that ": 10499, "differed ": 10500, "work in ": 10501, " theory ": 10502, "company 's ": 10503, "is, however, ": 10504, "recording": 10505, "Company": 10506, "of P": 10507, "\" in the ": 10508, "consistently ": 10509, "way, ": 10510, "J.": 10511, "rich ": 10512, "Clan ": 10513, "abandon": 10514, "residence ": 10515, "Dun": 10516, "legend": 10517, "in the late ": 10518, "in and ": 10519, "billion ": 10520, "peaking at number ": 10521, "Albums Chart": 10522, "Following ": 10523, " training ": 10524, "physically ": 10525, "ated, ": 10526, "disband": 10527, "Community ": 10528, "in the after": 10529, "at the age of ": 10530, "San Di": 10531, "San Dieg": 10532, "San Diego ": 10533, "al, the ": 10534, "sen ": 10535, "roll ": 10536, "relent": 10537, "cinem": 10538, "Hudson ": 10539, "potenti": 10540, "ed with his ": 10541, "size of the ": 10542, "att ": 10543, "scattered ": 10544, "y and C": 10545, ", though the ": 10546, "felt that ": 10547, ". Com": 10548, "Lan": 10549, "aw, ": 10550, "sets ": 10551, "owever ": 10552, "grew": 10553, "Red": 10554, "? \" ": 10555, "class of ": 10556, "dread": 10557, "dreadn": 10558, "never": 10559, "laying ": 10560, "next": 10561, "spare ": 10562, "Os": 10563, "bourne ": 10564, "studio album": 10565, "XX": 10566, "letter to ": 10567, "Bruce ": 10568, "stress fract": 10569, "behavior": 10570, "injuries": 10571, "course of the ": 10572, "kilomet": 10573, "47 ": 10574, "eighth": 10575, "us of ": 10576, "mas": 10577, "ate that ": 10578, "domestic ": 10579, "s. \n = ": 10580, "fought ": 10581, "( E": 10582, "capture": 10583, "Palest": 10584, "s. These ": 10585, "Light Horse Brigade ": 10586, "as their ": 10587, "orchestra ": 10588, "ed him to ": 10589, "inaug": 10590, "wrote that the ": 10591, "privately ": 10592, "ousand ": 10593, "e, is ": 10594, "possibil": 10595, "classific": 10596, "distribut": 10597, "least": 10598, ". \n = = Pers": 10599, "signed ": 10600, "invitation to ": 10601, "starting ": 10602, "Cardin": 10603, "home run": 10604, "ERA ": 10605, "staff": 10606, "subject ": 10607, "film to ": 10608, "cinemat": 10609, "infer": 10610, "multi-": 10611, "dramatic ": 10612, "I 've ": 10613, "Return": 10614, "Link ": 10615, "out to ": 10616, "dess": 10617, "destruction": 10618, "Sword": 10619, "Hyder": 10620, "abad": 10621, "avil": 10622, "India 's ": 10623, "off-": 10624, "bon": 10625, "problems ": 10626, "er during the ": 10627, "varie": 10628, "leaf": 10629, "ju": 10630, "elled ": 10631, "Award for Best ": 10632, "Amendment": 10633, "football": 10634, "Middles": 10635, "imming ": 10636, "Olympic ": 10637, "il 's ": 10638, "Alt": 10639, "( 2009 ": 10640, "Ryan ": 10641, "Valley ": 10642, "faster than ": 10643, "ceratop": 10644, "ceratopsi": 10645, ". In addition, ": 10646, "probable ": 10647, "portion": 10648, "argument": 10649, "judge ": 10650, "500 @,@ 000 ": 10651, "alti": 10652, "punk ": 10653, "ex-": 10654, "shows, ": 10655, "box": 10656, "Organiz": 10657, "World Series ": 10658, "hood": 10659, "surger": 10660, "s. He also ": 10661, "online ": 10662, "subsidi": 10663, "AMA ": 10664, "Hold": 10665, ". At the end of the ": 10666, "Power ": 10667, "eparate ": 10668, ". Three ": 10669, "were also ": 10670, "onze ": 10671, "building, ": 10672, "spiral": 10673, "spiral ": 10674, "pattern ": 10675, "bath": 10676, "Look": 10677, "representative ": 10678, " threaten": 10679, "Sarah ": 10680, "has not ": 10681, "Charl": 10682, "morning ": 10683, "member": 10684, "philosoph": 10685, "oons ": 10686, "vulnerable to ": 10687, "iron": 10688, "ironcl": 10689, "valu": 10690, "nominations ": 10691, "Lo": 10692, "The Simpson": 10693, "Network ": 10694, "started to ": 10695, "bach": 10696, ". On Latin ": 10697, "Airplay": 10698, "Airplay, the song debuted at number ": 10699, "Rhythm ": 10700, "Queen 's ": 10701, "), and was ": 10702, "20, ": 10703, "single, ": 10704, "alo ": 10705, "on the US ": 10706, "on the US Billboard ": 10707, "X-Fil": 10708, "comfortable ": 10709, "ape ": 10710, "fans ": 10711, "Book ": 10712, "reference ": 10713, ". \n At the ": 10714, "survey ": 10715, "Inn": 10716, "Rem": 10717, "2003, ": 10718, "-foot ": 10719, "-foot ( ": 10720, "Mov": 10721, "Medic": 10722, "Antarctic ": 10723, "Most ": 10724, "demolish": 10725, "newspaper ": 10726, "faction": 10727, "construction": 10728, "squadron ": 10729, "rank of ": 10730, "sional ": 10731, "D-": 10732, "ises ": 10733, "atrical ": 10734, "obvious ": 10735, "Mik": 10736, "artistic ": 10737, "laud": 10738, "mountain": 10739, "rhyth": 10740, "Tulun ": 10741, "retreated ": 10742, "confron": 10743, "seated ": 10744, "Alab": 10745, "iday ": 10746, "placed in ": 10747, " took place ": 10748, " to have been ": 10749, "Oak": 10750, "Williams ": 10751, "for all ": 10752, "records ": 10753, "song, ": 10754, "Hamil": 10755, "Ray ": 10756, "west of the ": 10757, "jok": 10758, "Stra": 10759, "certified gold ": 10760, "and social ": 10761, "MacGreg": 10762, "Poy": 10763, "descended ": 10764, "s to his ": 10765, "acy and ": 10766, "Spong": 10767, "in )": 10768, "romet": 10769, ". Rob": 10770, "panc": 10771, "Canc": 10772, "Monro": 10773, "cow": 10774, "iness ": 10775, "strongly ": 10776, "exchange for ": 10777, "heavily ": 10778, "elit": 10779, "emoir": 10780, "Finn": 10781, "drawn ": 10782, "DiCap": 10783, "ed into the ": 10784, "saw him ": 10785, "capital ": 10786, "ated his ": 10787, "museum ": 10788, "emorial ": 10789, "mund ": 10790, " temporary ": 10791, "Louis": 10792, "\" N": 10793, ". He returned to ": 10794, "spoke ": 10795, "allows ": 10796, "borough ": 10797, "grac": 10798, "inian ": 10799, "18  ": 10800, "5-": 10801, "demograph": 10802, "masc": 10803, "Meth": 10804, "ones, ": 10805, "Jagu": 10806, "Pegg": 10807, "ingdom Hear": 10808, "ingdom Hearts ": 10809, "received an ": 10810, "unlike ": 10811, " titles ": 10812, "in the series": 10813, "comments ": 10814, "than ": 10815, "date ": 10816, "ing T": 10817, "om the ": 10818, "Bomb": 10819, "Wayne ": 10820, "Ferris ": 10821, "favorite ": 10822, "carr": 10823, "name, ": 10824, "meaning \" ": 10825, "means ": 10826, "April": 10827, " three-": 10828, "ed in his ": 10829, "Parad": 10830, "was born ": 10831, "Senator ": 10832, "USAF ": 10833, "discipl": 10834, "ransport ": 10835, "suspend": 10836, "Bern": 10837, "protest ": 10838, "3: ": 10839, "ana 's ": 10840, "( born ": 10841, "Vic": 10842, "Pakist": 10843, "ery": 10844, "Robin": 10845, " that they are ": 10846, " tol": 10847, "s he ": 10848, "ighth": 10849, "windmill ": 10850, "Matthew ": 10851, "Og": 10852, "which is ": 10853, "bour ": 10854, "was further ": 10855, "on Billboard ": 10856, "Andy ": 10857, "Class": 10858, "World": 10859, "readers ": 10860, "Coo": 10861, "follows the ": 10862, ". The game ": 10863, "lahom": 10864, "Destin": 10865, "Broad": 10866, "performance, ": 10867, "irty ": 10868, "\", which was ": 10869, "Offic": 10870, "May 194": 10871, "it as a ": 10872, ". However, he ": 10873, "Mick": 10874, "Colin ": 10875, "'s re": 10876, "nos": 10877, "Ont": 10878, "lands ": 10879, "Harbor": 10880, "ward, ": 10881, "Hend": 10882, "supporter ": 10883, "Johnson": 10884, "curraw": 10885, "Port ": 10886, "s later": 10887, "His ": 10888, "mistak": 10889, "being the first ": 10890, "emergency ": 10891, "hydro": 10892, "undergo ": 10893, "aces ": 10894, "A ) ": 10895, "guerr": 10896, "activity ": 10897, "e these ": 10898, "branch ": 10899, "is a t": 10900, "ype of ": 10901, "ors, and ": 10902, "round": 10903, "ed them": 10904, "Road, ": 10905, "East Ang": 10906, "East Angli": 10907, "he is ": 10908, "li ": 10909, "roles ": 10910, "ed his first ": 10911, ", when he ": 10912, "effectively ": 10913, "by T": 10914, "positively ": 10915, "visual ": 10916, "es, who ": 10917, "Wall ": 10918, "African-American ": 10919, "Samuel ": 10920, "a more ": 10921, "cemetery ": 10922, "centuries ": 10923, "fighting ": 10924, "skir": 10925, "Batter": 10926, "iate ": 10927, "solid ": 10928, ": A ": 10929, "ologist": 10930, "second season ": 10931, "2. The ": 10932, "2013  ": 10933, "injuries ": 10934, "popularity of ": 10935, "ense": 10936, "Skanderbeg": 10937, "surprise ": 10938, "isolated ": 10939, "dress": 10940, "assault": 10941, "gath": 10942, "gathered ": 10943, "ed themselv": 10944, "of troop": 10945, "es had ": 10946, "compens": 10947, " to restor": 10948, " the first ": 10949, "ratings ": 10950, "immigr": 10951, "contact": 10952, "between the two": 10953, "leading to the ": 10954, "internal ": 10955, "eopard": 10956, "ability ": 10957, "its first ": 10958, "meant": 10959, "Four": 10960, "filmmak": 10961, "19th-century ": 10962, "Protestant ": 10963, "interc": 10964, "work in the ": 10965, "sal ": 10966, "spons": 10967, "Cape ": 10968, "southwest ": 10969, "peak intens": 10970, "port of ": 10971, "an additional ": 10972, "= = = \n A ": 10973, "levels of ": 10974, "e them": 10975, "first-person ": 10976, "Pedr": 10977, "Pedro ": 10978, "MAS": 10979, "MASB ": 10980, "'d ": 10981, "joined ": 10982, "Legacy ": 10983, "Mountain": 10984, "Line ": 10985, "Word": 10986, "poem ": 10987, "ed. This ": 10988, "Lamb": 10989, "ating in ": 10990, "admitt": 10991, "worship": 10992, "Nar": 10993, "s  ": 10994, "monast": 10995, "monastery ": 10996, "books ": 10997, "only be ": 10998, "continuous ": 10999, "achute ": 11000, "of Le": 11001, "s in early ": 11002, "awk": 11003, "amph": 11004, "amphib": 11005, "amphibious ": 11006, "ography ": 11007, "on 15 ": 11008, "ino ": 11009, "up a ": 11010, "portion of the ": 11011, "models ": 11012, "19th centur": 11013, "orped": 11014, "implement": 11015, "iesw": 11016, "ieswet": 11017, "ieswetter ": 11018, "ing, the ": 11019, "auxiliary ": 11020, "SS ": 11021, "cannot be ": 11022, "exercis": 11023, "ship. The ": 11024, "1916": 11025, "Hungarian ": 11026, "persec": 11027, "wrote: ": 11028, "observations ": 11029, "Beta P": 11030, "Beta Pictor": 11031, "vel": 11032, "Testament ": 11033, "iconic ": 11034, "organis": 11035, "fly ": 11036, "Post-": 11037, "Kumaritashvil": 11038, "Georgian ": 11039, "could": 11040, "by his ": 11041, "qualifi": 11042, "FC ": 11043, "sarcast": 11044, "Mam": 11045, "Rihann": 11046, "Padd": 11047, "hypothes": 11048, "practition": 11049, "is, the ": 11050, "slave ": 11051, "children, ": 11052, "Eastern ": 11053, "garn": 11054, "confront": 11055, "attacked ": 11056, "baseball ": 11057, "eball": 11058, "210 ": 11059, "ed a \" ": 11060, "vessel ": 11061, "yt": 11062, "ventil": 11063, "oli": 11064, "prior ": 11065, "disease ": 11066, "s; the ": 11067, "gen ": 11068, "Grade ": 11069, "Simone ": 11070, "filmed ": 11071, "azz ": 11072, "moved to the ": 11073, "y, but ": 11074, "in what ": 11075, "extension": 11076, "Lith": 11077, "Lithu": 11078, ". With the ": 11079, "wearing ": 11080, "ie 's ": 11081, "old the ": 11082, "Sil": 11083, "Fleet ": 11084, "Spit": 11085, "brief ": 11086, "Yug": 11087, "Although the ": 11088, "built": 11089, "arch ": 11090, "bank ": 11091, "regard ": 11092, "1937 ": 11093, "disc ": 11094, " million in ": 11095, "Brazilian ": 11096, "rebel ": 11097, "orious ": 11098, ".I.": 11099, "well received by ": 11100, "Old": 11101, "Academ": 11102, "signal ": 11103, "AL": 11104, "equal": 11105, "Mut": 11106, "out of five star": 11107, "minutes ": 11108, "18 @.@ ": 11109, "Fond": 11110, "Vietnamese ": 11111, "Mach ": 11112, "necessit": 11113, "reform": 11114, "interact ": 11115, "chromosom": 11116, "have t": 11117, "ulation ": 11118, "thers ": 11119, "58": 11120, "it has ": 11121, "Saturday ": 11122, "Italy": 11123, "she and ": 11124, "reserve ": 11125, "Youn": 11126, "engaged in ": 11127, "ed: \n ": 11128, "Wooldr": 11129, "remot": 11130, "\" too ": 11131, "olar": 11132, "CT": 11133, ". In early ": 11134, "extreme ": 11135, "pitch ": 11136, "in 2008": 11137, "18: ": 11138, "57 ": 11139, ") \n = = = ": 11140, "C ) ": 11141, "early on August ": 11142, "irrigation ": 11143, "Mega ": 11144, "Cod": 11145, "Seg": 11146, "satisf": 11147, "Achiev": 11148, "Grac": 11149, "ishi ": 11150, "-H": 11151, "Sports ": 11152, "udd": 11153, "military": 11154, "Fring": 11155, "Entertainment Weekly ": 11156, "he was not ": 11157, "found that ": 11158, "barely ": 11159, "fles": 11160, "Sea, ": 11161, "outer ": 11162, "eyew": 11163, "JM": 11164, "intensif": 11165, "5 km / h ( ": 11166, "ometric ": 11167, "pressure of ": 11168, "bar ( ": 11169, "Pa": 11170, "inH": 11171, "inHg ": 11172, "center of ": 11173, "council ": 11174, "Municipal ": 11175, "Vargas L": 11176, "Vargas Llos": 11177, ", these ": 11178, "and the S": 11179, "prost": 11180, "upp": 11181, "official": 11182, "ia. The ": 11183, "e them ": 11184, "strip": 11185, ")  ": 11186, "equipment ": 11187, "Point ": 11188, "spell": 11189, "Jean": 11190, "ees": 11191, "utter ": 11192, "commenc": 11193, "sphere ": 11194, "and this ": 11195, "repent": 11196, "repentance ": 11197, "expression": 11198, "is the most ": 11199, "style of ": 11200, "horri": 11201, "aka ": 11202, "A and ": 11203, "yz": 11204, "hu": 11205, "1994 ": 11206, "endors": 11207, "large-": 11208, "7 @,@ 000 ": 11209, "floods ": 11210, "Max ": 11211, "Science ": 11212, "1911": 11213, "ed them to ": 11214, "Rio ": 11215, "ures and ": 11216, "evening of ": 11217, "New Brunsw": 11218, "magic \", which ": 11219, "Men 's ": 11220, "beyond ": 11221, "Avenue ": 11222, "map": 11223, "choos": 11224, "ypt": 11225, "rigu": 11226, "appearing in ": 11227, "ors ' ": 11228, "producer, ": 11229, "steam": 11230, "1 @,@ 6": 11231, "i ) ": 11232, "during their ": 11233, "t a ": 11234, "reputation as a ": 11235, "angerous ": 11236, "Crimin": 11237, "Criminal ": 11238, "us is ": 11239, "qualified ": 11240, "a four-": 11241, "ella ": 11242, "50 @,@ 000 ": 11243, "Schindler ": 11244, "called \" ": 11245, "-based ": 11246, "changes in ": 11247, "Bris": 11248, "Read": 11249, "stopp": 11250, "mother, ": 11251, "sit ": 11252, "Marshall ": 11253, "Law ": 11254, "By the ": 11255, "20 @,@ 000 ": 11256, "lost to ": 11257, "2 in ": 11258, ". They have ": 11259, "quick ": 11260, "ustralia ": 11261, "overnor": 11262, "ed troop": 11263, "Girard ": 11264, "Three ": 11265, "3 m": 11266, "replaced ": 11267, "e through ": 11268, "e, she ": 11269, "Atari ": 11270, "jar": 11271, "Gill ": 11272, "US 20 ": 11273, "criticized ": 11274, "strugg": 11275, " more ": 11276, "er, he ": 11277, ". Despite the ": 11278, "it. The ": 11279, "properly ": 11280, "Four ": 11281, "Brett ": 11282, "Gol": 11283, "Vinay": 11284, "in two ": 11285, "CCF ": 11286, "Percy ": 11287, "imal ": 11288, "connecting ": 11289, "extend": 11290, ". A tot": 11291, ". A total of ": 11292, "  s ": 11293, "survey": 11294, " top ": 11295, "captain ": 11296, "Dream": 11297, "Upper ": 11298, "urret": 11299, ". ( ": 11300, ". Also ": 11301, "positive reviews from critic": 11302, "Recording Industry ": 11303, "i: ": 11304, "BN 0": 11305, "condemn": 11306, "Germans ": 11307, "opsis ": 11308, "Hem": 11309, " target": 11310, "Schum": 11311, "row of the ": 11312, "drivers ": 11313, "Valley": 11314, "es ), ": 11315, "( G": 11316, "planetary ": 11317, "Cloud ": 11318, "September": 11319, "would eventually ": 11320, "mm ": 11321, "Det": 11322, "enge": 11323, "ason ": 11324, "ahr": 11325, "mere ": 11326, "partial ": 11327, "Israeli ": 11328, "golf ": 11329, "37": 11330, "solid": 11331, "Duk": 11332, "e, with ": 11333, ", they are ": 11334, "making the ": 11335, "omo": 11336, "liber": 11337, "Sig": 11338, "ilater": 11339, "Hob": 11340, "^ ": 11341, "Provid": 11342, "streets ": 11343, "akum": 11344, "music was ": 11345, "eur ": 11346, "attraction ": 11347, "needed to ": 11348, "alities ": 11349, "km / h ) and ": 11350, "Fun": 11351, "convers": 11352, "seems ": 11353, "bot": 11354, "nom": 11355, "Junt": 11356, "Marian": 11357, "Ahmedabad ": 11358, "killing ": 11359, "14, ": 11360, "Myr": 11361, "Myrrh": 11362, "Braves ": 11363, "magazine 's ": 11364, "a game ": 11365, "Kam": 11366, "marriage ": 11367, "display ": 11368, "param": 11369, "sab": 11370, "by their ": 11371, "a year ": 11372, "production, ": 11373, ". Gilly ": 11374, ". Whil": 11375, "at the end of ": 11376, "cook": 11377, "capable of ": 11378, "Patrick ": 11379, ". For example, ": 11380, "express ": 11381, "Americans ": 11382, "Colorado ": 11383, "Spain ": 11384, "Prince of ": 11385, "Kav": 11386, "has also been ": 11387, "es which ": 11388, "ott ": 11389, "rule ": 11390, "joined the ": 11391, "Theat": 11392, "Board of ": 11393, "Still ": 11394, "governor ": 11395, "Margar": 11396, "Margaret ": 11397, "Valhall": 11398, "athic ": 11399, "osteop": 11400, "RAR ": 11401, "FSB ": 11402, "Coral ": 11403, "Jay ": 11404, "Madonna ": 11405, "Victoria": 11406, "Barrack": 11407, "wa": 11408, "ucc": 11409, " there had been ": 11410, "um-": 11411, "130 ": 11412, "Chocob": 11413, "evident ": 11414, "commitment": 11415, "Harry Potter ": 11416, "piano ": 11417, "BI": 11418, "Beid": 11419, "Beider": 11420, "Beiderbec": 11421, "Adam ": 11422, "chol": 11423, "Tany": 11424, "an attempt to ": 11425, "categ": 11426, "categor": 11427, "attract": 11428, "Manchester ": 11429, "fired ": 11430, "Earl of ": 11431, "Wollstonecraft ": 11432, "step ": 11433, "al-H": 11434, "al-Haj": 11435, "al-Hajjaj": 11436, "Ibn al-Ash 'ath ": 11437, "Carey ": 11438, "Research ": 11439, "homotop": 11440, "received the ": 11441, "Coronae ": 11442, "Coronae Austral": 11443, "separated by ": 11444, "spectr": 11445, "Eta ": 11446, "Zomb": 11447, "Lauc": 11448, "Falc": 11449, "renewable ": 11450, "was initially ": 11451, "anan": 11452, "illusory ": 11453, "echne": 11454, "echneti": 11455, "Bosn": 11456, "arant": 11457, "ia M": 11458, "164": 11459, "VC": 11460, "mm ) ": 11461, "feday": 11462, "fedayeen ": 11463, "Fron": 11464, "Release ": 11465, "Grav": 11466, "baron": 11467, "ling, James ": 11468, "Knockouts ": 11469, "dors": 11470, "dorsal ": 11471, "Trot": 11472, "Tho ": 11473, "F-": 11474, "aston ": 11475, "cant": 11476, "chapter": 11477, "dialogue ": 11478, "Rosas 's ": 11479, "parody ": 11480, "custody arrangements ": 11481, "Anna ": 11482, "Cumber": 11483, "oligonucle": 11484, "oligonucleoti": 11485, "System ": 11486, "Floy": 11487, "Floyd ": 11488, "Yolande ": 11489, "matter ": 11490, "Rukia ": 11491, "tent": 11492, "Bokass": 11493, "Chandler ": 11494, "Little Sist": 11495, "myr": 11496, "NY 8": 11497, "Salim ": 11498, "Anark": 11499, "Dragon B": 11500, "en J": 11501, "Koch": 11502, "), \" be ": 11503, "Aftermath ": 11504, "WWE ": 11505, "being": 11506, "was able to ": 11507, "leading to ": 11508, "unexpected ": 11509, "was the only ": 11510, "ession of ": 11511, "Mob": 11512, "ammon": 11513, "can also be ": 11514, "urani": 11515, "um and ": 11516, "ia, and ": 11517, "substitute ": 11518, "ible": 11519, "Breg": 11520, "chose to ": 11521, "vehic": 11522, "baptism": 11523, "conversion ": 11524, "only a ": 11525, "symbol": 11526, "requirement ": 11527, ", it is ": 11528, "plays the ": 11529, "arian": 11530, "Ol": 11531, "and S": 11532, "ouston ": 11533, "ferenc": 11534, "o K": 11535, "one game ": 11536, "exha": 11537, "out and ": 11538, "Final": 11539, "rivals ": 11540, "oop": 11541, "barr": 11542, "y, a ": 11543, "5 was ": 11544, "basketball ": 11545, "Larry ": 11546, "monst": 11547, "block ": 11548, "s. During the ": 11549, "loss ": 11550, "averaged ": 11551, "a lack ": 11552, "in later ": 11553, "aser ": 11554, "satisfaction ": 11555, "subordin": 11556, ". He was also ": 11557, "Malcol": 11558, "attempted ": 11559, "a story ": 11560, "Writ": 11561, "Bond ": 11562, "isn 't ": 11563, "link ": 11564, "short, ": 11565, "located in the ": 11566, "way to the ": 11567, "rerout": 11568, "en was ": 11569, "Anglo-Sax": 11570, "verb ": 11571, "ibal": 11572, "ocean": 11573, "sink": 11574, "mill": 11575, "1 @.@ 6 ": 11576, "per year": 11577, "above the ": 11578, "ma m": 11579, "ultic": 11580, "ulticellular ": 11581, "metabol": 11582, "issues": 11583, "proteins ": 11584, "Renaiss": 11585, "periods ": 11586, "Edd": 11587, "computer": 11588, "liken": 11589, "which had ": 11590, ". Of the ": 11591, "junction with ": 11592, "2010 and ": 11593, "Wi": 11594, "format": 11595, "Xbox ": 11596, "citizen": 11597, "beach ": 11598, "vac": 11599, "Crim": 11600, "create the ": 11601, "ed to be a ": 11602, " turned the ": 11603, "road. The ": 11604, "front of the ": 11605, "on top": 11606, "., ": 11607, "perim": 11608, "Atomic ": 11609, "Atomic Energy ": 11610, "shop ": 11611, "Street, ": 11612, "discussed ": 11613, "divorce ": 11614, "for many ": 11615, "projects ": 11616, "e. D": 11617, "parent ": 11618, "shoo": 11619, "in the United States, ": 11620, "Tic": 11621, "Ticonder": 11622, "Ticonderoga ": 11623, "U.S. N": 11624, "e. It was ": 11625, "Corporation, ": 11626, ", and is ": 11627, "inging ": 11628, "e and a ": 11629, "progress": 11630, "yellow": 11631, "dark": 11632, "Est": 11633, "Mother ": 11634, "via the ": 11635, "Gag": 11636, "in her ": 11637, "Germany 's ": 11638, "Kore": 11639, "ed at number ": 11640, "Electronic ": 11641, "67 ": 11642, "fine ": 11643, "photographer ": 11644, "gained a ": 11645, "Video ": 11646, "images of ": 11647, "infrequ": 11648, "developed a ": 11649, "suppress": 11650, "eto ": 11651, "episode received ": 11652, "Handlen ": 11653, "A.V": 11654, "A.V. ": 11655, "A.V. Club ": 11656, "heart": 11657, "... and ": 11658, "sure ": 11659, "continuity ": 11660, "more th": 11661, "case of ": 11662, "number-": 11663, "compas": 11664, "marked the ": 11665, "recovered ": 11666, " theories ": 11667, "\". L": 11668, "poin": 11669, "mourn": 11670, " and is ": 11671, "Roman Catholic ": 11672, "Music": 11673, "-long ": 11674, "Al ": 11675, "Harvey ": 11676, "crew and ": 11677, "bie ": 11678, "backing ": 11679, "Forest ": 11680, "Stadi": 11681, "merely ": 11682, "nature of the ": 11683, "a score of ": 11684, " the g": 11685, "flaw": 11686, "stylist": 11687, "choice of ": 11688, "Before ": 11689, "Beec": 11690, "Beecher ": 11691, "meier ": 11692, "chees": 11693, "e, and had ": 11694, "knowledge of the ": 11695, "cheese ": 11696, "passion ": 11697, "during his ": 11698, "childhood ": 11699, "in T": 11700, "Co. ": 11701, "Inc.": 11702, "ett 's ": 11703, "dish": 11704, "ak 's ": 11705, "Wer": 11706, "village ": 11707, "ko ": 11708, "in October ": 11709, "wreck": 11710, ", and J": 11711, "14 @,@ 000 ": 11712, "4 @,@ 000 ": 11713, "6 @,@ ": 11714, "a to the ": 11715, "waiting ": 11716, "rooms ": 11717, "available": 11718, "e, t": 11719, "of their": 11720, "book, ": 11721, "I have ": 11722, "slop": 11723, "unusual ": 11724, "Ramay": 11725, "e the": 11726, "e their": 11727, "\n A": 11728, "Main ": 11729, "an intersection ": 11730, "blocks ": 11731, "ninj": 11732, "Okab": 11733, "Okabe ": 11734, "leader of the ": 11735, "shelter ": 11736, "Goddess ": 11737, "aki": 11738, "Shiroheb": 11739, "sn": 11740, "exact ": 11741, "anu": 11742, "learns that ": 11743, "classes ": 11744, "family": 11745, "ian and ": 11746, "oro ": 11747, "enslav": 11748, "name \" ": 11749, "chim": 11750, "who": 11751, "grown": 11752, "ought of ": 11753, "with this ": 11754, "delt": 11755, "delta f": 11756, "sufficiently ": 11757, "gue ": 11758, "measure ": 11759, "Characteristics ": 11760, "and in the ": 11761, "JTWC": 11762, "northward": 11763, ". Later, ": 11764, "a r": 11765, "Hu": 11766, "a H": 11767, "next day, the ": 11768, "Bay ": 11769, "passing ": 11770, ", the I": 11771, "northwest": 11772, "Kal": 11773, "Libr": 11774, "Cambridge ": 11775, "tie ": 11776, "in the book": 11777, ". Rather than ": 11778, " trick": 11779, "mock": 11780, "idea that ": 11781, "particularly": 11782, "experiences ": 11783, "Lenn": 11784, "onald ": 11785, "Bour": 11786, "retained ": 11787, "propag": 11788, "ics, the ": 11789, "auch": 11790, "dynam": 11791, "eb ": 11792, "iTun": 11793, "ault ": 11794, "ed on several ": 11795, "seeing ": 11796, "hys": 11797, "President of ": 11798, "studio album ": 11799, "A. M": 11800, "of the first ": 11801, "Steven ": 11802, "focuses on ": 11803, "challenging ": 11804, "hypoc": 11805, "ingham ": 11806, "club 's ": 11807, "p.": 11808, ", with the ": 11809, "however, the ": 11810, "back for ": 11811, "Roos": 11812, "Roosev": 11813, "bear the ": 11814, "show a ": 11815, "seri": 11816, "Brad ": 11817, "hero ": 11818, "learning ": 11819, "winter ": 11820, "Profess": 11821, "etary ": 11822, "Eng": 11823, "Engine": 11824, "2, and ": 11825, "Resourc": 11826, "Brigade, ": 11827, "Brigade, 7th ": 11828, ") Division ": 11829, "aria ": 11830, "was attack": 11831, "southwest": 11832, "( or ": 11833, "Gren": 11834, "context": 11835, "notes ": 11836, "future": 11837, "eat ": 11838, "joining the ": 11839, "likelih": 11840, "achus": 11841, "ania, ": 11842, "riot": 11843, "desire ": 11844, "red, ": 11845, "stopped ": 11846, "short of ": 11847, "asking ": 11848, "resort": 11849, ". Rep": 11850, "ates in ": 11851, "discuss the ": 11852, "es to find ": 11853, "s. In": 11854, "1975 ": 11855, "original t": 11856, " thos": 11857, "state of ": 11858, "e. \n = ": 11859, " television series ": 11860, "Raid": 11861, "ache ": 11862, "also be ": 11863, "ascoign": 11864, "a massive ": 11865, "opt": 11866, "astronomical ": 11867, "placed the ": 11868, "Surv": 11869, "decades ": 11870, "anticipated ": 11871, "edition of ": 11872, "ine 's ": 11873, "matern": 11874, "an interview with ": 11875, "Chronic": 11876, "formal ": 11877, ", explain": 11878, "View": 11879, "November 194": 11880, "Chicago": 11881, "Room": 11882, "Waldor": 11883, "Astor": 11884, "Pall": 11885, "Malaysi": 11886, "Var": 11887, "ed in January ": 11888, "Cross ": 11889, "Beatles ": 11890, "-up": 11891, "Wonder": 11892, "Music and ": 11893, "Sound": 11894, "1968 ": 11895, "wall, ": 11896, "Sound ": 11897, "experimental ": 11898, "ed in November ": 11899, "and the first ": 11900, "musicians ": 11901, "arma ": 11902, "Scene ": 11903, "bombardment ": 11904, "Sea": 11905, "decom": 11906, "scrapp": 11907, "authorized ": 11908, "hoping to ": 11909, "s between ": 11910, "ile ( ": 11911, "rather ": 11912, " there was no ": 11913, "humour ": 11914, "funny ": 11915, "yield": 11916, ". Furthermor": 11917, "Berkel": 11918, "Berkeley ": 11919, "group, ": 11920, "-inch ": 11921, "Russia, ": 11922, "scientist": 11923, "Chicxulub ": 11924, "physic": 11925, "Alvare": 11926, "z and ": 11927, "Cretace": 11928, "Paleogen": 11929, "facult": 11930, "faculty ": 11931, "aneous ": 11932, "start of the ": 11933, "Pg ": 11934, "associated with the ": 11935, ", including the ": 11936, "data ": 11937, "a, and the ": 11938, "exactly the ": 11939, "pale": 11940, "00 @,@ 000 ": 11941, "supported by ": 11942, "ology": 11943, "olli": 11944, "ollipop": 11945, "recorded by ": 11946, "Alexand": 11947, "Stan ": 11948, "was written by ": 11949, "i, and ": 11950, "was re-": 11951, "Canada, ": 11952, "in front of ": 11953, "\", while ": 11954, "ci": 11955, "ally, the ": 11956, "ambush ": 11957, ". At this point": 11958, "ed from his ": 11959, "6 ) ": 11960, "pure ": 11961, "apor": 11962, "acid ": 11963, "aes": 11964, "( S": 11965, "praise ": 11966, "Secretary of State ": 11967, "State Department ": 11968, "at the time, ": 11969, "because of the ": 11970, "eness ": 11971, "Acheson ": 11972, "Assistant ": 11973, "Economic ": 11974, "Affairs, ": 11975, "Route description ": 11976, "over-": 11977, "pric": 11978, "spective ": 11979, "utiv": 11980, "research and ": 11981, "costs ": 11982, "epil": 11983, "occur in the ": 11984, "deaths ": 11985, "world, ": 11986, "adult": 11987, "frequency ": 11988, "80, ": 11989, "40 and ": 11990, "restrictions ": 11991, "several": 11992, "assand": 11993, "Even ": 11994, "Bast": 11995, "inducted ": 11996, "overeign ": 11997, "choose ": 11998, "Knight": 11999, "advice ": 12000, "herefor": 12001, "( W": 12002, "Churchill ": 12003, "gif": 12004, "Rab": 12005, "1941": 12006, "ai and ": 12007, "NG": 12008, "consequenc": 12009, "ed there ": 12010, "mobil": 12011, ". Occ": 12012, "defensive position": 12013, "disper": 12014, "Vul": 12015, " the following ": 12016, "lan ": 12017, "October": 12018, "had also ": 12019, "find out ": 12020, "flooding ": 12021, "swim": 12022, "affected ": 12023, "as and ": 12024, "as \" The ": 12025, "frustr": 12026, "because it ": 12027, "would have been ": 12028, "one and ": 12029, "featuring the ": 12030, "ism was ": 12031, "various other ": 12032, "U.S.": 12033, "ewiv": 12034, "es into ": 12035, "Nick": 12036, "lung": 12037, "hydr": 12038, "a N": 12039, "Manuel ": 12040, "was th": 12041, "IW": 12042, "IWG": 12043, "IWGP ": 12044, "Heavy": 12045, "Heavyweight ": 12046, "Championship, ": 12047, "after an ": 12048, "made by ": 12049, "ed the title ": 12050, "promotion": 12051, "settlers ": 12052, "falls ": 12053, ", when": 12054, "cheer": 12055, "ants and ": 12056, "title of ": 12057, "high school": 12058, "Bapt": 12059, "Baptist ": 12060, "depicts ": 12061, "Soviet": 12062, "6th ": 12063, "e there ": 12064, "recruit": 12065, " thrill": 12066, "delayed ": 12067, "Mu": 12068, "play the ": 12069, "reported that ": 12070, "800 ": 12071, "ive": 12072, "Claude ": 12073, "250 ": 12074, "asked for ": 12075, "foreign": 12076, "short-liv": 12077, "Doll": 12078, "was shot ": 12079, "spin-": 12080, "spin-off ": 12081, "diab": 12082, "Activ": 12083, "obl": 12084, "oblig": 12085, ", but he ": 12086, "rupt ": 12087, "must have ": 12088, "ation which ": 12089, ". Cart": 12090, "agreement": 12091, "ed. He ": 12092, "permission": 12093, "favorable ": 12094, "Mayor ": 12095, "parad": 12096, "won": 12097, "135 ": 12098, "explod": 12099, "52 ": 12100, "etric tons ( ": 12101, "3 @,@ ": 12102, "sent to the ": 12103, "United States": 12104, "was their ": 12105, "recognis": 12106, "disord": 12107, " there, ": 12108, "wake of the ": 12109, "1st Cavalry ": 12110, "Marine ": 12111, "bat ": 12112, "am. The ": 12113, "es. These ": 12114, "colonies ": 12115, "population of ": 12116, "until mid": 12117, "until mid-": 12118, "Shor": 12119, "ant in ": 12120, "iew ": 12121, "Cemetery ": 12122, "Arc": 12123, "Center": 12124, "ed on June ": 12125, "inside the ": 12126, "Abbey ": 12127, " theat": 12128, "Westminster ": 12129, "gram": 12130, "seven": 12131, "viewers ": 12132, "becoming the ": 12133, "said the ": 12134, "Porter ": 12135, "washed ": 12136, "28, ": 12137, "peaked at number two ": 12138, "week on the ": 12139, "certified platinum ": 12140, ". On June ": 12141, " top-": 12142, "witzer": 12143, "gium": 12144, "number three ": 12145, ". The following week": 12146, ". As of January ": 12147, "attended the ": 12148, "guitarist ": 12149, "time to ": 12150, "s. E": 12151, "ually, ": 12152, "harmon": 12153, "guitar, ": 12154, "bass": 12155, "in 1963": 12156, "Socialist ": 12157, "Motor ": 12158, "Corps ( ": 12159, "Nazi ": 12160, "). M": 12161, "replaced the ": 12162, "two-": 12163, "Beech": 12164, "Tud": 12165, "Tudor ": 12166, "from the same ": 12167, "named storm ": 12168, "west coast of ": 12169, "km / h ) ": 12170, "ing out ": 12171, "surge ": 12172, "s;": 12173, "percent": 12174, "cutt": 12175, "a much ": 12176, "make it ": 12177, "syndr": 12178, "AIDS ": 12179, "either a ": 12180, "CD": 12181, "1980": 12182, "otus ": 12183, "vocals ": 12184, ". Arch": 12185, "Kling": 12186, "deser": 12187, "flam": 12188, "The Tim": 12189, "calls ": 12190, "s made ": 12191, "letters ": 12192, "friend, ": 12193, "othy ": 12194, "at that ": 12195, "): ": 12196, "2009  ": 12197, "interferon bet": 12198, "1-": 12199, "ency of ": 12200, " two week": 12201, "consequ": 12202, "al. \n ": 12203, "Regard": 12204, "ability of ": 12205, "activities ": 12206, "liqu": 12207, "v. ": 12208, "neu": 12209, "and the Ch": 12210, "post-war ": 12211, "selection": 12212, "first match ": 12213, "managed ": 12214, "second innings ": 12215, "out for ": 12216, "played in the ": 12217, ". During": 12218, "batted": 12219, "provided a ": 12220, "s 's ": 12221, "arre": 12222, "ers, but ": 12223, "many": 12224, "oppon": 12225, "situation": 12226, "composer ": 12227, "'s three ": 12228, "Guit": 12229, "wider ": 12230, "songs on ": 12231, "MacDonald ": 12232, "welcom": 12233, "moment ": 12234, "although he ": 12235, "essenti": 12236, "Gould ": 12237, "ham, ": 12238, "Guid": 12239, "ometh": 12240, "Here ": 12241, "es. \n In ": 12242, "U.S. H": 12243, "Republic": 12244, "had not yet ": 12245, "a large ": 12246, "swor": 12247, "sworn ": 12248, "Hills": 12249, "ugby ": 12250, "park ": 12251, "flower ": 12252, "it took ": 12253, "intelligent": 12254, "6 @,@ 000": 12255, "Springfield ": 12256, "buy ": 12257, "e, however, ": 12258, " talk": 12259, "become the ": 12260, "authors ": 12261, "People 's ": 12262, "Republic of ": 12263, "and those ": 12264, "exile ": 12265, "anniversary ": 12266, "commemor": 12267, "s were held ": 12268, "Vo": 12269, "academic ": 12270, "zard ": 12271, "him, ": 12272, "1993 ": 12273, "Mechan": 12274, ". A number of ": 12275, "bear ": 12276, "held by the ": 12277, "Critics ": 12278, ". McCl": 12279, "statue ": 12280, "an. The ": 12281, "graduate ": 12282, "Nathan ": 12283, "Howard ": 12284, "mayor ": 12285, "Jr": 12286, "Canada ": 12287, "released on the ": 12288, "called the \" ": 12289, "with each ": 12290, "containing ": 12291, "people who ": 12292, "harm ": 12293, "previously": 12294, "emotional ": 12295, "mental ": 12296, "oughts ": 12297, "make a ": 12298, "overwhelm": 12299, "class, ": 12300, "students, ": 12301, "student body ": 12302, "receives ": 12303, "ants. ": 12304, "86 ": 12305, ". Bu": 12306, "s. For ": 12307, "Osl": 12308, "MTV ": 12309, "News": 12310, "writing \" ": 12311, "soul": 12312, "Do": 12313, "came from ": 12314, "or-": 12315, "Kur": 12316, "Call ": 12317, "wher": 12318, "north-east": 12319, "er to the ": 12320, "es by ": 12321, "Sattel": 12322, "ition. The ": 12323, " to them": 12324, "and began ": 12325, "defences ": 12326, "unsuccessfully ": 12327, "en. The ": 12328, "as it was ": 12329, "ted by the ": 12330, "affect ": 12331, "rainfall": 12332,
[...]
