{
  "version": "1.0",
  "truncation": null,
  "padding": null,
  "added_tokens": [
    {
      "id": 0,
      "content": "<pad>",
      "single_word": false,
      "lstrip": false,
      "rstrip": false,
      "normalized": false,
      "special": true
    },
    {
      "id": 1,
      "content": "<eos>",
      "single_word": false,
      "lstrip": false,
      "rstrip": false,
      "normalized": false,
      "special": true
    },
    {
      "id": 2,
      "content": "<unk>",
      "single_word": false,
      "lstrip": false,
      "rstrip": false,
      "normalized": false,
      "special": true
    }
  ],
  "normalizer": null,
  "pre_tokenizer": {
    "type": "ByteLevel",
    "add_prefix_space": true,
    "trim_offsets": true,
    "use_regex": true
  },
  "post_processor": null,
  "decoder": {
    "type": "ByteLevel",
    "add_prefix_space": true,
    "trim_offsets": true,
    "use_regex": true
  },
  "model": {
    "type": "BPE",
    "dropout": null,
    "unk_token": "<unk>",
    "continuing_subword_prefix": null,
    "end_of_word_suffix": null,
    "fuse_unk": false,
    "byte_fallback": false,
    "ignore_merges": false,
    "vocab": {
      "<pad>": 0,
      "<eos>": 1,
      "<unk>": 2,
      "!": 3,
      "\"": 4,
      "#": 5,
      "$": 6,
      "%": 7,
      "&": 8,
      "'": 9,
      "(": 10,
      ")": 11,
      "*": 12,
      "+": 13,
      ",": 14,
      "-": 15,
      ".": 16,
      "/": 17,
      "0": 18,
      "1": 19,
      "2": 20,
      "3": 21,
      "4": 22,
      "5": 23,
      "6": 24,
      "7": 25,
      "8": 26,
      "9": 27,
      ":": 28,
      ";": 29,
      "<": 30,
      "=": 31,
      ">": 32,
      "?": 33,
      "@": 34,
      "A": 35,
      "B": 36,
      "C": 37,
      "D": 38,
      "E": 39,
      "F": 40,
      "G": 41,
      "H": 42,
      "I": 43,
      "J": 44,
      "K": 45,
      "L": 46,
      "M": 47,
      "N": 48,
      "O": 49,
      "P": 50,
      "Q": 51,
      "R": 52,
      "S": 53,
      "T": 54,
      "U": 55,
      "V": 56,
      "W": 57,
      "X": 58,
      "Y": 59,
      "Z": 60,
      "[": 61,
      "\\": 62,
      "]": 63,
      "^": 64,
      "_": 65,
      "`": 66,
      "a": 67,
      "b": 68,
      "c": 69,
      "d": 70,
      "e": 71,
      "f": 72,
      "g": 73,
      "h": 74,
      "i": 75,
      "j": 76,
      "k": 77,
      "l": 78,
      "m": 79,
      "n": 80,
      "o": 81,
      "p": 82,
      "q": 83,
      "r": 84,
      "s": 85,
      "t": 86,
      "u": 87,
      "v": 88,
      "w": 89,
      "x": 90,
      "y": 91,
      "z": 92,
      "{": 93,
      "|": 94,
      "}": 95,
      "~": 96,
      "¡": 97,
      "¢": 98,
      "£": 99,
      "¤": 100,
      "¥": 101,
      "¦": 102,
      "§": 103,
      "¨": 104,
      "©": 105,
      "ª": 106,
      "«": 107,
      "¬": 108,
      "®": 109,
      "¯": 110,
      "°": 111,
      "±": 112,
      "²": 113,
      "³": 114,
      "´": 115,
      "µ": 116,
      "¶": 117,
      "·": 118,
      "¸": 119,
      "¹": 120,
      "º": 121,
      "»": 122,
      "¼": 123,
      "½": 124,
      "¾": 125,
      "¿": 126,
      "Â": 127,
      "Ã": 128,
      "Ä": 129,
      "Å": 130,
      "Ç": 131,
      "È": 132,
      "É": 133,
      "Ê": 134,
      "Ë": 135,
      "Ì": 136,
      "Î": 137,
      "Ï": 138,
      "Ð": 139,
      "Ñ": 140,
      "Ö": 141,
      "×": 142,
      "Ø": 143,
      "Ù": 144,
      "á": 145,
      "â": 146,
      "ã": 147,
      "ä": 148,
      "å": 149,
      "æ": 150,
      "ç": 151,
      "è": 152,
      "é": 153,
      "ï": 154,
      "ð": 155,
      "Ċ": 156,
      "č": 157,
      "Ġ": 158,
      "Ģ": 159,
      "ģ": 160,
      "Ĥ": 161,
      "ĥ": 162,
      "Ħ": 163,
      "ħ": 164,
      "Ĩ": 165,
      "ĩ": 166,
      "Ī": 167,
      "ī": 168,
      "Ĭ": 169,
      "ĭ": 170,
      "Į": 171,
      "į": 172,
      "İ": 173,
      "ı": 174,
      "Ĳ": 175,
      "ĳ": 176,
      "Ĵ": 177,
      "ĵ": 178,
      "Ķ": 179,
      "ķ": 180,
      "ĸ": 181,
      "Ĺ": 182,
      "ĺ": 183,
      "Ļ": 184,
      "ļ": 185,
      "Ľ": 186,
      "ľ": 187,
      "Ŀ": 188,
      "ŀ": 189,
      "Ł": 190,
      "ł": 191,
      "Ń": 192,
      "Ġt": 193,
      "Ġa": 194,
      "he": 195,
      "in": 196,
      "re": 197,
      "Ġthe": 198,
      "on": 199,
      "er": 200,
      "Ġs": 201,
      "čĊ": 202,
      "Ġw": 203,
      "at": 204,
      "Ġo": 205,
      "en": 206,
      "Ġc": 207,
      "it": 208,
      "an": 209,
      "is": 210,
      "Ġb": 211,
      "or": 212,
      "ed": 213,
      "es": 214,
      "Ġf": 215,
      "ing": 216,
      "Ġp": 217,
      "Ġan": 218,
      "al": 219,
      "ar": 220,
      "ou": 221,
      "Ġto": 222,
      "Ġin": 223,
      "Ġof": 224,
      "Ġm": 225,
      "as": 226,
      "Ġh": 227,
      "Ġd": 228,
      "ĠčĊ": 229,
      "Ġand": 230,
      "ic": 231,
      "Ġth": 232,
      "le": 233,
      "om": 234,
      "ion": 235,
      "âĢ": 236,
      "ll": 237,
      "ĠT": 238,
      "ent": 239,
      "Ġl": 240,
      "Ġn": 241,
      "Ġre": 242,
      "st": 243,
      "ly": 244,
      "ve": 245,
      "ro": 246,
      "Ġe": 247,
      "id": 248,
      "Ġg": 249,
      "Ġbe": 250,
      "ĠI": 251,
      "ac": 252,
      "ĠS": 253,
      "ut": 254,
      "ot": 255,
      "ĠA": 256,
      "Ġon": 257,
      "ay": 258,
      "am": 259,
      "Ġis": 260,
      "Ġthat": 261,
      "ow": 262,
      "et": 263,
      "ig": 264,
      "ad": 265,
      "im": 266,
      "ĠC": 267,
      "Ġfor": 268,
      "se": 269,
      "ver": 270,
      "Ġu": 271,
      "ld": 272,
      "ec": 273,
      "Ġst": 274,
      "ĠM": 275,
      "ur": 276,
      "Ġy": 277,
      "âĢĻ": 278,
      "ir": 279,
      "ith": 280,
      "Ġhe": 281,
      "Ġwh": 282,
      "Ġit": 283,
      "ter": 284,
      "ĠB": 285,
      "ĠThe": 286,
      "ation": 287,
      "Ġwith": 288,
      "ol": 289,
      "Ġas": 290,
      "Ġwe": 291,
      "ce": 292,
      "il": 293,
      "ill": 294,
      "ĠP": 295,
      "nd": 296,
      "ch": 297,
      "ĠW": 298,
      "ers": 299,
      "ĠH": 300,
      "ts": 301,
      "Ġwas": 302,
      "ĠâĢ": 303,
      "Ġr": 304,
      "Ġcon": 305,
      "Ġyou": 306,
      "ĠD": 307,
      "ke": 308,
      "ag": 309,
      "ate": 310,
      "if": 311,
      "Ġ1": 312,
      "Ġat": 313,
      "ĠR": 314,
      "um": 315,
      "pp": 316,
      "her": 317,
      "Ġ2": 318,
      "Ġare": 319,
      "ul": 320,
      "Ġha": 321,
      "em": 322,
      "ain": 323,
      "Ġpro": 324,
      "ct": 325,
      "Ġcom": 326,
      "ĠF": 327,
      "ore": 328,
      "Ġfr": 329,
      "igh": 330,
      "us": 331,
      "and": 332,
      "ĠN": 333,
      "Ġ(": 334,
      "ĠG": 335,
      "est": 336,
      "ist": 337,
      "'s": 338,
      "op": 339,
      "th": 340,
      "Ġse": 341,
      "ĠL": 342,
      "ri": 343,
      "od": 344,
      "ew": 345,
      "os": 346,
      "Ġv": 347,
      "Ġby": 348,
      "ĠO": 349,
      "ess": 350,
      "Ġex": 351,
      "Ġor": 352,
      "res": 353,
      "Ġnot": 354,
      "Ġ\"": 355,
      "Ġfrom": 356,
      "un": 357,
      "ĠE": 358,
      "Ġhave": 359,
      "ab": 360,
      "ity": 361,
      "Ġde": 362,
      "oc": 363,
      "ive": 364,
      "ould": 365,
      "ment": 366,
      "Ġal": 367,
      "ack": 368,
      "Ġsu": 369,
      "Ġsh": 370,
      "Ġthis": 371,
      "Ġhas": 372,
      "ear": 373,
      "qu": 374,
      "el": 375,
      "ies": 376,
      "ard": 377,
      "Ġch": 378,
      "ap": 379,
      "Ġle": 380,
      "Ġpl": 381,
      "ĠJ": 382,
      "ant": 383,
      "ĠâĢľ": 384,
      "ight": 385,
      "âĢĿ": 386,
      "ort": 387,
      "ally": 388,
      "ust": 389,
      "art": 390,
      "Ġsa": 391,
      "end": 392,
      "all": 393,
      "red": 394,
      "ast": 395,
      "ak": 396,
      "our": 397,
      "Ġab": 398,
      "out": 399,
      "nt": 400,
      "gh": 401,
      "ud": 402,
      "Ġgo": 403,
      "Ġhis": 404,
      "ich": 405,
      "ome": 406,
      "Ġbut": 407,
      "Ġtr": 408,
      "00": 409,
      "ect": 410,
      "iv": 411,
      "Ġsp": 412,
      "Ġwor": 413,
      "ost": 414,
      "Ġj": 415,
      "ok": 416,
      "ĠK": 417,
      "Ġk": 418,
      "ge": 419,
      "Ġcan": 420,
      "rou": 421,
      "ĠU": 422,
      "Ġwhe": 423,
      "Ġdo": 424,
      "Ġsaid": 425,
      "Ġwill": 426,
      "ong": 427,
      "Ġthey": 428,
      "ial": 429,
      "ame": 430,
      "ther": 431,
      "ff": 432,
      "Ġint": 433,
      "Ġall": 434,
      "ans": 435,
      "ĠIn": 436,
      "ice": 437,
      "ie": 438,
      "ĠTh": 439,
      "Ġwho": 440,
      "Ġtheir": 441,
      "ous": 442,
      "Ġout": 443,
      "ide": 444,
      "ine": 445,
      "Ġne": 446,
      "ions": 447,
      "Ġup": 448,
      "ep": 449,
      "age": 450,
      "one": 451,
      "pl": 452,
      "Ġ20": 453,
      "Ġad": 454,
      "Ġus": 455,
      "ure": 456,
      "ike": 457,
      "Ġmore": 458,
      "ated": 459,
      "cc": 460,
      "ub": 461,
      "Ġwhich": 462,
      "ime": 463,
      "Ġone": 464,
      "Ġso": 465,
      "ra": 466,
      "act": 467,
      "ĠSt": 468,
      "Ġag": 469,
      "Ġbeen": 470,
      "Ġwere": 471,
      "are": 472,
      "so": 473,
      "ip": 474,
      "ia": 475,
      "ib": 476,
      "og": 477,
      "Ġme": 478,
      "ian": 479,
      "Ġhad": 480,
      "Ġcont": 481,
      "Ġabout": 482,
      "Ġcl": 483,
      "ue": 484,
      "ite": 485,
      "Ġcomp": 486,
      "ind": 487,
      "Ġyear": 488,
      "Ġoff": 489,
      "oin": 490,
      "ign": 491,
      "ace": 492,
      "iz": 493,
      "very": 494,
      "ary": 495,
      "pt": 496,
      "Ġim": 497,
      "ake": 498,
      "ook": 499,
      "Ġun": 500,
      "Ġen": 501,
      "Ġinc": 502,
      "Ġ201": 503,
      "Ġwould": 504,
      "ere": 505,
      "Ġother": 506,
      "Ġman": 507,
      "au": 508,
      "Ġte": 509,
      "ks": 510,
      "ber": 511,
      "ire": 512,
      "ays": 513,
      "per": 514,
      "ĠIt": 515,
      "Ġev": 516,
      "Ġres": 517,
      "Ġover": 518,
      "ĠCh": 519,
      "able": 520,
      "av": 521,
      "ry": 522,
      "Ġper": 523,
      "Ġalso": 524,
      "ord": 525,
      "Ġar": 526,
      "Ġlike": 527,
      "Ġsome": 528,
      "own": 529,
      "ass": 530,
      "ose": 531,
      "Ġpe": 532,
      "ĠY": 533,
      "Ġ3": 534,
      "Ġthere": 535,
      "fter": 536,
      "ile": 537,
      "reat": 538,
      "ail": 539,
      "ough": 540,
      "Ġsc": 541,
      "Ġthem": 542,
      "mer": 543,
      "Ġnew": 544,
      "ress": 545,
      "ations": 546,
      "ence": 547,
      "Ġwhen": 548,
      "Ġapp": 549,
      "Ġyour": 550,
      "ople": 551,
      "Ġits": 552,
      "Ġbl": 553,
      "Ġthan": 554,
      "Ġbec": 555,
      "ĠV": 556,
      "Ġdis": 557,
      "..": 558,
      "Ġher": 559,
      "Ġplay": 560,
      "Ġqu": 561,
      "ang": 562,
      "Ġtime": 563,
      "ings": 564,
      "Ġtw": 565,
      "ach": 566,
      "irst": 567,
      "ond": 568,
      "ree": 569,
      "lic": 570,
      "ark": 571,
      "ical": 572,
      "Ġinto": 573,
      "ition": 574,
      "uc": 575,
      "Ġjust": 576,
      "ens": 577,
      "ance": 578,
      "Ġany": 579,
      "Ġmy": 580,
      "orm": 581,
      "Ġrep": 582,
      "Ġpeople": 583,
      "ase": 584,
      "'t": 585,
      "Ġpr": 586,
      "ell": 587,
      "Ġwhat": 588,
      "Ġpart": 589,
      "ident": 590,
      ".[": 591,
      "wn": 592,
      "nder": 593,
      "Ġif": 594,
      "Ġno": 595,
      "Ġpre": 596,
      "Ġrec": 597,
      "vel": 598,
      "ory": 599,
      "amp": 600,
      "ĠHe": 601,
      "ound": 602,
      "Ġget": 603,
      "Ġkn": 604,
      "Ġwork": 605,
      "ru": 606,
      "ount": 607,
      "Ġacc": 608,
      "aw": 609,
      "Ġatt": 610,
      "Ġfirst": 611,
      "ult": 612,
      "ors": 613,
      "Ġafter": 614,
      "ick": 615,
      "oll": 616,
      "te": 617,
      "Ġshe": 618,
      "vers": 619,
      "ious": 620,
      "ish": 621,
      "Ġro": 622,
      "ates": 623,
      "Ġonly": 624,
      "ents": 625,
      "rit": 626,
      "Ġact": 627,
      "Ġfe": 628,
      "Ġimp": 629,
      "ove": 630,
      ".\"": 631,
      "ict": 632,
      "ild": 633,
      "Ġcould": 634,
      "hed": 635,
      "ob": 636,
      "Ġpol": 637,
      "Ġtwo": 638,
      "ons": 639,
      "ne": 640,
      "Ġcomm": 641,
      "ade": 642,
      "ink": 643,
      "ĠThis": 644,
      "ning": 645,
      "Ġ19": 646,
      "Ġhow": 647,
      "ause": 648,
      "Ġhim": 649,
      "Ġback": 650,
      "Ġunder": 651,
      "Ġ5": 652,
      "ual": 653,
      "Ġ4": 654,
      "Ġagain": 655,
      ".âĢĿ": 656,
      "ĠBut": 657,
      "ft": 658,
      "Ġdec": 659,
      "tern": 660,
      "ov": 661,
      ",âĢĿ": 662,
      "Ġser": 663,
      "ublic": 664,
      "ek": 665,
      "Ġam": 666,
      "ater": 667,
      "Ġdid": 668,
      "Ġbet": 669,
      "ĠWh": 670,
      "hing": 671,
      "Ġmost": 672,
      "iff": 673,
      "ock": 674,
      "ood": 675,
      "Ġco": 676,
      "Ġop": 677,
      "Ġour": 678,
      "lud": 679,
      "form": 680,
      "ull": 681,
      "lect": 682,
      "Ġcons": 683,
      "ting": 684,
      "round": 685,
      "rough": 686,
      "oy": 687,
      "iew": 688,
      "Ġnow": 689,
      "we": 690,
      "sel": 691,
      "day": 692,
      "Ġneed": 693,
      "anc": 694,
      "Ġexp": 695,
      "ĠâĢĵ": 696,
      "ĠAnd": 697,
      "ĠAs": 698,
      "Ġuse": 699,
      ",\"": 700,
      "ason": 701,
      "Ġ-": 702,
      "ĠTr": 703,
      "ĠâĢĶ": 704,
      "iss": 705,
      "Ġsec": 706,
      "Ġlast": 707,
      "Ġyears": 708,
      "als": 709,
      "ower": 710,
      "Ġlong": 711,
      "Ġdes": 712,
      "Ġwhere": 713,
      "ied": 714,
      "Ġsupp": 715,
      "Ġeven": 716,
      "Ġfl": 717,
      "ĠWe": 718,
      "fore": 719,
      "oun": 720,
      "Ġem": 721,
      "Ġind": 722,
      "Ġrem": 723,
      "Ġbecause": 724,
      ").": 725,
      "ĠUn": 726,
      "ump": 727,
      "uch": 728,
      "Ġevery": 729,
      "old": 730,
      "Ġadd": 731,
      "Ġdon": 732,
      "Ġmay": 733,
      "ily": 734,
      "Ġpoin": 735,
      "hn": 736,
      "Ġthen": 737,
      "Ġdef": 738,
      "Ġinclud": 739,
      "Ġgame": 740,
      "Ġ$": 741,
      "Ġinv": 742,
      "man": 743,
      "Ġdiff": 744,
      "Ġlook": 745,
      "ren": 746,
      "urn": 747,
      "enc": 748,
      "oth": 749,
      "vern": 750,
      "Ġpos": 751,
      "ating": 752,
      "ale": 753,
      "ular": 754,
      "Ġshould": 755,
      "ath": 756,
      "row": 757,
      "Ġteam": 758,
      "ise": 759,
      "uring": 760,
      "Ġgr": 761,
      "ward": 762,
      "Ġthese": 763,
      "Ġthink": 764,
      "Ġreg": 765,
      "Ġstate": 766,
      "Ġ[": 767,
      "Ġsee": 768,
      "gr": 769,
      "Ġknow": 770,
      "ince": 771,
      "ased": 772,
      "ific": 773,
      "yst": 774,
      "pe": 775,
      "ted": 776,
      "Ġrel": 777,
      "Ġfin": 778,
      "Ġchar": 779,
      "Ġmany": 780,
      "ters": 781,
      "ible": 782,
      "Ġass": 783,
      "Ġbeing": 784,
      "ative": 785,
      "Ġcall": 786,
      "Ġbu": 787,
      "Ġke": 788,
      "ities": 789,
      "xt": 790,
      "aking": 791,
      "ved": 792,
      "Ġwant": 793,
      "Ġbr": 794,
      "Ġmake": 795,
      "Ġthrough": 796,
      "Ġagainst": 797,
      "ars": 798,
      "hen": 799,
      "Ġwell": 800,
      "ational": 801,
      "ĠNew": 802,
      "Ġdoes": 803,
      "Ġed": 804,
      "Ġpres": 805,
      "Ġdown": 806,
      "other": 807,
      "The": 808,
      "Ġvery": 809,
      "ble": 810,
      "ium": 811,
      "Ġmon": 812,
      "ĠRe": 813,
      "tle": 814,
      "Ġac": 815,
      "Ġsm": 816,
      "Ġway": 817,
      "get": 818,
      "meric": 819,
      "Ġsay": 820,
      "ics": 821,
      "und": 822,
      "up": 823,
      "),": 824,
      "Ġsuch": 825,
      "Ġend": 826,
      "les": 827,
      "ues": 828,
      "ĠAn": 829,
      "ments": 830,
      "ix": 831,
      "Ġbefore": 832,
      "ork": 833,
      "Ġmuch": 834,
      "Ġthose": 835,
      "Ġsur": 836,
      "Ġ200": 837,
      "ful": 838,
      "ange": 839,
      "Ġworld": 840,
      "ited": 841,
      "ert": 842,
      "roup": 843,
      "ener": 844,
      "Ġmin": 845,
      "ĠAmeric": 846,
      "ats": 847,
      "Ġused": 848,
      "ton": 849,
      "ven": 850,
      "Ġeff": 851,
      "Ġear": 852,
      "olog": 853,
      "atch": 854,
      "ually": 855,
      "omet": 856,
      "ĠAl": 857,
      "Ġwhile": 858,
      "io": 859,
      "Ġown": 860,
      "ah": 861,
      "Ġgovern": 862,
      "Ġsl": 863,
      "Ġset": 864,
      "Ġshow": 865,
      "ction": 866,
      "du": 867,
      "Ġbel": 868,
      "Ġcour": 869,
      "ier": 870,
      "uss": 871,
      "Ġmade": 872,
      "rib": 873,
      "ty": 874,
      "Ġter": 875,
      "Ġnum": 876,
      "...": 877,
      "Ġcount": 878,
      "ĠLe": 879,
      "Ġconf": 880,
      "Ġlead": 881,
      "Ġph": 882,
      "Ġstr": 883,
      "Ġtake": 884,
      "Ġstill": 885,
      "Ġthree": 886,
      "Ġgood": 887,
      "ten": 888,
      "Ġinter": 889,
      "Ġdisc": 890,
      "ween": 891,
      "ins": 892,
      "ife": 893,
      "ystem": 894,
      "ms": 895,
      "ĠCl": 896,
      "Ġprov": 897,
      "Ġlaw": 898,
      "Ġent": 899,
      "Ġrun": 900,
      "Ġsign": 901,
      "ists": 902,
      "ĠIs": 903,
      "Ġgoing": 904,
      "__": 905,
      "Ġcol": 906,
      "Ġspec": 907,
      "Ġresp": 908,
      "az": 909,
      "Ġweek": 910,
      "Ġtrans": 911,
      "cent": 912,
      "Ġsays": 913,
      "Ġstud": 914,
      "Ġ7": 915,
      "Ġ10": 916,
      "000": 917,
      "Ġthough": 918,
      "Ġsame": 919,
      "Ġgroup": 920,
      "ollow": 921,
      "Ġob": 922,
      "Ġins": 923,
      "ĠIf": 924,
      "ank": 925,
      "lp": 926,
      "led": 927,
      "Ġoffic": 928,
      "Ġcr": 929,
      "Ġmed": 930,
      "Ġstart": 931,
      "ef": 932,
      "ving": 933,
      "imes": 934,
      "ern": 935,
      "ys": 936,
      "ames": 937,
      "ility": 938,
      "ĠRep": 939,
      "Ġsim": 940,
      "Ġdiffere": 941,
      "ever": 942,
      "ont": 943,
      "erson": 944,
      "Ġwom": 945,
      "ĠThey": 946,
      "Ġinst": 947,
      "Ġsub": 948,
      "ism": 949,
      "ĠYou": 950,
      "view": 951,
      "its": 952,
      "Ġkill": 953,
      "com": 954,
      "Ġboth": 955,
      "Ġhelp": 956,
      "arch": 957,
      "ool": 958,
      "ures": 959,
      "illion": 960,
      "self": 961,
      "Ġbetween": 962,
      "ouse": 963,
      "Ġdr": 964,
      "gg": 965,
      "ros": 966,
      "ves": 967,
      "ense": 968,
      "Ġright": 969,
      "Ġ6": 970,
      "Ġhigh": 971,
      "hes": 972,
      "ĠSh": 973,
      "âĢĶ": 974,
      "land": 975,
      "Ġleg": 976,
      "==": 977,
      "Ġsince": 978,
      "ĠAr": 979,
      "ution": 980,
      "air": 981,
      "ject": 982,
      "Ġgu": 983,
      "Ġreport": 984,
      "ng": 985,
      "Ġcar": 986,
      "Ġcap": 987,
      "ash": 988,
      "ĠFr": 989,
      "ĠTrump": 990,
      "gan": 991,
      "Ġfind": 992,
      "Ġsystem": 993,
      "ives": 994,
      "hip": 995,
      "Ġiss": 996,
      "Ġart": 997,
      "alk": 998,
      "ices": 999,
      "Ġplan": 1000,
      "Ġhere": 1001,
      "ĠFor": 1002,
      "akes": 1003,
      "ex": 1004,
      "ner": 1005,
      "Ġgreat": 1006,
      "Ġseason": 1007,
      "ĠCom": 1008,
      "ages": 1009,
      "Ġcre": 1010,
      "aj": 1011,
      "irect": 1012,
      "ered": 1013,
      "ically": 1014,
      "Ġmod": 1015,
      "velop": 1016,
      "Ġaround": 1017,
      "Ġret": 1018,
      "ĠAt": 1019,
      "ave": 1020,
      "Ġloc": 1021,
      "ady": 1022,
      "ording": 1023,
      "Ġgovernment": 1024,
      "Ġduring": 1025,
      "Ġsomet": 1026,
      "ared": 1027,
      "way": 1028,
      "ĠInd": 1029,
      "ph": 1030,
      "Ġ9": 1031,
      "Ġdist": 1032,
      "Ġlar": 1033,
      "ĠThere": 1034,
      "Ġcur": 1035,
      "ision": 1036,
      "ric": 1037,
      "Ġlit": 1038,
      "Ġreal": 1039,
      "min": 1040,
      "ĠAd": 1041,
      "Ġref": 1042,
      "Ġ8": 1043,
      "Ġfound": 1044,
      "Ġlot": 1045,
      "Ġsupport": 1046,
      "ially": 1047,
      "ama": 1048,
      "any": 1049,
      "Ġhead": 1050,
      "ness": 1051,
      "Ġpass": 1052,
      "Ġpublic": 1053,
      "ĠBl": 1054,
      "Ġext": 1055,
      "Ġquest": 1056,
      "ient": 1057,
      "iet": 1058,
      "Ġday": 1059,
      "med": 1060,
      "ention": 1061,
      "ces": 1062,
      "ants": 1063,
      "duc": 1064,
      "Ġcent": 1065,
      "ized": 1066,
      "Ġattack": 1067,
      "ym": 1068,
      "ĠSp": 1069,
      "ects": 1070,
      "ax": 1071,
      "ÂŃ": 1072,
      "Ġopp": 1073,
      "der": 1074,
      "ience": 1075,
      "Ġdet": 1076,
      "Ġrequ": 1077,
      "Ġreally": 1078,
      "Ġbest": 1079,
      "ines": 1080,
      "ital": 1081,
      "orts": 1082,
      "Ġexpl": 1083,
      "Ġche": 1084,
      "Ġbig": 1085,
      "Ġfar": 1086,
      "alth": 1087,
      "Ġfil": 1088,
      "Ġhapp": 1089,
      "ield": 1090,
      "Ġcontin": 1091,
      "ĠOn": 1092,
      "ĠThat": 1093,
      "Ġfollow": 1094,
      "oot": 1095,
      "ather": 1096,
      "Ġwhite": 1097,
      "Ġcle": 1098,
      "ember": 1099,
      "Ġmight": 1100,
      "ple": 1101,
      "Ġtold": 1102,
      "Ġopen": 1103,
      "Ġfew": 1104,
      "Ġpower": 1105,
      "Ġhum": 1106,
      "Ġgener": 1107,
      "ody": 1108,
      "ĠRepublic": 1109,
      "ged": 1110,
      "ivers": 1111,
      "Ġhand": 1112,
      "ĠSo": 1113,
      "Ġwin": 1114,
      "Ġstand": 1115,
      "Ġplayers": 1116,
      "Ġfam": 1117,
      "Ġdem": 1118,
      "ets": 1119,
      "Ġcomple": 1120,
      "Ġpo": 1121,
      "Ġconc": 1122,
      "ĠOb": 1123,
      "ik": 1124,
      "Ġmet": 1125,
      "ĠOr": 1126,
      "ned": 1127,
      "ying": 1128,
      "ina": 1129,
      "Ġvot": 1130,
      "ret": 1131,
      "ĠHow": 1132,
      "ĠJo": 1133,
      "Ġeach": 1134,
      "cept": 1135,
      "Ġprot": 1136,
      "Ġdevelop": 1137,
      "uth": 1138,
      "Ġcome": 1139,
      "Ġincre": 1140,
      "Ġinf": 1141,
      "Ġpercent": 1142,
      "Ġ0": 1143,
      "Ġmonth": 1144,
      "app": 1145,
      "Ġcamp": 1146,
      "Ġdifferent": 1147,
      "ains": 1148,
      "gram": 1149,
      "Ġnever": 1150,
      "Ġadv": 1151,
      "bers": 1152,
      "Ġput": 1153,
      "Ġmar": 1154,
      "ement": 1155,
      "Ġallow": 1156,
      "cess": 1157,
      "ales": 1158,
      "Ġtoo": 1159,
      "ights": 1160,
      "Ġexper": 1161,
      "line": 1162,
      "ling": 1163,
      "ug": 1164,
      "ĠÂ": 1165,
      "Ġedit": 1166,
      "20": 1167,
      "Ġdirect": 1168,
      "Ġanother": 1169,
      "Ġpop": 1170,
      "bo": 1171,
      "Ġcommun": 1172,
      "Ġnumber": 1173,
      "Ġwrit": 1174,
      "ĠZ": 1175,
      "Ġbook": 1176,
      "Ġpolit": 1177,
      "Ġfact": 1178,
      "erest": 1179,
      "Ġrele": 1180,
      "be": 1181,
      "Ġhome": 1182,
      "Ġposs": 1183,
      "pr": 1184,
      "ata": 1185,
      "Ġchild": 1186,
      "ck": 1187,
      "Ġbro": 1188,
      "chool": 1189,
      "Ġnext": 1190,
      "Ġwar": 1191,
      "Ġperson": 1192,
      "Ġgot": 1193,
      "ced": 1194,
      "esp": 1195,
      "Ġbo": 1196,
      "Ġread": 1197,
      "Ġask": 1198,
      "ards": 1199,
      "Ġblack": 1200,
      "the": 1201,
      "Ġav": 1202,
      "rent": 1203,
      "Ġmark": 1204,
      "aster": 1205,
      "ross": 1206,
      "Ġcor": 1207,
      "Ġwithout": 1208,
      "Ġ'": 1209,
      "ĠPro": 1210,
      "Ġfour": 1211,
      "Ġpri": 1212,
      "ĠShe": 1213,
      "Ġprogram": 1214,
      "Ġbelie": 1215,
      "uck": 1216,
      "Ġcharac": 1217,
      "Ġlife": 1218,
      "ger": 1219,
      "Ġtop": 1220,
      "less": 1221,
      "ĠWhen": 1222,
      "Ġsomething": 1223,
      "me": 1224,
      "vious": 1225,
      "con": 1226,
      "son": 1227,
      "ral": 1228,
      "ĠUS": 1229,
      "nce": 1230,
      "iness": 1231,
      "Ġincluding": 1232,
      "Ġmillion": 1233,
      "ately": 1234,
      "Ġsecond": 1235,
      "aign": 1236,
      "ĠSer": 1237,
      "Ġsoc": 1238,
      "ained": 1239,
      "Ġwomen": 1240,
      "Ġcare": 1241,
      "Ġfeel": 1242,
      "Ġform": 1243,
      "Ġproble": 1244,
      "Ġplace": 1245,
      "Ġpoints": 1246,
      "par": 1247,
      "Ġtri": 1248,
      "osed": 1249,
      "Ġpartic": 1250,
      "gy": 1251,
      "'re": 1252,
      "ute": 1253,
      "eral": 1254,
      "Ġeas": 1255,
      "Ġusing": 1256,
      "thing": 1257,
      "Ġbuild": 1258,
      "ired": 1259,
      "rap": 1260,
      "Ġhist": 1261,
      "Ġnear": 1262,
      "Ġrest": 1263,
      "echn": 1264,
      "Ġsex": 1265,
      "Ġdev": 1266,
      "Ġ...": 1267,
      "ator": 1268,
      "Ġinform": 1269,
      "ode": 1270,
      "atic": 1271,
      "ature": 1272,
      "rop": 1273,
      "ĠMr": 1274,
      "ĠâĢĺ": 1275,
      "inal": 1276,
      "ering": 1277,
      "Ġbre": 1278,
      "ĠSe": 1279,
      "Ġseem": 1280,
      "ably": 1281,
      "ected": 1282,
      "Ġcontro": 1283,
      "reen": 1284,
      "ocr": 1285,
      "Ġspe": 1286,
      "Ġinvest": 1287,
      "Ġsmall": 1288,
      "ror": 1289,
      "ĠSen": 1290,
      "Ġbus": 1291,
      "Ġmil": 1292,
      "Ġhard": 1293,
      "Ġthings": 1294,
      "orth": 1295,
      "ided": 1296,
      "Ġgl": 1297,
      "ize": 1298,
      "ished": 1299,
      "Ġelect": 1300,
      "ĠBe": 1301,
      "ĠObama": 1302,
      "to": 1303,
      "oss": 1304,
      "Ġimport": 1305,
      "Ġinterest": 1306,
      "Ġrecent": 1307,
      "Ġpoint": 1308,
      "Ġsk": 1309,
      "Ġlet": 1310,
      "ology": 1311,
      "Ġide": 1312,
      "Ġless": 1313,
      "Ġdep": 1314,
      "ĠCor": 1315,
      "Ġblock": 1316,
      "Ġdidn": 1317,
      "Ġpost": 1318,
      "ird": 1319,
      "Ġlittle": 1320,
      "ĠJohn": 1321,
      "Ġturn": 1322,
      "Ġbeh": 1323,
      "Ġcity": 1324,
      "Ġel": 1325,
      "ĠPl": 1326,
      "Ġpolice": 1327,
      "ajor": 1328,
      "now": 1329,
      "Ġfull": 1330,
      "Ġ18": 1331,
      "ĠNo": 1332,
      "gin": 1333,
      "Ġwon": 1334,
      "Ġcampaign": 1335,
      "Ġchang": 1336,
      "aff": 1337,
      "Ġpar": 1338,
      "Ġbetter": 1339,
      "ured": 1340,
      "Ġgiv": 1341,
      "Ġofficial": 1342,
      "Ġ.": 1343,
      "atter": 1344,
      "Ġmain": 1345,
      "Ġvar": 1346,
      "Ġmem": 1347,
      "Ġkeep": 1348,
      "Ġold": 1349,
      "itc": 1350,
      "Ġfac": 1351,
      "Ġmov": 1352,
      "Ġ15": 1353,
      "Ġintern": 1354,
      "ury": 1355,
      "ertain": 1356,
      "ead": 1357,
      "han": 1358,
      "ron": 1359,
      "ration": 1360,
      "ised": 1361,
      "Ġ2015": 1362,
      "Ġlarge": 1363,
      "Ġclear": 1364,
      "aim": 1365,
      "Ġcase": 1366,
      "Ġlevel": 1367,
      "Ġleft": 1368,
      "ĠOne": 1369,
      "Ġcalled": 1370,
      "Ġlist": 1371,
      "Ġstory": 1372,
      "urity": 1373,
      "Ġ]": 1374,
      "Ġsit": 1375,
      "Ġschool": 1376,
      "ploy": 1377,
      "by": 1378,
      "alf": 1379,
      "Ġprocess": 1380,
      "eb": 1381,
      "work": 1382,
      "Ġpresident": 1383,
      "ĠAmerican": 1384,
      "10": 1385,
      "mit": 1386,
      "ways": 1387,
      "Ġcountry": 1388,
      "Ġpay": 1389,
      "stand": 1390,
      "ĠMed": 1391,
      "ified": 1392,
      "Ġfree": 1393,
      "ĠPres": 1394,
      "Ġvis": 1395,
      "ency": 1396,
      "ians": 1397,
      "Ġsol": 1398,
      "Ġdata": 1399,
      "ional": 1400,
      "Ġlater": 1401,
      "aid": 1402,
      "iver": 1403,
      "Ġpast": 1404,
      "Ġnet": 1405,
      "Ġunt": 1406,
      "ĠGo": 1407,
      "Ġgames": 1408,
      "Ġann": 1409,
      "outh": 1410,
      "Ġmove": 1411,
      "We": 1412,
      "Ġair": 1413,
      "ĠIm": 1414,
      "ĠPh": 1415,
      "ĠKas": 1416,
      "Ġnews": 1417,
      "Ġtell": 1418,
      "ney": 1419,
      "ĠTw": 1420,
      "Ġrece": 1421,
      "osp": 1422,
      "Ġtechn": 1423,
      "Ġ12": 1424,
      "Ġchange": 1425,
      "Ġbill": 1426,
      "Ġty": 1427,
      "ĠAf": 1428,
      "Ġmen": 1429,
      "ends": 1430,
      "ĠCan": 1431,
      "ĠRuss": 1432,
      "Ġaccording": 1433,
      "Ġpat": 1434,
      "Ġhuman": 1435,
      "ĠKasich": 1436,
      "uro": 1437,
      "ĠSc": 1438,
      "Ġhealth": 1439,
      "ĠDem": 1440,
      "Ġmiss": 1441,
      "Ġprof": 1442,
      "Ġview": 1443,
      "ending": 1444,
      "den": 1445,
      "ready": 1446,
      "ides": 1447,
      "Ġ11": 1448,
      "used": 1449,
      "Ġval": 1450,
      "Ġtest": 1451,
      "Ġsever": 1452,
      "Ġseries": 1453,
      "Ġopium": 1454,
      "ges": 1455,
      "Ġfun": 1456,
      "Ġoften": 1457,
      "ĠAll": 1458,
      "Ġleast": 1459,
      "Ġ13": 1460,
      "ĠWhat": 1461,
      "orld": 1462,
      "Ġtook": 1463,
      "Ġalways": 1464,
      "Ġdoesn": 1465,
      "Ġcurrent": 1466,
      "ract": 1467,
      "ĠUnited": 1468,
      "Ġeffect": 1469,
      "ued": 1470,
      "here": 1471,
      "ĠCon": 1472,
      "Ġprom": 1473,
      "Ġocc": 1474,
      "Ġmajor": 1475,
      "ots": 1476,
      "aps": 1477,
      "iversity": 1478,
      "Ġinformation": 1479,
      "Ġrese": 1480,
      "Ġdays": 1481,
      "irt": 1482,
      "Ġorder": 1483,
      "ham": 1484,
      "Ġcame": 1485,
      "aining": 1486,
      "ider": 1487,
      "ĠHouse": 1488,
      "Ġclaim": 1489,
      "Ġenough": 1490,
      "Ġdesign": 1491,
      "Ġseveral": 1492,
      "Ġvers": 1493,
      "Ġaway": 1494,
      "ĠMay": 1495,
      "ĠEm": 1496,
      "Ġcompany": 1497,
      "Ġothers": 1498,
      "Ġappear": 1499,
      "inc": 1500,
      "Ġalready": 1501,
      "oney": 1502,
      "Ġuntil": 1503,
      "gress": 1504,
      "orn": 1505,
      "ĠAm": 1506,
      "Ġyoung": 1507,
      "pped": 1508,
      "Ġhappen": 1509,
      "ĠAfter": 1510,
      "Ġrul": 1511,
      "ĠGr": 1512,
      "Ġbecome": 1513,
      "Ġimportant": 1514,
      "It": 1515,
      "Ġpur": 1516,
      "acy": 1517,
      "Ġshort": 1518,
      "Ġmean": 1519,
      "Ġ2016": 1520,
      "roat": 1521,
      "angu": 1522,
      "Ġpolic": 1523,
      "ĠCar": 1524,
      "Ġjob": 1525,
      "Ġaff": 1526,
      "ising": 1527,
      "rown": 1528,
      "Ġseen": 1529,
      "ĠPresident": 1530,
      "11": 1531,
      "atur": 1532,
      "isc": 1533,
      "augh": 1534,
      "ĠÂ±": 1535,
      "Ġmilit": 1536,
      "ĠQ": 1537,
      "Ġconst": 1538,
      "Ġkind": 1539,
      "____": 1540,
      "Ġbas": 1541,
      "Ġthing": 1542,
      "Ġland": 1543,
      "Ġlear": 1544,
      "ĠCol": 1545,
      "ĠState": 1546,
      "iol": 1547,
      "Ġmust": 1548,
      "Ġdri": 1549,
      "ran": 1550,
      "Ġoper": 1551,
      "ests": 1552,
      "ilar": 1553,
      "side": 1554,
      "ality": 1555,
      "els": 1556,
      "Ġable": 1557,
      "][": 1558,
      "ĠMar": 1559,
      "conom": 1560,
      "lin": 1561,
      "uff": 1562,
      "ories": 1563,
      "let": 1564,
      "Ġprodu": 1565,
      "Ġdeal": 1566,
      "15": 1567,
      "bs": 1568,
      "erv": 1569,
      "Ġmaking": 1570,
      "Ġfri": 1571,
      "ush": 1572,
      "ĠEuro": 1573,
      "Ġamong": 1574,
      "Ġlocal": 1575,
      "ming": 1576,
      "Ġcrit": 1577,
      "Ġfore": 1578,
      "Ġequ": 1579,
      "idence": 1580,
      "Ġappro": 1581,
      "Ġstrong": 1582,
      "iqu": 1583,
      "year": 1584,
      "Ġwr": 1585,
      "ĠTo": 1586,
      "ague": 1587,
      "ĠChr": 1588,
      "itional": 1589,
      "ruct": 1590,
      "Ġ&": 1591,
      "Ġest": 1592,
      "ream": 1593,
      "Ġsw": 1594,
      "Ġhop": 1595,
      "ĠChina": 1596,
      "ior": 1597,
      "aken": 1598,
      "Ġworking": 1599,
      "ĠDemocr": 1600,
      "sh": 1601,
      "Ġwater": 1602,
      "Ġhaving": 1603,
      "Ġprop": 1604,
      "ored": 1605,
      "ection": 1606,
      "erence": 1607,
      "ech": 1608,
      "Ġ30": 1609,
      "Ġrecord": 1610,
      "30": 1611,
      "crib": 1612,
      "Ġauth": 1613,
      "ases": 1614,
      "ĠDe": 1615,
      "ĠRo": 1616,
      "Ġknown": 1617,
      "Ġwhy": 1618,
      "ccess": 1619,
      "ample": 1620,
      "rict": 1621,
      "ware": 1622,
      "Ġident": 1623,
      "Ġ16": 1624,
      "Ġclass": 1625,
      "ption": 1626,
      "Ġcourt": 1627,
      "====": 1628,
      "Ġcost": 1629,
      "ĠMin": 1630,
      "ulation": 1631,
      "ĠNot": 1632,
      "Ġbusiness": 1633,
      "most": 1634,
      "Ġtimes": 1635,
      "ene": 1636,
      "Ġfive": 1637,
      "Ġthreat": 1638,
      "ograp": 1639,
      "Ġthought": 1640,
      "Ġfamily": 1641,
      "Ġorig": 1642,
      "Ġevent": 1643,
      "Ġserv": 1644,
      "Ġ--": 1645,
      "Ġwent": 1646,
      "Ġline": 1647,
      "ĠEurope": 1648,
      "Ġfund": 1649,
      "Ġtrad": 1650,
      "ived": 1651,
      "Ġchildren": 1652,
      "Ġenc": 1653,
      "Ġaccess": 1654,
      "ĠHowever": 1655,
      "ĠBr": 1656,
      "ended": 1657,
      "Ġdoing": 1658,
      "Ġavail": 1659,
      "14": 1660,
      "Ġsent": 1661,
      "iting": 1662,
      "Ġmoney": 1663,
      "Ġhour": 1664,
      "Ġhalf": 1665,
      "Ġeconom": 1666,
      "Ġreturn": 1667,
      "ball": 1668,
      "tt": 1669,
      "Ġlangu": 1670,
      "Ġ14": 1671,
      "ries": 1672,
      "Ġcontrol": 1673,
      "for": 1674,
      "Ġve": 1675,
      "att": 1676,
      "ĠMc": 1677,
      "Ġorgan": 1678,
      "Ġresult": 1679,
      "Ġmedia": 1680,
      "Ġpolitical": 1681,
      "Ġhistory": 1682,
      "wh": 1683,
      "ither": 1684,
      "play": 1685,
      "not": 1686,
      "Ġtoday": 1687,
      "Ġyet": 1688,
      "ille": 1689,
      "Ġalong": 1690,
      "Ġcho": 1691,
      "Ġkey": 1692,
      "Ġcourse": 1693,
      "12": 1694,
      "ister": 1695,
      "ĠEd": 1696,
      "ĠEx": 1697,
      ".)": 1698,
      "Ġtalk": 1699,
      "Ġbody": 1700,
      "Ġanim": 1701,
      "Ġgive": 1702,
      "ĠWith": 1703,
      "ĠGen": 1704,
      "Ġword": 1705,
      "ubl": 1706,
      "Ġmakes": 1707,
      "urther": 1708,
      "ĠWorld": 1709,
      "Ġviol": 1710,
      "Ġsugg": 1711,
      "cl": 1712,
      "Ġcertain": 1713,
      "ivid": 1714,
      "vent": 1715,
      "eds": 1716,
      "raft": 1717,
      "ĠStates": 1718,
      "Ġmanag": 1719,
      "Ġcover": 1720,
      "Ġearly": 1721,
      "Ġcommunity": 1722,
      "ones": 1723,
      "Ġsour": 1724,
      "Ġcut": 1725,
      "Ġgrow": 1726,
      "Ġwhether": 1727,
      "Ġeng": 1728,
      "Ġissue": 1729,
      "Ġparticular": 1730,
      "off": 1731,
      "Ġcoun": 1732,
      "Ġhig": 1733,
      "uture": 1734,
      "ization": 1735,
      "Ġstudents": 1736,
      "Ġpossible": 1737,
      "pect": 1738,
      "Ġer": 1739,
      "Ġdone": 1740,
      "Ġdel": 1741,
      "Ġperform": 1742,
      "Ġarg": 1743,
      "mon": 1744,
      "ster": 1745,
      "Ġever": 1746,
      "otion": 1747,
      "Ġdeb": 1748,
      "ape": 1749,
      "Ġago": 1750,
      "ched": 1751,
      "ĠApp": 1752,
      "ĠHar": 1753,
      "ĠJan": 1754,
      "ĠYork": 1755,
      "of": 1756,
      "Ġsing": 1757,
      "utes": 1758,
      "ĠMan": 1759,
      "Ġmeet": 1760,
      "Ġunderstand": 1761,
      "Ġinvestig": 1762,
      "itcoin": 1763,
      "ential": 1764,
      "Ġnon": 1765,
      "ĠSy": 1766,
      "ender": 1767,
      "Ġsecurity": 1768,
      "Ġgiven": 1769,
      "Ġavailable": 1770,
      "ler": 1771,
      "Ġmid": 1772,
      "Ġreview": 1773,
      "aces": 1774,
      "ĠNorth": 1775,
      "Ġproblem": 1776,
      "50": 1777,
      "Ġonce": 1778,
      "umb": 1779,
      "Ġplayer": 1780,
      "16": 1781,
      "itter": 1782,
      "Ġproduc": 1783,
      "raw": 1784,
      "Ġquestion": 1785,
      "Ġcreat": 1786,
      "Ġcomb": 1787,
      "ively": 1788,
      "iving": 1789,
      "rael": 1790,
      "Ġsocial": 1791,
      "ring": 1792,
      "icle": 1793,
      "Ġinvol": 1794,
      "ging": 1795,
      "iam": 1796,
      "ison": 1797,
      "Ġfav": 1798,
      "ĠPol": 1799,
      "Ġvide": 1800,
      "Ġcharacter": 1801,
      "int": 1802,
      "Ġpot": 1803,
      "Ġnec": 1804,
      "imate": 1805,
      "ourn": 1806,
      "Ġgetting": 1807,
      "Ġasked": 1808,
      "lf": 1809,
      "Ġname": 1810,
      "Ġred": 1811,
      "ortun": 1812,
      "selves": 1813,
      "Ġfinal": 1814,
      "Ġfre": 1815,
      "Ġsure": 1816,
      "Ġmeans": 1817,
      "ĠWhile": 1818,
      "Ġsimilar": 1819,
      "Ġmilitary": 1820,
      "ators": 1821,
      "Ġpress": 1822,
      "ashing": 1823,
      "ley": 1824,
      "Ġemploy": 1825,
      "Ġreported": 1826,
      "Ġfollowing": 1827,
      "Th": 1828,
      "por": 1829,
      "Ġcop": 1830,
      "Ġtot": 1831,
      "Ġey": 1832,
      "urs": 1833,
      "wards": 1834,
      "Ġacross": 1835,
      "Ġmarket": 1836,
      "Ġpriv": 1837,
      "fe": 1838,
      "Ġlive": 1839,
      "Ġnight": 1840,
      "ĠSouth": 1841,
      "Ġformer": 1842,
      "empt": 1843,
      "Ġauthor": 1844,
      "19": 1845,
      "Ġhold": 1846,
      "though": 1847,
      "Ġactually": 1848,
      "Ġindivid": 1849,
      "ĠIsrael": 1850,
      "ox": 1851,
      "ination": 1852,
      "Ġmor": 1853,
      "Ġmult": 1854,
      "Ġdue": 1855,
      "Ġla": 1856,
      "ĠCent": 1857,
      "usc": 1858,
      "Ġspecial": 1859,
      "br": 1860,
      "Ġesp": 1861,
      "Ġside": 1862,
      "Ġsix": 1863,
      "Ġlow": 1864,
      "Ġlim": 1865,
      "pping": 1866,
      "ĠEng": 1867,
      "Ġ199": 1868,
      "Ġfood": 1869,
      "Ġisn": 1870,
      "ĠFl": 1871,
      "Ġexample": 1872,
      "Ġfuture": 1873,
      "ecially": 1874,
      "artment": 1875,
      "Ġfeat": 1876,
      "Ġentire": 1877,
      "ograph": 1878,
      "nes": 1879,
      "oid": 1880,
      "Ġfoc": 1881,
      "Ġlib": 1882,
      "ĠThese": 1883,
      "Ġ17": 1884,
      "ls": 1885,
      "reme": 1886,
      "ĠDr": 1887,
      "Ġsuper": 1888,
      "Ġactiv": 1889,
      "Ġlooking": 1890,
      "Ġmembers": 1891,
      "eal": 1892,
      "Ġtreat": 1893,
      "Ġbar": 1894,
      "Ġbased": 1895,
      "ald": 1896,
      "Ġcond": 1897,
      "resent": 1898,
      "ee": 1899,
      "ij": 1900,
      "Ġfem": 1901,
      "Ġfail": 1902,
      "istic": 1903,
      "Ġsuccess": 1904,
      "Ġdiscuss": 1905,
      "ĠCanad": 1906,
      "'ve": 1907,
      "Ġz": 1908,
      "oud": 1909,
      "Ġprob": 1910,
      "Ġcoming": 1911,
      "Ġprevious": 1912,
      "Ġannoun": 1913,
      "miss": 1914,
      "pro": 1915,
      "sy": 1916,
      "rest": 1917,
      "ument": 1918,
      "Ġdeath": 1919,
      "Ġalmost": 1920,
      "allen": 1921,
      "ief": 1922,
      "Ġlikely": 1923,
      "like": 1924,
      "ĠX": 1925,
      "Ġface": 1926,
      "Ġmom": 1927,
      "lement": 1928,
      "âĢĵ": 1929,
      "ĠBrit": 1930,
      "Ġrad": 1931,
      "Ġcomplete": 1932,
      "Ġmonths": 1933,
      "Ġindividual": 1934,
      "ai": 1935,
      "Ġtre": 1936,
      "Ġtaken": 1937,
      "ederal": 1938,
      "aring": 1939,
      "ĠBar": 1940,
      "aren": 1941,
      "Ġparty": 1942,
      "Ġhowever": 1943,
      "Ġinfl": 1944,
      "oad": 1945,
      "itive": 1946,
      "ann": 1947,
      "Ġwithin": 1948,
      "istan": 1949,
      "Ġvict": 1950,
      "Ġimpro": 1951,
      "ĠClin": 1952,
      "Ġwatch": 1953,
      "Ġdark": 1954,
      "amer": 1955,
      "Ġra": 1956,
      "ĠDon": 1957,
      "Ġphot": 1958,
      "roatian": 1959,
      "uly": 1960,
      "Ġtar": 1961,
      "rew": 1962,
      "Ġhit": 1963,
      "Ġdest": 1964,
      "ĠSome": 1965,
      "ĠPr": 1966,
      "Ġabove": 1967,
      "Ġtry": 1968,
      "Ġclose": 1969,
      "Ġcommit": 1970,
      "minist": 1971,
      "aul": 1972,
      "back": 1973,
      "ule": 1974,
      "Ġanal": 1975,
      "omb": 1976,
      "ĠCity": 1977,
      "ĠDec": 1978,
      "Ġcapt": 1979,
      "Ġissues": 1980,
      "Ġconcern": 1981,
      "Ġbreak": 1982,
      "ĠAust": 1983,
      "Ġadded": 1984,
      "Ġsaying": 1985,
      "iety": 1986,
      "Ġversion": 1987,
      "Ġcou": 1988,
      "Ġben": 1989,
      "Ġpubl": 1990,
      "ently": 1991,
      "Ġspace": 1992,
      "Ġworks": 1993,
      "Ġcollect": 1994,
      "Ġfilm": 1995,
      "Ġ#": 1996,
      "reet": 1997,
      "arm": 1998,
      "ott": 1999,
      "sec": 2000,
      "irc": 2001,
      "ences": 2002,
      "Ġassist": 2003,
      "head": 2004,
      "Ġtool": 2005,
      "Ġreason": 2006,
      "ustom": 2007,
      "gest": 2008,
      "sc": 2009,
      "yn": 2010,
      "Ġtax": 2011,
      "Ġfurther": 2012,
      "Ġforce": 2013,
      "elt": 2014,
      "Ġ2013": 2015,
      "Ġaction": 2016,
      "Ġlegal": 2017,
      "Ġpolicy": 2018,
      "17": 2019,
      "iation": 2020,
      "Ġfield": 2021,
      "Ġpick": 2022,
      "Ġled": 2023,
      "ĠSec": 2024,
      "Ġstates": 2025,
      "Ġ25": 2026,
      "Ġarea": 2027,
      "Ġcreate": 2028,
      "Ġbehind": 2029,
      "over": 2030,
      "port": 2031,
      "Ġsum": 2032,
      "Ġris": 2033,
      "Ġcomes": 2034,
      "ept": 2035,
      "ensive": 2036,
      "ĠRepublican": 2037,
      "Ġespecially": 2038,
      "Ġcult": 2039,
      "Ġhosp": 2040,
      "âĢ¦": 2041,
      "Ġlight": 2042,
      "ĠSm": 2043,
      "pper": 2044,
      "ĠUniversity": 2045,
      "Ġgroups": 2046,
      "ĠChrist": 2047,
      "Ġban": 2048,
      "une": 2049,
      "aving": 2050,
      "Ġthemselves": 2051,
      "Ġcreated": 2052,
      "ĠAfric": 2053,
      "Ġprobably": 2054,
      "18": 2055,
      "CA": 2056,
      "Ġaver": 2057,
      "itions": 2058,
      "ĠAcc": 2059,
      "Ġrace": 2060,
      "Ġpract": 2061,
      "ellow": 2062,
      "Ġsignific": 2063,
      "13": 2064,
      "dle": 2065,
      "lish": 2066,
      "Ġi": 2067,
      "Ġwhales": 2068,
      "Ġvol": 2069,
      "ibility": 2070,
      "Ġlonger": 2071,
      "erman": 2072,
      "attle": 2073,
      "Ġbecame": 2074,
      "Ġconsum": 2075,
      "Ġnetwork": 2076,
      "book": 2077,
      "cher": 2078,
      "aced": 2079,
      "ĠJust": 2080,
      "ĠIntern": 2081,
      "Ġtaking": 2082,
      "Ġbit": 2083,
      "Ġtoget": 2084,
      "Ġeither": 2085,
      "ĠAb": 2086,
      "agon": 2087,
      "Ġproject": 2088,
      "ogn": 2089,
      "Ġoffice": 2090,
      "ances": 2091,
      "Ġterror": 2092,
      "Ġkiller": 2093,
      "ĠSenate": 2094,
      "Ġvideo": 2095,
      "Ġtogether": 2096,
      "asing": 2097,
      "Ġdom": 2098,
      "iday": 2099,
      "ĠMus": 2100,
      "Ġsingle": 2101,
      "lim": 2102,
      "Ġinj": 2103,
      "Ġstri": 2104,
      "ĠWill": 2105,
      "ĠDav": 2106,
      "ession": 2107,
      "ivil": 2108,
      "Ġdecision": 2109,
      "Ġrelig": 2110,
      "Ġbelieve": 2111,
      "Ġidea": 2112,
      "ashington": 2113,
      "25": 2114,
      "iec": 2115,
      "Ġca": 2116,
      "Ġfire": 2117,
      "Ġpain": 2118,
      "icult": 2119,
      "ĠGe": 2120,
      "Ġexperience": 2121,
      "\",": 2122,
      "ply": 2123,
      "Ġtour": 2124,
      "iron": 2125,
      "ands": 2126,
      "ĠGod": 2127,
      "Ġcommon": 2128,
      "Ġneeds": 2129,
      "Ġwoman": 2130,
      "Ġinstead": 2131,
      "Ġtyp": 2132,
      "'m": 2133,
      "SA": 2134,
      "right": 2135,
      "Ġdoc": 2136,
      "ĠIS": 2137,
      "ĠSw": 2138,
      "ĠAct": 2139,
      "ĠWashington": 2140,
      "ults": 2141,
      "Ġself": 2142,
      "ĠOh": 2143,
      "Ġexist": 2144,
      "Ġrunning": 2145,
      "Ġlanguage": 2146,
      "ĠClinton": 2147,
      "sw": 2148,
      "ined": 2149,
      "Ġbad": 2150,
      "Ġfoot": 2151,
      "Ġconn": 2152,
      "osing": 2153,
      "Ġ2014": 2154,
      "Ġsomeone": 2155,
      "Ġanything": 2156,
      "Ġminutes": 2157,
      "ĠAmerica": 2158,
      "Ġtarget": 2159,
      "Ġsignificant": 2160,
      "Ġsound": 2161,
      "ĠMe": 2162,
      "ĠGu": 2163,
      "Ġabs": 2164,
      "ails": 2165,
      "Ġstatement": 2166,
      "MA": 2167,
      "go": 2168,
      "read": 2169,
      "ana": 2170,
      "Ġinit": 2171,
      "Ġrights": 2172,
      "ify": 2173,
      "Ġcompet": 2174,
      "Ġquick": 2175,
      "aterial": 2176,
      "Ġhours": 2177,
      "uary": 2178,
      "itch": 2179,
      "Ġfix": 2180,
      "Ġant": 2181,
      "Ġtrying": 2182,
      "Ġagre": 2183,
      "Ġbuilding": 2184,
      ".,": 2185,
      "ps": 2186,
      "Ġsus": 2187,
      "Ġlate": 2188,
      "Ġonline": 2189,
      "ĠBy": 2190,
      "ilt": 2191,
      "ĠPal": 2192,
      "ĠHis": 2193,
      "Ġdeep": 2194,
      "Ġjud": 2195,
      "ully": 2196,
      "Ġdescrib": 2197,
      "Ġwanted": 2198,
      "oon": 2199,
      "sp": 2200,
      "Ġbase": 2201,
      "Ġfight": 2202,
      "Ġthird": 2203,
      "amed": 2204,
      "ĠNow": 2205,
      "Ġmeas": 2206,
      "iction": 2207,
      "Ġposition": 2208,
      "Ġcheck": 2209,
      "ER": 2210,
      "Ġmind": 2211,
      "ades": 2212,
      "Ġcompl": 2213,
      "Ġchallen": 2214,
      "fer": 2215,
      "uge": 2216,
      "reg": 2217,
      "lege": 2218,
      "ĠDo": 2219,
      "Ġkid": 2220,
      "Ġevidence": 2221,
      "Ġpret": 2222,
      "Ġroom": 2223,
      "Ġspecific": 2224,
      "Ġresearch": 2225,
      "Ġsuggest": 2226,
      "Ġmag": 2227,
      "Ġmess": 2228,
      "ĠDep": 2229,
      "aged": 2230,
      "Ġjoin": 2231,
      "Ġdifficult": 2232,
      "parts": 2233,
      "Ġelse": 2234,
      "enn": 2235,
      "ane": 2236,
      "Ġemer": 2237,
      "ĠSch": 2238,
      "ote": 2239,
      "ĠCour": 2240,
      "ural": 2241,
      "Ġrather": 2242,
      "ability": 2243,
      "Ġneg": 2244,
      "ĠWhite": 2245,
      "eks": 2246,
      "oke": 2247,
      "Ġ,": 2248,
      "Ġ23": 2249,
      "Ġstarted": 2250,
      "ĠIndia": 2251,
      "BC": 2252,
      "aut": 2253,
      "co": 2254,
      "jects": 2255,
      "lier": 2256,
      "time": 2257,
      "rote": 2258,
      "vert": 2259,
      "Ġitself": 2260,
      "Ġexec": 2261,
      "Ġnothing": 2262,
      "ĠEast": 2263,
      "apt": 2264,
      "Ġener": 2265,
      "Ġ2012": 2266,
      "Ġattempt": 2267,
      "Ġinclude": 2268,
      "Ġvote": 2269,
      "ev": 2270,
      "Ġfall": 2271,
      "Ġmaterial": 2272,
      "Ġbring": 2273,
      "Ġreleased": 2274,
      "ĠAccording": 2275,
      "lam": 2276,
      "Ġnational": 2277,
      "Ġbegan": 2278,
      "Ġstop": 2279,
      "ĠPar": 2280,
      "Ġexc": 2281,
      "unch": 2282,
      "Ġhimself": 2283,
      "Ġ50": 2284,
      "'ll": 2285,
      "ches": 2286,
      "gs": 2287,
      "iod": 2288,
      "ients": 2289,
      "Ġfederal": 2290,
      "Ġmass": 2291,
      "Ġste": 2292,
      "Ġstep": 2293,
      "olution": 2294,
      "Ġweeks": 2295,
      "Ġneeded": 2296,
      "Ġpresent": 2297,
      "Ġcharacters": 2298,
      "Ġinternational": 2299,
      "Ġtotal": 2300,
      "Ġbenef": 2301,
      "Ġsen": 2302,
      "Ġwa": 2303,
      "oring": 2304,
      "Ġhost": 2305,
      "Ġreve": 2306,
      "ĠHer": 2307,
      "Ġkilled": 2308,
      "Ġprotect": 2309,
      "Ġchanges": 2310,
      "Ġhigher": 2311,
      "gth": 2312,
      "Ġproper": 2313,
      "Ġplayed": 2314,
      "ymotion": 2315,
      "Ġsitu": 2316,
      "ĠRussia": 2317,
      "irtual": 2318,
      "ĠApple": 2319,
      "my": 2320,
      "val": 2321,
      "Ġaut": 2322,
      "Ġwrote": 2323,
      "Ġcand": 2324,
      "Ġfig": 2325,
      "ask": 2326,
      "str": 2327,
      "Ġgir": 2328,
      "ĠIran": 2329,
      "Ġstat": 2330,
      "Ġtra": 2331,
      "Ġadminist": 2332,
      "arent": 2333,
      "Ġquite": 2334,
      "Ġindust": 2335,
      "ĠReg": 2336,
      "Ġcontinue": 2337,
      "Ġmarri": 2338,
      "ĠJanuary": 2339,
      "ĠSyri": 2340,
      "Ġcirc": 2341,
      "Ġdam": 2342,
      "Ġlove": 2343,
      "Ġ100": 2344,
      "Ġdead": 2345,
      "Ġshows": 2346,
      "Ġpretty": 2347,
      "AT": 2348,
      "Ġcustom": 2349,
      "ĠMon": 2350,
      "ĠPart": 2351,
      "Ġ24": 2352,
      "ĠEar": 2353,
      "Ġtrack": 2354,
      "Ġrelations": 2355,
      "Ġrespons": 2356,
      "Ġofficials": 2357,
      "ĠTwitter": 2358,
      "Ġoriginal": 2359,
      "Ġfavor": 2360,
      "22": 2361,
      "low": 2362,
      "upp": 2363,
      "Ġlower": 2364,
      "Ġweight": 2365,
      "Ġconv": 2366,
      "Ġgeneral": 2367,
      "Ġstandard": 2368,
      "Ġseems": 2369,
      "ĠGenymotion": 2370,
      "Ġfocus": 2371,
      "aily": 2372,
      "field": 2373,
      "Ġcompan": 2374,
      "Ġrecogn": 2375,
      "IS": 2376,
      "use": 2377,
      "Ġpred": 2378,
      "Ġmatter": 2379,
      "Ġwasn": 2380,
      "ĠNational": 2381,
      "osition": 2382,
      "aper": 2383,
      "anger": 2384,
      "Ġdeter": 2385,
      "Ġpopular": 2386,
      "Ġrelease": 2387,
      "Ġenergy": 2388,
      "40": 2389,
      "Ġdou": 2390,
      "ached": 2391,
      "ety": 2392,
      "Ġstaff": 2393,
      "ĠPre": 2394,
      "ĠWar": 2395,
      "ĠWest": 2396,
      "ĠGerman": 2397,
      "ĠOff": 2398,
      "Ġflight": 2399,
      "Ġeveryone": 2400,
      "Ġbelow": 2401,
      "Ġprovide": 2402,
      "Ġsource": 2403,
      "Ġaverage": 2404,
      "cy": 2405,
      "ground": 2406,
      "Ġpiec": 2407,
      "asons": 2408,
      "ĠTe": 2409,
      "ĠSund": 2410,
      "ĠCo": 2411,
      "Ġ26": 2412,
      "Ġaddress": 2413,
      "Ġinterview": 2414,
      "ĠRepublicans": 2415,
      "ournal": 2416,
      "ĠOhio": 2417,
      "ony": 2418,
      "Ġlic": 2419,
      "ĠCong": 2420,
      "ĠMore": 2421,
      "ĠFeb": 2422,
      "ĠEn": 2423,
      "Ġalle": 2424,
      "Ġgoal": 2425,
      "ĠInst": 2426,
      "Ġarrest": 2427,
      "Ġanyone": 2428,
      "Ġrepresent": 2429,
      "Ġaccount": 2430,
      "Ġeverything": 2431,
      "ĠFriday": 2432,
      "hod": 2433,
      "Ġlog": 2434,
      "Ġrepl": 2435,
      "Ġground": 2436,
      "ĠChe": 2437,
      "ĠCal": 2438,
      "ĠMich": 2439,
      "ĠRes": 2440,
      "ude": 2441,
      "Ġcannot": 2442,
      "Ġintro": 2443,
      "Ġwhole": 2444,
      "Ġsoft": 2445,
      "Ġcomput": 2446,
      "ĠAmericans": 2447,
      "Ġopportun": 2448,
      "isl": 2449,
      "Ġloss": 2450,
      "Ġbegin": 2451,
      "ĠMond": 2452,
      "ĠMaster": 2453,
      "ĠRed": 2454,
      "action": 2455,
      "duct": 2456,
      "Ġlaws": 2457,
      "Ġnecess": 2458,
      "Ġmoment": 2459,
      "Ġcandid": 2460,
      "cil": 2461,
      "Ġ+": 2462,
      "Ġcard": 2463,
      "Ġball": 2464,
      "Ġdig": 2465,
      "Ġgen": 2466,
      "utions": 2467,
      "ĠFace": 2468,
      "apan": 2469,
      "Ġcontent": 2470,
      "Ġgray": 2471,
      "ĠNews": 2472,
      "viron": 2473,
      "Ġcode": 2474,
      "Ġnorm": 2475,
      "ĠAss": 2476,
      "Ġfinanc": 2477,
      "Ġleaders": 2478,
      "ĠDavid": 2479,
      "23": 2480,
      "lant": 2481,
      "ser": 2482,
      "Ġaud": 2483,
      "ift": 2484,
      "Ġ27": 2485,
      "Ġclub": 2486,
      "Ġexpect": 2487,
      "Ġconfir": 2488,
      "Ġsimply": 2489,
      "atives": 2490,
      "Ġhouse": 2491,
      "Ġforward": 2492,
      "ĠMarch": 2493,
      "ĠPe": 2494,
      "Ġ21": 2495,
      "Ġsell": 2496,
      "Ġ2011": 2497,
      "Ġarticle": 2498,
      "Ġglob": 2499,
      "Ġwrong": 2500,
      "ĠMonday": 2501,
      "iated": 2502,
      "rect": 2503,
      "Ġsense": 2504,
      "omm": 2505,
      "Ġep": 2506,
      "Ġgun": 2507,
      "Ġheav": 2508,
      "ĠBo": 2509,
      "udget": 2510,
      "iple": 2511,
      "overed": 2512,
      "Ġserious": 2513,
      "Ġnumbers": 2514,
      "Ġcountries": 2515,
      "medi": 2516,
      "Ġtechnology": 2517,
      "Ġprivate": 2518,
      "ĠCourt": 2519,
      "af": 2520,
      "na": 2521,
      "Ġnom": 2522,
      "Ġstore": 2523,
      "ĠMas": 2524,
      "Ġ22": 2525,
      "ĠNe": 2526,
      "Ġsaw": 2527,
      "ples": 2528,
      "ĠBlack": 2529,
      "Ġproblems": 2530,
      "ĠSunday": 2531,
      "down": 2532,
      "âĸ": 2533,
      "Ġ:": 2534,
      "Ġwind": 2535,
      "itution": 2536,
      "aled": 2537,
      "Ġden": 2538,
      "Ġheld": 2539,
      "Ġweap": 2540,
      "ĠGl": 2541,
      "ung": 2542,
      "Ġsuff": 2543,
      "Ġspok": 2544,
      "Ġoutside": 2545,
      "ips": 2546,
      "Ġperiod": 2547,
      "Ġroad": 2548,
      "Ġexpress": 2549,
      "Ġrespond": 2550,
      "Ġstudy": 2551,
      "Ġrequire": 2552,
      "Ġincrease": 2553,
      "Ġdevice": 2554,
      "Ġrules": 2555,
      "body": 2556,
      "hood": 2557,
      "Ġlack": 2558,
      "ĠHill": 2559,
      "Ġusers": 2560,
      "Ġcontr": 2561,
      "Ġprim": 2562,
      "âĸĦ": 2563,
      "OS": 2564,
      "Ġ/": 2565,
      "Ġopt": 2566,
      "ites": 2567,
      "Ġfelt": 2568,
      "lev": 2569,
      "lex": 2570,
      "uted": 2571,
      "iring": 2572,
      "ĠPet": 2573,
      "ĠPaul": 2574,
      "hern": 2575,
      "Ġupd": 2576,
      "Ġindic": 2577,
      "Ġquestions": 2578,
      "ĠPlay": 2579,
      "Ġfriends": 2580,
      "Ġpotential": 2581,
      "la": 2582,
      "ilities": 2583,
      "Ġareas": 2584,
      "ighb": 2585,
      "Ġ2017": 2586,
      "Ġresident": 2587,
      "Ġreports": 2588,
      "Ġ40": 2589,
      "\".": 2590,
      "hib": 2591,
      "onse": 2592,
      "Ġmatch": 2593,
      "iding": 2594,
      "Ġstar": 2595,
      "ĠChar": 2596,
      "Ġrole": 2597,
      "Ġsurve": 2598,
      "Ġallowed": 2599,
      "Ġnearly": 2600,
      "ĠCongress": 2601,
      "bl": 2602,
      "Ġtem": 2603,
      "Ġage": 2604,
      "Ġce": 2605,
      "Ġcy": 2606,
      "Ġbillion": 2607,
      "Ġpack": 2608,
      "Ġmus": 2609,
      "ental": 2610,
      "ĠBitcoin": 2611,
      "key": 2612,
      "Ġusually": 2613,
      "Ġconsider": 2614,
      "Ġincluded": 2615,
      "Ġsurpr": 2616,
      "Ġfeatures": 2617,
      "ED": 2618,
      "ze": 2619,
      "itiz": 2620,
      "ĠMo": 2621,
      "ĠMy": 2622,
      "ĠWed": 2623,
      "Ġchance": 2624,
      "Ġscient": 2625,
      "Ġregular": 2626,
      "Ġresponse": 2627,
      "ique": 2628,
      "sych": 2629,
      "ĠAustral": 2630,
      "Ġcompanies": 2631,
      "IN": 2632,
      "face": 2633,
      "ires": 2634,
      "ya": 2635,
      "Ġbur": 2636,
      "esc": 2637,
      "estern": 2638,
      "Ġtown": 2639,
      "ĠMor": 2640,
      "Ġshare": 2641,
      "Ġremain": 2642,
      "Ġdefense": 2643,
      "Ġeduc": 2644,
      "Ġreceived": 2645,
      "ĠDepartment": 2646,
      "Ph": 2647,
      "card": 2648,
      "Ġtou": 2649,
      "Ġwide": 2650,
      "Ġpull": 2651,
      "arily": 2652,
      "Ġlay": 2653,
      "utive": 2654,
      "Ġstay": 2655,
      "Ġprogress": 2656,
      "ĠFirst": 2657,
      "oses": 2658,
      "Ġexact": 2659,
      "Ġord": 2660,
      "ĠJapan": 2661,
      "izing": 2662,
      "aching": 2663,
      "Ġteams": 2664,
      "ĠIndian": 2665,
      "Ġdemand": 2666,
      "pril": 2667,
      "Ġeasy": 2668,
      "Ġdevices": 2669,
      "Ġservice": 2670,
      "uscant": 2671,
      "nesday": 2672,
      "Ġsusp": 2673,
      "ĠFacebook": 2674,
      "60": 2675,
      "Ġwalk": 2676,
      "Ġcoll": 2677,
      "Ġcivil": 2678,
      "Ġdru": 2679,
      "ows": 2680,
      "Ġupper": 2681,
      "aging": 2682,
      "Ġhair": 2683,
      "Ġfront": 2684,
      "Ġtrue": 2685,
      "oint": 2686,
      "Ġ2010": 2687,
      "Ġfeet": 2688,
      "Ġsexual": 2689,
      "Ġrecently": 2690,
      "Ġvarious": 2691,
      "Ġvalue": 2692,
      "ĠMuslim": 2693,
      "ĠWednesday": 2694,
      "Ġ*": 2695,
      "Ġess": 2696,
      "Ġansw": 2697,
      "ĠTex": 2698,
      "ĠSept": 2699,
      "Ġaccept": 2700,
      "board": 2701,
      "ĠCoruscant": 2702,
      "vironment": 2703,
      "Ġways": 2704,
      "Ġcal": 2705,
      "anch": 2706,
      "roid": 2707,
      "ĠApril": 2708,
      "Ġwebs": 2709,
      "Ġearlier": 2710,
      "Ġartist": 2711,
      "Ġparticip": 2712,
      "aturday": 2713,
      "Ġcritic": 2714,
      "Ġrisk": 2715,
      "hold": 2716,
      "rim": 2717,
      "yle": 2718,
      "itor": 2719,
      "icks": 2720,
      "amm": 2721,
      "eth": 2722,
      "ĠEl": 2723,
      "Ġshot": 2724,
      "akers": 2725,
      "Ġneighb": 2726,
      "Ġsold": 2727,
      "rugg": 2728,
      "Ġobvious": 2729,
      "duced": 2730,
      "arents": 2731,
      "ES": 2732,
      "St": 2733,
      "ners": 2734,
      "Ġbank": 2735,
      "aries": 2736,
      "ĠTur": 2737,
      "Ġrev": 2738,
      "ĠAug": 2739,
      "ĠHere": 2740,
      "Ġrap": 2741,
      "ĠOct": 2742,
      "ĠJuly": 2743,
      "Ġtrade": 2744,
      "ampions": 2745,
      "Ġimpact": 2746,
      "Ġamount": 2747,
      "ĠIslam": 2748,
      "Ġattacks": 2749,
      "ĠMedic": 2750,
      "Ġinvolved": 2751,
      "ael": 2752,
      "ris": 2753,
      "ese": 2754,
      "Ġport": 2755,
      "Ġhuge": 2756,
      "lease": 2757,
      "ĠSaturday": 2758,
      "oto": 2759,
      "ume": 2760,
      "aker": 2761,
      "Ġarri": 2762,
      "ondon": 2763,
      "//": 2764,
      "fect": 2765,
      "haps": 2766,
      "pts": 2767,
      "ux": 2768,
      "Ġtit": 2769,
      "Ġtakes": 2770,
      "Ġsn": 2771,
      "Ġhous": 2772,
      "Ġforces": 2773,
      "ĠJe": 2774,
      "Ġgoes": 2775,
      "Ġscreen": 2776,
      "Ġdecided": 2777,
      "Ġphys": 2778,
      "Ġdevelopment": 2779,
      "Ġwords": 2780,
      "Ġtravel": 2781,
      "eared": 2782,
      "gal": 2783,
      "light": 2784,
      "Ġsite": 2785,
      "Ġbomb": 2786,
      "Ġfans": 2787,
      "Ġliving": 2788,
      "Ġaren": 2789,
      "ĠFin": 2790,
      "Ġsoon": 2791,
      "Ġcontrib": 2792,
      "Ġworked": 2793,
      "inese": 2794,
      "Ġhope": 2795,
      "Ġcouple": 2796,
      "Ġassistant": 2797,
      "AN": 2798,
      "lt": 2799,
      "ole": 2800,
      "oice": 2801,
      "Ġhom": 2802,
      "Ġren": 2803,
      "Ġgave": 2804,
      "Ġvia": 2805,
      "ĠJes": 2806,
      "Ġimm": 2807,
      "Ġimmedi": 2808,
      "Ġresults": 2809,
      "ellig": 2810,
      "Ġmethod": 2811,
      "Ġfriend": 2812,
      "26": 2813,
      "28": 2814,
      "Ġson": 2815,
      "Ġdi": 2816,
      "Ġlat": 2817,
      "ĠSand": 2818,
      "Ġstrugg": 2819,
      "ĠPer": 2820,
      "ĠPost": 2821,
      "ulations": 2822,
      "Ġexcept": 2823,
      "ĠSte": 2824,
      "tee": 2825,
      "Ġexpected": 2826,
      "Ġremains": 2827,
      "Ġsimple": 2828,
      "Ġfamil": 2829,
      "Ġincreasing": 2830,
      "Ġpersonal": 2831,
      "ĠEuropean": 2832,
      "mission": 2833,
      "ĠBritish": 2834,
      "Ġrelationship": 2835,
      "âĸĦâĸĦ": 2836,
      "24": 2837,
      "://": 2838,
      "ON": 2839,
      "aur": 2840,
      "bit": 2841,
      "Ġfit": 2842,
      "Ġlab": 2843,
      "Ġrate": 2844,
      "ĠLondon": 2845,
      "bert": 2846,
      "ought": 2847,
      "oved": 2848,
      "rought": 2849,
      "Ġdesp": 2850,
      "Ġvoters": 2851,
      "Ġforeign": 2852,
      "Ġsituation": 2853,
      "Ġmusic": 2854,
      "ault": 2855,
      "based": 2856,
      "joy": 2857,
      "well": 2858,
      "Ġtal": 2859,
      "Ġtable": 2860,
      "Ġcases": 2861,
      "edom": 2862,
      "Ġmat": 2863,
      "ĠTV": 2864,
      "Ġlost": 2865,
      "Ġnation": 2866,
      "Ġstories": 2867,
      "ĠOp": 2868,
      "ĠJune": 2869,
      "Ġspot": 2870,
      "ĠInter": 2871,
      "ogle": 2872,
      "uesday": 2873,
      "ĠLeague": 2874,
      "Ġrespect": 2875,
      "Ġlegisl": 2876,
      "Ġwritten": 2877,
      "Ġmeeting": 2878,
      "Ġhospital": 2879,
      "ĠGeor": 2880,
      "Ġadministration": 2881,
      "Ġfinancial": 2882,
      "uit": 2883,
      "Ġsqu": 2884,
      "Ġcred": 2885,
      "Ġmother": 2886,
      "Ġdro": 2887,
      "ĠTuesday": 2888,
      "Ġlives": 2889,
      "ĠSan": 2890,
      "ĠCont": 2891,
      "Ġhear": 2892,
      "Ġ28": 2893,
      "uses": 2894,
      "ĠGener": 2895,
      "ops": 2896,
      "Ġplans": 2897,
      "Ġbecom": 2898,
      "Ġdefin": 2899,
      "Ġ2008": 2900,
      "Ġbroad": 2901,
      "Ġelection": 2902,
      "Ġhappened": 2903,
      "70": 2904,
      "ees": 2905,
      "yd": 2906,
      "Ġill": 2907,
      "ening": 2908,
      "Ġfair": 2909,
      "arter": 2910,
      "Ġdiv": 2911,
      "Ġund": 2912,
      "ĠOther": 2913,
      "Ġshoot": 2914,
      "Ġworth": 2915,
      "Ġprice": 2916,
      "ruary": 2917,
      "Ġ198": 2918,
      "Ġterms": 2919,
      "Ġboard": 2920,
      "Ġinteresting": 2921,
      "This": 2922,
      "Ġquickly": 2923,
      "EN": 2924,
      "cle": 2925,
      "put": 2926,
      "ray": 2927,
      "anks": 2928,
      "Ġbrought": 2929,
      "Ġhon": 2930,
      "Ġdanger": 2931,
      "imately": 2932,
      "Ġround": 2933,
      "Ġsepar": 2934,
      "ival": 2935,
      "ĠKar": 2936,
      "Ġtext": 2937,
      "ĠChinese": 2938,
      "Ġplaying": 2939,
      "Ġmedical": 2940,
      "Ġextra": 2941,
      "Ġcentury": 2942,
      "========": 2943,
      "ĠCanada": 2944,
      "che": 2945,
      "Ã©": 2946,
      "orters": 2947,
      "Ġparents": 2948,
      "ĠThen": 2949,
      "ateg": 2950,
      "Ġchief": 2951,
      "Ġattention": 2952,
      "Ġemail": 2953,
      "ological": 2954,
      "Ġprovided": 2955,
      "Ġpopulation": 2956,
      "ructure": 2957,
      "27": 2958,
      "OP": 2959,
      "Ġpoll": 2960,
      "Ġmention": 2961,
      "oman": 2962,
      "Ġstren": 2963,
      "urd": 2964,
      "Ġselect": 2965,
      "rief": 2966,
      "ĠEven": 2967,
      "Ġens": 2968,
      "Ġsigned": 2969,
      "Ġoccur": 2970,
      "aught": 2971,
      "Ġinvestigation": 2972,
      "Ġcopy": 2973,
      "Ġfemale": 2974,
      "Ġinflu": 2975,
      "Ġpublished": 2976,
      "Ġreligious": 2977,
      "ky": 2978,
      "Ġsym": 2979,
      "Ġwing": 2980,
      "atory": 2981,
      "Ġcamer": 2982,
      "Ġfather": 2983,
      "Ġdiet": 2984,
      "Ġnar": 2985,
      "roy": 2986,
      "room": 2987,
      "acing": 2988,
      "ĠBill": 2989,
      "Ġseek": 2990,
      "Ġleave": 2991,
      "Ġsaf": 2992,
      "Ġlooks": 2993,
      "Ġmodern": 2994,
      "Ġletter": 2995,
      "ĠRussian": 2996,
      "Ġprofess": 2997,
      "Ġmorning": 2998,
      "Ġannounced": 2999,
      "Ġimprove": 3000,
      "ĠDecember": 3001,
      "ĠFebruary": 3002,
      "'d": 3003,
      "iant": 3004,
      "nces": 3005,
      "ises": 3006,
      "Ġtoward": 3007,
      "Ġdied": 3008,
      "ams": 3009,
      "ĠCount": 3010,
      "Ġvirtual": 3011,
      "Ġspecies": 3012,
      "Ġdemon": 3013,
      "Ġbooks": 3014,
      "ĠDonald": 3015,
      "Ġindustry": 3016,
      "Ġmarriage": 3017,
      "ĠJesus": 3018,
      "load": 3019,
      "set": 3020,
      "uk": 3021,
      "Ġcitiz": 3022,
      "Ġbi": 3023,
      "ĠBen": 3024,
      "ĠLast": 3025,
      "ried": 3026,
      "aph": 3027,
      "Ġupon": 3028,
      "Ġapplic": 3029,
      "Ġbuy": 3030,
      "Ġterm": 3031,
      "Ġleader": 3032,
      "Ġphone": 3033,
      "Ġcrim": 3034,
      "Ġcontinued": 3035,
      "Ġavoid": 3036,
      "Ġhistor": 3037,
      "Ġestab": 3038,
      "Ġengine": 3039,
      "ĠPolice": 3040,
      "Ġtreatment": 3041,
      "Ġvictim": 3042,
      "Ġsafety": 3043,
      "mber": 3044,
      "Ġwants": 3045,
      "Ġboy": 3046,
      "Ġbudget": 3047,
      "sey": 3048,
      "chie": 3049,
      "Ġconduct": 3050,
      "ĠFollow": 3051,
      "ĠKe": 3052,
      "ĠKing": 3053,
      "epend": 3054,
      "Ġclimate": 3055,
      "Ġenjoy": 3056,
      "Ġ31": 3057,
      "ruction": 3058,
      "Ġeffects": 3059,
      "Ġincreased": 3060,
      "Ġwriting": 3061,
      "ĠDemocrats": 3062,
      "ĠAfrican": 3063,
      "cast": 3064,
      "ma": 3065,
      "oor": 3066,
      "Ġpers": 3067,
      "Ġmale": 3068,
      "Ġhor": 3069,
      "Ġhot": 3070,
      "lled": 3071,
      "Ġeight": 3072,
      "iders": 3073,
      "ĠSl": 3074,
      "urch": 3075,
      "Ġhero": 3076,
      "illed": 3077,
      "Ġconvers": 3078,
      "ĠLib": 3079,
      "ĠOver": 3080,
      "âĢĿ.": 3081,
      "ĠKen": 3082,
      "ovember": 3083,
      "Ġopin": 3084,
      "anced": 3085,
      "Ġcomplex": 3086,
      "Ġcareer": 3087,
      "Ġchanged": 3088,
      "ĠGoogle": 3089,
      "Ġparticularly": 3090,
      "Ġtools": 3091,
      "35": 3092,
      "Croatian": 3093,
      "HO": 3094,
      "eed": 3095,
      "gency": 3096,
      "men": 3097,
      "where": 3098,
      "Ġoil": 3099,
      "ita": 3100,
      "Ġfast": 3101,
      "alt": 3102,
      "ari": 3103,
      "Ġmer": 3104,
      "ĠHum": 3105,
      "ander": 3106,
      "ocks": 3107,
      "Ġability": 3108,
      "undred": 3109,
      "Ġeffort": 3110,
      "________": 3111,
      "force": 3112,
      "Ġfixed": 3113,
      "bian": 3114,
      "rain": 3115,
      "uf": 3116,
      "Ġhar": 3117,
      "Ġredu": 3118,
      "Ġur": 3119,
      "Ġstra": 3120,
      "ĠâĢ¦": 3121,
      "aks": 3122,
      "Ġenvironment": 3123,
      "order": 3124,
      "Ġscore": 3125,
      "Ġadditional": 3126,
      "Ġregard": 3127,
      "Ġproduction": 3128,
      "ĠEnglish": 3129,
      "Ġpiece": 3130,
      "ĠTexas": 3131,
      "ĠAugust": 3132,
      "21": 3133,
      "45": 3134,
      "In": 3135,
      "fully": 3136,
      "li": 3137,
      "ĠÐ": 3138,
      "Ġap": 3139,
      "atform": 3140,
      "Ġcross": 3141,
      "Ġmember": 3142,
      "amb": 3143,
      "Ġheart": 3144,
      "Ġrange": 3145,
      "ĠDan": 3146,
      "Ġcomment": 3147,
      "unt": 3148,
      "alled": 3149,
      "Ġcontact": 3150,
      "tein": 3151,
      "Ġfeature": 3152,
      "Ġslow": 3153,
      "Ġconference": 3154,
      "Ġdistrib": 3155,
      "Ġprior": 3156,
      "ĠTwo": 3157,
      "Ġcombat": 3158,
      "ĠMastercard": 3159,
      "ery": 3160,
      "Ġsil": 3161,
      "Ġcell": 3162,
      "Ġcards": 3163,
      "Ġfear": 3164,
      "entially": 3165,
      "Ġgone": 3166,
      "sequ": 3167,
      "ills": 3168,
      "Ġrule": 3169,
      "ĠDuring": 3170,
      "ctor": 3171,
      "ĠFar": 3172,
      "ĠNovember": 3173,
      "Ġseven": 3174,
      "ĠOf": 3175,
      "Ġinside": 3176,
      "ĠComm": 3177,
      "Ġsometimes": 3178,
      "Ġtried": 3179,
      "Ġcertainly": 3180,
      "Ġsoftware": 3181,
      "Ġlatest": 3182,
      "ober": 3183,
      "Ġsnow": 3184,
      "Ġcat": 3185,
      "ĠIMA": 3186,
      "ĠPak": 3187,
      "ĠDel": 3188,
      "usion": 3189,
      "Ġtrust": 3190,
      "ailed": 3191,
      "enses": 3192,
      "Ġgets": 3193,
      "Ġconsist": 3194,
      "Ġvisit": 3195,
      "Ġmiddle": 3196,
      "vertis": 3197,
      "ĠSyria": 3198,
      "Ġdespite": 3199,
      "ken": 3200,
      "Ġmap": 3201,
      "Ġnamed": 3202,
      "ett": 3203,
      "Ġrout": 3204,
      "ĠGet": 3205,
      "Ġsearch": 3206,
      "Ġcompared": 3207,
      "Ġperfect": 3208,
      "Ġquality": 3209,
      "Ġprevent": 3210,
      "Ġsecret": 3211,
      "Ġturned": 3212,
      "Ġgiving": 3213,
      "Ġtype": 3214,
      "ĠEmp": 3215,
      "Ġlearn": 3216,
      "Ġeconomy": 3217,
      "Ġanti": 3218,
      "Ġtro": 3219,
      "Ġpen": 3220,
      "asc": 3221,
      "lyn": 3222,
      "Ġheard": 3223,
      "uments": 3224,
      "Ġdoll": 3225,
      "Ġuses": 3226,
      "ipe": 3227,
      "Ġaddition": 3228,
      "Ġslight": 3229,
      "Ġmodel": 3230,
      "ĠAtlant": 3231,
      "Ġbiggest": 3232,
      "Ġgenerally": 3233,
      "Ġeasily": 3234,
      "Ġblockch": 3235,
      "Ġpurp": 3236,
      "ĠDemocratic": 3237,
      "Ġeconomic": 3238,
      "ursday": 3239,
      "ĠCalif": 3240,
      "ĠIMAX": 3241,
      "rs": 3242,
      "vention": 3243,
      "wise": 3244,
      "Ġ=": 3245,
      "Ġten": 3246,
      "Ġtor": 3247,
      "inated": 3248,
      "Ġdraw": 3249,
      "ĠSince": 3250,
      "Ġones": 3251,
      "ĠMark": 3252,
      "oper": 3253,
      "Ġalthough": 3254,
      "ĠThursday": 3255,
      "idered": 3256,
      "Ġimage": 3257,
      "Ġenem": 3258,
      "Ġscience": 3259,
      "Ġworkers": 3260,
      "Ġsurv": 3261,
      "Ġallows": 3262,
      "Ġreading": 3263,
      "bed": 3264,
      "hat": 3265,
      "iate": 3266,
      "mp": 3267,
      "Ġtur": 3268,
      "ĠTimes": 3269,
      "acher": 3270,
      "ĠSup": 3271,
      "ĠSnow": 3272,
      "ously": 3273,
      "Ġoffer": 3274,
      "Ġdisp": 3275,
      "Ġtwe": 3276,
      "Ġbuilt": 3277,
      "Ġthroughout": 3278,
      "ĠAdam": 3279,
      "Ġpoor": 3280,
      "Ġdirector": 3281,
      "Ġdirectly": 3282,
      "Ġbehav": 3283,
      "Ġmovement": 3284,
      "Ġclaims": 3285,
      "Ġcounter": 3286,
      "Ġmultiple": 3287,
      "Ġdocument": 3288,
      "ĠGeneral": 3289,
      "ĠPakistan": 3290,
      "tain": 3291,
      "uing": 3292,
      "hest": 3293,
      "Ġbal": 3294,
      "Ġpage": 3295,
      "Ġlo": 3296,
      "ĠCoun": 3297,
      "Ġcomments": 3298,
      "ript": 3299,
      "ĠStreet": 3300,
      "Ġincident": 3301,
      "Ġwouldn": 3302,
      "Ġoverall": 3303,
      "avian": 3304,
      "Ġincludes": 3305,
      "Ġweekend": 3306,
      "ledge": 3307,
      "Ġcapital": 3308,
      "Ġplanet": 3309,
      "Ġpowerful": 3310,
      "Ġbox": 3311,
      "Ġlevels": 3312,
      "Ġfunction": 3313,
      "Ġservices": 3314,
      "Ġcompletely": 3315,
      "Ġsummer": 3316,
      "ĠSeptember": 3317,
      "ĠSupreme": 3318,
      "29": 3319,
      "de": 3320,
      "yond": 3321,
      "Ġachie": 3322,
      "Ġbrief": 3323,
      "Ġpsych": 3324,
      "asion": 3325,
      "Ġhundred": 3326,
      "ĠTom": 3327,
      "Ġlif": 3328,
      "ĠPat": 3329,
      "Ġcontract": 3330,
      "rypt": 3331,
      "Ġappeared": 3332,
      "Ġconserv": 3333,
      "ĠIsland": 3334,
      "ĠFrom": 3335,
      "ĠServ": 3336,
      "Ġmajority": 3337,
      "Ġviolence": 3338,
      "Ġeyes": 3339,
      "Ġindividuals": 3340,
      "Ġrapid": 3341,
      "PA": 3342,
      "come": 3343,
      "gen": 3344,
      "wide": 3345,
      "Ġ>": 3346,
      "Ġille": 3347,
      "itation": 3348,
      "isions": 3349,
      "Ġmis": 3350,
      "aches": 3351,
      "Ġyellow": 3352,
      "ope": 3353,
      "ĠLaw": 3354,
      "Ġhash": 3355,
      "ghan": 3356,
      "aves": 3357,
      "Ġrepe": 3358,
      ".\"[": 3359,
      "ĠAndroid": 3360,
      "Ġthinking": 3361,
      "Ġassoc": 3362,
      "Ġearth": 3363,
      "Ġleading": 3364,
      "Ġinsp": 3365,
      "Ġprograms": 3366,
      "Ġmeaning": 3367,
      "Ġexactly": 3368,
      "Ġwebsite": 3369,
      "ww": 3370,
      "Ġtend": 3371,
      "Ġahead": 3372,
      "Ġhtt": 3373,
      "Ġthous": 3374,
      "ĠSark": 3375,
      "aming": 3376,
      "ĠMost": 3377,
      "ĠBu": 3378,
      "ĠRich": 3379,
      "ĠLa": 3380,
      "Ġscene": 3381,
      "Ġdisapp": 3382,
      "ishing": 3383,
      "Ġfeed": 3384,
      "Ġconsidered": 3385,
      "ification": 3386,
      "Ġrequest": 3387,
      "Ġexperi": 3388,
      "Ġspeech": 3389,
      "Ġschools": 3390,
      "Ġcurrently": 3391,
      "atural": 3392,
      "Ġtraditional": 3393,
      "Ġchoice": 3394,
      "Ġperformance": 3395,
      "Ġtouch": 3396,
      "ĠOctober": 3397,
      "Ġstraight": 3398,
      "He": 3399,
      "If": 3400,
      "bur": 3401,
      "wood": 3402,
      "Ġbattle": 3403,
      "Ġpus": 3404,
      "Ġdial": 3405,
      "Ġreb": 3406,
      "Ġet": 3407,
      "Ġweb": 3408,
      "ĠPark": 3409,
      "ĠGreat": 3410,
      "Ġexam": 3411,
      "Ġplaces": 3412,
      "merc": 3413,
      "Ġactions": 3414,
      "Ġimplement": 3415,
      "ancy": 3416,
      "Ġcolor": 3417,
      "Ġcollege": 3418,
      "ĠArab": 3419,
      "Ġrequired": 3420,
      "Ġmoving": 3421,
      "Ġappears": 3422,
      "Ġtalking": 3423,
      "Ġeye": 3424,
      "ĠCenter": 3425,
      "Ġanalys": 3426,
      "Ġfootball": 3427,
      "ĠMichael": 3428,
      "ĠCaliforn": 3429,
      "Ġfine": 3430,
      "Ġdaily": 3431,
      "Ġgas": 3432,
      "ĠSu": 3433,
      "iment": 3434,
      "Ġforced": 3435,
      "ĠMany": 3436,
      "Ġwhale": 3437,
      "ems": 3438,
      "aint": 3439,
      "ĠLike": 3440,
      "Ġgoals": 3441,
      "Ġspent": 3442,
      "ounds": 3443,
      "Ġaccur": 3444,
      "Ġrelative": 3445,
      "Ġguy": 3446,
      "Ġcarry": 3447,
      "Ġproducts": 3448,
      "ĠInternational": 3449,
      "Ġexecutive": 3450,
      "Ġcomputer": 3451,
      "Ġimmediately": 3452,
      "SU": 3453,
      "mb": 3454,
      "Ġsat": 3455,
      "olute": 3456,
      "resh": 3457,
      "unk": 3458,
      "Ġplatform": 3459,
      "ortion": 3460,
      "Ġjournal": 3461,
      "ĠUp": 3462,
      "Ġprices": 3463,
      "ĠAlthough": 3464,
      "Ġstarting": 3465,
      "Ġdifference": 3466,
      "Ġrefer": 3467,
      "Ġcommunic": 3468,
      "Ġfully": 3469,
      "ĠAfghan": 3470,
      "Ġdestroy": 3471,
      "Ġpractice": 3472,
      "chers": 3473,
      "Ġmessage": 3474,
      "Ġglobal": 3475,
      "Ġdrug": 3476,
      "ĠCalifornia": 3477,
      "CH": 3478,
      "RI": 3479,
      "da": 3480,
      "gers": 3481,
      "xy": 3482,
      "Ġesc": 3483,
      "hel": 3484,
      "ara": 3485,
      "Ġinn": 3486,
      "omen": 3487,
      "ida": 3488,
      "ĠMid": 3489,
      "ĠGM": 3490,
      "oph": 3491,
      "osh": 3492,
      "Ġleague": 3493,
      "ĠStud": 3494,
      "ords": 3495,
      "Ġprec": 3496,
      "Ġcalls": 3497,
      "There": 3498,
      "ĠQu": 3499,
      "Ġcosts": 3500,
      "Ġculture": 3501,
      "Ġgirl": 3502,
      "Ġdamage": 3503,
      "Ġdoub": 3504,
      "Ġeducation": 3505,
      "Ġstrength": 3506,
      "ĠCounty": 3507,
      "Ġcriminal": 3508,
      "oo": 3509,
      "Ġwond": 3510,
      "ĠSoc": 3511,
      "ĠCroatian": 3512,
      "Ġult": 3513,
      "ecause": 3514,
      "Ġstre": 3515,
      "ĠLin": 3516,
      "Ġtraining": 3517,
      "Ġdrain": 3518,
      "Ġguys": 3519,
      "ĠAdvertis": 3520,
      "Ġextreme": 3521,
      "Ġcenter": 3522,
      "Ġdetails": 3523,
      "ĠSerbo": 3524,
      "Ġsociety": 3525,
      "Ġideas": 3526,
      "ĠJohnson": 3527,
      "Ġparts": 3528,
      "mitted": 3529,
      "ĠMcC": 3530,
      "ĠFlor": 3531,
      "Ġopportunity": 3532,
      "mercial": 3533,
      ",[": 3534,
      "ference": 3535,
      "ha": 3536,
      "ram": 3537,
      "yan": 3538,
      "Ġwat": 3539,
      "Ġwife": 3540,
      "Ġpaper": 3541,
      "Ġnature": 3542,
      "Ġready": 3543,
      "idge": 3544,
      "ĠSa": 3545,
      "ĠAir": 3546,
      "ĠBro": 3547,
      "ĠBook": 3548,
      "Ġ29": 3549,
      "ctions": 3550,
      "alls": 3551,
      "Ġwhose": 3552,
      "ibly": 3553,
      "Ġmostly": 3554,
      "Ġlooked": 3555,
      "Ġfinally": 3556,
      "Ġ70": 3557,
      "Ġofficer": 3558,
      "Ġhelped": 3559,
      "Ġhighly": 3560,
      "Ġcontinues": 3561,
      "Ġfollowed": 3562,
      "Ġdeveloped": 3563,
      "Ġapproach": 3564,
      "Ġencour": 3565,
      "ĠEarth": 3566,
      "ĠMaslow": 3567,
      "Ġcele": 3568,
      "elligence": 3569,
      "ĠSarkhan": 3570,
      "gins": 3571,
      "Ġver": 3572,
      "Ġpath": 3573,
      "icial": 3574,
      "icated": 3575,
      "icles": 3576,
      "ĠMer": 3577,
      "ĠMart": 3578,
      "ĠHCA": 3579,
      "Ġrare": 3580,
      "ĠFe": 3581,
      "ĠLet": 3582,
      "ources": 3583,
      "Ġtraff": 3584,
      "itely": 3585,
      "Ġ34": 3586,
      "Ġprem": 3587,
      "Ġknew": 3588,
      "Ġattract": 3589,
      "ĠWhy": 3590,
      "Ġkept": 3591,
      "Ġ60": 3592,
      "Ġlegs": 3593,
      "Ġdistrict": 3594,
      "Ġpassed": 3595,
      "Ġwinning": 3596,
      "Ġbasic": 3597,
      "Ġeventually": 3598,
      "Ġanimator": 3599,
      "Ġalleged": 3600,
      "But": 3601,
      "orks": 3602,
      "Ġpict": 3603,
      "Ġreasons": 3604,
      "Ġgreen": 3605,
      "igr": 3606,
      "imum": 3607,
      "ĠCons": 3608,
      "ĠMike": 3609,
      "ĠMiss": 3610,
      "istry": 3611,
      "ĠEvery": 3612,
      "Ġaltern": 3613,
      "Ġship": 3614,
      "Ġshown": 3615,
      "ĠUK": 3616,
      "raz": 3617,
      "Ġevents": 3618,
      "Ġmyself": 3619,
      "ounts": 3620,
      "Ġindepend": 3621,
      "Ġdefend": 3622,
      "encies": 3623,
      "Ġregion": 3624,
      "Ġ2009": 3625,
      "Ġpurch": 3626,
      "Ġlaunch": 3627,
      "Ġepis": 3628,
      "Ġneighbor": 3629,
      "ĠFlorida": 3630,
      "You": 3631,
      "ford": 3632,
      "vis": 3633,
      "yp": 3634,
      "Ġtail": 3635,
      "Ġsales": 3636,
      "Ġwild": 3637,
      "Ġcause": 3638,
      "Ġbitcoin": 3639,
      "icro": 3640,
      "enty": 3641,
      "Ġnice": 3642,
      "Ġbeaut": 3643,
      "ĠAM": 3644,
      "ĠAlex": 3645,
      "ĠMT": 3646,
      "ulated": 3647,
      "ĠNet": 3648,
      "ĠJer": 3649,
      "ĠUnder": 3650,
      "Ġsched": 3651,
      "Ġprep": 3652,
      "Ġ196": 3653,
      "Ġmaybe": 3654,
      "ĠAng": 3655,
      "Ġsystems": 3656,
      "ĠComp": 3657,
      "Ġhappy": 3658,
      "Ġproduct": 3659,
      "Ġwrite": 3660,
      "Ġfreedom": 3661,
      "Ġnormal": 3662,
      "Ġdemonstr": 3663,
      ");": 3664,
      "ca": 3665,
      "fl": 3666,
      "ipp": 3667,
      "het": 3668,
      "inn": 3669,
      "Ġcast": 3670,
      "icient": 3671,
      "Ġlock": 3672,
      "ston": 3673,
      "acts": 3674,
      "ĠBur": 3675,
      "ĠGal": 3676,
      "estic": 3677,
      "Ġrecomm": 3678,
      "enced": 3679,
      "Ġpositive": 3680,
      "ĠRead": 3681,
      "Ġsmart": 3682,
      "Ġstudent": 3683,
      "ĠArt": 3684,
      "Ġeasier": 3685,
      "Ġmovie": 3686,
      "Ġclearly": 3687,
      "while": 3688,
      "Ġgrowing": 3689,
      "Ġagreement": 3690,
      "Ġdescribed": 3691,
      "Ġmeasure": 3692,
      "Ġsenior": 3693,
      "Ġanswer": 3694,
      "ampionship": 3695,
      "Ġcitizens": 3696,
      "AR": 3697,
      "band": 3698,
      "cer": 3699,
      "egr": 3700,
      "war": 3701,
      "Ġaware": 3702,
      "inct": 3703,
      "onents": 3704,
      "Ġbatter": 3705,
      "Ġfir": 3706,
      "Ġmot": 3707,
      "omp": 3708,
      "Ġlines": 3709,
      "Ġreach": 3710,
      "lymp": 3711,
      "Ġgives": 3712,
      "ĠInt": 3713,
      "owers": 3714,
      "ada": 3715,
      "ĠCap": 3716,
      "Ġrank": 3717,
      "ĠDef": 3718,
      "Ġsafe": 3719,
      "Ġadop": 3720,
      "ension": 3721,
      "They": 3722,
      "Ġlocation": 3723,
      "Ġpresidential": 3724,
      "ĠSecret": 3725,
      "ĠJustice": 3726,
      "Ġkids": 3727,
      "Ġfigure": 3728,
      "Ġnecessary": 3729,
      "Ġblockchain": 3730,
      "37": 3731,
      "craft": 3732,
      "ds": 3733,
      "fort": 3734,
      "Ġton": 3735,
      "Ġcities": 3736,
      "Ġpun": 3737,
      "Ġpaid": 3738,
      "ĠTod": 3739,
      "Ġnames": 3740,
      "ĠSim": 3741,
      "igan": 3742,
      "Ġstuff": 3743,
      "ago": 3744,
      "ĠRob": 3745,
      "ĠGreen": 3746,
      "ĠLab": 3747,
      "ĠOlymp": 3748,
      "astic": 3749,
      "aked": 3750,
      "raq": 3751,
      "Ġbackground": 3752,
      "rench": 3753,
      "Ġconflic": 3754,
      "ĠCloud": 3755,
      "Ġlarger": 3756,
      "apped": 3757,
      "Ġcreating": 3758,
      "Ġfrequ": 3759,
      "ĠWilliam": 3760,
      "ĠAssoc": 3761,
      "Ġanalysis": 3762,
      "Ġtraffic": 3763,
      "?\"": 3764,
      "CC": 3765,
      "OR": 3766,
      "ses": 3767,
      "uel": 3768,
      "ino": 3769,
      "Ġsort": 3770,
      "Ġsens": 3771,
      "ened": 3772,
      "Ġrent": 3773,
      "ota": 3774,
      "ĠDay": 3775,
      "Ġimag": 3776,
      "Ġarch": 3777,
      "Ġqual": 3778,
      "Ġprison": 3779,
      "Ġcoach": 3780,
      "Ġdefe": 3781,
      "Ġefforts": 3782,
      "Ġobject": 3783,
      "Ġsubject": 3784,
      "Ġcentral": 3785,
      "Ġtrial": 3786,
      "Ġresear": 3787,
      "Ġreduce": 3788,
      "Ġslightly": 3789,
      "FL": 3790,
      "ares": 3791,
      "bon": 3792,
      "cing": 3793,
      "know": 3794,
      "mark": 3795,
      "tr": 3796,
      "inary": 3797,
      "itness": 3798,
      "orney": 3799,
      "ester": 3800,
      "Ġfat": 3801,
      "Ġlink": 3802,
      "ĠIraq": 3803,
      "term": 3804,
      "Ġran": 3805,
      "Ġprotein": 3806,
      "Ġcommercial": 3807,
      "ĠNight": 3808,
      "Ġnoted": 3809,
      "ĠJames": 3810,
      "Ġnovel": 3811,
      "rupt": 3812,
      "Ġimpress": 3813,
      "Ġcouldn": 3814,
      "Ġdecl": 3815,
      "Ġlawy": 3816,
      "Ġsubst": 3817,
      "ĠFranc": 3818,
      "ĠAtt": 3819,
      "Ġliter": 3820,
      "Ġpolitics": 3821,
      "Ġcorrect": 3822,
      "isco": 3823,
      "Ġfunding": 3824,
      "Ġlimited": 3825,
      "Ġpreviously": 3826,
      "Ġabsolute": 3827,
      "GB": 3828,
      "dom": 3829,
      "more": 3830,
      "rom": 3831,
      "uana": 3832,
      "yl": 3833,
      "ðŁ": 3834,
      "Ġcars": 3835,
      "lear": 3836,
      "ĠMal": 3837,
      "illing": 3838,
      "ifying": 3839,
      "ĠFox": 3840,
      "Ġsea": 3841,
      "Ġagency": 3842,
      "Ġcommand": 3843,
      "Ġexpand": 3844,
      "vernment": 3845,
      "ĠAlso": 3846,
      "Ġowners": 3847,
      "azing": 3848,
      "Ġgreater": 3849,
      "gypt": 3850,
      "iverse": 3851,
      "Ġradio": 3852,
      "Ġsurvey": 3853,
      "ĠEmpire": 3854,
      "34": 3855,
      "IA": 3856,
      "iar": 3857,
      "ki": 3858,
      "zz": 3859,
      "Ġtick": 3860,
      "inally": 3861,
      "ona": 3862,
      "Ġsect": 3863,
      "icip": 3864,
      "ĠSub": 3865,
      "ĠMac": 3866,
      "iller": 3867,
      "Ġrac": 3868,
      "ĠRec": 3869,
      "ĠEgypt": 3870,
      "que": 3871,
      "ĠJack": 3872,
      "antly": 3873,
      "Ġspending": 3874,
      "Ġspread": 3875,
      "Ġclos": 3876,
      "Ġunf": 3877,
      "Ġunique": 3878,
      "Ġtelev": 3879,
      "Ġblog": 3880,
      "Ġdisplay": 3881,
      "ĠTrans": 3882,
      "Ġremember": 3883,
      "Ġended": 3884,
      "Ġprovides": 3885,
      "Ġofficers": 3886,
      "Ġreflect": 3887,
      "Ġhands": 3888,
      "Ġreceive": 3889,
      "Ġestim": 3890,
      "ĠMinister": 3891,
      "Ġnegative": 3892,
      "ĠHillary": 3893,
      "90": 3894,
      "ios": 3895,
      "mar": 3896,
      "ugg": 3897,
      "Ġir": 3898,
      "Ġaw": 3899,
      "Ġaward": 3900,
      "Ġsom": 3901,
      "Ġtowards": 3902,
      "Ġmix": 3903,
      "Ġhur": 3904,
      "adem": 3905,
      "ĠCup": 3906,
      "ĠBrown": 3907,
      "ĠWestern": 3908,
      "using": 3909,
      "ĠLat": 3910,
      "ĠLong": 3911,
      "osn": 3912,
      "Ġnote": 3913,
      "ables": 3914,
      "Ġplot": 3915,
      "Ġsave": 3916,
      "iven": 3917,
      "Ġ35": 3918,
      "awa": 3919,
      "Ġ197": 3920,
      "ĠAnother": 3921,
      "ropri": 3922,
      "Ġsolution": 3923,
      "Ġlearning": 3924,
      "Ġlearned": 3925,
      "ĠInternet": 3926,
      "Ġcandidates": 3927,
      "Ġweapons": 3928,
      "ipped": 3929,
      "mine": 3930,
      "rem": 3931,
      "Ġpan": 3932,
      "Ġder": 3933,
      "Ġdate": 3934,
      "Ġdrop": 3935,
      "ĠTor": 3936,
      "Ġbeyond": 3937,
      "ĠSP": 3938,
      "ĠSpe": 3939,
      "ĠAg": 3940,
      "ĠBer": 3941,
      "ĠDig": 3942,
      "istrict": 3943,
      "ears": 3944,
      "earch": 3945,
      "ĠUgin": 3946,
      "ĠStr": 3947,
      "Ġagree": 3948,
      "Ġperhaps": 3949,
      "Ġscen": 3950,
      "Ġapparent": 3951,
      "Ġactual": 3952,
      "Ġamb": 3953,
      "Ġgrad": 3954,
      "Ġbrand": 3955,
      "Ġchem": 3956,
      "Ġadvant": 3957,
      "Ġcorpor": 3958,
      "Ġrestrict": 3959,
      "ĠImage": 3960,
      "Ġdesigned": 3961,
      "Ġjobs": 3962,
      "Ġdebate": 3963,
      "ography": 3964,
      "ijuana": 3965,
      "Ġtypes": 3966,
      "Ġjudge": 3967,
      "Ġstatus": 3968,
      "ĠParty": 3969,
      "Ġdetermin": 3970,
      "ĠJeff": 3971,
      "IT": 3972,
      "mers": 3973,
      "Ġ@": 3974,
      "onent": 3975,
      "Ġsem": 3976,
      "oug": 3977,
      "Ġmill": 3978,
      "Ġbeat": 3979,
      "Ġbeats": 3980,
      "ament": 3981,
      "Ġstress": 3982,
      "ĠMen": 3983,
      "ĠMag": 3984,
      "iles": 3985,
      "ĠHigh": 3986,
      "raham": 3987,
      "Ġprinc": 3988,
      "Ġrob": 3989,
      "Ġroll": 3990,
      "ĠUnion": 3991,
      "Ġcharge": 3992,
      "Ġsett": 3993,
      "Ġlargest": 3994,
      "Ġclean": 3995,
      "Ġdemocr": 3996,
      "Ġinternet": 3997,
      "ĠIsraeli": 3998,
      "Ġfailed": 3999,
      "Ġautom": 4000,
      "Ġfavorite": 4001,
      "ĠOffice": 4002,
      "ĠAustralia": 4003,
      "ĠAdvertisement": 4004,
      "ny": 4005,
      "tion": 4006,
      "ype": 4007,
      "onym": 4008,
      "ati": 4009,
      "isher": 4010,
      "Ġfan": 4011,
      "Ġfresh": 4012,
      "aling": 4013,
      "ico": 4014,
      "iced": 4015,
      "ado": 4016,
      "Ġstream": 4017,
      "uries": 4018,
      "iful": 4019,
      "Ġprojects": 4020,
      "Ġgold": 4021,
      "Ġspir": 4022,
      "oking": 4023,
      "actions": 4024,
      "Ġoffered": 4025,
      "Ġimages": 4026,
      "Ġdecades": 4027,
      "Ġbelieved": 4028,
      "Ġspeed": 4029,
      "Ġmoved": 4030,
      "Ġproposed": 4031,
      "Ġconcerns": 4032,
      "Ġchallenge": 4033,
      "Ġresidents": 4034,
      "Ġupperparts": 4035,
      "Ġopinion": 4036,
      "ĠCouncil": 4037,
      "36": 4038,
      "As": 4039,
      "US": 4040,
      "ville": 4041,
      "Ġcrow": 4042,
      "itals": 4043,
      "Ġbon": 4044,
      "edi": 4045,
      "Ġpet": 4046,
      "Ġpush": 4047,
      "Ġmur": 4048,
      "ici": 4049,
      "icit": 4050,
      "Ġreject": 4051,
      "ĠSol": 4052,
      "ĠMary": 4053,
      "change": 4054,
      "ĠFlyn": 4055,
      "ĠFrench": 4056,
      "usband": 4057,
      "ĠLou": 4058,
      "ĠKn": 4059,
      "oints": 4060,
      "icted": 4061,
      "Ġcharged": 4062,
      "Ġcharges": 4063,
      "Ġminor": 4064,
      "Ġruns": 4065,
      "airs": 4066,
      "ĠPhil": 4067,
      "Ġruling": 4068,
      "ĠEdit": 4069,
      "ĠExp": 4070,
      "Ġconditions": 4071,
      "Ġraised": 4072,
      "Ġconnect": 4073,
      "Ġarrested": 4074,
      "Phone": 4075,
      "Ġlegislation": 4076,
      "Ġdangerous": 4077,
      "Ġillegal": 4078,
      "ĠFlynn": 4079,
      "49": 4080,
      "hi": 4081,
      "house": 4082,
      "Ã¼": 4083,
      "Ġign": 4084,
      "Ġsides": 4085,
      "Ġwid": 4086,
      "Ġcaught": 4087,
      "Ġbul": 4088,
      "Ġfell": 4089,
      "lying": 4090,
      "oted": 4091,
      "adium": 4092,
      "Ġstret": 4093,
      "Ġwhom": 4094,
      "ceed": 4095,
      "Ġrat": 4096,
      "ĠDis": 4097,
      "ements": 4098,
      "anda": 4099,
      "Ġalone": 4100,
      "Ġsho": 4101,
      "Ġwilling": 4102,
      "actic": 4103,
      "Ġmeant": 4104,
      "iance": 4105,
      "Ġarm": 4106,
      "ĠVer": 4107,
      "Ġemiss": 4108,
      "Ġseeing": 4109,
      "Ġacknow": 4110,
      "Ġcolle": 4111,
      "coming": 4112,
      "Ġbrother": 4113,
      "Ġtelling": 4114,
      "Ġoperations": 4115,
      "Ġsources": 4116,
      "Ġgrowth": 4117,
      "Ġauthorities": 4118,
      "Ġemergency": 4119,
      "Ġbeginning": 4120,
      "Ġspokes": 4121,
      "Ġhousing": 4122,
      "Ġphysical": 4123,
      "Ġcredit": 4124,
      "Ġshooting": 4125,
      "Ġensure": 4126,
      "OT": 4127,
      "ban": 4128,
      "just": 4129,
      "with": 4130,
      "ĠðŁ": 4131,
      "Ġsan": 4132,
      "Ġbott": 4133,
      "Ġple": 4134,
      "Ġpark": 4135,
      "arge": 4136,
      "Ġmist": 4137,
      "Ġlose": 4138,
      "Ġnatural": 4139,
      "Ġele": 4140,
      "Ġstage": 4141,
      "Ġstreet": 4142,
      "Ġstyle": 4143,
      "ĠDirect": 4144,
      "ĠOut": 4145,
      "Ġenforce": 4146,
      "berg": 4147,
      "Ġresist": 4148,
      "Ġblue": 4149,
      "Ġunderparts": 4150,
      "Ġcool": 4151,
      "Ġcoast": 4152,
      "Ġgovernor": 4153,
      "phone": 4154,
      "Ġopposition": 4155,
      "Ġopening": 4156,
      "Ġclaimed": 4157,
      "Ġhighest": 4158,
      "Ġwatching": 4159,
      "Ġtitle": 4160,
      "!\"": 4161,
      "39": 4162,
      "bar": 4163,
      "ga": 4164,
      "point": 4165,
      "inks": 4166,
      "Ġcore": 4167,
      "Ġmaster": 4168,
      "Ġhack": 4169,
      "Ġreached": 4170,
      "ĠAri": 4171,
      "Ġonto": 4172,
      "ima": 4173,
      "ĠMs": 4174,
      "ĠMet": 4175,
      "ĠMatt": 4176,
      "ĠBank": 4177,
      "atever": 4178,
      "Ġhaven": 4179,
      "ĠFre": 4180,
      "Ġvision": 4181,
      "Ġvoice": 4182,
      "ĠEv": 4183,
      "ĠJud": 4184,
      "ĠKo": 4185,
      "ĠInc": 4186,
      "Ġuser": 4187,
      "Ġyourself": 4188,
      "Ġparties": 4189,
      "Ġknows": 4190,
      "Ġcalling": 4191,
      "Ġshowed": 4192,
      "Ġkilling": 4193,
      "Ġdrag": 4194,
      "Ġreality": 4195,
      "Ġfiles": 4196,
      "Ġmarijuana": 4197,
      "Ġsmaller": 4198,
      "aughter": 4199,
      "Ġmanagement": 4200,
      "Ġpressure": 4201,
      "Ġlimit": 4202,
      "Ġannounce": 4203,
      "ĠAfrica": 4204,
      "Ġmassive": 4205,
      "Ġrevealed": 4206,
      "ĠMedicaid": 4207,
      "Ġcamera": 4208,
      "ĠHuman": 4209,
      "Ġetc": 4210,
      "Ġneighborhood": 4211,
      "iable": 4212,
      "rated": 4213,
      "inate": 4214,
      "Ġsend": 4215,
      "Ġcoin": 4216,
      "Ġfile": 4217,
      "oul": 4218,
      "Ġgender": 4219,
      "utter": 4220,
      "ĠCapt": 4221,
      "Ġstated": 4222,
      "ĠBel": 4223,
      "ĠBecause": 4224,
      "oles": 4225,
      "olic": 4226,
      "ĠHam": 4227,
      "ĠDes": 4228,
      "ategy": 4229,
      "andom": 4230,
      "rian": 4231,
      "Ġsuit": 4232,
      "orthern": 4233,
      "ĠVal": 4234,
      "Ġamazing": 4235,
      "Ġfiled": 4236,
      "ĠOnly": 4237,
      "ucky": 4238,
      "Ġsolid": 4239,
      "Ġtells": 4240,
      "Ġmission": 4241,
      "Ġrecords": 4242,
      "ĠBritain": 4243,
      "Ġprimary": 4244,
      ".'": 4245,
      "100": 4246,
      "iers": 4247,
      "iel": 4248,
      "rate": 4249,
      "Ġaim": 4250,
      "iny": 4251,
      "Ġsize": 4252,
      "iter": 4253,
      "itude": 4254,
      "Ġbars": 4255,
      "orial": 4256,
      "arian": 4257,
      "asts": 4258,
      "Ġthrow": 4259,
      "Ġlik": 4260,
      "ids": 4261,
      "acle": 4262,
      "ĠMat": 4263,
      "ils": 4264,
      "Ġconce": 4265,
      "Ġath": 4266,
      "ĠGOP": 4267,
      "allow": 4268,
      "Ġjump": 4269,
      "igned": 4270,
      "Ġrock": 4271,
      "Ġassum": 4272,
      "Ġassess": 4273,
      "Ġsurface": 4274,
      "Ġshowing": 4275,
      "Ġcris": 4276,
      "Ġcrime": 4277,
      "Ġcurren": 4278,
      "Ġsites": 4279,
      "Ġpattern": 4280,
      "Ġpatients": 4281,
      "Ġemployees": 4282,
      "Ġlaun": 4283,
      "Ġvictory": 4284,
      "Ġresponsibility": 4285,
      "Ġconfirmed": 4286,
      "Ġinfluence": 4287,
      "Ġmurder": 4288,
      "200": 4289,
      "46": 4290,
      "48": 4291,
      "CK": 4292,
      "aith": 4293,
      "bre": 4294,
      "ding": 4295,
      "gu": 4296,
      "king": 4297,
      "Ġtip": 4298,
      "rel": 4299,
      "ero": 4300,
      "ingu": 4301,
      "Ġpale": 4302,
      "alu": 4303,
      "ĠTem": 4304,
      "ĠIr": 4305,
      "ĠAnt": 4306,
      "Ġyards": 4307,
      "ĠBus": 4308,
      "ĠTheir": 4309,
      "Ġweak": 4310,
      "ager": 4311,
      "Ġprohib": 4312,
      "Ġshar": 4313,
      "eless": 4314,
      "ĠThose": 4315,
      "Ġappeal": 4316,
      "anged": 4317,
      "ĠHealth": 4318,
      "Ġ90": 4319,
      "Ġrequires": 4320,
      "Ġadvoc": 4321,
      "Ġbroken": 4322,
      "Ġmarkets": 4323,
      "Ġinterested": 4324,
      "lined": 4325,
      "Ġthreats": 4326,
      "Ġreturned": 4327,
      "Ġsuggests": 4328,
      "ĠEngland": 4329,
      "Ġentirely": 4330,
      "Ġactivity": 4331,
      "Ġinjured": 4332,
      "ĠSwed": 4333,
      "ĠTurk": 4334,
      "Ġdefinitely": 4335,
      "Ġestablish": 4336,
      "Ġconservative": 4337,
      "ĠLinux": 4338,
      "ĠAngel": 4339,
      "LL": 4340,
      "PS": 4341,
      "vest": 4342,
      "Ġwins": 4343,
      "atac": 4344,
      "Ġborder": 4345,
      "ĠTer": 4346,
      "Ġreform": 4347,
      "idering": 4348,
      "see": 4349,
      "Ġsto": 4350,
      "Ġstation": 4351,
      "urance": 4352,
      "cell": 4353,
      "ĠHoll": 4354,
      "ulate": 4355,
      "isted": 4356,
      "unn": 4357,
      "Ġplaced": 4358,
      "ĠJew": 4359,
      "Ġtruth": 4360,
      "Ġspl": 4361,
      "Ġworst": 4362,
      "Ġworse": 4363,
      "ĠUN": 4364,
      "Ġuns": 4365,
      "erences": 4366,
      "Ġresources": 4367,
      "Ġpeace": 4368,
      "Ġserved": 4369,
      "Ġexpans": 4370,
      "Ġuseful": 4371,
      "duction": 4372,
      "Ġcourses": 4373,
      "Ġdiscovered": 4374,
      "Ġhumans": 4375,
      "Ġwriter": 4376,
      "espite": 4377,
      "ĠSee": 4378,
      "Ġposted": 4379,
      "ĠPlan": 4380,
      "Ġbasis": 4381,
      "ĠRobert": 4382,
      "Ġconcerned": 4383,
      "Ġcollection": 4384,
      "Ġdomestic": 4385,
      "Ġintroduced": 4386,
      "Ġconversation": 4387,
      "Ġcelebr": 4388,
      "ropriate": 4389,
      "Ġemissions": 4390,
      "47": 4391,
      "do": 4392,
      "kn": 4393,
      "lines": 4394,
      "net": 4395,
      "pre": 4396,
      "hem": 4397,
      "Ġod": 4398,
      "Ġble": 4399,
      "owl": 4400,
      "eter": 4401,
      "ader": 4402,
      "ĠCr": 4403,
      "ĠCamp": 4404,
      "echan": 4405,
      "ĠMos": 4406,
      "ĠBry": 4407,
      "ĠWP": 4408,
      "ĠWell": 4409,
      "ĠWatch": 4410,
      "ĠRT": 4411,
      "ulf": 4412,
      "Ġleaving": 4413,
      "ĠUs": 4414,
      "Ġclosed": 4415,
      "Ġteacher": 4416,
      "oundation": 4417,
      "Ġknowledge": 4418,
      "Ġrelated": 4419,
      "Ġstrategy": 4420,
      "Ġdistance": 4421,
      "Ġexplore": 4422,
      "Ġasking": 4423,
      "ĠSerbian": 4424,
      "ĠColumb": 4425,
      "Ġproduce": 4426,
      "Ġidentified": 4427,
      "Ġinitial": 4428,
      "ĠPalest": 4429,
      "Ġdigital": 4430,
      "Ġtelevision": 4431,
      "Ġcrisis": 4432,
      ".âĢĻ": 4433,
      "38": 4434,
      "55": 4435,
      "brown": 4436,
      "gender": 4437,
      "mm": 4438,
      "no": 4439,
      "pat": 4440,
      "wan": 4441,
      "rey": 4442,
      "Ġtheory": 4443,
      "erve": 4444,
      "Ġbreat": 4445,
      "edy": 4446,
      "Ġpair": 4447,
      "Ġmach": 4448,
      "Ġdin": 4449,
      "Ġlosing": 4450,
      "ĠSchool": 4451,
      "uty": 4452,
      "ĠMars": 4453,
      "iled": 4454,
      "ĠWars": 4455,
      "ĠHist": 4456,
      "ĠRad": 4457,
      "Ġnotice": 4458,
      "Ġshut": 4459,
      "Ġtrou": 4460,
      "Ġintelligence": 4461,
      "Ġunc": 4462,
      "Ġunlike": 4463,
      "Ġquarter": 4464,
      "Ġflat": 4465,
      "venue": 4466,
      "Ġmedium": 4467,
      "Ġinstall": 4468,
      "Ġsupported": 4469,
      "ĠOnce": 4470,
      "box": 4471,
      "ĠProf": 4472,
      "Ġfourth": 4473,
      "Ġbuildings": 4474,
      "Ġhospitals": 4475,
      "ĠSmith": 4476,
      "Ġdocuments": 4477,
      "Ġbenefit": 4478,
      "Ġproperty": 4479,
      "Ġobviously": 4480,
      "Ġrenew": 4481,
      "ĠSanders": 4482,
      "ĠGeorge": 4483,
      "Ġdropped": 4484,
      "Ġbecomes": 4485,
      "ĠSuper": 4486,
      "ĠFrancisco": 4487,
      "Ġadvantage": 4488,
      "atacoin": 4489,
      "!!": 4490,
      "EA": 4491,
      "ET": 4492,
      "cks": 4493,
      "how": 4494,
      "pass": 4495,
      "rative": 4496,
      "Ġsle": 4497,
      "Ġwitness": 4498,
      "itt": 4499,
      "Ġpod": 4500,
      "asy": 4501,
      "Ġhusband": 4502,
      "roft": 4503,
      "ĠII": 4504,
      "ĠSur": 4505,
      "ĠMad": 4506,
      "ĠBig": 4507,
      "ĠBosn": 4508,
      "ĠNH": 4509,
      "ĠGar": 4510,
      "ĠGold": 4511,
      "istics": 4512,
      "ĠEU": 4513,
      "outhern": 4514,
      "Ġspend": 4515,
      "Ġkick": 4516,
      "ĠThom": 4517,
      "Ġcontain": 4518,
      "Ġ2018": 4519,
      "perial": 4520,
      "ĠChic": 4521,
      "Ġblood": 4522,
      "ĠWho": 4523,
      "Ġissued": 4524,
      "Ġexplos": 4525,
      "Ġbrown": 4526,
      "Ġelections": 4527,
      "ossible": 4528,
      "Ġchanging": 4529,
      "Ġfacing": 4530,
      "Ġlanguages": 4531,
      "Ġmanaged": 4532,
      "Ġproduced": 4533,
      "Ġneck": 4534,
      "ĠBarack": 4535,
      "ĠiPhone": 4536,
      "Ġlicense": 4537,
      "Ġheavy": 4538,
      "Ġfamilies": 4539,
      "ufact": 4540,
      "Ġthousands": 4541,
      "32": 4542,
      "80": 4543,
      "ih": 4544,
      "iative": 4545,
      "Ġice": 4546,
      "Ĳ»": 4547,
      "Ġsal": 4548,
      "Ġfant": 4549,
      "alo": 4550,
      "Ġdire": 4551,
      "ĠTim": 4552,
      "acs": 4553,
      "Ġstructure": 4554,
      "ĠMod": 4555,
      "ĠMex": 4556,
      "ĠBh": 4557,
      "ĠWind": 4558,
      "ĠDar": 4559,
      "Ġprosec": 4560,
      "Ġ(@": 4561,
      "ĠOur": 4562,
      "ĠJedi": 4563,
      "ĠItal": 4564,
      "Ġactive": 4565,
      "ĠAsh": 4566,
      "Ġfinish": 4567,
      "Ġacqu": 4568,
      "Ġtransl": 4569,
      "Ġobser": 4570,
      "Ġinstance": 4571,
      "Ġhappens": 4572,
      "Ġwriters": 4573,
      "Ġolder": 4574,
      "mittee": 4575,
      "ĠGovernment": 4576,
      "Ġvalues": 4577,
      "Ġpolicies": 4578,
      "Ġaffect": 4579,
      "Ġpropos": 4580,
      "Ġveh": 4581,
      "Ġorganization": 4582,
      "Ġmulti": 4583,
      "Ġliberal": 4584,
      "Ġtrend": 4585,
      "Ġphotos": 4586,
      "Ġterrorist": 4587,
      "ĠMean": 4588,
      "Ġnegot": 4589,
      "Ġcandidate": 4590,
      "Ġweapon": 4591,
      "Ġenemy": 4592,
      "Ġassociated": 4593,
      "ĠAfghanistan": 4594,
      "ĠMartin": 4595,
      "ĠðŁĲ»": 4596,
      "500": 4597,
      "NN": 4598,
      "RO": 4599,
      "ien": 4600,
      "rary": 4601,
      "spe": 4602,
      "yr": 4603,
      "rec": 4604,
      "Ġsection": 4605,
      "Ġwings": 4606,
      "ength": 4607,
      "Ġband": 4608,
      "Ġbrow": 4609,
      "inger": 4610,
      "Ġpatch": 4611,
      "Ġang": 4612,
      "arant": 4613,
      "Ġmob": 4614,
      "Ġmechan": 4615,
      "Ġhat": 4616,
      "Ġdim": 4617,
      "ĠTH": 4618,
      "Ġnuc": 4619,
      "ste": 4620,
      "ĠID": 4621,
      "Ġforms": 4622,
      "ĠBush": 4623,
      "ĠPac": 4624,
      "ĠDespite": 4625,
      "ĠDatacoin": 4626,
      "ĠRom": 4627,
      "ĠGE": 4628,
      "Ġseeds": 4629,
      "ĠLos": 4630,
      "ocal": 4631,
      "ivity": 4632,
      "ube": 4633,
      "Ġimpl": 4634,
      "Ġunivers": 4635,
      "anche": 4636,
      "Ġemp": 4637,
      "Ġremoved": 4638,
      "Ġgrand": 4639,
      "Ġfinished": 4640,
      "ĠLee": 4641,
      "azine": 4642,
      "Ġplanning": 4643,
      "Ġinternal": 4644,
      "Ġdrive": 4645,
      "Ġdriver": 4646,
      "Ġfunds": 4647,
      "Ġfemin": 4648,
      "Ġcustomers": 4649,
      "ĠInstead": 4650,
      "ĠPeople": 4651,
      "Ġhonest": 4652,
      "Ġseparate": 4653,
      "Ġpurpose": 4654,
      "ĠService": 4655,
      "ĠRichard": 4656,
      "Ġextremely": 4657,
      "Ġbeautiful": 4658,
      "ĠLouis": 4659,
      "look": 4660,
      "makers": 4661,
      "za": 4662,
      "Ä±": 4663,
      "ĠÃ": 4664,
      "Ġcatch": 4665,
      "Ġcash": 4666,
      "Ġcateg": 4667,
      "itute": 4668,
      "isa": 4669,
      "Ġbir": 4670,
      "eder": 4671,
      "level": 4672,
      "lly": 4673,
      "Ġload": 4674,
      "roll": 4675,
      "ĠSam": 4676,
      "igen": 4677,
      "ĠCHO": 4678,
      "iling": 4679,
      "Ġrid": 4680,
      "Ġrandom": 4681,
      "Ġseasons": 4682,
      "rial": 4683,
      "Ġunits": 4684,
      "Ġotherwise": 4685,
      "Ġteen": 4686,
      "anging": 4687,
      "Ġpartner": 4688,
      "Ġaccused": 4689,
      "Ġdecisions": 4690,
      "Ġconsidering": 4691,
      "Ġemot": 4692,
      "Ġremind": 4693,
      "Ġregist": 4694,
      "Ġproviding": 4695,
      "ĠFrank": 4696,
      "ĠCommittee": 4697,
      "ĠSports": 4698,
      "Ġfeeling": 4699,
      "ĠScience": 4700,
      "Ġeffective": 4701,
      "ĠGrand": 4702,
      "ĠCarol": 4703,
      "ĠCollege": 4704,
      "ĠChris": 4705,
      "Ġencoun": 4706,
      "Ġcoverage": 4707,
      "Ġerror": 4708,
      "Ġcaused": 4709,
      "Ġconnection": 4710,
      "Ġcompetition": 4711,
      "Ġtalent": 4712,
      "Ġmentioned": 4713,
      "Ġprofessional": 4714,
      "Ġbehavior": 4715,
      "Ġrelatively": 4716,
      "ĠToday": 4717,
      "Ġresearchers": 4718,
      "Ġabsolutely": 4719,
      "Ġsomew": 4720,
      "IM": 4721,
      "TV": 4722,
      "ae": 4723,
      "game": 4724,
      "overy": 4725,
      "tw": 4726,
      "erc": 4727,
      "Ġsy": 4728,
      "Ġsession": 4729,
      "Ġborn": 4730,
      "org": 4731,
      "orter": 4732,
      "Ġhun": 4733,
      "Ġdie": 4734,
      "Ġthus": 4735,
      "Ġnine": 4736,
      "stitution": 4737,
      "ĠSomet": 4738,
      "imb": 4739,
      "Ġstick": 4740,
      "ĠMK": 4741,
      "ĠMel": 4742,
      "Ġwhatever": 4743,
      "ĠBack": 4744,
      "ĠPlease": 4745,
      "ĠWall": 4746,
      "ĠHas": 4747,
      "ags": 4748,
      "ĠRiver": 4749,
      "umer": 4750,
      "Ġhasn": 4751,
      "iants": 4752,
      "Ġclin": 4753,
      "Ġoffers": 4754,
      "ĠVir": 4755,
      "Ġgrant": 4756,
      "ĠAnita": 4757,
      "Ġ2006": 4758,
      "Ġsubs": 4759,
      "ĠAdd": 4760,
      "ĠOrwell": 4761,
      "ĠÂ£": 4762,
      "Ġcommunities": 4763,
      "Ġdepartment": 4764,
      "Ġanimals": 4765,
      "Ġinjury": 4766,
      "going": 4767,
      "Ġagreed": 4768,
      "Ġmaterials": 4769,
      "Ġwaiting": 4770,
      "ĠRegular": 4771,
      "Ġoptions": 4772,
      "ĠMuslims": 4773,
      "ĠInterview": 4774,
      "Ġultimately": 4775,
      "ĠChicago": 4776,
      "05": 4777,
      "31": 4778,
      "And": 4779,
      "bol": 4780,
      "kins": 4781,
      "Ġ;": 4782,
      "Ġtough": 4783,
      "Ġtests": 4784,
      "Ġsong": 4785,
      "Ġmax": 4786,
      "icide": 4787,
      "Ġbegins": 4788,
      "acity": 4789,
      "uts": 4790,
      "ĠBru": 4791,
      "olved": 4792,
      "ĠWin": 4793,
      "Ġrise": 4794,
      "ĠRyan": 4795,
      "ĠFore": 4796,
      "ĠNaz": 4797,
      "Ġseat": 4798,
      "rible": 4799,
      "ĠES": 4800,
      "eline": 4801,
      "Ġtrain": 4802,
      "Ġtruly": 4803,
      "Ġupgr": 4804,
      "izes": 4805,
      "Ġjustice": 4806,
      "Ġprin": 4807,
      "elling": 4808,
      "Ġdesc": 4809,
      "Ġgraph": 4810,
      "Ġearn": 4811,
      "Ġenter": 4812,
      "Ġdram": 4813,
      "airman": 4814,
      "ĠFrance": 4815,
      "Ġfinding": 4816,
      "Ġadvent": 4817,
      "Ġputting": 4818,
      "Ġspeak": 4819,
      "ĠImages": 4820,
      "Ġequal": 4821,
      "Ġidentity": 4822,
      "Ġdeliver": 4823,
      "porary": 4824,
      "Ġdiscussion": 4825,
      "Ġcommitted": 4826,
      "ĠSecurity": 4827,
      "Ġpaint": 4828,
      "Ġexisting": 4829,
      "Ġfighting": 4830,
      "Ġbenefits": 4831,
      "Ġcells": 4832,
      "Ġhundreds": 4833,
      "Ġexperiences": 4834,
      "ĠSocial": 4835,
      "Ġepisode": 4836,
      "33": 4837,
      "99": 4838,
      "BA": 4839,
      "dden": 4840,
      "gar": 4841,
      "lie": 4842,
      "rant": 4843,
      "top": 4844,
      "works": 4845,
      "Ġ{": 4846,
      "Ġwound": 4847,
      "atically": 4848,
      "Ġfif": 4849,
      "idden": 4850,
      "ĠSher": 4851,
      "ĠAff": 4852,
      "ĠBoth": 4853,
      "olation": 4854,
      "ĠWSU": 4855,
      "Ġrough": 4856,
      "ĠDiv": 4857,
      "ula": 4858,
      "ĠGroup": 4859,
      "ĠGraham": 4860,
      "osm": 4861,
      "ĠOS": 4862,
      "ocol": 4863,
      "Ġsoy": 4864,
      "rav": 4865,
      "iber": 4866,
      "Ġcontest": 4867,
      "Ġoffensive": 4868,
      "Ġarmy": 4869,
      "Ġtherefore": 4870,
      "Ġdecide": 4871,
      "oyal": 4872,
      "Ġpresence": 4873,
      "Ġtransgender": 4874,
      "Ġinsurance": 4875,
      "Ġcarbon": 4876,
      "Ġpasses": 4877,
      "Ġskin": 4878,
      "ĠColor": 4879,
      "Ġcritical": 4880,
      "Ġchoose": 4881,
      "Ġcouncil": 4882,
      "ĠCentral": 4883,
      "Ġlibert": 4884,
      "ĠCanadian": 4885,
      "Ġphoto": 4886,
      "Ġreligion": 4887,
      "regon": 4888,
      "Ġdetermine": 4889,
      "Ġdouble": 4890,
      "ĠGermany": 4891,
      "Ġnomine": 4892,
      "Ġcalc": 4893,
      "Ġarrived": 4894,
      "Ġ>>": 4895,
      "Ġindependent": 4896,
      "Ġfirm": 4897,
      "Ġconflict": 4898,
      "ĠLatin": 4899,
      "Ġenforcement": 4900,
      "PN": 4901,
      "ey": 4902,
      "host": 4903,
      "part": 4904,
      "onna": 4905,
      "Ġsch": 4906,
      "itect": 4907,
      "itutions": 4908,
      "Ġbird": 4909,
      "oration": 4910,
      "Ġanonym": 4911,
      "alse": 4912,
      "arn": 4913,
      "Ġinsec": 4914,
      "Ġmental": 4915,
      "Ġthr": 4916,
      "ĠTot": 4917,
      "Ġnor": 4918,
      "Ġnone": 4919,
      "Ġec": 4920,
      "ayed": 4921,
      "ĠMur": 4922,
      "ĠMont": 4923,
      "ĠBet": 4924,
      "Ġwel": 4925,
      "ĠDistrict": 4926,
      "ĠRel": 4927,
      "ppy": 4928,
      "ĠNFL": 4929,
      "ription": 4930,
      "unte": 4931,
      "unning": 4932,
      "ĠEach": 4933,
      "Ġdeg": 4934,
      "Ġdeploy": 4935,
      "ĠJN": 4936,
      "Ġintended": 4937,
      "rawn": 4938,
      "ĠStar": 4939,
      "izations": 4940,
      "Ġevalu": 4941,
      "Ġscored": 4942,
      "Ġque": 4943,
      "Ġaccounts": 4944,
      "Ġfees": 4945,
      "obby": 4946,
      "Ġserve": 4947,
      "Ġ2000": 4948,
      "Ġallowing": 4949,
      "Ġpopulations": 4950,
      "Ġcontrovers": 4951,
      "Ġviews": 4952,
      "Ġtesting": 4953,
      "Ġconstruction": 4954,
      "iques": 4955,
      "ĠDevelop": 4956,
      "Ġoriginally": 4957,
      "That": 4958,
      "Ġactivities": 4959,
      "Ġsuccessful": 4960,
      "Ġsounds": 4961,
      "Ġjoined": 4962,
      "ĠTeam": 4963,
      "Ġcycle": 4964,
      "ĠJapanese": 4965,
      "Ġincreasingly": 4966,
      "Ġtorch": 4967,
      "Ġachieve": 4968,
      "Ġrepeated": 4969,
      "Ġhttp": 4970,
      "Ġpicture": 4971,
      "Ġacknowled": 4972,
      "ĠMeanwhile": 4973,
      "\".[": 4974,
      "BI": 4975,
      "ext": 4976,
      "ipping": 4977,
      "uct": 4978,
      "Ġâ": 4979,
      "Ġtask": 4980,
      "reens": 4981,
      "Ġcrypt": 4982,
      "ishes": 4983,
      "ario": 4984,
      "Ġmamm": 4985,
      "Ġdream": 4986,
      "Ġdraft": 4987,
      "icians": 4988,
      "vere": 4989,
      "ĠAD": 4990,
      "ĠAh": 4991,
      "igration": 4992,
      "ĠCur": 4993,
      "ĠMil": 4994,
      "ĠBay": 4995,
      "ĠPort": 4996,
      "Ġconcept": 4997,
      "agues": 4998,
      "ĠNi": 4999,
      "rier": 5000,
      "odes": 5001,
      "Ġsust": 5002,
      "Ġsudden": 5003,
      "ĠJim": 5004,
      "udd": 5005,
      "udi": 5006,
      "Ġtrig": 5007,
      "Ġworry": 5008,
      "Ġdoor": 5009,
      "Ġdoct": 5010,
      "place": 5011,
      "Ġuniversity": 5012,
      "Ġmanufact": 5013,
      "ĠYes": 5014,
      "ĠYour": 5015,
      "Ġ36": 5016,
      "Ġappl": 5017,
      "Ġimpossible": 5018,
      "Ġsupposed": 5019,
      "Ġbright": 5020,
      "Ġsurround": 5021,
      "Ġsetting": 5022,
      "Ġterrit": 5023,
      "ĠLeg": 5024,
      "Ġdiscrim": 5025,
      "aza": 5026,
      "Ġtransport": 5027,
      "Ġguess": 5028,
      "ĠSpec": 5029,
      "Ġopposed": 5030,
      "Ġexplain": 5031,
      "Ġcompleted": 5032,
      "Ġadvis": 5033,
      "Ġbelief": 5034,
      "Ġhealthy": 5035,
      "Ġargument": 5036,
      "Ġtreated": 5037,
      "Ġsignificantly": 5038,
      "Ġcircum": 5039,
      "Ġleadership": 5040,
      "Ġwindow": 5041,
      "ĠPeter": 5042,
      "ĠAustralian": 5043,
      "ING": 5044,
      "Ġbalance": 5045,
      "Ġaccurate": 5046,
      "Ġwonder": 5047,
      "Ġcrowd": 5048,
      "Ġexpansion": 5049,
      "AP": 5050,
      "Ch": 5051,
      "SE": 5052,
      "but": 5053,
      "ius": 5054,
      "Ġswe": 5055,
      "itz": 5056,
      "Ġfired": 5057,
      "Ġfellow": 5058,
      "Ġfaith": 5059,
      "Ġpowers": 5060,
      "ĠTan": 5061,
      "ĠTop": 5062,
      "Ġnorth": 5063,
      "stream": 5064,
      "ĠSun": 5065,
      "adow": 5066,
      "ĠMem": 5067,
      "ĠBre": 5068,
      "ĠPut": 5069,
      "Ġconcent": 5070,
      "ifig": 5071,
      "Ġprove": 5072,
      "ĠFour": 5073,
      "Ġvill": 5074,
      "Ġchann": 5075,
      "Ġspoke": 5076,
      "Ġintegr": 5077,
      "Ġunit": 5078,
      "Ġ32": 5079,
      "ĠVe": 5080,
      "ilding": 5081,
      "ocking": 5082,
      "luding": 5083,
      "Ġsupporters": 5084,
      "ĠWeb": 5085,
      "Ġremained": 5086,
      "Ġbranch": 5087,
      "Ġsets": 5088,
      "Ġsignal": 5089,
      "ĠCommission": 5090,
      "nedy": 5091,
      "Ġtrip": 5092,
      "Ġmiles": 5093,
      "Ġaircraft": 5094,
      "Ġmanager": 5095,
      "Ġera": 5096,
      "Ġmorph": 5097,
      "Ġraise": 5098,
      "ĠPrime": 5099,
      "Ġwait": 5100,
      "Ġfigures": 5101,
      "Ġscientists": 5102,
      "Ġwidely": 5103,
      "Ġfamiliar": 5104,
      "âĸĦâĸĦâĸĦâĸĦ": 5105,
      "ĠOpium": 5106,
      "Ġbecoming": 5107,
      "Ġdollars": 5108,
      "ĠMiddle": 5109,
      "ĠAssociation": 5110,
      "Ġnuclear": 5111,
      "ĠVirgin": 5112,
      "DA": 5113,
      "RG": 5114,
      "What": 5115,
      "ez": 5116,
      "kes": 5117,
      "mare": 5118,
      "ties": 5119,
      "vant": 5120,
      "Ġ<": 5121,
      "Ġ|": 5122,
      "Ġsad": 5123,
      "Ġded": 5124,
      "oming": 5125,
      "Ġrein": 5126,
      "Ġgal": 5127,
      "Ġgonna": 5128,
      "ĠAP": 5129,
      "ĠAre": 5130,
      "ĠBern": 5131,
      "ĠWil": 5132,
      "ĠGame": 5133,
      "osen": 5134,
      "ĠOk": 5135,
      "ĠOregon": 5136,
      "abb": 5137,
      "acks": 5138,
      "soon": 5139,
      "Ġmere": 5140,
      "Ġclick": 5141,
      "Ġcloud": 5142,
      "Ġunable": 5143,
      "Ġscale": 5144,
      "Ġtwice": 5145,
      "tered": 5146,
      "Ġsupplement": 5147,
      "Ġgeneration": 5148,
      "Ġeditor": 5149,
      "standing": 5150,
      "Ġmissing": 5151,
      "Ġoccasion": 5152,
      "ĠMaybe": 5153,
      "Ġdriving": 5154,
      "ĠRoad": 5155,
      "which": 5156,
      "Ġbanks": 5157,
      "ĠIranian": 5158,
      "Ġresponsible": 5159,
      "Ġselling": 5160,
      "Ġcriticism": 5161,
      "Ġapplications": 5162,
      "ĠKennedy": 5163,
      "ĠCommun": 5164,
      "ĠWilliams": 5165,
      "Ġcorporate": 5166,
      "Ġbonus": 5167,
      "Ġlaunched": 5168,
      "known": 5169,
      "ĠPalestin": 5170,
      "Ġproposal": 5171,
      "Ġbirth": 5172,
      "?âĢĿ": 5173,
      "IC": 5174,
      "aa": 5175,
      "awn": 5176,
      "elect": 5177,
      "noon": 5178,
      "win": 5179,
      "yper": 5180,
      "Ã³": 5181,
      "Ġ}": 5182,
      "Ġsun": 5183,
      "Ġcrop": 5184,
      "isf": 5185,
      "Ġment": 5186,
      "Ġhate": 5187,
      "Ġdaughter": 5188,
      "ication": 5189,
      "ications": 5190,
      "rol": 5191,
      "Ġgain": 5192,
      "Ġforg": 5193,
      "sex": 5194,
      "Ġhearing": 5195,
      "Ġitems": 5196,
      "cean": 5197,
      "ĠPM": 5198,
      "ĠHi": 5199,
      "ĠâĢ¢": 5200,
      "Ġconsequ": 5201,
      "ĠNav": 5202,
      "Ġvs": 5203,
      "Ġnotes": 5204,
      "Ġshots": 5205,
      "Ġchurch": 5206,
      "iana": 5207,
      "auc": 5208,
      "Ġtele": 5209,
      "ĠChampionship": 5210,
      "ĠVan": 5211,
      "Ġplayoff": 5212,
      "ensus": 5213,
      "Ġprefer": 5214,
      "ountain": 5215,
      "Ġminister": 5216,
      "Ġsettle": 5217,
      "Ġguarant": 5218,
      "Ġgreatest": 5219,
      "Ġvoting": 5220,
      "Ġbelieves": 5221,
      "Ġrestaur": 5222,
      "ĠScott": 5223,
      "Ġmissed": 5224,
      "class": 5225,
      "lsson": 5226,
      "Ġcondition": 5227,
      "Ġvolunte": 5228,
      "ĠSyrian": 5229,
      "Ġopportunities": 5230,
      "Ġtemper": 5231,
      "ĠIslamic": 5232,
      "Ġstruggle": 5233,
      "ĠSteve": 5234,
      "Ġcopyright": 5235,
      "Ġconducted": 5236,
      "Ġschedul": 5237,
      "Ġbattery": 5238,
      "fortable": 5239,
      "Ġlawyer": 5240,
      "GBT": 5241,
      "Ġspirit": 5242,
      "Ġstretch": 5243,
      "ĠAriz": 5244,
      "BS": 5245,
      "ean": 5246,
      "eah": 5247,
      "gun": 5248,
      "ias": 5249,
      "long": 5250,
      "oe": 5251,
      "ĠÄ": 5252,
      "Ġoption": 5253,
      "edition": 5254,
      "Ġfish": 5255,
      "Ġfaster": 5256,
      "Ġanc": 5257,
      "Ġeat": 5258,
      "ĠAN": 5259,
      "Ġstruct": 5260,
      "uration": 5261,
      "olas": 5262,
      "illa": 5263,
      "ĠWork": 5264,
      "ĠHaw": 5265,
      "Ġrich": 5266,
      "ĠRock": 5267,
      "ĠRoman": 5268,
      "ĠNor": 5269,
      "ĠGard": 5270,
      "Ġseg": 5271,
      "ĠLK": 5272,
      "ĠLGBT": 5273,
      "Ġvan": 5274,
      "Ġvast": 5275,
      "ĠKent": 5276,
      "Ġintent": 5277,
      "ĠStep": 5278,
      "Ġcompar": 5279,
      "Ġappropriate": 5280,
      "Ġ45": 5281,
      "Ġevening": 5282,
      "Ġ2001": 5283,
      "Ġ2005": 5284,
      "Ġpoi": 5285,
      "Ġbroke": 5286,
      "ĠProt": 5287,
      "Ġspeaking": 5288,
      "Ġvariety": 5289,
      "Ġpaying": 5290,
      "ĠChristian": 5291,
      "ĠISIS": 5292,
      "Ġbaseball": 5293,
      "Ġsteps": 5294,
      "Ġdenied": 5295,
      "Ġdoubt": 5296,
      "Ġrecommend": 5297,
      "Ġspokesman": 5298,
      "Ġbottom": 5299,
      "ĠThomas": 5300,
      "Ġdirection": 5301,
      "Don": 5302,
      "gl": 5303,
      "mas": 5304,
      "rors": 5305,
      "uous": 5306,
      "ining": 5307,
      "Ġcovered": 5308,
      "Ġmir": 5309,
      "Ġhij": 5310,
      "lee": 5311,
      "ĠTake": 5312,
      "road": 5313,
      "ĠAv": 5314,
      "ĠAst": 5315,
      "add": 5316,
      "ading": 5317,
      "imal": 5318,
      "season": 5319,
      "Ġstock": 5320,
      "Ġwear": 5321,
      "ĠHa": 5322,
      "ĠFoundation": 5323,
      "usal": 5324,
      "Ġsequ": 5325,
      "odies": 5326,
      "ĠOld": 5327,
      "aped": 5328,
      "Ġplant": 5329,
      "Ġplays": 5330,
      "ource": 5331,
      "Ġabortion": 5332,
      "Ġsport": 5333,
      "roud": 5334,
      "ĠThough": 5335,
      "Ġagencies": 5336,
      "Ġclient": 5337,
      "Ġincome": 5338,
      "ĠYet": 5339,
      "Ġ37": 5340,
      "ampion": 5341,
      "Ġattend": 5342,
      "Ġafternoon": 5343,
      "Ġ51": 5344,
      "Ġcoord": 5345,
      "Ġsecure": 5346,
      "Ġsupports": 5347,
      "Ġminifig": 5348,
      "Ġleads": 5349,
      "inson": 5350,
      "Ġinstitutions": 5351,
      "Ġdrains": 5352,
      "Ġ80": 5353,
      "axy": 5354,
      "Ġoppos": 5355,
      "Ġexplained": 5356,
      "Ġstandards": 5357,
      "Ġconclud": 5358,
      "Ġpercentage": 5359,
      "Ġreaders": 5360,
      "Ġseemed": 5361,
      "Ġinvestment": 5362,
      "Ġkeeping": 5363,
      "ĠMedia": 5364,
      "ĠImperial": 5365,
      "Ġoccup": 5366,
      "Ġpurs": 5367,
      "Ġtradition": 5368,
      "ographic": 5369,
      "Ġcaption": 5370,
      "ynam": 5371,
      "Ġtourism": 5372,
      "Ġspecifically": 5373,
      "Ġmagazine": 5374,
      "ĠParis": 5375,
      "Ġpredict": 5376,
      "Ġaudience": 5377,
      "Ġseriously": 5378,
      "Ġessentially": 5379,
      "Ġtalks": 5380,
      "ĠGeorg": 5381,
      "Ġhistorical": 5382,
      "Ġdistribution": 5383,
      "ĠSnowden": 5384,
      "Ġprepared": 5385,
      "ĠSecretary": 5386,
      "ĠOlympic": 5387,
      "ĠAngeles": 5388,
      "igenous": 5389,
      "ĠColorado": 5390,
      "At": 5391,
      "Is": 5392,
      "gas": 5393,
      "hyd": 5394,
      "ns": 5395,
      "oly": 5396,
      "rick": 5397,
      "tained": 5398,
      "uke": 5399,
      "west": 5400,
      "Ã¡": 5401,
      "Ġtons": 5402,
      "Ġaid": 5403,
      "inating": 5404,
      "onic": 5405,
      "Ġbab": 5406,
      "esters": 5407,
      "Ġpages": 5408,
      "Ġplease": 5409,
      "Ġmaps": 5410,
      "ashed": 5411,
      "astern": 5412,
      "ica": 5413,
      "ĠIre": 5414,
      "ĠIts": 5415,
      "oting": 5416,
      "ĠCE": 5417,
      "ĠCivil": 5418,
      "semb": 5419,
      "olit": 5420,
      "Ġwealth": 5421,
      "ĠPress": 5422,
      "Ġfrust": 5423,
      "ighter": 5424,
      "andon": 5425,
      "ĠNA": 5426,
      "ĠNov": 5427,
      "ĠJournal": 5428,
      "enda": 5429,
      "Ġspect": 5430,
      "oston": 5431,
      "Ġthanks": 5432,
      "Ġflow": 5433,
      "Ġremove": 5434,
      "Ġadding": 5435,
      "Ġedge": 5436,
      "Ġdownload": 5437,
      "azon": 5438,
      "Ġhelps": 5439,
      "Ġplanned": 5440,
      "Ġcrew": 5441,
      "Ġhandle": 5442,
      "ĠSea": 5443,
      "Ġinterests": 5444,
      "Ġskills": 5445,
      "Ġprofession": 5446,
      "uffy": 5447,
      "ĠDev": 5448,
      "Ġidentify": 5449,
      "Ġtypically": 5450,
      "Ġgirls": 5451,
      "Ġalleg": 5452,
      "ĠCheck": 5453,
      "Ġregularly": 5454,
      "Ġpulled": 5455,
      "ĠKarlsson": 5456,
      "Ġoccurred": 5457,
      "Ġseeking": 5458,
      "ĠFollowing": 5459,
      "Ġperspect": 5460,
      "ĠFarah": 5461,
      "Ġtroops": 5462,
      "Ġestimated": 5463,
      "ĠCaptain": 5464,
      "ĠBusiness": 5465,
      "ĠCarolina": 5466,
      "**": 5467,
      "rum": 5468,
      "Ġx": 5469,
      "erous": 5470,
      "aning": 5471,
      "orrow": 5472,
      "ĠTime": 5473,
      "ented": 5474,
      "Ġlength": 5475,
      "Ġreduced": 5476,
      "ache": 5477,
      "eck": 5478,
      "ĠBang": 5479,
      "ĠBoston": 5480,
      "ĠPC": 5481,
      "ĠPupp": 5482,
      "ĠWood": 5483,
      "ĠGood": 5484,
      "osure": 5485,
      "Ġvul": 5486,
      "ĠKore": 5487,
      "Ġdoctor": 5488,
      "ipment": 5489,
      "Ġcontains": 5490,
      "Ġcomposition": 5491,
      "Ġscreens": 5492,
      "Ġapps": 5493,
      "Ġaccident": 5494,
      "Ġrot": 5495,
      "Ġ48": 5496,
      "ocked": 5497,
      "Ġcooper": 5498,
      "formation": 5499,
      "Ġintervention": 5500,
      "Ġentertain": 5501,
      "Ġtransfer": 5502,
      "Ġtransaction": 5503,
      "Ġobl": 5504,
      "ĠShow": 5505,
      "ĠAragon": 5506,
      "Ġfinds": 5507,
      "Ġpassing": 5508,
      "ĠBlue": 5509,
      "ĠSpace": 5510,
      "Ġdeveloping": 5511,
      "Ġexperts": 5512,
      "Ġpossibly": 5513,
      "Ġelim": 5514,
      "Ġfacts": 5515,
      "Ġannual": 5516,
      "Ġappearance": 5517,
      "Ġaffected": 5518,
      "Ġconstitution": 5519,
      "Ġunderstanding": 5520,
      "ortunately": 5521,
      "Ġfocused": 5522,
      "Ġdiscussed": 5523,
      "Ġzone": 5524,
      "Ġanalyst": 5525,
      "ĠSmall": 5526,
      "Ġinitiative": 5527,
      "Ġdeeply": 5528,
      "Ġreveal": 5529,
      "Ġconvention": 5530,
      "Ġresponded": 5531,
      "ĠMoore": 5532,
      "================": 5533,
      "Ġvictims": 5534,
      "Ġfeedback": 5535,
      "ĠAMC": 5536,
      "Ġfrequently": 5537,
      "Ġchemical": 5538,
      "Ġmillions": 5539,
      "Ġathlet": 5540,
      "ĠTurkmen": 5541,
      "ĠPacific": 5542,
      "Ġencounter": 5543,
      "Ġinsects": 5544,
      "44": 5545,
      "58": 5546,
      "LA": 5547,
      "gor": 5548,
      "iples": 5549,
      "mail": 5550,
      "night": 5551,
      "rast": 5552,
      "sized": 5553,
      "wer": 5554,
      "wing": 5555,
      "inch": 5556,
      "Ġsand": 5557,
      "Ġcook": 5558,
      "outs": 5559,
      "Ġdry": 5560,
      "âĢľ": 5561,
      "Ġlived": 5562,
      "Ġeth": 5563,
      "ĠIG": 5564,
      "ĠSah": 5565,
      "ĠAc": 5566,
      "ayer": 5567,
      "amin": 5568,
      "ĠCath": 5569,
      "ĠCNN": 5570,
      "ĠDi": 5571,
      "ĠGames": 5572,
      "ĠLook": 5573,
      "acking": 5574,
      "Ġshif": 5575,
      "elle": 5576,
      "Ġchart": 5577,
      "Ġplenty": 5578,
      "âĢĿ,": 5579,
      "ourney": 5580,
      "oked": 5581,
      "ĠKim": 5582,
      "ĠInf": 5583,
      "Ġagent": 5584,
      "Ġagents": 5585,
      "Ġaggress": 5586,
      "Ġclot": 5587,
      "Ġpermit": 5588,
      "Ġattorney": 5589,
      "oving": 5590,
      "Ġconsc": 5591,
      "Ġpointed": 5592,
      "Ġearned": 5593,
      "Ġobs": 5594,
      "Ġguard": 5595,
      "Ġdistinct": 5596,
      "Ġattacking": 5597,
      "Ġfactor": 5598,
      "Ġbreast": 5599,
      "Ġcampaigns": 5600,
      "Ġfaces": 5601,
      "Ġnetworks": 5602,
      "Ġvalid": 5603,
      "Ġstrongly": 5604,
      "Ġclassic": 5605,
      "Ġbusinesses": 5606,
      "Ġdebt": 5607,
      "Ġreportedly": 5608,
      "Ġinflation": 5609,
      "Ġcommittee": 5610,
      "Ġtourists": 5611,
      "Ġsuggested": 5612,
      "Ġconfirm": 5613,
      "Ġupdate": 5614,
      "ĠPlayers": 5615,
      "Ġsurprised": 5616,
      "Ġfairly": 5617,
      "Ġsilver": 5618,
      "ĠNightmare": 5619,
      "Ġdeclared": 5620,
      "Ġapparently": 5621,
      "Ġsanctions": 5622,
      "ĠJewish": 5623,
      "ĠArizona": 5624,
      "54": 5625,
      "IP": 5626,
      "Ob": 5627,
      "When": 5628,
      "gt": 5629,
      "hand": 5630,
      "hab": 5631,
      "Ã¶": 5632,
      "Ġic": 5633,
      "Ġtim": 5634,
      "hene": 5635,
      "rep": 5636,
      "enh": 5637,
      "Ġbull": 5638,
      "Ġfill": 5639,
      "Ġfalse": 5640,
      "ala": 5641,
      "Ġmand": 5642,
      "Ġharm": 5643,
      "ĠTest": 5644,
      "Ġnative": 5645,
      "ĠSum": 5646,
      "uting": 5647,
      "utch": 5648,
      "ĠAge": 5649,
      "ĠCare": 5650,
      "ĠMajor": 5651,
      "ĠMicro": 5652,
      "ĠWild": 5653,
      "ĠWomen": 5654,
      "ĠHug": 5655,
      "ĠDet": 5656,
      "empts": 5657,
      "Ġfranch": 5658,
      "ĠLight": 5659,
      "apers": 5660,
      "orted": 5661,
      "Ġspons": 5662,
      "Ġking": 5663,
      "Ġcance": 5664,
      "Ġdog": 5665,
      "ogue": 5666,
      "Ġincred": 5667,
      "ĠChurch": 5668,
      "Ġ38": 5669,
      "Ġ39": 5670,
      "ĠVirtual": 5671,
      "Ġprey": 5672,
      "ĠHead": 5673,
      "inking": 5674,
      "Ġ190": 5675,
      "Ġexpenses": 5676,
      "Ġfloor": 5677,
      "ĠWeek": 5678,
      "ĠAny": 5679,
      "efully": 5680,
      "Ġdifferences": 5681,
      "Ġcapable": 5682,
      "Ġplane": 5683,
      "Ġretail": 5684,
      "Ġfilms": 5685,
      "Ġstanding": 5686,
      "Ġfamous": 5687,
      "Ġprogramming": 5688,
      "Ġnearby": 5689,
      "ronic": 5690,
      "Ġlargely": 5691,
      "ĠPhoto": 5692,
      "Ġtechniques": 5693,
      "ĠAmazon": 5694,
      "ĠQue": 5695,
      "Ġveter": 5696,
      "Ġcuts": 5697,
      "Ġargued": 5698,
      "iament": 5699,
      "Ġpotentially": 5700,
      "Ġpicked": 5701,
      "ĠMichigan": 5702,
      "Ġnecessarily": 5703,
      "Ġheavily": 5704,
      "Ġcontrast": 5705,
      "Ġmethods": 5706,
      "ĠAtlanta": 5707,
      "Ġrejected": 5708,
      "ĠNHL": 5709,
      "ĠWindows": 5710,
      "ĠIreland": 5711,
      ".).": 5712,
      "::": 5713,
      "Be": 5714,
      "bu": 5715,
      "car": 5716,
      "cur": 5717,
      "ka": 5718,
      "lished": 5719,
      "liament": 5720,
      "making": 5721,
      "rid": 5722,
      "Ġtight": 5723,
      "Ġtunn": 5724,
      "hered": 5725,
      "ini": 5726,
      "Ġwood": 5727,
      "Ġcert": 5728,
      "Ġbid": 5729,
      "Ġfly": 5730,
      "Ġdrawn": 5731,
      "lling": 5732,
      "Ġreward": 5733,
      "ĠSing": 5734,
      "Ġisland": 5735,
      "owered": 5736,
      "verse": 5737,
      "irty": 5738,
      "ithub": 5739,
      "ĠBBC": 5740,
      "Ġwearing": 5741,
      "ĠPS": 5742,
      "ĠPo": 5743,
      "Ġcongress": 5744,
      "ĠRaj": 5745,
      "Ġ(\"": 5746,
      "Ġexerc": 5747,
      "Ġsuicide": 5748,
      "Ġplus": 5749,
      "Ġsav": 5750,
      "Ġadult": 5751,
      "ĠStory": 5752,
      "ĠStadium": 5753,
      "soft": 5754,
      "inding": 5755,
      "Ġreporters": 5756,
      "Ġdeck": 5757,
      "Ġcold": 5758,
      "Ġdefensive": 5759,
      "Ġpositions": 5760,
      "athan": 5761,
      "Ġassault": 5762,
      "Ġ2007": 5763,
      "Ġowner": 5764,
      "ĠClub": 5765,
      "Ġentered": 5766,
      "Ġfindings": 5767,
      "ĠForce": 5768,
      "Ġlots": 5769,
      "Ġdetect": 5770,
      "Ġdetail": 5771,
      "Ġopened": 5772,
      "ĠOrig": 5773,
      "Ġpossibility": 5774,
      "ĠProv": 5775,
      "ĠUSA": 5776,
      "Ġfeels": 5777,
      "Ġvisual": 5778,
      "Ġreceiving": 5779,
      "Ġhappening": 5780,
      "ervation": 5781,
      "Ġprivacy": 5782,
      "Ġcultural": 5783,
      "Ġconsuming": 5784,
      "Ġstrike": 5785,
      "Ġkidn": 5786,
      "Ġhousehold": 5787,
      "ĠBoard": 5788,
      "Ġexpressed": 5789,
      "ĠLaure": 5790,
      "Ġdestroyed": 5791,
      "Ġarchitect": 5792,
      "Ġcloser": 5793,
      "ĠHiros": 5794,
      "Ġopposite": 5795,
      "RE": 5796,
      "cont": 5797,
      "gul": 5798,
      "hol": 5799,
      "hima": 5800,
      "iest": 5801,
      "iations": 5802,
      "lo": 5803,
      "ront": 5804,
      "uits": 5805,
      "water": 5806,
      "Å¡": 5807,
      "inet": 5808,
      "inity": 5809,
      "Ġsouth": 5810,
      "Ġsought": 5811,
      "esis": 5812,
      "Ġpace": 5813,
      "Ġparent": 5814,
      "ounder": 5815,
      "Ġinput": 5816,
      "lets": 5817,
      "ĠTechn": 5818,
      "Ġnations": 5819,
      "Ġnorthern": 5820,
      "rog": 5821,
      "Ġge": 5822,
      "ĠSE": 5823,
      "ĠSal": 5824,
      "ĠABC": 5825,
      "ĠCat": 5826,
      "Ġforth": 5827,
      "Ġstone": 5828,
      "urning": 5829,
      "irming": 5830,
      "ĠPri": 5831,
      "cho": 5832,
      "Ġrates": 5833,
      "ores": 5834,
      "ĠGall": 5835,
      "Ġexcl": 5836,
      "Ġexchange": 5837,
      "Ġexcell": 5838,
      "resp": 5839,
      "unction": 5840,
      "ĠEX": 5841,
      "ĠElect": 5842,
      "ĠJon": 5843,
      "Ġsports": 5844,
      "Ġintention": 5845,
      "plom": 5846,
      "Ġadjust": 5847,
      "Ġagenda": 5848,
      "Ġunion": 5849,
      "Ġapply": 5850,
      "Ġ500": 5851,
      "Ġdecline": 5852,
      "weight": 5853,
      "Ġ2004": 5854,
      "Ġrefused": 5855,
      "Ġheads": 5856,
      "Ġopponents": 5857,
      "Ġconcl": 5858,
      "ĠBefore": 5859,
      "Ġfaced": 5860,
      "Ġvisible": 5861,
      "ĠConf": 5862,
      "Ġpromote": 5863,
      "Ġafford": 5864,
      "ĠNote": 5865,
      "Ġcutting": 5866,
      "Ġreviews": 5867,
      "Ġbreakdown": 5868,
      "Ġrisks": 5869,
      "Ġpractices": 5870,
      "Ġvolume": 5871,
      "Ġtargets": 5872,
      "ĠResearch": 5873,
      "Ġupdated": 5874,
      "Ġstarts": 5875,
      "Ġscientific": 5876,
      "Ġrevolution": 5877,
      "ĠOpen": 5878,
      "esterday": 5879,
      "Ġdetermined": 5880,
      "Ġpetition": 5881,
      "Ġcurrency": 5882,
      "ĠTemple": 5883,
      "ĠHistory": 5884,
      "Ġunlikely": 5885,
      "Ġemotional": 5886,
      "Ġschol": 5887,
      "ĠVirginia": 5888,
      "ĠHiroshima": 5889,
      "):": 5890,
      "59": 5891,
      "GO": 5892,
      "SS": 5893,
      "een": 5894,
      "nab": 5895,
      "ooth": 5896,
      "rig": 5897,
      "zen": 5898,
      "Äĩ": 5899,
      "Ġut": 5900,
      "Ġske": 5901,
      "Ġwish": 5902,
      "Ġcats": 5903,
      "antern": 5904,
      "Ġbed": 5905,
      "Ġburn": 5906,
      "Ġpip": 5907,
      "Ġlatter": 5908,
      "Ġgym": 5909,
      "ĠSuch": 5910,
      "ĠSystem": 5911,
      "uters": 5912,
      "utral": 5913,
      "igible": 5914,
      "verty": 5915,
      "olves": 5916,
      "illance": 5917,
      "ĠPower": 5918,
      "ĠWings": 5919,
      "ĠWright": 5920,
      "ĠRights": 5921,
      "ĠFurther": 5922,
      "usive": 5923,
      "ĠGaza": 5924,
      "Ġvice": 5925,
      "Ġorange": 5926,
      "ĠKiller": 5927,
      "Ġunless": 5928,
      "Ġoverw": 5929,
      "ĠChild": 5930,
      "ĠChief": 5931,
      "Ġarmed": 5932,
      "Ġdisag": 5933,
      "lick": 5934,
      "Ġmyster": 5935,
      "elly": 5936,
      "Ġdeclined": 5937,
      "Ġserving": 5938,
      "Ġmayor": 5939,
      "Ġmonitor": 5940,
      "Ġgovernments": 5941,
      "Ġconfident": 5942,
      "Ġcapacity": 5943,
      "Ġextent": 5944,
      "Ġcheap": 5945,
      "Ġbigger": 5946,
      "Ġpoverty": 5947,
      "Ġincreases": 5948,
      "Ġskill": 5949,
      "Ġmoves": 5950,
      "Ġversions": 5951,
      "ĠEmacs": 5952,
      "Ġequipment": 5953,
      "Ġholds": 5954,
      "ĠGuard": 5955,
      "Ġpieces": 5956,
      "Ġlicens": 5957,
      "Ġsuffered": 5958,
      "Ġprimarily": 5959,
      "Ġsurprising": 5960,
      "Ġburden": 5961,
      "Ġparticipants": 5962,
      "ĠFinally": 5963,
      "Ġexception": 5964,
      "Ġhotel": 5965,
      "Ġturning": 5966,
      "Ġinspired": 5967,
      "Ġpushed": 5968,
      "Ġstreets": 5969,
      "igrants": 5970,
      "Ġsubstant": 5971,
      "Ġhurt": 5972,
      "Ġelements": 5973,
      "Ġstopped": 5974,
      "Ġsplit": 5975,
      "Ġmachine": 5976,
      "Ġsleep": 5977,
      "ĠTHE": 5978,
      "ĠNazgul": 5979,
      "Ġterritory": 5980,
      "Ġvulner": 5981,
      "rastructure": 5982,
      "--": 5983,
      "42": 5984,
      "57": 5985,
      "EL": 5986,
      "FC": 5987,
      "No": 5988,
      "Re": 5989,
      "ho": 5990,
      "mates": 5991,
      "mits": 5992,
      "tok": 5993,
      "uate": 5994,
      "ÂĴ": 5995,
      "Ġ)": 5996,
      "Ġtone": 5997,
      "Ġtied": 5998,
      "real": 5999,
      "Ġwall": 6000,
      "Ġcart": 6001,
      "Ġcry": 6002,
      "anes": 6003,
      "isation": 6004,
      "ingly": 6005,
      "ashes": 6006,
      "ĠTen": 6007,
      "Ġlie": 6008,
      "ĠSk": 6009,
      "ĠSn": 6010,
      "ĠSex": 6011,
      "utr": 6012,
      "aying": 6013,
      "igation": 6014,
      "Ġforget": 6015,
      "sea": 6016,
      "ĠMa": 6017,
      "ĠMax": 6018,
      "Ġheight": 6019,
      "ilton": 6020,
      "ĠHosp": 6021,
      "Ġrape": 6022,
      "Ġyouth": 6023,
      "ĠDuc": 6024,
      "atell": 6025,
      "Ġproced": 6026,
      "ĠNY": 6027,
      "ĠGre": 6028,
      "ĠOtt": 6029,
      "Ġshape": 6030,
      "ĠJay": 6031,
      "ĠJord": 6032,
      "uster": 6033,
      "Ġoutput": 6034,
      "Ġmanage": 6035,
      "ryption": 6036,
      "ĠYear": 6037,
      "Ġscr": 6038,
      "ression": 6039,
      "Ġblame": 6040,
      "Ġblocks": 6041,
      "ĠVict": 6042,
      "Ġherself": 6043,
      "Ġpartners": 6044,
      "Ġrecru": 6045,
      "Ġroster": 6046,
      "Ġactor": 6047,
      "Ġ42": 6048,
      "Ġdecre": 6049,
      "Ġcoal": 6050,
      "ission": 6051,
      "Ġregul": 6052,
      "Ġregional": 6053,
      "Ġacadem": 6054,
      "Ġends": 6055,
      "Ġ2003": 6056,
      "ologist": 6057,
      "ologies": 6058,
      "Ġnumerous": 6059,
      "Ġstrateg": 6060,
      "Ġtransactions": 6061,
      "Ġinsolation": 6062,
      "Ġcrack": 6063,
      "Ġcrash": 6064,
      "lando": 6065,
      "Ġcarried": 6066,
      "Ġlocated": 6067,
      "ĠIndeed": 6068,
      "Ġfewer": 6069,
      "Ġmetal": 6070,
      "Ġdevelopers": 6071,
      "Ġwarning": 6072,
      "ĠMedium": 6073,
      "Ġprofit": 6074,
      "Ġeffectively": 6075,
      "Ġcritics": 6076,
      "Ġtrading": 6077,
      "Ġfavour": 6078,
      "Ġimproved": 6079,
      "Ġcapture": 6080,
      "ĠAustin": 6081,
      "ĠChristmas": 6082,
      "Ġdomin": 6083,
      "Ġrecognition": 6084,
      "ĠPrem": 6085,
      "ĠCharlie": 6086,
      "Ġsurveillance": 6087,
      "ĠMorrow": 6088,
      "Ġwalking": 6089,
      "Ġhouses": 6090,
      "Ġhomes": 6091,
      "ĠPerhaps": 6092,
      "Ġsymbol": 6093,
      "Ġapart": 6094,
      "ĠDaniel": 6095,
      "Ġtweet": 6096,
      "Ġinnoc": 6097,
      "Ġalternative": 6098,
      "ĠDefense": 6099,
      "Ġdefeat": 6100,
      "ĠSweden": 6101,
      "Ġbrowser": 6102,
      "stein": 6103,
      "Ġfifth": 6104,
      "Ġmammals": 6105,
      "Ġsuddenly": 6106,
      "Ġdoctors": 6107,
      "02": 6108,
      "41": 6109,
      "Get": 6110,
      "My": 6111,
      "points": 6112,
      "rc": 6113,
      "ua": 6114,
      "van": 6115,
      "Ġtech": 6116,
      "inals": 6117,
      "Ġsouthern": 6118,
      "itu": 6119,
      "Ġbare": 6120,
      "Ġbatt": 6121,
      "orough": 6122,
      "Ġhol": 6123,
      "Ġhidden": 6124,
      "Ġdat": 6125,
      "oms": 6126,
      "ĠTit": 6127,
      "Ġlin": 6128,
      "Ġlingu": 6129,
      "state": 6130,
      "Ġelement": 6131,
      "Ġbelly": 6132,
      "utation": 6133,
      "imon": 6134,
      "ĠCL": 6135,
      "ĠCz": 6136,
      "ĠCard": 6137,
      "ĠCall": 6138,
      "ĠCome": 6139,
      "Ġstorm": 6140,
      "Ġyes": 6141,
      "ĠPenn": 6142,
      "ĠHop": 6143,
      "Ġwaste": 6144,
      "ĠDaily": 6145,
      "ĠLarge": 6146,
      "rive": 6147,
      "essions": 6148,
      "resents": 6149,
      "Ġalt": 6150,
      "elf": 6151,
      "Ġchap": 6152,
      "ĠJul": 6153,
      "ĠJosh": 6154,
      "allas": 6155,
      "aka": 6156,
      "Ġbutton": 6157,
      "Ġspell": 6158,
      "Ġintake": 6159,
      "ĠStill": 6160,
      "Ġoffering": 6161,
      "ointed": 6162,
      "Ġarr": 6163,
      "angers": 6164,
      "Ġremaining": 6165,
      "Ġbrings": 6166,
      "ĠAnn": 6167,
      "Ġminimum": 6168,
      "Ġstudies": 6169,
      "ĠYouT": 6170,
      "Ġmode": 6171,
      "Ġreference": 6172,
      "Ġwinner": 6173,
      "Ġstands": 6174,
      "ika": 6175,
      "ĠOrlando": 6176,
      "Ġprotest": 6177,
      "Ġadvanced": 6178,
      "Ġwarned": 6179,
      "ĠSeason": 6180,
      "Ġsitting": 6181,
      "Ġnewsp": 6182,
      "Ġoccas": 6183,
      "ĠAmong": 6184,
      "ĠGriff": 6185,
      "Ġrecorded": 6186,
      "ĠPolit": 6187,
      "Ġradical": 6188,
      "Ġcausing": 6189,
      "Ġsenator": 6190,
      "Ġreplace": 6191,
      "Ġrelationships": 6192,
      "Ġcameras": 6193,
      "Ġnarrow": 6194,
      "Ġprofessor": 6195,
      "Ġapplication": 6196,
      "Ġheroin": 6197,
      "Ġsnowboard": 6198,
      "Ġpurposes": 6199,
      "ĠIslands": 6200,
      "Ġsatisf": 6201,
      "Ġticket": 6202,
      "ĠBryant": 6203,
      "Ġdegree": 6204,
      "usalem": 6205,
      "ĠMicrosoft": 6206,
      "Ġfranchise": 6207,
      "Ġexcellent": 6208,
      "nabis": 6209,
      ",'": 6210,
      "78": 6211,
      "95": 6212,
      "LO": 6213,
      "MP": 6214,
      "OU": 6215,
      "RA": 6216,
      "ba": 6217,
      "foot": 6218,
      "ferences": 6219,
      "kg": 6220,
      "pret": 6221,
      "rd": 6222,
      "under": 6223,
      "uya": 6224,
      "word": 6225,
      "Ġsight": 6226,
      "Ġsale": 6227,
      "itol": 6228,
      "Ġbond": 6229,
      "orse": 6230,
      "orage": 6231,
      "Ġfiring": 6232,
      "ĠAp": 6233,
      "Ġongoing": 6234,
      "ĠCast": 6235,
      "ura": 6236,
      "ĠPage": 6237,
      "ĠWal": 6238,
      "ĠHall": 6239,
      "Ġrising": 6240,
      "Ġconver": 6241,
      "ĠRem": 6242,
      "ĠFree": 6243,
      "ĠNer": 6244,
      "that": 6245,
      "Ġsevere": 6246,
      "ĠKh": 6247,
      "ĠKir": 6248,
      "ĠKroft": 6249,
      "ansas": 6250,
      "ĠThree": 6251,
      "Ġsole": 6252,
      "rave": 6253,
      "ĠStand": 6254,
      "Ġarms": 6255,
      "Ġsomehow": 6256,
      "Ġrepresents": 6257,
      "Ġattempts": 6258,
      "teen": 6259,
      "Ġ56": 6260,
      "Ġdecent": 6261,
      "Ġserver": 6262,
      "Ġeverybody": 6263,
      "Ġregime": 6264,
      "Ġtermin": 6265,
      "Ġentry": 6266,
      "Ġtransp": 6267,
      "Ġdragon": 6268,
      "Ġhighlight": 6269,
      "ashion": 6270,
      "Ġsupporting": 6271,
      "Ġvotes": 6272,
      "Ġprotection": 6273,
      "apping": 6274,
      "Ġboost": 6275,
      "Ġimportance": 6276,
      "Ġblocked": 6277,
      "Ġmaintain": 6278,
      "Ġlisten": 6279,
      "Ġpayments": 6280,
      "including": 6281,
      "Ġruled": 6282,
      "Ġoperation": 6283,
      "Ġtalked": 6284,
      "Ġargue": 6285,
      "Ġinvolve": 6286,
      "Ġauthority": 6287,
      "Ġcondem": 6288,
      "Ġfailure": 6289,
      "Ġchallenges": 6290,
      "Ġexcited": 6291,
      "Ġtracking": 6292,
      "Ġrecognized": 6293,
      "ĠInstitute": 6294,
      "ĠNext": 6295,
      "Ġsurprise": 6296,
      "Ġordered": 6297,
      "Ġestablished": 6298,
      "Ġroute": 6299,
      "Ġsurvive": 6300,
      "Ġhttps": 6301,
      "ĠSaudi": 6302,
      "Ġencourage": 6303,
      "Ġallegedly": 6304,
      "razy": 6305,
      "ĠNetwork": 6306,
      "ĠJerusalem": 6307,
      "ĠExpedition": 6308,
      "ĠDirector": 6309,
      "Ġregistered": 6310,
      "ĠSometimes": 6311,
      "ĠPutin": 6312,
      "Ġscheduled": 6313,
      "Ġancient": 6314,
      "ĠKentucky": 6315,
      "Ġprofessionals": 6316,
      "bour": 6317,
      "citation": 6318,
      "equ": 6319,
      "new": 6320,
      "rist": 6321,
      "Ġtourn": 6322,
      "hero": 6323,
      "erved": 6324,
      "Ġsac": 6325,
      "arks": 6326,
      "Ġmut": 6327,
      "ompl": 6328,
      "ĠType": 6329,
      "Ġgrew": 6330,
      "acare": 6331,
      "ĠAction": 6332,
      "ether": 6333,
      "ecess": 6334,
      "ĠMir": 6335,
      "Ġwithd": 6336,
      "olen": 6337,
      "ilty": 6338,
      "ĠPR": 6339,
      "ĠPit": 6340,
      "ĠHome": 6341,
      "Ġrail": 6342,
      "Ġrating": 6343,
      "Ġraid": 6344,
      "ĠDallas": 6345,
      "aints": 6346,
      "ĠFederal": 6347,
      "ĠNick": 6348,
      "ĠNex": 6349,
      "ĠGit": 6350,
      "opy": 6351,
      "ĠLantern": 6352,
      "riend": 6353,
      "ĠEs": 6354,
      "ĠEve": 6355,
      "ĠJose": 6356,
      "ĠThrough": 6357,
      "Ġunus": 6358,
      "aug": 6359,
      "iously": 6360,
      "Ġexpensive": 6361,
      "ĠAsia": 6362,
      "Ġbrut": 6363,
      "Ġmonit": 6364,
      "Ġsmell": 6365,
      "Ġminute": 6366,
      "Ġterrible": 6367,
      "Ġobjects": 6368,
      "Ġsimpl": 6369,
      "Ġsubsequ": 6370,
      "alker": 6371,
      "exp": 6372,
      "Ġmoder": 6373,
      "phones": 6374,
      "ducing": 6375,
      "Ġattacked": 6376,
      "ĠJoe": 6377,
      "uthor": 6378,
      "Ġputs": 6379,
      "Ġwarm": 6380,
      "espread": 6381,
      "ĠSeries": 6382,
      "Ġkeeps": 6383,
      "Ġpayment": 6384,
      "osphere": 6385,
      "ĠConstitution": 6386,
      "ĠMayor": 6387,
      "cribe": 6388,
      "Ġcombined": 6389,
      "Ġtotally": 6390,
      "Ġholding": 6391,
      "Ġfeatured": 6392,
      "Ġzero": 6393,
      "scape": 6394,
      "ĠAbout": 6395,
      "Ġterrorists": 6396,
      "Ġmeasures": 6397,
      "Ġmessages": 6398,
      "evit": 6399,
      "Ġexciting": 6400,
      "Ġindustrial": 6401,
      "Ġrecognize": 6402,
      "Ġintroduction": 6403,
      "Ġballot": 6404,
      "Ġguns": 6405,
      "ĠGlob": 6406,
      "Ġanswers": 6407,
      "Ġsoldiers": 6408,
      "Ġbroadcast": 6409,
      "Ġboys": 6410,
      "Ġdollar": 6411,
      "Ġenemies": 6412,
      "Ġtweets": 6413,
      "Ġpsychology": 6414,
      "burgh": 6415,
      "ĠMcCain": 6416,
      "Ġwaters": 6417,
      "ĠDisney": 6418,
      "ĠMexico": 6419,
      "Ġmaximum": 6420,
      "ĠCatholic": 6421,
      "irmingham": 6422,
      "tokavian": 6423,
      "ĠHospital": 6424,
      "ĠJordan": 6425,
      "75": 6426,
      "AS": 6427,
      "MS": 6428,
      "TT": 6429,
      "aud": 6430,
      "cies": 6431,
      "ji": 6432,
      "jud": 6433,
      "ket": 6434,
      "lav": 6435,
      "law": 6436,
      "pet": 6437,
      "pir": 6438,
      "ÃŃ": 6439,
      "onn": 6440,
      "Ġwal": 6441,
      "isp": 6442,
      "Ġbodies": 6443,
      "esh": 6444,
      "arry": 6445,
      "Ġmurd": 6446,
      "Ġmicro": 6447,
      "icy": 6448,
      "Ġthroat": 6449,
      "Ġnav": 6450,
      "Ġnurs": 6451,
      "Ġgay": 6452,
      "ĠSK": 6453,
      "ĠST": 6454,
      "ĠSad": 6455,
      "ĠSupp": 6456,
      "otic": 6457,
      "amacare": 6458,
      "ĠCH": 6459,
      "ĠCIA": 6460,
      "Ġfort": 6461,
      "Ġstood": 6462,
      "Ġstuck": 6463,
      "urb": 6464,
      "Ġyesterday": 6465,
      "ĠBirmingham": 6466,
      "olks": 6467,
      "ĠPot": 6468,
      "ĠWhere": 6469,
      "Ġrom": 6470,
      "Ġrig": 6471,
      "ĠDid": 6472,
      "ĠDak": 6473,
      "ĠDuffy": 6474,
      "aga": 6475,
      "agan": 6476,
      "ĠRay": 6477,
      "ĠRupp": 6478,
      "umber": 6479,
      "Ġproved": 6480,
      "Ġcomfortable": 6481,
      "ĠNations": 6482,
      "Ġsees": 6483,
      "ĠLit": 6484,
      "ripts": 6485,
      "Ġnoticed": 6486,
      "abled": 6487,
      "Ġdele": 6488,
      "quest": 6489,
      "aste": 6490,
      "uda": 6491,
      "Ġtrail": 6492,
      "okie": 6493,
      "ideo": 6494,
      "Ġadults": 6495,
      "Ġusual": 6496,
      "ĠStan": 6497,
      "Ġcontext": 6498,
      "Ġ2019": 6499,
      "avor": 6500,
      "Ġapprec": 6501,
      "Ġdiss": 6502,
      "anges": 6503,
      "Ġaccompl": 6504,
      "Ġrow": 6505,
      "Ġ400": 6506,
      "Ġsupply": 6507,
      "Ġemb": 6508,
      "Ġembr": 6509,
      "Ġadds": 6510,
      "ifications": 6511,
      "Ġpresum": 6512,
      "ĠReal": 6513,
      "Ġacid": 6514,
      "Ġsmoking": 6515,
      "Ġending": 6516,
      "Ġsurf": 6517,
      "Ġcounty": 6518,
      "Ġdiscover": 6519,
      "Ġmedic": 6520,
      "ĠAdminist": 6521,
      "Ġpoppy": 6522,
      "ception": 6523,
      "Ġadvance": 6524,
      "Ġdevast": 6525,
      "Ġcontrolled": 6526,
      "Ġharder": 6527,
      "Ġglass": 6528,
      "Ġbehalf": 6529,
      "Ġlisted": 6530,
      "Ġsolar": 6531,
      "Ġprompt": 6532,
      "Ġoperating": 6533,
      "Ġapprox": 6534,
      "Ġauthors": 6535,
      "ĠRober": 6536,
      "Ġencryption": 6537,
      "player": 6538,
      "Ġengage": 6539,
      "Ġcombination": 6540,
      "prof": 6541,
      "Ġpublisher": 6542,
      "Ġdescribe": 6543,
      "Photo": 6544,
      "Ġlayer": 6545,
      "Ġdrugs": 6546,
      "Ġessential": 6547,
      "Ġ1980": 6548,
      "Ġenvironmental": 6549,
      "ĠDelhi": 6550,
      "Ġrapidly": 6551,
      "Ġpushing": 6552,
      "Ġreferred": 6553,
      "Ġcommunication": 6554,
      "ĠCompany": 6555,
      "ĠGalactic": 6556,
      "Ġadopted": 6557,
      "ĠDigital": 6558,
      "Ġscenes": 6559,
      "Ġcolleagues": 6560,
      "Ġlikes": 6561,
      "ĠHolly": 6562,
      "ĠColumbia": 6563,
      "Ġexplosion": 6564,
      "ĠCEO": 6565,
      "Ġoverwhel": 6566,
      "56": 6567,
      "88": 6568,
      "LS": 6569,
      "Le": 6570,
      "Ser": 6571,
      "TC": 6572,
      "],": 6573,
      "cow": 6574,
      "je": 6575,
      "oh": 6576,
      "run": 6577,
      "ugh": 6578,
      "worth": 6579,
      "Ġtact": 6580,
      "Ġtree": 6581,
      "inations": 6582,
      "era": 6583,
      "Ġsoph": 6584,
      "Ġoxy": 6585,
      "Ġbought": 6586,
      "Ġproud": 6587,
      "arters": 6588,
      "Ġhyd": 6589,
      "Ġdress": 6590,
      "Ġdiversity": 6591,
      "llor": 6592,
      "ĠTra": 6593,
      "Ġles": 6594,
      "Ġloved": 6595,
      "Ġlamb": 6596,
      "Ġrevenue": 6597,
      "starter": 6598,
      "ĠSar": 6599,
      "ĠSams": 6600,
      "otes": 6601,
      "ĠAC": 6602,
      "etary": 6603,
      "Ġformed": 6604,
      "ĠMass": 6605,
      "uru": 6606,
      "olt": 6607,
      "ilit": 6608,
      "ĠPublic": 6609,
      "ĠWash": 6610,
      "ĠHen": 6611,
      "ĠDark": 6612,
      "agal": 6613,
      "uman": 6614,
      "uls": 6615,
      "Ġpros": 6616,
      "osit": 6617,
      "essed": 6618,
      "unge": 6619,
      "ĠEastern": 6620,
      "Ġshared": 6621,
      "Ġshift": 6622,
      "Ġpled": 6623,
      "udes": 6624,
      "Ġcancer": 6625,
      "ĠUse": 6626,
      "ĠInvest": 6627,
      "Ġads": 6628,
      "Ġcontaining": 6629,
      "Ġmanip": 6630,
      "Ġteach": 6631,
      "Ġresc": 6632,
      "ava": 6633,
      "Ġsche": 6634,
      "ĠVar": 6635,
      "reek": 6636,
      "Ġprint": 6637,
      "Ġcommission": 6638,
      "Ġconsult": 6639,
      "Ġ->": 6640,
      "Ġdesper": 6641,
      "Ġempt": 6642,
      "Ġremark": 6643,
      "Ġbuff": 6644,
      "hens": 6645,
      "Ġcourts": 6646,
      "ĠLeft": 6647,
      "ĠClass": 6648,
      "Ġinstruct": 6649,
      "Ġhelping": 6650,
      "archy": 6651,
      "ĠShort": 6652,
      "Ġguilty": 6653,
      "ĠCommon": 6654,
      "Ġlocations": 6655,
      "Ġdistress": 6656,
      "ricity": 6657,
      "Ġexplo": 6658,
      "Ġfarmers": 6659,
      "Ġfollows": 6660,
      "ĠOrgan": 6661,
      "Ġprotesters": 6662,
      "Ġdeveloper": 6663,
      "Ġinfrastructure": 6664,
      "Ġmarine": 6665,
      "Ġmarks": 6666,
      "Ġexperiment": 6667,
      "Ġgotten": 6668,
      "Ġcorner": 6669,
      "Ġformat": 6670,
      "Ġinformed": 6671,
      "ĠSenator": 6672,
      "Ġletters": 6673,
      "Ġdepend": 6674,
      "Ġmainly": 6675,
      "ĠPhot": 6676,
      "Ġnewslet": 6677,
      "Ġorganizations": 6678,
      "white": 6679,
      "Ġanimal": 6680,
      "Ġperformed": 6681,
      "ĠHarris": 6682,
      "Ġemployee": 6683,
      "Ġanaly": 6684,
      "Ġconnected": 6685,
      "Ġdescribes": 6686,
      "Ġattempted": 6687,
      "Ġproperly": 6688,
      "Ġmarried": 6689,
      "Ġlawsuit": 6690,
      "Ġgenet": 6691,
      "Ġupdates": 6692,
      "Ġcyber": 6693,
      "Ġorders": 6694,
      "Ġsquare": 6695,
      "Ġillust": 6696,
      "Ġnarrative": 6697,
      "ĠAtlantic": 6698,
      "Ġpurchase": 6699,
      "ĠCapitol": 6700,
      "Ġlinked": 6701,
      "Ġmixed": 6702,
      "ĠForeign": 6703,
      "Ġroughly": 6704,
      "Ġdiscrimination": 6705,
      "Ġoccasionally": 6706,
      "ĠGeorgia": 6707,
      "Ġperspective": 6708,
      "ĠNexus": 6709,
      "ĠSamsung": 6710,
      ").[": 6711,
      "For": 6712,
      "ID": 6713,
      "LE": 6714,
      "On": 6715,
      "PG": 6716,
      "So": 6717,
      "cons": 6718,
      "mun": 6719,
      "rage": 6720,
      "rations": 6721,
      "va": 6722,
      "xic": 6723,
      "Ġtaught": 6724,
      "erted": 6725,
      "Ġsending": 6726,
      "ato": 6727,
      "atures": 6728,
      "iti": 6729,
      "ora": 6730,
      "Ġflex": 6731,
      "Ġpra": 6732,
      "Ġpink": 6733,
      "Ġdiam": 6734,
      "vey": 6735,
      "Ġgear": 6736,
      "ĠId": 6737,
      "ĠSF": 6738,
      "ĠAut": 6739,
      "amental": 6740,
      "ador": 6741,
      "aded": 6742,
      "imp": 6743,
      "ĠCars": 6744,
      "ĠMic": 6745,
      "url": 6746,
      "ĠBears": 6747,
      "olf": 6748,
      "Ġaside": 6749,
      "illy": 6750,
      "ĠPerson": 6751,
      "ĠHun": 6752,
      "ĠHaving": 6753,
      "ĠDick": 6754,
      "agement": 6755,
      "ifer": 6756,
      "ĠRC": 6757,
      "ĠRam": 6758,
      "ĠRoll": 6759,
      "umin": 6760,
      "Ġproof": 6761,
      "Ġproxy": 6762,
      "ighters": 6763,
      "ĠNSA": 6764,
      "this": 6765,
      "ĠLand": 6766,
      "ĠLife": 6767,
      "ĠLady": 6768,
      "ĠLED": 6769,
      "rip": 6770,
      "ivered": 6771,
      "Ġshadow": 6772,
      "eling": 6773,
      "Ġchose": 6774,
      "ĠJoin": 6775,
      "endment": 6776,
      "ĠKam": 6777,
      "Ġneither": 6778,
      "Ġadmitted": 6779,
      "actual": 6780,
      "Ġoffense": 6781,
      "Ġuniverse": 6782,
      "Ġunknown": 6783,
      "Ġblind": 6784,
      "Ġindex": 6785,
      "Ġregulations": 6786,
      "ĠReview": 6787,
      "Ġmini": 6788,
      "Ġinteract": 6789,
      "Ġinterface": 6790,
      "Ġdiscl": 6791,
      "ĠClan": 6792,
      "Ġsigns": 6793,
      "Ġ75": 6794,
      "Ġofficially": 6795,
      "Ġlegit": 6796,
      "Ġguid": 6797,
      "Ġartists": 6798,
      "Ġarticles": 6799,
      "Ġpassen": 6800,
      "Ġpassion": 6801,
      "Ġpublication": 6802,
      "Ġpoet": 6803,
      "ĠObamacare": 6804,
      "Ġprotests": 6805,
      "esperson": 6806,
      "Ġcoral": 6807,
      "Ġformal": 6808,
      "ĠSeagal": 6809,
      "Ġsky": 6810,
      "Ġturns": 6811,
      "Ġfacility": 6812,
      "Ġfacilities": 6813,
      "Ġpatient": 6814,
      "Ġclaiming": 6815,
      "Ġyounger": 6816,
      "Ġapproved": 6817,
      "Ġswitch": 6818,
      "ĠDemocrat": 6819,
      "Ġalongside": 6820,
      "Ġviolent": 6821,
      "Ġdelivered": 6822,
      "Ġvideos": 6823,
      "Ġclosely": 6824,
      "Ġconsumer": 6825,
      "Ġconsumption": 6826,
      "Ġinjuries": 6827,
      "Ġcompetitive": 6828,
      "Ġsuspect": 6829,
      "Ġcomplaint": 6830,
      "Ġmagic": 6831,
      "ĠSchumer": 6832,
      "Ġfalling": 6833,
      "Ġprotecting": 6834,
      "Ġnormally": 6835,
      "Ġaudio": 6836,
      "Ġscientist": 6837,
      "Ġcollab": 6838,
      "Ġbombing": 6839,
      "Ġimmigration": 6840,
      "Ġdiplom": 6841,
      "Ġmatters": 6842,
      "ENT": 6843,
      "ivalent": 6844,
      "Ġselected": 6845,
      "Ġregarding": 6846,
      "Ġroutine": 6847,
      "Ġbehavi": 6848,
      "Ġinnov": 6849,
      "Ġwatched": 6850,
      "ĠFeeds": 6851,
      "Ġimagine": 6852,
      "Ġimpressive": 6853,
      "iveness": 6854,
      "Ġwidespread": 6855,
      "Ġcoins": 6856,
      "Ġbreath": 6857,
      "Ġtrouble": 6858,
      "ĠBosnian": 6859,
      "Ġobserved": 6860,
      "Ġuniversities": 6861,
      "ĠTotal": 6862,
      "Ġsustain": 6863,
      "Ġdedicated": 6864,
      "ĠWilson": 6865,
      "ĠPalestinian": 6866,
      "Ġconsequences": 6867,
      "ĠNASA": 6868,
      "Ġallegations": 6869,
      "ĠYouTube": 6870,
      "ĠDakota": 6871,
      "09": 6872,
      "=\"": 6873,
      "Men": 6874,
      "PD": 6875,
      "PM": 6876,
      "Wh": 6877,
      "gent": 6878,
      "ivery": 6879,
      "lor": 6880,
      "oom": 6881,
      "rison": 6882,
      "Ġid": 6883,
      "Ġsatell": 6884,
      "Ġwest": 6885,
      "Ġcru": 6886,
      "Ġbound": 6887,
      "Ġboss": 6888,
      "orry": 6889,
      "esome": 6890,
      "Ġfiction": 6891,
      "Ġfilled": 6892,
      "Ġfulf": 6893,
      "arrow": 6894,
      "Ġinner": 6895,
      "Ġmouth": 6896,
      "Ġhall": 6897,
      "Ġdynam": 6898,
      "Ġlies": 6899,
      "acement": 6900,
      "ĠSV": 6901,
      "ĠSil": 6902,
      "ĠSqu": 6903,
      "ĠSOS": 6904,
      "ĠSky": 6905,
      "ĠAwards": 6906,
      "ĠCro": 6907,
      "ĠCoug": 6908,
      "ĠBal": 6909,
      "ĠBible": 6910,
      "ĠBowl": 6911,
      "ĠBolas": 6912,
      "Ġaspect": 6913,
      "ĠPan": 6914,
      "ĠWi": 6915,
      "ĠHor": 6916,
      "Ġring": 6917,
      "Ġrum": 6918,
      "Ġrally": 6919,
      "ĠDM": 6920,
      "ĠDen": 6921,
      "ĠDead": 6922,
      "ĠRon": 6923,
      "umes": 6924,
      "ules": 6925,
      "ĠFire": 6926,
      "ĠGithub": 6927,
      "ĠLuc": 6928,
      "Ġvac": 6929,
      "ĠEff": 6930,
      "ĠEric": 6931,
      "aping": 6932,
      "Ġleaves": 6933,
      "ours": 6934,
      "Ġspots": 6935,
      "Ġje": 6936,
      "Ġjail": 6937,
      "Ġallies": 6938,
      "Ġ2020": 6939,
      "ĠStart": 6940,
      "pton": 6941,
      "Ġincent": 6942,
      "Ġresolution": 6943,
      "ĠChance": 6944,
      "Ġperman": 6945,
      "Ġscoring": 6946,
      "Ġscript": 6947,
      "Ġrepeal": 6948,
      "Ġreputation": 6949,
      "ova": 6950,
      "oval": 6951,
      "Ġcovers": 6952,
      "Ġemph": 6953,
      "Ġdefined": 6954,
      "Ġinvent": 6955,
      "Ġstatements": 6956,
      "Ġknowing": 6957,
      "Ġbrain": 6958,
      "ĠRev": 6959,
      "ĠReid": 6960,
      "ĠAnth": 6961,
      "Ġ2002": 6962,
      "Ġconfig": 6963,
      "Ġstrange": 6964,
      "Ġprovince": 6965,
      "Ġinspect": 6966,
      "ricts": 6967,
      "Ġpublicly": 6968,
      "Ġextrem": 6969,
      "Ġexplains": 6970,
      "Ġwinter": 6971,
      "Ġcompletion": 6972,
      "Ġexpert": 6973,
      "Ġtopic": 6974,
      "Ġseconds": 6975,
      "ĠCorrect": 6976,
      "ĠImpro": 6977,
      "ĠCarl": 6978,
      "Ġsentence": 6979,
      "Ġengaged": 6980,
      "Ġerrors": 6981,
      "Ġsuperv": 6982,
      "Ġactivist": 6983,
      "ĠSecond": 6984,
      "Ġterrorism": 6985,
      "Ġrooms": 6986,
      "Ġemerged": 6987,
      "Ġbringing": 6988,
      "Ġsteady": 6989,
      "Ġproperties": 6990,
      "ĠEnter": 6991,
      "Ġlogo": 6992,
      "Ġspokesperson": 6993,
      "Ġrequirements": 6994,
      "black": 6995,
      "Star": 6996,
      "ĠTurkey": 6997,
      "Ġlabor": 6998,
      "ĠKeep": 6999,
      "Ġopinions": 7000,
      "Ġsecretary": 7001,
      "www": 7002,
      "Ġdialects": 7003,
      "Ġjournalists": 7004,
      "Ġrarely": 7005,
      "ĠAlexander": 7006,
      "Ġschedule": 7007,
      "Ġsector": 7008,
      "Ġsettings": 7009,
      "Ġdemocratic": 7010,
      "Ġparking": 7011,
      "ĠMoscow": 7012,
      "Ġvehicle": 7013,
      "Ġnominee": 7014,
      "ĠPuppies": 7015,
      "gorith": 7016,
      "ĠLauren": 7017,
      "Ġlicensing": 7018,
      "Getty": 7019,
      "Ġtournament": 7020,
      "ĠRoberts": 7021,
      "!âĢĿ": 7022,
      "()": 7023,
      "43": 7024,
      "CE": 7025,
      "can": 7026,
      "iates": 7027,
      "iÄĩ": 7028,
      "world": 7029,
      "ĠÅ": 7030,
      "Ġtips": 7031,
      "Ġwed": 7032,
      "Ġcro": 7033,
      "Ġcraft": 7034,
      "Ġcrazy": 7035,
      "Ġphen": 7036,
      "ican": 7037,
      "icing": 7038,
      "icts": 7039,
      "Ġthick": 7040,
      "omin": 7041,
      "omic": 7042,
      "ĠTre": 7043,
      "ĠTal": 7044,
      "ĠTar": 7045,
      "Ġgained": 7046,
      "ĠSally": 7047,
      "utors": 7048,
      "ayers": 7049,
      "ĠColl": 7050,
      "ecoin": 7051,
      "Ġstored": 7052,
      "ĠBas": 7053,
      "illes": 7054,
      "ĠHou": 7055,
      "ĠHave": 7056,
      "Ġriver": 7057,
      "Ġraces": 7058,
      "Ġrival": 7059,
      "kel": 7060,
      "agn": 7061,
      "agram": 7062,
      "ĠRoyal": 7063,
      "umn": 7064,
      "ulous": 7065,
      "Ġhabit": 7066,
      "employ": 7067,
      "Ġcomics": 7068,
      "Ġvo": 7069,
      "ĠOl": 7070,
      "Ġchairman": 7071,
      "Ġabuse": 7072,
      "Ġtrained": 7073,
      "ogether": 7074,
      "izz": 7075,
      "izon": 7076,
      "Ġincor": 7077,
      "Ġteaching": 7078,
      "Ġ33": 7079,
      "Ġdisaster": 7080,
      "Ġanyway": 7081,
      "Ġaccomm": 7082,
      "Ġacting": 7083,
      "Ġ43": 7084,
      "Ġ47": 7085,
      "Ġdecade": 7086,
      "Ġdesire": 7087,
      "oung": 7088,
      "rence": 7089,
      "Ġbrill": 7090,
      "Ġconfidence": 7091,
      "Ġinterpret": 7092,
      "Ġlawmakers": 7093,
      "Ġentering": 7094,
      "azz": 7095,
      "Ġthoughts": 7096,
      "Ġobtained": 7097,
      "Ġplants": 7098,
      "Ġmodels": 7099,
      "Ġrealize": 7100,
      "Ġconcuss": 7101,
      "iki": 7102,
      "Ġwrites": 7103,
      "viously": 7104,
      "Ġcarefully": 7105,
      "Ġformation": 7106,
      "Ġdepart": 7107,
      "Ġposters": 7108,
      "Ġmainstream": 7109,
      "Ġmemory": 7110,
      "itchen": 7111,
      "ĠConn": 7112,
      "Ġstronger": 7113,
      "Ġhoping": 7114,
      "ĠBrad": 7115,
      "Ġcontrols": 7116,
      "Ġresulting": 7117,
      "ĠEdward": 7118,
      "Ġmidfield": 7119,
      "Ġemployers": 7120,
      "ijing": 7121,
      "Ġcollected": 7122,
      "Ġjudg": 7123,
      "Ġchallenging": 7124,
      "Ġpresented": 7125,
      "aska": 7126,
      "Ġlosses": 7127,
      "Ġexpectations": 7128,
      "Ġspoken": 7129,
      "Ġexpression": 7130,
      "Ġsuspended": 7131,
      "ĠContin": 7132,
      "Ġhorror": 7133,
      "raine": 7134,
      "Ġslowly": 7135,
      "Ġexperienced": 7136,
      "Ġexamples": 7137,
      "ĠAttorney": 7138,
      "Ġliterary": 7139,
      "Ġawarded": 7140,
      "Ġsemi": 7141,
      "Ġannouncement": 7142,
      "ĠHamilton": 7143,
      "related": 7144,
      "ĠIrish": 7145,
      "patine": 7146,
      "ederation": 7147,
      "Ġadventure": 7148,
      "Ġacknowledged": 7149,
      "Ġapplied": 7150,
      "ĠNavy": 7151,
      "sembly": 7152,
      "respond": 7153,
      "Ġunusual": 7154,
      "Ġscheme": 7155,
      "Ġaccommod": 7156,
      "300": 7157,
      "51": 7158,
      "86": 7159,
      "Americ": 7160,
      "Go": 7161,
      "NS": 7162,
      "VER": 7163,
      "bet": 7164,
      "bles": 7165,
      "bird": 7166,
      "called": 7167,
      "fund": 7168,
      "hole": 7169,
      "iu": 7170,
      "life": 7171,
      "lights": 7172,
      "nel": 7173,
      "pan": 7174,
      "uan": 7175,
      "wa": 7176,
      "ĠÑ": 7177,
      "Ġtort": 7178,
      "Ġaer": 7179,
      "Ġast": 7180,
      "inction": 7181,
      "eries": 7182,
      "erry": 7183,
      "Ġsid": 7184,
      "Ġcrown": 7185,
      "Ġbike": 7186,
      "Ġft": 7187,
      "Ġfasc": 7188,
      "Ġfinger": 7189,
      "alle": 7190,
      "ĠTO": 7191,
      "ĠTok": 7192,
      "ĠTalk": 7193,
      "Ġlaugh": 7194,
      "Ġreact": 7195,
      "idges": 7196,
      "Ġgar": 7197,
      "Ġgiant": 7198,
      "acular": 7199,
      "ĠSign": 7200,
      "Ġisol": 7201,
      "etz": 7202,
      "ĠCA": 7203,
      "ĠCross": 7204,
      "ĠCustom": 7205,
      "Ġforcing": 7206,
      "ĠBab": 7207,
      "ĠBell": 7208,
      "ĠBattle": 7209,
      "olis": 7210,
      "ĠPen": 7211,
      "tsburgh": 7212,
      "ĠRa": 7213,
      "ĠRout": 7214,
      "ums": 7215,
      "ulating": 7216,
      "ctic": 7217,
      "ĠFil": 7218,
      "ĠNic": 7219,
      "ĠNash": 7220,
      "esty": 7221,
      "rie": 7222,
      "rik": 7223,
      "ĠEis": 7224,
      "ĠExt": 7225,
      "Ġdeals": 7226,
      "acked": 7227,
      "Ġchampionship": 7228,
      "Ġchampion": 7229,
      "Ġabandon": 7230,
      "Ġtruck": 7231,
      "Ġspark": 7232,
      "Ġjourney": 7233,
      "ĠKick": 7234,
      "ĠUC": 7235,
      "ĠIns": 7236,
      "Ġneutral": 7237,
      "Ġweren": 7238,
      "iah": 7239,
      "Ġmanusc": 7240,
      "Ġsomebody": 7241,
      "Ġdismiss": 7242,
      "Ġanywhere": 7243,
      "Ġanymore": 7244,
      "Ġprepar": 7245,
      "Ġ1970": 7246,
      "Ġunderst": 7247,
      "Ġsecre": 7248,
      "Ġflo": 7249,
      "Ġflood": 7250,
      "Ġindigenous": 7251,
      "umps": 7252,
      "Ġworldwide": 7253,
      "ĠAlbert": 7254,
      "Ġstruck": 7255,
      "aze": 7256,
      "Ġtransform": 7257,
      "Ġobtain": 7258,
      "onto": 7259,
      "Ġdrones": 7260,
      "ĠArmy": 7261,
      "Ġcenturies": 7262,
      "Ġdetailed": 7263,
      "Ġchecks": 7264,
      "Ġhumor": 7265,
      "Ġvoted": 7266,
      "Ġprotected": 7267,
      "Ġinfo": 7268,
      "Ġadvice": 7269,
      "boards": 7270,
      "Ġfactors": 7271,
      "Ġrelevant": 7272,
      "lessly": 7273,
      "ĠBeijing": 7274,
      "Ġairport": 7275,
      "Ġviewers": 7276,
      "ĠGrant": 7277,
      "Ġconstantly": 7278,
      "Ġbasically": 7279,
      "Ġbasket": 7280,
      "Ġhopes": 7281,
      "Ġreturns": 7282,
      "Ġresulted": 7283,
      "Ġ1990": 7284,
      "Ġcaptured": 7285,
      "Ġtaxes": 7286,
      "ĠSmart": 7287,
      "Ġcommonly": 7288,
      "ĠMeg": 7289,
      "Ġmeasured": 7290,
      "Ġelsewhere": 7291,
      "Ġprotections": 7292,
      "Ġstores": 7293,
      "Ġcivilians": 7294,
      "Ġcontribute": 7295,
      "Ġmatches": 7296,
      "________________": 7297,
      "Ġconsistently": 7298,
      "Ġthousand": 7299,
      "Ġpunish": 7300,
      "ĠAgain": 7301,
      "Ġdemocracy": 7302,
      "Ġratings": 7303,
      "ĠCampaign": 7304,
      "ĠRadio": 7305,
      "Ġmobile": 7306,
      "Ġsomewhere": 7307,
      "ĠDivision": 7308,
      "ĠDevelopment": 7309,
      "Ġmerely": 7310,
      "Ġsettlement": 7311,
      "ĠSahara": 7312,
      "Ġcongressional": 7313,
      "Ġnewspaper": 7314,
      "ĠPittsburgh": 7315,
      "ĠHollywood": 7316,
      "Ġemphas": 7317,
      "\":": 7318,
      ",âĢĻ": 7319,
      "FP": 7320,
      "Sh": 7321,
      "She": 7322,
      "Tr": 7323,
      "Un": 7324,
      "bel": 7325,
      "boy": 7326,
      "cts": 7327,
      "fortunately": 7328,
      "hus": 7329,
      "hour": 7330,
      "mosphere": 7331,
      "pm": 7332,
      "power": 7333,
      "yard": 7334,
      "Ġ×": 7335,
      "Ġing": 7336,
      "Ġtall": 7337,
      "rete": 7338,
      "Ġsick": 7339,
      "Ġwestern": 7340,
      "ena": 7341,
      "Ġcas": 7342,
      "oric": 7343,
      "orate": 7344,
      "edia": 7345,
      "Ġfuel": 7346,
      "Ġpipe": 7347,
      "Ġthinks": 7348,
      "ĠTR": 7349,
      "ĠTown": 7350,
      "step": 7351,
      "stances": 7352,
      "idency": 7353,
      "owa": 7354,
      "etime": 7355,
      "iger": 7356,
      "Ġasp": 7357,
      "ilot": 7358,
      "ĠPop": 7359,
      "ĠPubl": 7360,
      "ĠHo": 7361,
      "ĠHart": 7362,
      "ĠHell": 7363,
      "Ġru": 7364,
      "Ġride": 7365,
      "ĠDub": 7366,
      "ifies": 7367,
      "ĠRing": 7368,
      "ĠRose": 7369,
      "emon": 7370,
      "emporary": 7371,
      "aine": 7372,
      "ĠGull": 7373,
      "Ġseats": 7374,
      "ĠLt": 7375,
      "ĠLive": 7376,
      "Ġvirt": 7377,
      "Ġexhib": 7378,
      "Ġexha": 7379,
      "unior": 7380,
      "ĠEll": 7381,
      "ĠEner": 7382,
      "abs": 7383,
      "abilities": 7384,
      "ockey": 7385,
      "Ġalive": 7386,
      "Ġshop": 7387,
      "Ġshaving": 7388,
      "Ġplain": 7389,
      "ĠJr": 7390,
      "aki": 7391,
      "Ġabroad": 7392,
      "ivation": 7393,
      "Ġspring": 7394,
      "Ġkil": 7395,
      "ĠThanks": 7396,
      "Ġupcoming": 7397,
      "Ġages": 7398,
      "Ġclients": 7399,
      "Ġunre": 7400,
      "peror": 7401,
      "Ġnewly": 7402,
      "ensions": 7403,
      "Ġmyth": 7404,
      "Ġpreced": 7405,
      "obb": 7406,
      "Ġ46": 7407,
      "oves": 7408,
      "Ġbeta": 7409,
      "ancing": 7410,
      "Ġflash": 7411,
      "ĠUnlike": 7412,
      "Ġregulation": 7413,
      "Ġedition": 7414,
      "Ġmonster": 7415,
      "Ġendorse": 7416,
      "Ġbelong": 7417,
      "Ġentr": 7418,
      "Ġtransition": 7419,
      "Ġcrimes": 7420,
      "Ġinstalled": 7421,
      "Ġcreation": 7422,
      "Ġreturning": 7423,
      "ĠSpain": 7424,
      "Ġopponent": 7425,
      "Ġexplicit": 7426,
      "Ġcontinuing": 7427,
      "2015": 7428,
      "Ġcorrespond": 7429,
      "ĠMrs": 7430,
      "Ġdepending": 7431,
      "ĠMedical": 7432,
      "Ġsolve": 7433,
      "Ġpromin": 7434,
      "Ġshortly": 7435,
      "Ġlandscape": 7436,
      "Ġfundamental": 7437,
      "Ġveto": 7438,
      "Ġorganic": 7439,
      "Ġperforming": 7440,
      "Ġinvestigating": 7441,
      "Ġcreates": 7442,
      "Ġ1996": 7443,
      "missions": 7444,
      "Ġmoments": 7445,
      "Ġabsence": 7446,
      "ĠPalpatine": 7447,
      "ĠMonsoon": 7448,
      "Ġwalked": 7449,
      "Ġwebsites": 7450,
      "Ġcontributed": 7451,
      "Ġhonor": 7452,
      "Ġmerch": 7453,
      "ĠServices": 7454,
      "Ġcarrying": 7455,
      "Ġranked": 7456,
      "Ġpanel": 7457,
      "Ġresistance": 7458,
      "Ġpods": 7459,
      "Ġfantasy": 7460,
      "osmos": 7461,
      "Ġwelcome": 7462,
      "Ġrepeatedly": 7463,
      "ĠNiC": 7464,
      "Ġtrigger": 7465,
      "Ġmanufacture": 7466,
      "Ġmorphine": 7467,
      "Ã³n": 7468,
      "Atlant": 7469,
      "Ġbaby": 7470,
      "ĠKorea": 7471,
      "ĠAcadem": 7472,
      "enhower": 7473,
      "Ġscholars": 7474,
      "Ġapproximately": 7475,
      "ĠAnthony": 7476,
      "ĠRoute": 7477,
      "ĠEisenhower": 7478,
      "Ġexhaust": 7479,
      "52": 7480,
      "98": 7481,
      "App": 7482,
      "CO": 7483,
      "EM": 7484,
      "Fi": 7485,
      "Our": 7486,
      "SL": 7487,
      "aft": 7488,
      "dd": 7489,
      "ease": 7490,
      "fire": 7491,
      "free": 7492,
      "ipl": 7493,
      "ja": 7494,
      "kin": 7495,
      "kal": 7496,
      "mad": 7497,
      "mir": 7498,
      "mod": 7499,
      "test": 7500,
      "tail": 7501,
      "writ": 7502,
      "woman": 7503,
      "words": 7504,
      "Èħ": 7505,
      "Ġaf": 7506,
      "Ġcere": 7507,
      "itudes": 7508,
      "ano": 7509,
      "isms": 7510,
      "Ġfashion": 7511,
      "Ġinevit": 7512,
      "Ġmort": 7513,
      "Ġmail": 7514,
      "Ġmusc": 7515,
      "icity": 7516,
      "ician": 7517,
      "Ġthrew": 7518,
      "lete": 7519,
      "oma": 7520,
      "Ġghost": 7521,
      "ĠIN": 7522,
      "ĠIowa": 7523,
      "ĠSearch": 7524,
      "otics": 7525,
      "ownt": 7526,
      "Ġstup": 7527,
      "Ġstats": 7528,
      "ĠMiam": 7529,
      "Ġhell": 7530,
      "ĠBan": 7531,
      "olph": 7532,
      "ĠWrit": 7533,
      "ĠHel": 7534,
      "Ġrain": 7535,
      "Ġrub": 7536,
      "ĠDue": 7537,
      "ĠDave": 7538,
      "ĠDoug": 7539,
      "ĠRA": 7540,
      "ĠFort": 7541,
      "ĠFord": 7542,
      "andal": 7543,
      "ĠNE": 7544,
      "ĠNon": 7545,
      "ĠLA": 7546,
      "rient": 7547,
      "ĠEr": 7548,
      "mented": 7549,
      "ackers": 7550,
      "Ġsharing": 7551,
      "Ġships": 7552,
      "Ġshares": 7553,
      "Ġchain": 7554,
      "enders": 7555,
      "ĠKong": 7556,
      "Ġcannabis": 7557,
      "ĠUk": 7558,
      "Ġdogs": 7559,
      "iere": 7560,
      "ĠThank": 7561,
      "izer": 7562,
      "Ġunemploy": 7563,
      "Ġmanner": 7564,
      "Ġ300": 7565,
      "Ġscream": 7566,
      "Ġprime": 7567,
      "elled": 7568,
      "Ġrecovery": 7569,
      "Ġworker": 7570,
      "Ġshell": 7571,
      "Ġrookie": 7572,
      "Ġcommits": 7573,
      "Ġ52": 7574,
      "Ġ41": 7575,
      "Ġ44": 7576,
      "Ġ49": 7577,
      "Ġserves": 7578,
      "Ġshouldn": 7579,
      "Ġgrap": 7580,
      "Ġbridge": 7581,
      "Ġacce": 7582,
      "ups": 7583,
      "Ġinterf": 7584,
      "Ġproviders": 7585,
      "Ġcolors": 7586,
      "ĠShare": 7587,
      "Ġrequests": 7588,
      "Ġchest": 7589,
      "ĠOracle": 7590,
      "Ġprotocol": 7591,
      "Ġdirected": 7592,
      "bohyd": 7593,
      "ĠZapp": 7594,
      "ĠZeal": 7595,
      "Ġpoliticians": 7596,
      "Ġpersonally": 7597,
      "ĠCorre": 7598,
      "ĠCorps": 7599,
      "Ġhumanity": 7600,
      "ĠConference": 7601,
      "ĠEmail": 7602,
      "ĠEmperor": 7603,
      "Ġequivalent": 7604,
      "Ġapproval": 7605,
      "ĠMinistry": 7606,
      "ĠMcK": 7607,
      "playing": 7608,
      "ĠHarper": 7609,
      "oids": 7610,
      "Ġsupervis": 7611,
      "Ġcouples": 7612,
      "ĠMusic": 7613,
      "Ġtourist": 7614,
      "Ġfootage": 7615,
      "Ġtargeted": 7616,
      "Ġcomplicated": 7617,
      "ĠHersey": 7618,
      "Ġgrounds": 7619,
      "Ġglobe": 7620,
      "Ġoptim": 7621,
      "Ġpackage": 7622,
      "Ġtowns": 7623,
      "ĠMedicare": 7624,
      "Ġtablet": 7625,
      "Ġrespectively": 7626,
      "Ġpolls": 7627,
      "Ġdietary": 7628,
      "rooms": 7629,
      "ĠSlav": 7630,
      "Ġconsistent": 7631,
      "ĠGetty": 7632,
      "Ġperfectly": 7633,
      "ĠPatrick": 7634,
      "ĠBrook": 7635,
      "hetic": 7636,
      "Ġmotor": 7637,
      "ĠLabor": 7638,
      "ĠLabour": 7639,
      "ĠOlympics": 7640,
      "Ġownership": 7641,
      "Ġprinciples": 7642,
      "Ġminority": 7643,
      "ĠFreedom": 7644,
      "Ġassessment": 7645,
      "Ġteachers": 7646,
      "ĠMarsh": 7647,
      "ĠâĨ": 7648,
      "Ġforgot": 7649,
      "Ġstructures": 7650,
      "ĠGarden": 7651,
      "Ġveteran": 7652,
      "Ġexercise": 7653,
      "ĠChildren": 7654,
      "ĠPremier": 7655,
      "ĠNeruda": 7656,
      "ĠAdministration": 7657,
      "Ġempty": 7658,
      "ĠSVG": 7659,
      "ĠCorrections": 7660,
      "Ġphenomen": 7661,
      "ĠHouston": 7662,
      "ĠZealand": 7663,
      "\")": 7664,
      "BN": 7665,
      "BO": 7666,
      "Belle": 7667,
      "Ds": 7668,
      "Gate": 7669,
      "KI": 7670,
      "UT": 7671,
      "base": 7672,
      "gly": 7673,
      "htt": 7674,
      "list": 7675,
      "mes": 7676,
      "mage": 7677,
      "oard": 7678,
      "tah": 7679,
      "zo": 7680,
      "Ġtack": 7681,
      "Ġtap": 7682,
      "heast": 7683,
      "erm": 7684,
      "Ġocean": 7685,
      "Ġcited": 7686,
      "itamin": 7687,
      "isters": 7688,
      "Ġbat": 7689,
      "Ġpure": 7690,
      "Ġporn": 7691,
      "aly": 7692,
      "alty": 7693,
      "Ġhyp": 7694,
      "Ġthin": 7695,
      "ĠTail": 7696,
      "ĠTech": 7697,
      "Ġnerv": 7698,
      "Ġrender": 7699,
      "Ġreaction": 7700,
      "Ġeating": 7701,
      "Ġgro": 7702,
      "Ġgang": 7703,
      "Ġgaming": 7704,
      "ĠSat": 7705,
      "ĠSud": 7706,
      "ĠCy": 7707,
      "Ġstorage": 7708,
      "ĠMS": 7709,
      "ĠMot": 7710,
      "ĠMuch": 7711,
      "ĠMyst": 7712,
      "urg": 7713,
      "Ġheat": 7714,
      "ĠBag": 7715,
      "oln": 7716,
      "ĠPay": 7717,
      "ĠWater": 7718,
      "ĠDie": 7719,
      "ĠDiet": 7720,
      "agers": 7721,
      "Ġatmosphere": 7722,
      "ĠRu": 7723,
      "Ġcomedy": 7724,
      "ĠFA": 7725,
      "ĠFem": 7726,
      "ĠGir": 7727,
      "ĠLew": 7728,
      "osystem": 7729,
      "ĠOpp": 7730,
      "Ġexists": 7731,
      "Ġexcess": 7732,
      "unicip": 7733,
      "ĠET": 7734,
      "Ġalter": 7735,
      "Ġsuc": 7736,
      "Ġcham": 7737,
      "Ġplastic": 7738,
      "ĠJason": 7739,
      "Ġsaving": 7740,
      "Ġabilities": 7741,
      "rous": 7742,
      "ĠStew": 7743,
      "iper": 7744,
      "Ġcontained": 7745,
      "Ġcomponent": 7746,
      "Ġevil": 7747,
      "Ġovert": 7748,
      "aven": 7749,
      "Ġpermission": 7750,
      "ĠVis": 7751,
      "Ġquiet": 7752,
      "amps": 7753,
      "Ġaccomp": 7754,
      "Ġattrib": 7755,
      "Ġroof": 7756,
      "Ġ55": 7757,
      "ternal": 7758,
      "Ġourselves": 7759,
      "ĠAndrew": 7760,
      "Ġremote": 7761,
      "Ġteammates": 7762,
      "Ġassists": 7763,
      "Ġbug": 7764,
      "ĠAlf": 7765,
      "ierce": 7766,
      "Ġenthus": 7767,
      "Ġweekly": 7768,
      "ĠRepresent": 7769,
      "Ġreporting": 7770,
      "hips": 7771,
      "Ġrefuge": 7772,
      "ĠSpring": 7773,
      "Ġexplan": 7774,
      "Ġeligible": 7775,
      "Ġparad": 7776,
      "Ġvariants": 7777,
      "Ġsolutions": 7778,
      "ĠGogh": 7779,
      "Ġconstant": 7780,
      "Ġconstitu": 7781,
      "Ġkinds": 7782,
      "who": 7783,
      "Ġcounsel": 7784,
      "Ġdelivery": 7785,
      "Ġarguing": 7786,
      "Ġmeetings": 7787,
      "interest": 7788,
      "Ġemployer": 7789,
      "Ġradiation": 7790,
      "Ġcollective": 7791,
      "Ġtaxp": 7792,
      "Ġstrip": 7793,
      "Ġcauses": 7794,
      "Ġinitially": 7795,
      "spec": 7796,
      "ĠDoes": 7797,
      "ĠInstagram": 7798,
      "ĠBoe": 7799,
      "Ġaccepted": 7800,
      "Ġparticipation": 7801,
      "Ġparticipate": 7802,
      "ĠJean": 7803,
      "Ġhistorically": 7804,
      "ascul": 7805,
      "burg": 7806,
      "Ġsmartphone": 7807,
      "Ġlawyers": 7808,
      "Ġracial": 7809,
      "ĠEgyptian": 7810,
      "ĠToronto": 7811,
      "Ġautomatically": 7812,
      "Ġuncertain": 7813,
      "Ġupgrade": 7814,
      "Ġdescription": 7815,
      "Ġwounded": 7816,
      "Ġbirds": 7817,
      "Ġchannel": 7818,
      "Ġcomparison": 7819,
      "Ġentertainment": 7820,
      "Ġathletes": 7821,
      "Ġcertific": 7822,
      "ĠSingh": 7823,
      "ĠOttawa": 7824,
      "Ġinnocent": 7825,
      "ĠComey": 7826,
      "ĠGlobal": 7827,
      "Ġoxygen": 7828,
      "Ġlambda": 7829,
      "Atlanta": 7830,
      "65": 7831,
      "72": 7832,
      "77": 7833,
      "afe": 7834,
      "bank": 7835,
      "bler": 7836,
      "dit": 7837,
      "from": 7838,
      "gn": 7839,
      "iy": 7840,
      "ker": 7841,
      "oes": 7842,
      "pic": 7843,
      "ras": 7844,
      "rating": 7845,
      "raries": 7846,
      "taining": 7847,
      "uable": 7848,
      "vin": 7849,
      "Ã¸": 7850,
      "Äģ": 7851,
      "Ġtie": 7852,
      "Ġtrib": 7853,
      "Ġtiny": 7854,
      "Ġsister": 7855,
      "itting": 7856,
      "oral": 7857,
      "eding": 7858,
      "esides": 7859,
      "Ġfi": 7860,
      "Ġpal": 7861,
      "Ġpitch": 7862,
      "Ġinaug": 7863,
      "Ġmine": 7864,
      "asure": 7865,
      "Ġhire": 7866,
      "Ġhole": 7867,
      "Ġda": 7868,
      "ĠTour": 7869,
      "rolled": 7870,
      "ĠIP": 7871,
      "ĠSant": 7872,
      "ĠSeth": 7873,
      "ĠAud": 7874,
      "ette": 7875,
      "ĠCode": 7876,
      "ĠCamer": 7877,
      "Ġugly": 7878,
      "ecraft": 7879,
      "Ġstable": 7880,
      "Ġstars": 7881,
      "ĠMV": 7882,
      "ĠMats": 7883,
      "irts": 7884,
      "ĠBob": 7885,
      "ĠBraz": 7886,
      "ĠPsych": 7887,
      "ĠHP": 7888,
      "ĠHol": 7889,
      "ĠHind": 7890,
      "ĠDL": 7891,
      "ĠDa": 7892,
      "ĠDur": 7893,
      "iform": 7894,
      "ĠRog": 7895,
      "hers": 7896,
      "ĠFive": 7897,
      "ĠNever": 7898,
      "ĠNAT": 7899,
      "thood": 7900,
      "ĠLE": 7901,
      "ĠLinc": 7902,
      "oded": 7903,
      "ework": 7904,
      "osa": 7905,
      "Ġvir": 7906,
      "Ġalgorith": 7907,
      "eland": 7908,
      "Ġchosen": 7909,
      "apolis": 7910,
      "Ġlets": 7911,
      "ĠJac": 7912,
      "Ġsaved": 7913,
      "Ġspr": 7914,
      "Ġspaces": 7915,
      "ĠKansas": 7916,
      "Ġouter": 7917,
      "iban": 7918,
      "Ġcomponents": 7919,
      "Ġevac": 7920,
      "owned": 7921,
      "ĠYoung": 7922,
      "Ġscope": 7923,
      "Ġtheme": 7924,
      "Ġdisrupt": 7925,
      "Ġquant": 7926,
      "Ġrepro": 7927,
      "Ġrecre": 7928,
      "ruption": 7929,
      "away": 7930,
      "icken": 7931,
      "Ġshel": 7932,
      "sels": 7933,
      "Ġwhereas": 7934,
      "ounced": 7935,
      "umped": 7936,
      "athy": 7937,
      "Ġassume": 7938,
      "Ġedges": 7939,
      "uests": 7940,
      "ĠLeach": 7941,
      "Ġinsisted": 7942,
      "Ġoffices": 7943,
      "Ġcruc": 7944,
      "Ġdrone": 7945,
      "ĠArch": 7946,
      "Ġretire": 7947,
      "ĠIndex": 7948,
      "Ġrefere": 7949,
      "duces": 7950,
      "Ġcontinu": 7951,
      "athers": 7952,
      "Ġpoly": 7953,
      "ĠOrder": 7954,
      "they": 7955,
      "Ġmarked": 7956,
      "Ġbusy": 7957,
      "Ġelected": 7958,
      "Ġdepth": 7959,
      "Ġmovies": 7960,
      "Ġprocesses": 7961,
      "Ġtechnical": 7962,
      "Ġpatches": 7963,
      "Ġpromise": 7964,
      "Ġpromised": 7965,
      "Ġimportantly": 7966,
      "aturally": 7967,
      "Ġequally": 7968,
      "Ġveget": 7969,
      "ĠMcG": 7970,
      "Ġorganized": 7971,
      "Ġchoices": 7972,
      "Ġcounts": 7973,
      "mony": 7974,
      "Ġdebut": 7975,
      "Ġinvolving": 7976,
      "Ġcops": 7977,
      "Ġlibrary": 7978,
      "Ġtrees": 7979,
      "Ġphotograph": 7980,
      "Ġpublishing": 7981,
      "Ġtypical": 7982,
      "ĠISRO": 7983,
      "evin": 7984,
      "Ġcircle": 7985,
      "Ġindicate": 7986,
      "Ġindicates": 7987,
      "ĠCharles": 7988,
      "Ġlayout": 7989,
      "Ġsuspected": 7990,
      "Ġstruggling": 7991,
      "Ġdefinition": 7992,
      "Ġheroes": 7993,
      "Ġharass": 7994,
      "liest": 7995,
      "Ġsurviv": 7996,
      "Ġearthqu": 7997,
      "ĠBuilding": 7998,
      "Ġcommunications": 7999,
      "Ġprecise": 8000,
      "Ġpremium": 8001,
      "Ġdefendant": 8002,
      "Ġepisodes": 8003,
      "Ġracist": 8004,
      "ĠJackson": 8005,
      "iciency": 8006,
      "Ġshopping": 8007,
      "ĠDesign": 8008,
      "Ġadvocates": 8009,
      "ĠUsing": 8010,
      "ĠColumbus": 8011,
      "ĠGolden": 8012,
      "ihad": 8013,
      "Ġcategory": 8014,
      "ĠMelbour": 8015,
      "Ġgranted": 8016,
      "Ġ>>>": 8017,
      "Ġrestaurant": 8018,
      "Ġconstitutional": 8019,
      "ĠVictor": 8020,
      "Ġcoalition": 8021,
      "ĠChancellor": 8022,
      "Ġbrilliant": 8023,
      "ĠKickstarter": 8024,
      "Ġbasketball": 8025,
      "ĠMiami": 8026,
      "bohydrate": 8027,
      "Ġnervous": 8028,
      "ĠLincoln": 8029,
      "ĠMelbourne": 8030,
      ")âĢĶ": 8031,
      "69": 8032,
      "800": 8033,
      "Box": 8034,
      "How": 8035,
      "Oh": 8036,
      "PC": 8037,
      "Town": 8038,
      "WE": 8039,
      "col": 8040,
      "care": 8041,
      "date": 8042,
      "iot": 8043,
      "ked": 8044,
      "lad": 8045,
      "lock": 8046,
      "lah": 8047,
      "met": 8048,
      "nell": 8049,
      "oen": 8050,
      "overs": 8051,
      "pack": 8052,
      "src": 8053,
      "uros": 8054,
      "uzz": 8055,
      "ye": 8056,
      "zed": 8057,
      "Äį": 8058,
      "Ġsam": 8059,
      "Ġcab": 8060,
      "Ġcust": 8061,
      "Ġbath": 8062,
      "orge": 8063,
      "Ġfold": 8064,
      "Ġfighters": 8065,
      "Ġpose": 8066,
      "Ġpounds": 8067,
      "Ġpapers": 8068,
      "arat": 8069,
      "Ġtoler": 8070,
      "Ġmales": 8071,
      "asp": 8072,
      "Ġhiring": 8073,
      "Ġdiverse": 8074,
      "Ġdownt": 8075,
      "ĠTower": 8076,
      "ĠTai": 8077,
      "Ġlists": 8078,
      "Ġlights": 8079,
      "Ġlift": 8080,
      "Ġreef": 8081,
      "Ġrewards": 8082,
      "idad": 8083,
      "Ġgod": 8084,
      "Ġbear": 8085,
      "ĠIll": 8086,
      "ĠIron": 8087,
      "aco": 8088,
      "ĠSom": 8089,
      "ĠSaf": 8090,
      "aya": 8091,
      "igue": 8092,
      "ĠCS": 8093,
      "Ġstolen": 8094,
      "ĠMah": 8095,
      "ĠMumb": 8096,
      "ĠBul": 8097,
      "ĠBand": 8098,
      "ĠBoy": 8099,
      "ĠBudget": 8100,
      "olk": 8101,
      "ĠPy": 8102,
      "ndle": 8103,
      "ĠWay": 8104,
      "ĠWalker": 8105,
      "ĠHyd": 8106,
      "ĠDown": 8107,
      "ĠRacing": 8108,
      "ushed": 8109,
      "ĠNorm": 8110,
      "opard": 8111,
      "ĠLater": 8112,
      "ĠLiu": 8113,
      "rior": 8114,
      "ĠvÈ": 8115,
      "Ġvend": 8116,
      "ĠOak": 8117,
      "ĠOnt": 8118,
      "Ġshirt": 8119,
      "elines": 8120,
      "orton": 8121,
      "asty": 8122,
      "Ġjoke": 8123,
      "ĠKelly": 8124,
      "ĠKevin": 8125,
      "ĠUnt": 8126,
      "Ġintens": 8127,
      "ieval": 8128,
      "Ġouts": 8129,
      "Ġadvert": 8130,
      "ibilities": 8131,
      "Ġcompat": 8132,
      "Ġcomprom": 8133,
      "Ġunw": 8134,
      "Ġtex": 8135,
      "Ġevolution": 8136,
      "Ġpeak": 8137,
      "ressed": 8138,
      "ĠVen": 8139,
      "ĠVisa": 8140,
      "Ġdispl": 8141,
      "Ġtwenty": 8142,
      "Ġreposit": 8143,
      "Ġpartly": 8144,
      "Ġ58": 8145,
      "ften": 8146,
      "Ġexposed": 8147,
      "ĠUnfortunately": 8148,
      "Ġgameplay": 8149,
      "Ġbridges": 8150,
      "These": 8151,
      "Ġefficient": 8152,
      "Ġsetup": 8153,
      "Ġbelt": 8154,
      "Ġphil": 8155,
      "Ġdiscovery": 8156,
      "Ġsigning": 8157,
      "Ġstudied": 8158,
      "Ġdrama": 8159,
      "jection": 8160,
      "Ġmodified": 8161,
      "Ġrealized": 8162,
      "ĠBlake": 8163,
      "Ġextract": 8164,
      "Ġcenters": 8165,
      "Ġhandful": 8166,
      "Ġdemands": 8167,
      "Ġmargin": 8168,
      "Ġpolitically": 8169,
      "mega": 8170,
      "Ġcareful": 8171,
      "Ġtries": 8172,
      "Ġspeaks": 8173,
      "Ġelectronic": 8174,
      "Ġideal": 8175,
      "Ġposting": 8176,
      "Ġelite": 8177,
      "Ġparliament": 8178,
      "Ġprocessing": 8179,
      "Ġvisa": 8180,
      "Ġbills": 8181,
      "Ġviewed": 8182,
      "iscal": 8183,
      "Ġclasses": 8184,
      "Ġthreatened": 8185,
      "Ġaccessible": 8186,
      "Ġchoosing": 8187,
      "Ġarguments": 8188,
      "Ġcreative": 8189,
      "Ġcopies": 8190,
      "Ġlimits": 8191,
      "Ġdiscussing": 8192,
      "Ġimproving": 8193,
      "Ġraising": 8194,
      "Ġdestruction": 8195,
      "Ġfields": 8196,
      "Ġbanned": 8197,
      "Ġjudicial": 8198,
      "ĠParagon": 8199,
      "Ġhosting": 8200,
      "Ġsituations": 8201,
      "Ġstatistics": 8202,
      "Ġcustomer": 8203,
      "Ġaddressed": 8204,
      "Ġcomputers": 8205,
      "Ġsuffer": 8206,
      "Ġrespondents": 8207,
      "Ġtemporary": 8208,
      "ĠMoham": 8209,
      "Ġstayed": 8210,
      "Ġdemanded": 8211,
      "Ġcriticized": 8212,
      "Ġportal": 8213,
      "Ġfitness": 8214,
      "Ġlabel": 8215,
      "Ġhasht": 8216,
      "Ġtouchdown": 8217,
      "ĠQuest": 8218,
      "Ġwondering": 8219,
      "Ġbatteries": 8220,
      "Ġsections": 8221,
      "Ġawful": 8222,
      "Ġscenario": 8223,
      "Ġrestrictions": 8224,
      "Ġprinciple": 8225,
      "ĠSolar": 8226,
      "Ġmistake": 8227,
      "ĠEvans": 8228,
      "Ġsharp": 8229,
      "Ġestablishment": 8230,
      "Ġodd": 8231,
      "ĠItalian": 8232,
      "Ġridic": 8233,
      "Ġsomewhat": 8234,
      "Ġdramatic": 8235,
      "Ġanonymity": 8236,
      "ĠMurray": 8237,
      "Ġcontroversial": 8238,
      "ĠAhmed": 8239,
      "ĠSpecial": 8240,
      "Ġbeliefs": 8241,
      "Ġcircumstances": 8242,
      "ĠStephen": 8243,
      "ĠHugo": 8244,
      "Ġvulnerable": 8245,
      "Ġmoderate": 8246,
      "piracy": 8247,
      "Ġincorpor": 8248,
      "Ġstupid": 8249,
      "ĠUkraine": 8250,
      "Ġgraphene": 8251,
      "ĠMumbai": 8252,
      "53": 8253,
      "76": 8254,
      "DC": 8255,
      "Gen": 8256,
      "HA": 8257,
      "IL": 8258,
      "Pro": 8259,
      "RR": 8260,
      "bro": 8261,
      "bell": 8262,
      "born": 8263,
      "dney": 8264,
      "fast": 8265,
      "greg": 8266,
      "iop": 8267,
      "iences": 8268,
      "iability": 8269,
      "lan": 8270,
      "las": 8271,
      "mat": 8272,
      "mble": 8273,
      "ta": 8274,
      "wor": 8275,
      "yo": 8276,
      "Ġiron": 8277,
      "Ġties": 8278,
      "rev": 8279,
      "Ġtheat": 8280,
      "Ġsin": 8281,
      "eness": 8282,
      "enner": 8283,
      "Ġcod": 8284,
      "isan": 8285,
      "Ġbag": 8286,
      "Ġboot": 8287,
      "organ": 8288,
      "Ġfake": 8289,
      "Ġfault": 8290,
      "Ġpin": 8291,
      "Ġpir": 8292,
      "Ġanger": 8293,
      "oured": 8294,
      "Ġmal": 8295,
      "Ġmount": 8296,
      "Ġmunicip": 8297,
      "Ġhide": 8298,
      "Ġhits": 8299,
      "Ġdub": 8300,
      "omy": 8301,
      "ĠTed": 8302,
      "ĠTony": 8303,
      "Ġloud": 8304,
      "Ġnan": 8305,
      "Ġreplay": 8306,
      "stone": 8307,
      "Ġeast": 8308,
      "Ġgate": 8309,
      "ĠAgency": 8310,
      "amon": 8311,
      "amily": 8312,
      "eters": 8313,
      "ads": 8314,
      "aders": 8315,
      "ĠCle": 8316,
      "Ġyield": 8317,
      "Ġitem": 8318,
      "ĠBM": 8319,
      "ĠBron": 8320,
      "ĠBrian": 8321,
      "ĠPoints": 8322,
      "ĠWel": 8323,
      "ĠHit": 8324,
      "ĠHong": 8325,
      "ĠâĢĿ": 8326,
      "Ġranks": 8327,
      "ĠDor": 8328,
      "ĠDream": 8329,
      "ĠRight": 8330,
      "Ġproven": 8331,
      "ĠFu": 8332,
      "ĠFred": 8333,
      "ĠFair": 8334,
      "ĠFBI": 8335,
      "Ġfraud": 8336,
      "ĠNO": 8337,
      "ĠNation": 8338,
      "ĠNorthern": 8339,
      "Ġ($": 8340,
      "ĠGPS": 8341,
      "ĠLarry": 8342,
      "ria": 8343,
      "Ġvent": 8344,
      "Ġvow": 8345,
      "Ġnotion": 8346,
      "ĠEqu": 8347,
      "Ġalph": 8348,
      "acker": 8349,
      "elve": 8350,
      "ellect": 8351,
      "Ġplate": 8352,
      "Ġtrick": 8353,
      "ĠKhan": 8354,
      "Ġalloy": 8355,
      "ĠThus": 8356,
      "Ġneur": 8357,
      "Ġupset": 8358,
      "Ġusage": 8359,
      "Ġcontemporary": 8360,
      "Ġclosing": 8361,
      "ointing": 8362,
      "Ġuncom": 8363,
      "Ġteens": 8364,
      "ĠYas": 8365,
      "Ġblast": 8366,
      "ĠVice": 8367,
      "ĠVern": 8368,
      "ĠVideo": 8369,
      "Ġdisease": 8370,
      "Ġpron": 8371,
      "Ġrecon": 8372,
      "Ġ53": 8373,
      "Ġ54": 8374,
      "Ġservers": 8375,
      "wered": 8376,
      "Ġdefault": 8377,
      "encing": 8378,
      "athon": 8379,
      "Ġregister": 8380,
      "gray": 8381,
      "Ġassigned": 8382,
      "Ġkeys": 8383,
      "Ġsurger": 8384,
      "Ġterr": 8385,
      "ĠLegs": 8386,
      "Ġphase": 8387,
      "tenance": 8388,
      "ĠClancy": 8389,
      "ernand": 8390,
      "ĠShar": 8391,
      "Ġguide": 8392,
      "Ġretired": 8393,
      "ĠBlock": 8394,
      "Ġcentre": 8395,
      "ĠSpan": 8396,
      "Ġgenerated": 8397,
      "cession": 8398,
      "Ġwarrant": 8399,
      "Ġbreaking": 8400,
      "ĠBeach": 8401,
      "Ġvisited": 8402,
      "Ġmissions": 8403,
      "Ġvaluable": 8404,
      "Ġfunctions": 8405,
      "Ġpromising": 8406,
      "incinn": 8407,
      "ĠAmendment": 8408,
      "Ġlanded": 8409,
      "Ġdriven": 8410,
      "Ġpropag": 8411,
      "ĠMinnes": 8412,
      "Ġfunded": 8413,
      "Ġcovering": 8414,
      "month": 8415,
      "ĠHarry": 8416,
      "Ġinvestigate": 8417,
      "Ġinvolves": 8418,
      "Ġmarketing": 8419,
      "Ġphotograp": 8420,
      "ynch": 8421,
      "ĠiP": 8422,
      "Ġdomain": 8423,
      "Ġcheckpoints": 8424,
      "ĠDoctor": 8425,
      "Ġattempting": 8426,
      "useum": 8427,
      "Ġrepresented": 8428,
      "Ġreplaced": 8429,
      "Ġnominated": 8430,
      "Ġroads": 8431,
      "Ġcyc": 8432,
      "ĠIndianapolis": 8433,
      "holders": 8434,
      "Ġimmigrants": 8435,
      "Ġimmediate": 8436,
      "Ġimprovement": 8437,
      "Ġcitizen": 8438,
      "Ġconversations": 8439,
      "Ġcontacted": 8440,
      "Ġfears": 8441,
      "Ġtenure": 8442,
      "Ġturb": 8443,
      "ĠPakistani": 8444,
      "Ġmeaningful": 8445,
      "ĠArabia": 8446,
      "Ġreferring": 8447,
      "ĠSociety": 8448,
      "Ġattractive": 8449,
      "ĠSpeed": 8450,
      "ĠDigimon": 8451,
      "Ġbrothers": 8452,
      "alloween": 8453,
      "Ġpatterns": 8454,
      "Ġweakness": 8455,
      "ĠRTS": 8456,
      "Ġprinted": 8457,
      "Ġecosystem": 8458,
      "Ġgalaxy": 8459,
      "ĠBernard": 8460,
      "Ġguaranteed": 8461,
      "ĠBangal": 8462,
      "Ġaggressive": 8463,
      "ĠVirtualBox": 8464,
      "ĠDucati": 8465,
      "Ġacademic": 8466,
      "Ġbrutal": 8467,
      "Ġsubsequent": 8468,
      "Ġoverwhelming": 8469,
      "Ġtactics": 8470,
      "ĠSarah": 8471,
      "Ġbehaviour": 8472,
      "Ġsatellite": 8473,
      "ĠCougars": 8474,
      "ĠTaliban": 8475,
      "between": 8476,
      "Ġunderstood": 8477,
      "Ġaspects": 8478,
      "ĠEnergy": 8479,
      "ĠBoeing": 8480,
      "ĠBrazil": 8481,
      "ĠNATO": 8482,
      "Ġearthquake": 8483,
      "incinnati": 8484,
      "ĠMinnesota": 8485,
      "%.": 8486,
      "64": 8487,
      "79": 8488,
      "Ar": 8489,
      "EF": 8490,
      "Image": 8491,
      "Mon": 8492,
      "One": 8493,
      "Sc": 8494,
      "aver": 8495,
      "cat": 8496,
      "cor": 8497,
      "door": 8498,
      "flow": 8499,
      "friend": 8500,
      "iro": 8501,
      "iens": 8502,
      "lay": 8503,
      "lvan": 8504,
      "mond": 8505,
      "oil": 8506,
      "person": 8507,
      "pool": 8508,
      "rm": 8509,
      "rad": 8510,
      "rust": 8511,
      "rine": 8512,
      "such": 8513,
      "vy": 8514,
      "zone": 8515,
      "ref": 8516,
      "rehens": 8517,
      "Ġsoul": 8518,
      "Ġwage": 8519,
      "Ġwake": 8520,
      "Ġwave": 8521,
      "Ġcous": 8522,
      "itled": 8523,
      "itarian": 8524,
      "Ġbot": 8525,
      "Ġborrow": 8526,
      "Ġfle": 8527,
      "Ġfro": 8528,
      "Ġfought": 8529,
      "Ġfounder": 8530,
      "Ġfolks": 8531,
      "ouri": 8532,
      "Ġtoxic": 8533,
      "Ġinqu": 8534,
      "Ġmath": 8535,
      "Ġmigr": 8536,
      "Ġmascul": 8537,
      "Ġhang": 8538,
      "Ġdict": 8539,
      "Ġthrown": 8540,
      "omed": 8541,
      "ĠTa": 8542,
      "ĠTrib": 8543,
      "Ġlaid": 8544,
      "Ġreign": 8545,
      "Ġreaching": 8546,
      "sters": 8547,
      "Ġecho": 8548,
      "Ġgrown": 8549,
      "ĠSon": 8550,
      "ĠSas": 8551,
      "ĠSock": 8552,
      "ĠSever": 8553,
      "ĠSelf": 8554,
      "ĠAL": 8555,
      "ĠAR": 8556,
      "ĠAuthor": 8557,
      "ĠCO": 8558,
      "ĠCR": 8559,
      "ĠCreat": 8560,
      "ĠCRI": 8561,
      "ĠCyr": 8562,
      "ĠCopy": 8563,
      "Ġforum": 8564,
      "Ġstadium": 8565,
      "ĠMatch": 8566,
      "ĠBam": 8567,
      "ĠBest": 8568,
      "oli": 8569,
      "olve": 8570,
      "Ġasks": 8571,
      "Ġweigh": 8572,
      "ĠPA": 8573,
      "ĠHyper": 8574,
      "ĠâĢķ": 8575,
      "Ġraw": 8576,
      "ĠDN": 8577,
      "ĠDod": 8578,
      "ĠDru": 8579,
      "ĠData": 8580,
      "ĠDeb": 8581,
      "agger": 8582,
      "emic": 8583,
      "Ġcomic": 8584,
      "ĠFat": 8585,
      "ĠFant": 8586,
      "ĠFind": 8587,
      "ĠFood": 8588,
      "ĠGary": 8589,
      "ĠGiven": 8590,
      "isting": 8591,
      "istically": 8592,
      "Ġsevent": 8593,
      "Ġvary": 8594,
      "ĠOper": 8595,
      "ĠOuya": 8596,
      "ĠEls": 8597,
      "quarters": 8598,
      "ĠJets": 8599,
      "ĠJones": 8600,
      "ĠJava": 8601,
      "Ġworried": 8602,
      "Ġjer": 8603,
      "Ġjury": 8604,
      "ĠKat": 8605,
      "Ġwheel": 8606,
      "ĠThings": 8607,
      "Ġadap": 8608,
      "Ġmeat": 8609,
      "Ġcompare": 8610,
      "Ġunp": 8611,
      "Ġuniform": 8612,
      "ĠChairman": 8613,
      "Ġblow": 8614,
      "ĠVill": 8615,
      "ĠView": 8616,
      "ormous": 8617,
      "Ġreporter": 8618,
      "Ġattended": 8619,
      "Ġcommander": 8620,
      "Ġbacked": 8621,
      "Ġunderground": 8622,
      "Ġcoaches": 8623,
      "Ġsuppl": 8624,
      "ĠUns": 8625,
      "umph": 8626,
      "Ġeverywhere": 8627,
      "Ġdiffer": 8628,
      "ificial": 8629,
      "Ġrelief": 8630,
      "Ġreliable": 8631,
      "Ġcharts": 8632,
      "ologists": 8633,
      "ĠAlaska": 8634,
      "Ġowned": 8635,
      "ierre": 8636,
      "ĠLeader": 8637,
      "century": 8638,
      "Ġkills": 8639,
      "Ġ64": 8640,
      "lands": 8641,
      "ĠFront": 8642,
      "Ġdistricts": 8643,
      "Ġextended": 8644,
      "ieties": 8645,
      "Ġrequiring": 8646,
      "Ġexploration": 8647,
      "Ġhandling": 8648,
      "Ġ02": 8649,
      "print": 8650,
      "Ġpersonality": 8651,
      "rently": 8652,
      "ĠProject": 8653,
      "Ġeastern": 8654,
      "raph": 8655,
      "ĠPlus": 8656,
      "itched": 8657,
      "ĠScot": 8658,
      "Ġprofile": 8659,
      "Ġfunny": 8660,
      "Ġversus": 8661,
      "ĠGray": 8662,
      "Ġaffil": 8663,
      "Ġlands": 8664,
      "Ġdrivers": 8665,
      "ervative": 8666,
      "Ġestate": 8667,
      "ĠWithout": 8668,
      "Ġargues": 8669,
      "ĠSydney": 8670,
      "feit": 8671,
      "Ġ1999": 8672,
      "Ġlibraries": 8673,
      "Ġsuperhero": 8674,
      "isticated": 8675,
      "arenthood": 8676,
      "amerGate": 8677,
      "Ġcoup": 8678,
      "Ġbench": 8679,
      "Ġassistance": 8680,
      "Ġconsumers": 8681,
      "Ġstriking": 8682,
      "Ġexistence": 8683,
      "Ġcomplaints": 8684,
      "ĠMonten": 8685,
      "ĠCooper": 8686,
      "Ġclubs": 8687,
      "Ġsufficient": 8688,
      "Ġperiods": 8689,
      "Ġcontrad": 8690,
      "Ġcontracts": 8691,
      "ĠPlayer": 8692,
      "Ġpulling": 8693,
      "Ġprogressive": 8694,
      "Ġdemanding": 8695,
      "Ġcollaps": 8696,
      "riminal": 8697,
      "EST": 8698,
      "Ġnationwide": 8699,
      "Ġdivision": 8700,
      "Ġengineering": 8701,
      "Ġenjoyed": 8702,
      "Ġurged": 8703,
      "Ġregardless": 8704,
      "Ġrepeat": 8705,
      "Ġdialect": 8706,
      "Ġimplemented": 8707,
      "ĠArabic": 8708,
      "ĠBooks": 8709,
      "Ġpictures": 8710,
      "ĠJersey": 8711,
      "Ġmotiv": 8712,
      "ĠSimilar": 8713,
      "ORE": 8714,
      "Ġqualified": 8715,
      "Ġtickets": 8716,
      "ĠStrong": 8717,
      "UST": 8718,
      "Ġhackers": 8719,
      "ĠKoh": 8720,
      "Ġaimed": 8721,
      "Ġvehicles": 8722,
      "speople": 8723,
      "Ġdimin": 8724,
      "ĠRomney": 8725,
      "twitter": 8726,
      "Ġclinic": 8727,
      "ĠESPN": 8728,
      "Ġsweet": 8729,
      "ĠAPI": 8730,
      "Ġplayoffs": 8731,
      "Ġtemperature": 8732,
      "Ġconcluded": 8733,
      "ĠTurkmenistan": 8734,
      "Objects": 8735,
      "ĠSummer": 8736,
      "Ġconclusion": 8737,
      "Ġdominant": 8738,
      "Ġdatab": 8739,
      "ĠGriffith": 8740,
      "ĠKirby": 8741,
      "ĠJoseph": 8742,
      "ĠWashU": 8743,
      "ĠHenry": 8744,
      "ĠHunter": 8745,
      "Ġvirtually": 8746,
      "Ġsucceed": 8747,
      "Townspeople": 8748,
      "Ġcustody": 8749,
      "ĠTaiwan": 8750,
      "ĠUntil": 8751,
      "!)": 8752,
      "',": 8753,
      ".âĢľ": 8754,
      "08": 8755,
      "400": 8756,
      "81": 8757,
      "92": 8758,
      "An": 8759,
      "CT": 8760,
      "New": 8761,
      "eff": 8762,
      "hu": 8763,
      "kavian": 8764,
      "lsea": 8765,
      "maker": 8766,
      "nic": 8767,
      "nam": 8768,
      "press": 8769,
      "rass": 8770,
      "sm": 8771,
      "Ã¢": 8772,
      "Ã§": 8773,
      "ãĥ": 8774,
      "Ġax": 8775,
      "hether": 8776,
      "inf": 8777,
      "inem": 8778,
      "err": 8779,
      "erves": 8780,
      "Ġwww": 8781,
      "Ġwalls": 8782,
      "Ġough": 8783,
      "Ġciting": 8784,
      "isy": 8785,
      "Ġbones": 8786,
      "orce": 8787,
      "eda": 8788,
      "esla": 8789,
      "Ġfed": 8790,
      "Ġfights": 8791,
      "armed": 8792,
      "Ġmall": 8793,
      "Ġmile": 8794,
      "Ġmotion": 8795,
      "Ġmountain": 8796,
      "asks": 8797,
      "asters": 8798,
      "Ġhier": 8799,
      "Ġhyper": 8800,
      "Ġdu": 8801,
      "Ġdust": 8802,
      "icer": 8803,
      "ĠTIM": 8804,
      "ĠTesla": 8805,
      "Ġlapt": 8806,
      "idal": 8807,
      "Ġgather": 8808,
      "ĠSaint": 8809,
      "ĠSagan": 8810,
      "ĠAle": 8811,
      "amers": 8812,
      "ĠCow": 8813,
      "ĠCra": 8814,
      "ĠCoin": 8815,
      "Ġstem": 8816,
      "Ġsteal": 8817,
      "ĠMP": 8818,
      "ĠMall": 8819,
      "urren": 8820,
      "ĠBull": 8821,
      "Ġasc": 8822,
      "ĠPers": 8823,
      "ĠPinterest": 8824,
      "ĠParenthood": 8825,
      "ĠWade": 8826,
      "ĠHon": 8827,
      "ĠHard": 8828,
      "ĠHalloween": 8829,
      "ĠDu": 8830,
      "ĠRome": 8831,
      "ĠRPG": 8832,
      "Ġproceed": 8833,
      "ĠField": 8834,
      "oret": 8835,
      "Ġfruit": 8836,
      "ĠNob": 8837,
      "ĠNBA": 8838,
      "ĠNutr": 8839,
      "ĠGil": 8840,
      "ĠGaming": 8841,
      "opher": 8842,
      "oples": 8843,
      "ĠLor": 8844,
      "ĠLord": 8845,
      "riv": 8846,
      "ĠOmega": 8847,
      "ĠEnd": 8848,
      "Ġalco": 8849,
      "Ġalkal": 8850,
      "Ġsugar": 8851,
      "Ġshall": 8852,
      "Ġshallow": 8853,
      "Ġchair": 8854,
      "Ġplacing": 8855,
      "Ġaboard": 8856,
      "udge": 8857,
      "Ġspin": 8858,
      "Ġjunior": 8859,
      "Ġintellect": 8860,
      "raid": 8861,
      "Ġclar": 8862,
      "Ġclimb": 8863,
      "aceans": 8864,
      "Ġenh": 8865,
      "Ġenable": 8866,
      "Ġenormous": 8867,
      "ĠChat": 8868,
      "Ġpermits": 8869,
      "angel": 8870,
      "ucks": 8871,
      "ampire": 8872,
      "Ġknife": 8873,
      "Ġattached": 8874,
      "orsal": 8875,
      "Ġamounts": 8876,
      "ĠWhit": 8877,
      "ĠWhich": 8878,
      "Ġexposure": 8879,
      "ĠAndre": 8880,
      "Ġflag": 8881,
      "Ġemotion": 8882,
      "Ġindeed": 8883,
      "Ġaddiction": 8884,
      "Ġshoulder": 8885,
      "Ġbuying": 8886,
      "arsh": 8887,
      "Ġacts": 8888,
      "Ġphones": 8889,
      "Ġstring": 8890,
      "Ġgoods": 8891,
      "azor": 8892,
      "Ġstudio": 8893,
      "Ġinstitution": 8894,
      "ools": 8895,
      "ĠAdvent": 8896,
      "Ġ800": 8897,
      "ugos": 8898,
      "there": 8899,
      "ralis": 8900,
      "ĠSeattle": 8901,
      "ĠCorpor": 8902,
      "Ġparam": 8903,
      "ronics": 8904,
      "Ġlistening": 8905,
      "ĠPhys": 8906,
      "Ġappearances": 8907,
      "Ġmilitants": 8908,
      "Ġconstruct": 8909,
      "Ġoperators": 8910,
      "ĠMarc": 8911,
      "Ġequality": 8912,
      "Ġswing": 8913,
      "shire": 8914,
      "ĠDeath": 8915,
      "ĠMint": 8916,
      "ĠManager": 8917,
      "Ġ1997": 8918,
      "Ġbarrier": 8919,
      "Ġfails": 8920,
      "sylvan": 8921,
      "Ġcommitment": 8922,
      "backs": 8923,
      "Ġvolunt": 8924,
      "Ġconsumed": 8925,
      "ĠAbu": 8926,
      "Ġstrikes": 8927,
      "ĠDavis": 8928,
      "ĠSwift": 8929,
      "Ġanticip": 8930,
      "Ġjoint": 8931,
      "Ġdifficulty": 8932,
      "Ġfalls": 8933,
      "Ġsteel": 8934,
      "Ġsenators": 8935,
      "Ġauto": 8936,
      "ĠEarlier": 8937,
      "Ġpopularity": 8938,
      "ĠOfficial": 8939,
      "ĠCoast": 8940,
      "Ġinterviews": 8941,
      "Ġrepresentative": 8942,
      "Ġrepresentatives": 8943,
      "ĠChelsea": 8944,
      "Ġlayers": 8945,
      "Ġordin": 8946,
      "ĠIndiana": 8947,
      "Ġsuspects": 8948,
      "Ġcalm": 8949,
      "Ġtitles": 8950,
      "Ġfriendly": 8951,
      "ĠPosts": 8952,
      "ĠSteven": 8953,
      "Ġextraord": 8954,
      "Ġsympt": 8955,
      "Ġdiets": 8956,
      "ĠLibya": 8957,
      "ĠOverall": 8958,
      "Ġreduction": 8959,
      "Ġscores": 8960,
      "Ġpriority": 8961,
      "Ġdispute": 8962,
      "Ġfunctional": 8963,
      "Ġimplementation": 8964,
      "Ġjournalist": 8965,
      "Ġescape": 8966,
      "Ġencouraged": 8967,
      "Ġattracted": 8968,
      "Ġlaunching": 8969,
      "Ġlocked": 8970,
      "ĠGalaxy": 8971,
      "Ġunfair": 8972,
      "Ġawesome": 8973,
      "ĠMaryland": 8974,
      "Ġbulk": 8975,
      "ĠKoch": 8976,
      "ĠIncred": 8977,
      "ĠHamas": 8978,
      "Ġconcepts": 8979,
      "Ġbleaching": 8980,
      "ĠItaly": 8981,
      "anchester": 8982,
      "Ġcategories": 8983,
      "ĠWinter": 8984,
      "Ġgraphics": 8985,
      "Ġadviser": 8986,
      "ĠMemorial": 8987,
      "RGC": 8988,
      "Ġcrops": 8989,
      "Ġconventional": 8990,
      "Ġshifts": 8991,
      "Ġclothes": 8992,
      "represent": 8993,
      "Ġincredibly": 8994,
      "ĠQueen": 8995,
      "ĠJonathan": 8996,
      "Ġpipeline": 8997,
      "Ġdisagree": 8998,
      "Ġprocedure": 8999,
      "ĠPennsylvan": 9000,
      "Ġoccasions": 9001,
      "LOCK": 9002,
      "Ġlesbian": 9003,
      "ĠMassach": 9004,
      "Ġgenetically": 9005,
      "Ġlegitimate": 9006,
      "ĠSquare": 9007,
      "Ġincentive": 9008,
      "American": 9009,
      "Ġsecrets": 9010,
      "Ġacceler": 9011,
      "ĠâĨĳ": 9012,
      "ĠLewis": 9013,
      "Ġtexts": 9014,
      "ĠYasova": 9015,
      "ĠVernon": 9016,
      "Ġought": 9017,
      "63": 9018,
      "66": 9019,
      "700": 9020,
      "83": 9021,
      "94": 9022,
      "Ad": 9023,
      "All": 9024,
      "Can": 9025,
      "Coin": 9026,
      "Cosmos": 9027,
      "after": 9028,
      "bal": 9029,
      "bow": 9030,
      "case": 9031,
      "dig": 9032,
      "def": 9033,
      "eon": 9034,
      "fall": 9035,
      "ht": 9036,
      "iating": 9037,
      "kay": 9038,
      "ktop": 9039,
      "oa": 9040,
      "oz": 9041,
      "py": 9042,
      "rat": 9043,
      "tes": 9044,
      "tions": 9045,
      "vard": 9046,
      "you": 9047,
      "zens": 9048,
      "Å¾": 9049,
      "Ġes": 9050,
      "inidad": 9051,
      "Ġsons": 9052,
      "Ġsorry": 9053,
      "Ġwra": 9054,
      "Ġwire": 9055,
      "anika": 9056,
      "Ġbeds": 9057,
      "Ġbunch": 9058,
      "Ġferal": 9059,
      "Ġpit": 9060,
      "arms": 9061,
      "arians": 9062,
      "Ġtower": 9063,
      "asant": 9064,
      "Ġdad": 9065,
      "icent": 9066,
      "Ġthorough": 9067,
      "omon": 9068,
      "Ġluck": 9069,
      "Ġrevers": 9070,
      "sts": 9071,
      "style": 9072,
      "rogen": 9073,
      "Ġease": 9074,
      "Ġbears": 9075,
      "ĠIce": 9076,
      "ĠIRGC": 9077,
      "ĠSab": 9078,
      "uter": 9079,
      "etts": 9080,
      "etration": 9081,
      "ĠCou": 9082,
      "ĠCIT": 9083,
      "ĠCincinnati": 9084,
      "Ġstages": 9085,
      "ĠMoses": 9086,
      "urt": 9087,
      "ĠBurn": 9088,
      "ĠBash": 9089,
      "ĠBuff": 9090,
      "ĠBudd": 9091,
      "ola": 9092,
      "illic": 9093,
      "ĠPent": 9094,
      "ĠPast": 9095,
      "ĠWAT": 9096,
      "ĠHal": 9097,
      "Ġrust": 9098,
      "ĠDO": 9099,
      "ĠDisc": 9100,
      "ateur": 9101,
      "ĠRise": 9102,
      "ĠFI": 9103,
      "ĠFoot": 9104,
      "ĠFederation": 9105,
      "usetts": 9106,
      "ĠNU": 9107,
      "estival": 9108,
      "ĠLas": 9109,
      "ĠLake": 9110,
      "ĠLah": 9111,
      "ĠLakes": 9112,
      "rike": 9113,
      "Ġven": 9114,
      "Ġvocal": 9115,
      "ĠEC": 9116,
      "ĠEston": 9117,
      "about": 9118,
      "abbed": 9119,
      "earing": 9120,
      "early": 9121,
      "Ġchat": 9122,
      "arted": 9123,
      "alling": 9124,
      "ouring": 9125,
      "ĠKr": 9126,
      "ĠKau": 9127,
      "ĠInit": 9128,
      "Ġadapt": 9129,
      "ogy": 9130,
      "ogan": 9131,
      "Ġclock": 9132,
      "Ġimper": 9133,
      "Ġoverse": 9134,
      "ĠCham": 9135,
      "ĠChampions": 9136,
      "Ġarbit": 9137,
      "ĠYugos": 9138,
      "Ġquests": 9139,
      "itionally": 9140,
      "Ġjustify": 9141,
      "Ġprecession": 9142,
      "ampa": 9143,
      "Ġaccus": 9144,
      "aware": 9145,
      "Ġattitudes": 9146,
      "ollanc": 9147,
      "Ġrocks": 9148,
      "Ġactors": 9149,
      "Ġfeathers": 9150,
      "obs": 9151,
      "Ġ1960": 9152,
      "Ġcoff": 9153,
      "Ġexpense": 9154,
      "ĠAsian": 9155,
      "Ġdeserve": 9156,
      "Ġflaw": 9157,
      "Ġemails": 9158,
      "Ġembar": 9159,
      "Ġremarks": 9160,
      "ĠUnivers": 9161,
      "olds": 9162,
      "Ġinvited": 9163,
      "ĠReuters": 9164,
      "Ġsurge": 9165,
      "Ġminim": 9166,
      "Ġpharm": 9167,
      "Ġprovision": 9168,
      "Ġspeculation": 9169,
      "Ġsubmit": 9170,
      "ĠIndust": 9171,
      "Ġheadphones": 9172,
      "ĠBlanche": 9173,
      "Ġcleared": 9174,
      "Ġgenerations": 9175,
      "ĠÂĵ": 9176,
      "Ġreleases": 9177,
      "beit": 9178,
      "Ġpossession": 9179,
      "prise": 9180,
      "Ġboat": 9181,
      "thew": 9182,
      "Ġfeelings": 9183,
      "Ġhardly": 9184,
      "ĠBeer": 9185,
      "ĠBeats": 9186,
      "Ġmaintenance": 9187,
      "Ġtechnologies": 9188,
      "ĠRussians": 9189,
      "Ġpromises": 9190,
      "Ġdesigns": 9191,
      "iscons": 9192,
      "Ġlandl": 9193,
      "Ġdrives": 9194,
      "ranean": 9195,
      "Ġoperate": 9196,
      "lining": 9197,
      "Ġlineup": 9198,
      "ĠExpl": 9199,
      "ĠGenesis": 9200,
      "Ġmanaging": 9201,
      "Ġcreators": 9202,
      "ĠCentre": 9203,
      "brid": 9204,
      "Ġsuccessfully": 9205,
      "Ġdeaths": 9206,
      "annel": 9207,
      "Ġhitting": 9208,
      "ĠPrice": 9209,
      "Ġpicking": 9210,
      "Ġbadly": 9211,
      "Ġjoining": 9212,
      "ĠParticip": 9213,
      "Ġinterviewed": 9214,
      "ĠEnvironment": 9215,
      "Ġgenre": 9216,
      "Ġdeny": 9217,
      "Ġsuffering": 9218,
      "Ġordinary": 9219,
      "Ġcivilian": 9220,
      "ESPN": 9221,
      "ĠMedicine": 9222,
      "Ġportray": 9223,
      "Ġstruggled": 9224,
      "Ġimprovements": 9225,
      "Ġpersons": 9226,
      "Ġurban": 9227,
      "Ġregarded": 9228,
      "Ġprevented": 9229,
      "Ġpenalty": 9230,
      "Ġdrawing": 9231,
      "Ġincidents": 9232,
      "Ġilleg": 9233,
      "Ġpurchased": 9234,
      "Ġprepare": 9235,
      "Ġdefeated": 9236,
      "Ġexpanded": 9237,
      "ĠSubs": 9238,
      "Ġestimates": 9239,
      "Ġirre": 9240,
      "ĠSpeaking": 9241,
      "Ġstressed": 9242,
      "Ġfreshman": 9243,
      "Ass": 9244,
      "Ġignore": 9245,
      "Ġignored": 9246,
      "Ġshoes": 9247,
      "Ġpleased": 9248,
      "Ġmistakes": 9249,
      "Ġdragons": 9250,
      "CKET": 9251,
      "Ġadvocate": 9252,
      "ĠSwedish": 9253,
      "ĠProfess": 9254,
      "ĠProfile": 9255,
      "Ġfantastic": 9256,
      "Ġnominees": 9257,
      "arnik": 9258,
      "ĠBetween": 9259,
      "Ġtransportation": 9260,
      "Ġvillage": 9261,
      "Ġchannels": 9262,
      "ĠOklah": 9263,
      "election": 9264,
      "Ġpreferred": 9265,
      "Ġrestaurants": 9266,
      "Ġhijackers": 9267,
      "ĠTakei": 9268,
      "ĠAstralis": 9269,
      "Ġwealthy": 9270,
      "Ġsavings": 9271,
[...]
