{
  "version": "1.0",
  "truncation": null,
  "padding": null,
  "added_tokens": [
    {
      "id": 0,
      "content": "[PAD]",
      "single_word": false,
      "lstrip": false,
      "rstrip": false,
      "normalized": false,
      "special": true
    },
    {
      "id": 1,
      "content": "[UNK]",
      "single_word": false,
      "lstrip": false,
      "rstrip": false,
      "normalized": false,
      "special": true
    },
    {
      "id": 2,
      "content": "[EOS]",
      "single_word": false,
      "lstrip": false,
      "rstrip": false,
      "normalized": false,
      "special": true
    }
  ],
  "normalizer": {
    "type": "Sequence",
    "normalizers": [
      {
        "type": "NFD"
      }
    ]
  },
  "pre_tokenizer": {
    "type": "ByteLevel",
    "add_prefix_space": true,
    "trim_offsets": true,
    "use_regex": true
  },
  "post_processor": null,
  "decoder": {
    "type": "ByteLevel",
    "add_prefix_space": true,
    "trim_offsets": true,
    "use_regex": true
  },
  "model": {
    "type": "BPE",
    "dropout": null,
    "unk_token": "[UNK]",
    "continuing_subword_prefix": null,
    "end_of_word_suffix": null,
    "fuse_unk": false,
    "byte_fallback": false,
    "ignore_merges": false,
    "vocab": {
      "[PAD]": 0,
      "[UNK]": 1,
      "[EOS]": 2,
      "!": 3,
      "\"": 4,
      "#": 5,
      "$": 6,
      "%": 7,
      "&": 8,
      "'": 9,
      "(": 10,
      ")": 11,
      "*": 12,
      "+": 13,
      ",": 14,
      "-": 15,
      ".": 16,
      "/": 17,
      "0": 18,
      "1": 19,
      "2": 20,
      "3": 21,
      "4": 22,
      "5": 23,
      "6": 24,
      "7": 25,
      "8": 26,
      "9": 27,
      ":": 28,
      ";": 29,
      "<": 30,
      "=": 31,
      ">": 32,
      "?": 33,
      "@": 34,
      "A": 35,
      "B": 36,
      "C": 37,
      "D": 38,
      "E": 39,
      "F": 40,
      "G": 41,
      "H": 42,
      "I": 43,
      "J": 44,
      "K": 45,
      "L": 46,
      "M": 47,
      "N": 48,
      "O": 49,
      "P": 50,
      "Q": 51,
      "R": 52,
      "S": 53,
      "T": 54,
      "U": 55,
      "V": 56,
      "W": 57,
      "X": 58,
      "Y": 59,
      "Z": 60,
      "[": 61,
      "\\": 62,
      "]": 63,
      "^": 64,
      "_": 65,
      "`": 66,
      "a": 67,
      "b": 68,
      "c": 69,
      "d": 70,
      "e": 71,
      "f": 72,
      "g": 73,
      "h": 74,
      "i": 75,
      "j": 76,
      "k": 77,
      "l": 78,
      "m": 79,
      "n": 80,
      "o": 81,
      "p": 82,
      "q": 83,
      "r": 84,
      "s": 85,
      "t": 86,
      "u": 87,
      "v": 88,
      "w": 89,
      "x": 90,
      "y": 91,
      "z": 92,
      "{": 93,
      "|": 94,
      "}": 95,
      "~": 96,
      "¡": 97,
      "¢": 98,
      "£": 99,
      "¤": 100,
      "¥": 101,
      "¦": 102,
      "§": 103,
      "¨": 104,
      "©": 105,
      "ª": 106,
      "«": 107,
      "¬": 108,
      "®": 109,
      "¯": 110,
      "°": 111,
      "±": 112,
      "²": 113,
      "³": 114,
      "´": 115,
      "µ": 116,
      "¶": 117,
      "·": 118,
      "¸": 119,
      "¹": 120,
      "º": 121,
      "»": 122,
      "¼": 123,
      "½": 124,
      "¾": 125,
      "¿": 126,
      "Â": 127,
      "Ã": 128,
      "Ä": 129,
      "Å": 130,
      "Æ": 131,
      "É": 132,
      "Ê": 133,
      "Ë": 134,
      "Ì": 135,
      "Í": 136,
      "Î": 137,
      "Ï": 138,
      "Ð": 139,
      "Ñ": 140,
      "Ò": 141,
      "Ó": 142,
      "Ô": 143,
      "Õ": 144,
      "Ö": 145,
      "×": 146,
      "Ø": 147,
      "Ù": 148,
      "Ú": 149,
      "Û": 150,
      "Þ": 151,
      "à": 152,
      "á": 153,
      "â": 154,
      "ã": 155,
      "ä": 156,
      "å": 157,
      "æ": 158,
      "ç": 159,
      "è": 160,
      "é": 161,
      "î": 162,
      "ï": 163,
      "ð": 164,
      "Ċ": 165,
      "Ġ": 166,
      "ġ": 167,
      "Ģ": 168,
      "ģ": 169,
      "Ĥ": 170,
      "ĥ": 171,
      "Ħ": 172,
      "ħ": 173,
      "Ĩ": 174,
      "ĩ": 175,
      "Ī": 176,
      "ī": 177,
      "Ĭ": 178,
      "ĭ": 179,
      "Į": 180,
      "į": 181,
      "İ": 182,
      "ı": 183,
      "Ĳ": 184,
      "ĳ": 185,
      "Ĵ": 186,
      "ĵ": 187,
      "Ķ": 188,
      "ķ": 189,
      "ĸ": 190,
      "Ĺ": 191,
      "ĺ": 192,
      "Ļ": 193,
      "ļ": 194,
      "Ľ": 195,
      "ľ": 196,
      "Ŀ": 197,
      "ŀ": 198,
      "Ł": 199,
      "ł": 200,
      "Ń": 201,
      "Ġt": 202,
      "Ġa": 203,
      "he": 204,
      "in": 205,
      "re": 206,
      "Ġthe": 207,
      "on": 208,
      "er": 209,
      "Ġs": 210,
      "Ġw": 211,
      "at": 212,
      "Ġo": 213,
      "en": 214,
      "Ġc": 215,
      "it": 216,
      "is": 217,
      "an": 218,
      "or": 219,
      "Ġb": 220,
      "es": 221,
      "ed": 222,
      "Ġf": 223,
      "ing": 224,
      "Ġp": 225,
      "ou": 226,
      "Ġan": 227,
      "al": 228,
      "Ġto": 229,
      "ar": 230,
      "Ġm": 231,
      "Ġof": 232,
      "Ġin": 233,
      "ĠĊ": 234,
      "Ġd": 235,
      "Ġh": 236,
      "as": 237,
      "Ġand": 238,
      "âĢ": 239,
      "ic": 240,
      "Ġth": 241,
      "le": 242,
      "om": 243,
      "ion": 244,
      "ll": 245,
      "ent": 246,
      "Ġn": 247,
      "ĠT": 248,
      "Ġl": 249,
      "Ġre": 250,
      "st": 251,
      "ve": 252,
      "Ġe": 253,
      "ly": 254,
      "Ġbe": 255,
      "ro": 256,
      "Ġg": 257,
      "id": 258,
      "ĠI": 259,
      "ut": 260,
      "ĠS": 261,
      "ac": 262,
      "ot": 263,
      "ĠA": 264,
      "Ġon": 265,
      "Ġthat": 266,
      "ay": 267,
      "et": 268,
      "Ġis": 269,
      "ad": 270,
      "im": 271,
      "am": 272,
      "ow": 273,
      "se": 274,
      "ig": 275,
      "âĢĻ": 276,
      "Ġfor": 277,
      "ĠC": 278,
      "ver": 279,
      "ct": 280,
      "ur": 281,
      "ld": 282,
      "Ġy": 283,
      "Ġu": 284,
      "Ġst": 285,
      "Ġit": 286,
      "ĠM": 287,
      "Ġhe": 288,
      "ir": 289,
      "ation": 290,
      "ĠB": 291,
      "ith": 292,
      "Ġwh": 293,
      "ce": 294,
      "ter": 295,
      "ĠThe": 296,
      "ol": 297,
      "Ġwe": 298,
      "il": 299,
      "Ġwith": 300,
      "ĠâĢ": 301,
      "Ġas": 302,
      "ch": 303,
      "ĠP": 304,
      "ill": 305,
      "nd": 306,
      "Ġyou": 307,
      "ĠW": 308,
      "ers": 309,
      "Ġwas": 310,
      "ĠH": 311,
      "ke": 312,
      "Ġcon": 313,
      "Ġde": 314,
      "Ġr": 315,
      "her": 316,
      "if": 317,
      "ate": 318,
      "ag": 319,
      "ĠD": 320,
      "Ġat": 321,
      "ĠR": 322,
      "Ġha": 323,
      "ore": 324,
      "Ġse": 325,
      "Ġpro": 326,
      "ĠF": 327,
      "ul": 328,
      "pp": 329,
      "Ġ1": 330,
      "ri": 331,
      "ment": 332,
      "Ġare": 333,
      "est": 334,
      "us": 335,
      "Ġcom": 336,
      "ist": 337,
      "and": 338,
      "Ġ(": 339,
      "op": 340,
      "ain": 341,
      "igh": 342,
      "Ġ2": 343,
      "ĠN": 344,
      "rom": 345,
      "th": 346,
      "od": 347,
      "Ġne": 348,
      "un": 349,
      "Ġex": 350,
      "um": 351,
      "ab": 352,
      "Ġnot": 353,
      "ĠL": 354,
      "ĠG": 355,
      "res": 356,
      "ity": 357,
      "ess": 358,
      "Ġv": 359,
      "Ġor": 360,
      "ĠâĢľ": 361,
      "Ġhave": 362,
      "âĢĿ": 363,
      "ould": 364,
      "em": 365,
      "ort": 366,
      "os": 367,
      "ant": 368,
      "Ġby": 369,
      "Ġfrom": 370,
      "oc": 371,
      "ive": 372,
      "Ġsu": 373,
      "el": 374,
      "ĠE": 375,
      "art": 376,
      "Ġal": 377,
      "'s": 378,
      "Ġsh": 379,
      "Ġthis": 380,
      "nt": 381,
      "ĠO": 382,
      "qu": 383,
      "pe": 384,
      "ight": 385,
      "ust": 386,
      "Ġle": 387,
      "ies": 388,
      "Ġ\"": 389,
      "Ġch": 390,
      "end": 391,
      "Ġsa": 392,
      "out": 393,
      "Ġab": 394,
      "00": 395,
      "all": 396,
      "ie": 397,
      "ĠJ": 398,
      "red": 399,
      "ack": 400,
      "ally": 401,
      "Ġpl": 402,
      "Ġhas": 403,
      "Ġgo": 404,
      "iv": 405,
      "ome": 406,
      "ard": 407,
      "our": 408,
      "Ġhis": 409,
      "ear": 410,
      "ost": 411,
      "ra": 412,
      "gh": 413,
      "Ġj": 414,
      "ak": 415,
      "ast": 416,
      "ĠU": 417,
      "ud": 418,
      "Ġdo": 419,
      "Ġwor": 420,
      "Ġthey": 421,
      "rou": 422,
      "Ġbut": 423,
      "Ġwill": 424,
      "ge": 425,
      "Ġcan": 426,
      "Ġsaid": 427,
      "Ġwhe": 428,
      "pt": 429,
      "ich": 430,
      "Ġall": 431,
      "Ġk": 432,
      "ok": 433,
      "Ġwho": 434,
      "ide": 435,
      "Ġtr": 436,
      "Ġout": 437,
      "Ġint": 438,
      "ther": 439,
      "ial": 440,
      "Ġtheir": 441,
      "ame": 442,
      "ans": 443,
      "ff": 444,
      "ect": 445,
      "ĠTh": 446,
      "ong": 447,
      "ice": 448,
      "pl": 449,
      "ions": 450,
      "ĠIn": 451,
      "Ġmore": 452,
      "one": 453,
      "ure": 454,
      "act": 455,
      "age": 456,
      "Ġup": 457,
      "ike": 458,
      "Ġme": 459,
      "ous": 460,
      "Ġad": 461,
      "ap": 462,
      "ine": 463,
      "Ġabout": 464,
      "Ġone": 465,
      "ĠK": 466,
      "ated": 467,
      "ub": 468,
      "ime": 469,
      "are": 470,
      "Ġwere": 471,
      "Ġso": 472,
      "ber": 473,
      "Ġhad": 474,
      "Ġus": 475,
      "ep": 476,
      "ĠSt": 477,
      "Ġcl": 478,
      "ue": 479,
      "ia": 480,
      "og": 481,
      "Ġim": 482,
      "Ġwould": 483,
      "cc": 484,
      "Ġwhich": 485,
      "iz": 486,
      "ake": 487,
      "ind": 488,
      "Ġ20": 489,
      "Ġen": 490,
      "very": 491,
      "Ġag": 492,
      "Ġte": 493,
      "Ġcont": 494,
      "Ġoff": 495,
      "Ġun": 496,
      "Ġcomp": 497,
      "per": 498,
      "Ġbeen": 499,
      "ip": 500,
      "so": 501,
      "ign": 502,
      "Ġyear": 503,
      "ew": 504,
      "au": 505,
      "ace": 506,
      "ary": 507,
      "ven": 508,
      "ook": 509,
      "Ġlike": 510,
      "ays": 511,
      "Ġman": 512,
      "Ġinc": 513,
      "ose": 514,
      "Ġpe": 515,
      "ere": 516,
      "ĠIt": 517,
      "ry": 518,
      "able": 519,
      "Ġper": 520,
      "Ġres": 521,
      "ĠY": 522,
      "Ġsp": 523,
      "Ġother": 524,
      "ass": 525,
      "ite": 526,
      "mer": 527,
      "ord": 528,
      "ire": 529,
      "Ġsome": 530,
      "ople": 531,
      "ile": 532,
      "ations": 533,
      "Ġyour": 534,
      "ence": 535,
      "Ġthere": 536,
      "Ġ201": 537,
      "ks": 538,
      "ib": 539,
      "ĠCh": 540,
      "Ġthan": 541,
      "Ġover": 542,
      "ult": 543,
      "Ġbec": 544,
      "Ġdis": 545,
      "ical": 546,
      "own": 547,
      "Ġthem": 548,
      "ance": 549,
      "Ġnew": 550,
      "int": 551,
      "ough": 552,
      "Ġalso": 553,
      "Ġar": 554,
      "ress": 555,
      "ount": 556,
      "Ġpart": 557,
      "Ġapp": 558,
      "Ġwhat": 559,
      "ru": 560,
      "Ġany": 561,
      "ree": 562,
      "Ġwhen": 563,
      "ase": 564,
      "orm": 565,
      "port": 566,
      "Ġpeople": 567,
      "fter": 568,
      "Ġsc": 569,
      "Ġqu": 570,
      "ail": 571,
      "ond": 572,
      "ĠV": 573,
      "ach": 574,
      "Ġjust": 575,
      "Ġtime": 576,
      "Ġits": 577,
      "av": 578,
      "Ġ3": 579,
      "Ġkn": 580,
      "Ġget": 581,
      "lic": 582,
      "Ġher": 583,
      "Ġif": 584,
      "reat": 585,
      "ĠHe": 586,
      "ens": 587,
      "Ġwork": 588,
      "Ġtw": 589,
      "ian": 590,
      "ction": 591,
      "irst": 592,
      "ound": 593,
      "vel": 594,
      "du": 595,
      "Ġrec": 596,
      "Ġinto": 597,
      "Ġno": 598,
      "Ġmy": 599,
      "ory": 600,
      "ings": 601,
      ".âĢĿ": 602,
      "ors": 603,
      "Ġour": 604,
      "ition": 605,
      "Ġco": 606,
      "ident": 607,
      "Ġpre": 608,
      "ang": 609,
      "ause": 610,
      "Ġplay": 611,
      "ick": 612,
      "Ġ-": 613,
      "wn": 614,
      "ob": 615,
      "ink": 616,
      "ade": 617,
      "hing": 618,
      "Ġ19": 619,
      "itt": 620,
      "ates": 621,
      "Ġshe": 622,
      "Ġpol": 623,
      "ove": 624,
      "ark": 625,
      "vers": 626,
      "amp": 627,
      ",âĢĿ": 628,
      "Ġhow": 629,
      "Ġafter": 630,
      "Ġro": 631,
      "ild": 632,
      "Ġfirst": 633,
      "ne": 634,
      "Ġpo": 635,
      "aw": 636,
      "nder": 637,
      "Ġcould": 638,
      "ons": 639,
      "ĠWe": 640,
      "Ġatt": 641,
      "ious": 642,
      "Ġfe": 643,
      "Ġacc": 644,
      "'t": 645,
      "Ġpr": 646,
      "Ġhim": 647,
      "ĠBut": 648,
      "Ġonly": 649,
      "Ġtwo": 650,
      "ict": 651,
      "Ġspe": 652,
      "ov": 653,
      "Ġcomm": 654,
      "hed": 655,
      "erv": 656,
      "form": 657,
      "Ġact": 658,
      "we": 659,
      "Ġbet": 660,
      "ish": 661,
      "ĠWh": 662,
      "Ġbl": 663,
      "ĠThis": 664,
      "Ġdec": 665,
      ".\"": 666,
      "ft": 667,
      "Ġback": 668,
      "Ġmost": 669,
      "ning": 670,
      "ĠAnd": 671,
      "Ġam": 672,
      "te": 673,
      "ces": 674,
      "Ġfo": 675,
      "Ġdid": 676,
      "Ġ4": 677,
      "oy": 678,
      "rough": 679,
      "round": 680,
      "Ġwant": 681,
      "ec": 682,
      "Ġagain": 683,
      "ual": 684,
      "ĠâĢĶ": 685,
      "ĠâĢĵ": 686,
      "ater": 687,
      "Ġunder": 688,
      "iff": 689,
      "iss": 690,
      "tern": 691,
      "Ġyears": 692,
      "day": 693,
      "ise": 694,
      "Ġbecause": 695,
      "Ġdes": 696,
      "Ġeven": 697,
      "ublic": 698,
      "lud": 699,
      "ull": 700,
      "sel": 701,
      "Ġcons": 702,
      "rit": 703,
      "ents": 704,
      "Ġnow": 705,
      "ck": 706,
      "Ġ$": 707,
      "Ġneed": 708,
      "ĠUn": 709,
      "man": 710,
      "Ġknow": 711,
      "Ġsee": 712,
      "The": 713,
      "ĠAs": 714,
      "Ġinv": 715,
      "fore": 716,
      "ced": 717,
      "pect": 718,
      "ock": 719,
      "Ġadd": 720,
      "Ġem": 721,
      "urn": 722,
      "Ġsupp": 723,
      "Ġ5": 724,
      "Ġind": 725,
      "ments": 726,
      "Ġevery": 727,
      "Ġmake": 728,
      "Ġ[": 729,
      "Ġsec": 730,
      "uch": 731,
      "old": 732,
      ",\"": 733,
      "ational": 734,
      "Ġthese": 735,
      "ject": 736,
      "Ġmay": 737,
      "Ġwhere": 738,
      "ph": 739,
      "vern": 740,
      "Ġbu": 741,
      "ĠTr": 742,
      "..": 743,
      "Ġdon": 744,
      "row": 745,
      "xt": 746,
      "Ġlook": 747,
      "Ġev": 748,
      "Ġway": 749,
      "Ġrem": 750,
      "ied": 751,
      "Ġrel": 752,
      "iew": 753,
      "Ġright": 754,
      "ng": 755,
      "Ġthen": 756,
      "lect": 757,
      "ating": 758,
      "Ġmany": 759,
      "Ġbeing": 760,
      "rib": 761,
      "aking": 762,
      "Ġreg": 763,
      "oss": 764,
      "ason": 765,
      "ily": 766,
      "Ġinclud": 767,
      "Ġsay": 768,
      "Ġdiff": 769,
      "meric": 770,
      "ump": 771,
      "Ġthose": 772,
      "ited": 773,
      "ased": 774,
      "Ġimp": 775,
      "Ġthink": 776,
      "Ġthrough": 777,
      "Ġfl": 778,
      "Ġcall": 779,
      "ood": 780,
      "Ġpres": 781,
      "Ġshould": 782,
      "ower": 783,
      "uring": 784,
      "ĠRe": 785,
      "ont": 786,
      "Ġsy": 787,
      "other": 788,
      "Ġvery": 789,
      "Ġdef": 790,
      "und": 791,
      "ific": 792,
      "ath": 793,
      ").": 794,
      "Ġlast": 795,
      "Ġstate": 796,
      "hen": 797,
      "llow": 798,
      "Ġshow": 799,
      "ĠNew": 800,
      "Ġmuch": 801,
      "les": 802,
      "Ġdoes": 803,
      "ĠAmeric": 804,
      "ities": 805,
      "Ġcount": 806,
      "ty": 807,
      "Ġwell": 808,
      "âĢĶ": 809,
      "als": 810,
      "Ġown": 811,
      "Ġbel": 812,
      "Ġass": 813,
      "Ġend": 814,
      "Ġdown": 815,
      "Ġbefore": 816,
      "oth": 817,
      "arg": 818,
      "Ġ200": 819,
      "arly": 820,
      "ative": 821,
      "Ġph": 822,
      "ting": 823,
      "Ġstart": 824,
      "omet": 825,
      "Ġuse": 826,
      "Ġlong": 827,
      "Ġbr": 828,
      "Ġke": 829,
      "gr": 830,
      "ward": 831,
      "ange": 832,
      "ĠAl": 833,
      "ters": 834,
      "ues": 835,
      "ible": 836,
      "ince": 837,
      "Ġgovern": 838,
      "ener": 839,
      "ics": 840,
      "Ġfin": 841,
      "ren": 842,
      "up": 843,
      "Ġmade": 844,
      "Ġmon": 845,
      "ble": 846,
      "ts": 847,
      "Ġsuch": 848,
      "com": 849,
      "),": 850,
      "ĠYou": 851,
      "ife": 852,
      "Ġreport": 853,
      "Ġhel": 854,
      "Ġsm": 855,
      "Ġteam": 856,
      "Ġstud": 857,
      "ful": 858,
      "ually": 859,
      "Ġgoing": 860,
      "erson": 861,
      "Ġeff": 862,
      "Ġsub": 863,
      "ell": 864,
      "ists": 865,
      "oun": 866,
      "ork": 867,
      "ek": 868,
      "ix": 869,
      "ms": 870,
      "ars": 871,
      "cy": 872,
      "olog": 873,
      "ility": 874,
      "Ġworld": 875,
      "ĠIf": 876,
      "Ġset": 877,
      "000": 878,
      "Ġgood": 879,
      "ys": 880,
      "Ġagainst": 881,
      "its": 882,
      "Ġac": 883,
      "Ġpoint": 884,
      "ert": 885,
      "Ġent": 886,
      "Ġstill": 887,
      "Ġhelp": 888,
      "Ġprov": 889,
      "illion": 890,
      "stem": 891,
      "Ġgu": 892,
      "ĠAr": 893,
      "gan": 894,
      "Ġ6": 895,
      "imes": 896,
      "ween": 897,
      "Ġsur": 898,
      "Ġinst": 899,
      "Ġsays": 900,
      "Ġgame": 901,
      "Ġob": 902,
      "Ġprodu": 903,
      "ax": 904,
      "Ġcol": 905,
      "Ġstr": 906,
      "cess": 907,
      "Ġwhile": 908,
      "Ġlead": 909,
      "Ġmin": 910,
      "ism": 911,
      "ool": 912,
      "alk": 913,
      "ier": 914,
      "any": 915,
      "roup": 916,
      "Ġinter": 917,
      "Ġbetween": 918,
      "Ġconf": 919,
      "Ġtake": 920,
      "Ġed": 921,
      "Ġcr": 922,
      "io": 923,
      "read": 924,
      "Ġsim": 925,
      "Ġhigh": 926,
      "Ġoffic": 927,
      "self": 928,
      "Ġsame": 929,
      "ever": 930,
      "Ġlaw": 931,
      "ĠCom": 932,
      "air": 933,
      "Ġdiffere": 934,
      "--": 935,
      "ures": 936,
      "ĠAn": 937,
      "ah": 938,
      "ner": 939,
      "ros": 940,
      "Ġdisc": 941,
      "hip": 942,
      "arch": 943,
      "ames": 944,
      "land": 945,
      "Ġthough": 946,
      "ĠDe": 947,
      "Ġ10": 948,
      "Ġop": 949,
      "az": 950,
      "Ġnum": 951,
      "way": 952,
      "gg": 953,
      "Ġgovernment": 954,
      "ĠThey": 955,
      "hes": 956,
      "Ġsign": 957,
      "cent": 958,
      "ank": 959,
      "ution": 960,
      "ĠFor": 961,
      "Ġsomet": 962,
      "ĠLe": 963,
      "Ġter": 964,
      "led": 965,
      "Ġref": 966,
      "Ġins": 967,
      "ĠIs": 968,
      "atch": 969,
      "ives": 970,
      "velop": 971,
      "Ġaround": 972,
      "Ġser": 973,
      "Ġmem": 974,
      "ouse": 975,
      "ĠSh": 976,
      "ather": 977,
      "Ġthree": 978,
      "Ġmed": 979,
      "Ġexp": 980,
      "uss": 981,
      "Ġhere": 982,
      "Ġtrans": 983,
      "ĠSe": 984,
      "Ġsystem": 985,
      "Ġsupport": 986,
      "ets": 987,
      "Ġrun": 988,
      "Ġret": 989,
      "ved": 990,
      "Ġfound": 991,
      "Ġspec": 992,
      "Ġ7": 993,
      "Ġcour": 994,
      "ving": 995,
      "Ġgr": 996,
      "Ġreal": 997,
      "Ġreally": 998,
      "ĠTrump": 999,
      "cept": 1000,
      "ale": 1001,
      "Ġcur": 1002,
      "ci": 1003,
      "Ġcar": 1004,
      "Ġpublic": 1005,
      "ĠThat": 1006,
      "Ġwom": 1007,
      "Ġ8": 1008,
      "Ġhand": 1009,
      "ĠCl": 1010,
      "Ġmod": 1011,
      "alth": 1012,
      "ern": 1013,
      ".[": 1014,
      "Ġgroup": 1015,
      "Ġgreat": 1016,
      "ying": 1017,
      "Ġfact": 1018,
      "Ġused": 1019,
      "ĠThere": 1020,
      "ave": 1021,
      "Ġexper": 1022,
      "Ġext": 1023,
      "ices": 1024,
      "Ġsl": 1025,
      "min": 1026,
      "Ġ'": 1027,
      "con": 1028,
      "pr": 1029,
      "Ġfam": 1030,
      "Ġread": 1031,
      "Ġ0": 1032,
      "Ġday": 1033,
      "Ġduring": 1034,
      "ense": 1035,
      "Ġhapp": 1036,
      "ision": 1037,
      "ĠSo": 1038,
      "irect": 1039,
      "Ġfind": 1040,
      "ton": 1041,
      "Ġdet": 1042,
      "ered": 1043,
      "Ġboth": 1044,
      "chool": 1045,
      "Ġserv": 1046,
      "Ġfil": 1047,
      "ins": 1048,
      "Ġcre": 1049,
      "uth": 1050,
      "ared": 1051,
      "ically": 1052,
      "ular": 1053,
      "Ġperson": 1054,
      "Ġfr": 1055,
      "Ġ9": 1056,
      "ene": 1057,
      "Ġbig": 1058,
      "Ġrep": 1059,
      "ines": 1060,
      "ages": 1061,
      "Ġtold": 1062,
      "Ġgener": 1063,
      "Ġmonth": 1064,
      "Ġdevelop": 1065,
      "Ġfollow": 1066,
      "the": 1067,
      "tt": 1068,
      "ivers": 1069,
      "get": 1070,
      "Ġfew": 1071,
      "akes": 1072,
      "anc": 1073,
      "ves": 1074,
      "oh": 1075,
      "Ġsince": 1076,
      "Ġweek": 1077,
      "bers": 1078,
      "med": 1079,
      "Ġtoo": 1080,
      "Ġleg": 1081,
      "ording": 1082,
      "Ġwar": 1083,
      "Ġloc": 1084,
      "der": 1085,
      "aj": 1086,
      "Ġprot": 1087,
      "Ġiss": 1088,
      "Ġvot": 1089,
      "ĠOn": 1090,
      "Ġbelie": 1091,
      "Ġpolit": 1092,
      "Ġopp": 1093,
      "Ġrequ": 1094,
      "Ġlot": 1095,
      "Ġbo": 1096,
      "Ġcle": 1097,
      "Ġcommun": 1098,
      "Ġexpl": 1099,
      "ized": 1100,
      "Ġput": 1101,
      "ash": 1102,
      "ata": 1103,
      "Ġanother": 1104,
      "Ġcent": 1105,
      "uc": 1106,
      "ĠHow": 1107,
      "rent": 1108,
      "Ġart": 1109,
      "Ġsoc": 1110,
      "ute": 1111,
      "Ġplan": 1112,
      "Ġresp": 1113,
      "ĠFr": 1114,
      "Ġsomething": 1115,
      "Ġeach": 1116,
      "Ġhead": 1117,
      "ĠAd": 1118,
      "ĠBl": 1119,
      "Ġdifferent": 1120,
      "ric": 1121,
      "ention": 1122,
      "ness": 1123,
      "ex": 1124,
      "ross": 1125,
      "Ġpass": 1126,
      "Ġchar": 1127,
      "thing": 1128,
      "Ġcor": 1129,
      "iet": 1130,
      "ize": 1131,
      "iness": 1132,
      "ody": 1133,
      "Ġchild": 1134,
      "arl": 1135,
      "ĠâĢĺ": 1136,
      "Ġpower": 1137,
      "Ġthings": 1138,
      "Ġbus": 1139,
      "Ġlife": 1140,
      "20": 1141,
      "Ġadv": 1142,
      "Ġmight": 1143,
      "Ġfar": 1144,
      "Ġinvest": 1145,
      "Ġcontin": 1146,
      "view": 1147,
      "att": 1148,
      "Ġrele": 1149,
      "ĠPro": 1150,
      "gram": 1151,
      "Ġmet": 1152,
      "ik": 1153,
      "ĠRep": 1154,
      "gy": 1155,
      "Ġche": 1156,
      "Ġnever": 1157,
      "Ġdep": 1158,
      "Ġdem": 1159,
      "Ġgot": 1160,
      "Ġnext": 1161,
      "Ġcome": 1162,
      "Ġask": 1163,
      "Ġallow": 1164,
      "ient": 1165,
      "ee": 1166,
      "ants": 1167,
      "Ġfeel": 1168,
      "Ġcamp": 1169,
      "ience": 1170,
      "Ġinf": 1171,
      "Ġbest": 1172,
      "ired": 1173,
      "Ġpercent": 1174,
      "Ġhome": 1175,
      "erest": 1176,
      "Ġopen": 1177,
      "ret": 1178,
      "ital": 1179,
      "Ġposs": 1180,
      "ittle": 1181,
      "Ġmark": 1182,
      "Ġpost": 1183,
      "ten": 1184,
      "Ġquest": 1185,
      "istr": 1186,
      "Ġseem": 1187,
      "ĠInd": 1188,
      "Ġsecond": 1189,
      "less": 1190,
      "osed": 1191,
      "Ġresult": 1192,
      "orn": 1193,
      "Ġincre": 1194,
      "Ġav": 1195,
      "ield": 1196,
      "Ġcare": 1197,
      "Ġmil": 1198,
      "Ġconc": 1199,
      "Ġproble": 1200,
      "ĠPh": 1201,
      "Ġdirect": 1202,
      "riend": 1203,
      "Ġpri": 1204,
      "ple": 1205,
      "Ġincluding": 1206,
      "Ġmillion": 1207,
      "Ġwithout": 1208,
      "Ġplace": 1209,
      "ĠUS": 1210,
      "ĠShe": 1211,
      "Ġide": 1212,
      "Ġstand": 1213,
      "Ġimport": 1214,
      "Ġhard": 1215,
      "Ġwr": 1216,
      "ug": 1217,
      "Ġbuild": 1218,
      "ately": 1219,
      "Ġcomple": 1220,
      "Ġless": 1221,
      "Ġbeh": 1222,
      "Ġcountry": 1223,
      "ama": 1224,
      "Ġtest": 1225,
      "ably": 1226,
      "ĠWhen": 1227,
      "Ġtop": 1228,
      "Ġseason": 1229,
      "ĠQ": 1230,
      "chn": 1231,
      "Ġcontro": 1232,
      "We": 1233,
      "Ġca": 1234,
      "Ġnumber": 1235,
      "ished": 1236,
      "Ġinform": 1237,
      "aim": 1238,
      "arn": 1239,
      "Ġhum": 1240,
      "Ġbetter": 1241,
      "Ġfour": 1242,
      "co": 1243,
      "ats": 1244,
      "ling": 1245,
      "line": 1246,
      "Ġmov": 1247,
      "oney": 1248,
      "leg": 1249,
      "Ġel": 1250,
      "Ġschool": 1251,
      "ways": 1252,
      "ina": 1253,
      "Ġprogram": 1254,
      "Ġpartic": 1255,
      "ral": 1256,
      "Ġtra": 1257,
      "Ġcase": 1258,
      "Ġtri": 1259,
      "Ġappro": 1260,
      "Ġturn": 1261,
      "conom": 1262,
      "ency": 1263,
      "Ġkeep": 1264,
      "Ġgl": 1265,
      "ption": 1266,
      "Ġrecent": 1267,
      "Ġattack": 1268,
      "Ġlittle": 1269,
      "ained": 1270,
      "Ġeffect": 1271,
      "Ġcalled": 1272,
      "ised": 1273,
      "be": 1274,
      "Ġpop": 1275,
      "Ġpolice": 1276,
      "ĠAt": 1277,
      "ering": 1278,
      "ĠAmerican": 1279,
      "Ġdr": 1280,
      "Ġlet": 1281,
      "ĠBe": 1282,
      "Ġprev": 1283,
      "Ġrest": 1284,
      "ocr": 1285,
      "ploy": 1286,
      "son": 1287,
      "Ġfull": 1288,
      "Ġbro": 1289,
      "Ġdidn": 1290,
      "ajor": 1291,
      "Ġann": 1292,
      "Ġinterest": 1293,
      "Ġwomen": 1294,
      "Ġ.": 1295,
      "ode": 1296,
      "ains": 1297,
      "ĠZ": 1298,
      "Ġleft": 1299,
      "Ġmove": 1300,
      "inal": 1301,
      "Ġmain": 1302,
      "Ġprocess": 1303,
      "me": 1304,
      "Ġpos": 1305,
      "pped": 1306,
      "Ġdata": 1307,
      "atic": 1308,
      "ready": 1309,
      "Ġfun": 1310,
      "Ġval": 1311,
      "iving": 1312,
      "Ġcap": 1313,
      "Ġpay": 1314,
      "Ġlevel": 1315,
      "ract": 1316,
      "Ġsmall": 1317,
      "ature": 1318,
      "Ġdri": 1319,
      "Ġform": 1320,
      "nce": 1321,
      "Ġusing": 1322,
      "Ġwin": 1323,
      "eng": 1324,
      "orth": 1325,
      "ology": 1326,
      "Ġbre": 1327,
      "arge": 1328,
      "10": 1329,
      "ĠUnited": 1330,
      "ined": 1331,
      "ĠOb": 1332,
      "ann": 1333,
      "Ġchange": 1334,
      "Ġcompany": 1335,
      "ided": 1336,
      "Ġ--": 1337,
      "ird": 1338,
      "ĠWhat": 1339,
      "uro": 1340,
      "Ġalready": 1341,
      "Ġrece": 1342,
      "Ġnews": 1343,
      "Ġeconom": 1344,
      "Ġexpect": 1345,
      "Ġunt": 1346,
      "uck": 1347,
      "ertain": 1348,
      "Ġbusiness": 1349,
      "Ġprom": 1350,
      "Ġcurrent": 1351,
      "'re": 1352,
      "Ġeas": 1353,
      "Ġlist": 1354,
      "Ġprof": 1355,
      "ians": 1356,
      "Ġwhy": 1357,
      "reen": 1358,
      "It": 1359,
      "Ġpur": 1360,
      "ott": 1361,
      "ĠMr": 1362,
      "Ġpresident": 1363,
      "Ġsol": 1364,
      "Ġproject": 1365,
      "lection": 1366,
      "Ġfree": 1367,
      "...": 1368,
      "Ġmen": 1369,
      "Ġofficial": 1370,
      "Ġstory": 1371,
      "Ġsk": 1372,
      "Ġhealth": 1373,
      "ission": 1374,
      "ox": 1375,
      "Ġhist": 1376,
      "Ġalways": 1377,
      "Ġdesign": 1378,
      "Ġlater": 1379,
      "Ġchang": 1380,
      "Ġmoney": 1381,
      "ĠComm": 1382,
      "stand": 1383,
      "aign": 1384,
      "Ġthing": 1385,
      "Ġclass": 1386,
      "iven": 1387,
      "used": 1388,
      "cl": 1389,
      "Ġable": 1390,
      "Ġclaim": 1391,
      "Ġtechn": 1392,
      "sc": 1393,
      "Ġmajor": 1394,
      "Ġmat": 1395,
      "Ġbook": 1396,
      "Ġorgan": 1397,
      "ample": 1398,
      "oot": 1399,
      "Ġvis": 1400,
      "Ġrese": 1401,
      "iver": 1402,
      "Ġcity": 1403,
      "ases": 1404,
      "ĠSp": 1405,
      "Ġty": 1406,
      "Ġaway": 1407,
      "iversity": 1408,
      "ator": 1409,
      "Ġfriend": 1410,
      "ead": 1411,
      "Ġtalk": 1412,
      "aining": 1413,
      "Ġpast": 1414,
      "to": 1415,
      "ĠGo": 1416,
      "ruct": 1417,
      "ior": 1418,
      "eral": 1419,
      "Ġhappen": 1420,
      "Ġjob": 1421,
      "ards": 1422,
      "Ġleast": 1423,
      "Ġdays": 1424,
      "Ġest": 1425,
      "ĠAll": 1426,
      "Ġinformation": 1427,
      "Ġ12": 1428,
      "ccess": 1429,
      "uthor": 1430,
      "Ġoper": 1431,
      "urity": 1432,
      "arent": 1433,
      "Ġdoesn": 1434,
      "ĠCan": 1435,
      "ron": 1436,
      "ality": 1437,
      "Ġmaking": 1438,
      "wit": 1439,
      "Ġenough": 1440,
      "Ġmust": 1441,
      "Ġhop": 1442,
      "ĠRepublic": 1443,
      "oad": 1444,
      "here": 1445,
      "Ġconst": 1446,
      "ury": 1447,
      "ending": 1448,
      "ĠOne": 1449,
      "Ġedit": 1450,
      "ohn": 1451,
      "Ġgrow": 1452,
      "ush": 1453,
      "Ġaff": 1454,
      "//": 1455,
      "Ġelect": 1456,
      "Ġpat": 1457,
      "Ġimportant": 1458,
      "ides": 1459,
      "Ġkill": 1460,
      "Ġcampaign": 1461,
      "Ġtell": 1462,
      "ney": 1463,
      "Ġcost": 1464,
      "ĠPres": 1465,
      "Ġdeal": 1466,
      "ĠTo": 1467,
      "app": 1468,
      "Ġold": 1469,
      "outh": 1470,
      "Ġstre": 1471,
      "ĠCon": 1472,
      "Ġuntil": 1473,
      "Ġfund": 1474,
      "ured": 1475,
      "Ġ15": 1476,
      "ĠOr": 1477,
      "Ġdist": 1478,
      "iol": 1479,
      "Ġ=": 1480,
      "side": 1481,
      "acy": 1482,
      "Ġcame": 1483,
      "ror": 1484,
      "ries": 1485,
      "els": 1486,
      "ider": 1487,
      "ified": 1488,
      "Ġkind": 1489,
      "Ġview": 1490,
      "Ġlarge": 1491,
      "ĠPl": 1492,
      "ley": 1493,
      "atur": 1494,
      "Ġmar": 1495,
      "ted": 1496,
      "ived": 1497,
      "ĠChr": 1498,
      "Th": 1499,
      "Ġvar": 1500,
      "ony": 1501,
      "enn": 1502,
      "Ġfamily": 1503,
      "ĠSy": 1504,
      "work": 1505,
      "ember": 1506,
      "Ġintern": 1507,
      "raph": 1508,
      "Ġactually": 1509,
      "Ġdev": 1510,
      "ister": 1511,
      "Ġsit": 1512,
      "ĠMay": 1513,
      "Ġra": 1514,
      "Ġbecome": 1515,
      "ĠMar": 1516,
      "Ġorder": 1517,
      "ĠSc": 1518,
      "Ġoften": 1519,
      "ional": 1520,
      "ising": 1521,
      "Ìģ": 1522,
      "Ġpolitical": 1523,
      "alf": 1524,
      "Ġtook": 1525,
      "ĠBr": 1526,
      "Ġworking": 1527,
      "Ġ#": 1528,
      "Ġdeb": 1529,
      "Ġtax": 1530,
      "Ġmean": 1531,
      "Ġpolic": 1532,
      "ĠMc": 1533,
      "Ġ18": 1534,
      "bs": 1535,
      "Ġbit": 1536,
      "ĠNo": 1537,
      "by": 1538,
      "ĠJohn": 1539,
      "ware": 1540,
      "ization": 1541,
      "Ġaccording": 1542,
      "Ġnight": 1543,
      "ĠAm": 1544,
      "Ġes": 1545,
      "Ġgames": 1546,
      "aring": 1547,
      "Ġ199": 1548,
      "most": 1549,
      "Ġwon": 1550,
      "Ġformer": 1551,
      "Ġrecord": 1552,
      "Ġdel": 1553,
      "ĠDem": 1554,
      "year": 1555,
      "Ġcharac": 1556,
      "ps": 1557,
      "aps": 1558,
      "Ġvide": 1559,
      "augh": 1560,
      "ison": 1561,
      "ĠCo": 1562,
      "Ġever": 1563,
      "ger": 1564,
      "ane": 1565,
      "Ġla": 1566,
      "Ġfore": 1567,
      "Ġsever": 1568,
      "Ġve": 1569,
      "Ġline": 1570,
      "for": 1571,
      "iqu": 1572,
      "Ġtimes": 1573,
      "Ġevent": 1574,
      "Ġplayers": 1575,
      "Ġgive": 1576,
      "ued": 1577,
      "Ġbas": 1578,
      "Ġdoing": 1579,
      "oint": 1580,
      "ĠPresident": 1581,
      "ĠWith": 1582,
      "Ġsocial": 1583,
      "ster": 1584,
      "Ġperform": 1585,
      "wh": 1586,
      "rew": 1587,
      "Ġair": 1588,
      "icle": 1589,
      "Ġreturn": 1590,
      "br": 1591,
      "ither": 1592,
      "Ġword": 1593,
      "50": 1594,
      "Ġmeet": 1595,
      "ĠYork": 1596,
      "Ġ11": 1597,
      "ER": 1598,
      "Ġhuman": 1599,
      "Ġseveral": 1600,
      "idd": 1601,
      "Ġseen": 1602,
      "Ġfac": 1603,
      "Ġname": 1604,
      "iber": 1605,
      "Ġmarket": 1606,
      "Ġvers": 1607,
      "Ġviol": 1608,
      "Ġyoung": 1609,
      "let": 1610,
      "Ġcrit": 1611,
      "Ġmembers": 1612,
      "Ġchildren": 1613,
      "iam": 1614,
      "gin": 1615,
      "ĠEuro": 1616,
      "Ġhaving": 1617,
      "uture": 1618,
      "Ġsuccess": 1619,
      "Ġsing": 1620,
      "Ġexample": 1621,
      "Ġfive": 1622,
      "ĠAfter": 1623,
      "Ġocc": 1624,
      "raft": 1625,
      "aken": 1626,
      "Ġ]": 1627,
      "Ġwater": 1628,
      "Ġearly": 1629,
      "mber": 1630,
      "19": 1631,
      "une": 1632,
      "Ġi": 1633,
      "iously": 1634,
      "Ġlikely": 1635,
      "Ġeng": 1636,
      "Ġmedia": 1637,
      "ĠCol": 1638,
      "ague": 1639,
      "ãģ": 1640,
      "Ġwhether": 1641,
      "Ġappear": 1642,
      "verage": 1643,
      "Ġwithin": 1644,
      "empt": 1645,
      "Ġtoday": 1646,
      "idence": 1647,
      "Ġcommunity": 1648,
      "ched": 1649,
      "ium": 1650,
      "Ġarg": 1651,
      "ots": 1652,
      "Ġsure": 1653,
      "ones": 1654,
      "ories": 1655,
      "artment": 1656,
      "Ġcho": 1657,
      "Ġpress": 1658,
      "Ġfight": 1659,
      "Ġsex": 1660,
      "ĠRuss": 1661,
      "Ġinvol": 1662,
      "orld": 1663,
      "urs": 1664,
      "Ġant": 1665,
      "Ġdone": 1666,
      "Ġamong": 1667,
      "Ġactiv": 1668,
      "ĠObama": 1669,
      "Ġequ": 1670,
      "Ġwent": 1671,
      "Ġmilit": 1672,
      "lf": 1673,
      "ĠStates": 1674,
      "ially": 1675,
      "Ġprop": 1676,
      "ĠNot": 1677,
      "Ġlocal": 1678,
      "Ġshort": 1679,
      "Ġpot": 1680,
      "Ġonce": 1681,
      "sh": 1682,
      "ended": 1683,
      "Ġland": 1684,
      "Ġmonths": 1685,
      "ivid": 1686,
      "Ġfail": 1687,
      "ubl": 1688,
      "ĠHowever": 1689,
      "ef": 1690,
      "ĠState": 1691,
      "âĢ¦": 1692,
      "oci": 1693,
      "Ġproblem": 1694,
      "book": 1695,
      "ĠSen": 1696,
      "Ġside": 1697,
      "ators": 1698,
      "Ġavail": 1699,
      "Ġquestion": 1700,
      "AT": 1701,
      "Ġhour": 1702,
      "ortun": 1703,
      "Ġfilm": 1704,
      "Ġalong": 1705,
      "Ġcontrol": 1706,
      "Ġyet": 1707,
      "Ġreason": 1708,
      "ential": 1709,
      "Ġdesc": 1710,
      "Ġpriv": 1711,
      "Ġcertain": 1712,
      "ai": 1713,
      "ball": 1714,
      "vert": 1715,
      "nect": 1716,
      "iting": 1717,
      "Ġacross": 1718,
      "ourn": 1719,
      "Ġ&": 1720,
      "Ġmeans": 1721,
      "----": 1722,
      "Ġunderstand": 1723,
      "ĠEx": 1724,
      "Ġproduct": 1725,
      "Ġlight": 1726,
      "ederal": 1727,
      "inc": 1728,
      "Ġwrit": 1729,
      "Ġpossible": 1730,
      "ĠIm": 1731,
      "ĠHouse": 1732,
      "itive": 1733,
      "://": 1734,
      "Ġcourse": 1735,
      "Ġknown": 1736,
      "not": 1737,
      "ald": 1738,
      "ĠTe": 1739,
      "Ġfuture": 1740,
      "ĠEurope": 1741,
      "Ġauthor": 1742,
      "ulation": 1743,
      "Ġinvestig": 1744,
      "Ġ|": 1745,
      "aged": 1746,
      "ggest": 1747,
      "30": 1748,
      "Ġhold": 1749,
      "Ġmakes": 1750,
      "ored": 1751,
      "Ġgiven": 1752,
      "11": 1753,
      "Ġprotect": 1754,
      "Ġorig": 1755,
      "ĠFl": 1756,
      "ĠDon": 1757,
      "Ġbelieve": 1758,
      "imate": 1759,
      "Ġthought": 1760,
      "Ġstrong": 1761,
      "uff": 1762,
      "Ġsent": 1763,
      "ĠWhile": 1764,
      "Ġ*": 1765,
      "Ġasked": 1766,
      "por": 1767,
      "ober": 1768,
      "Ġmus": 1769,
      "itions": 1770,
      "Ġothers": 1771,
      "Ġhig": 1772,
      "ĠDemocr": 1773,
      "Ġprob": 1774,
      "Ġparty": 1775,
      "arm": 1776,
      "ĠSec": 1777,
      "ashing": 1778,
      "Ġsuggest": 1779,
      "back": 1780,
      "Ġlim": 1781,
      "Ġgetting": 1782,
      "Ġ,": 1783,
      "Ġnet": 1784,
      "Ġfoc": 1785,
      "Ġnon": 1786,
      "Ġ30": 1787,
      "Ġcut": 1788,
      "Ġident": 1789,
      "Ġemploy": 1790,
      "Ġannoun": 1791,
      "Ġpract": 1792,
      "Ġseries": 1793,
      "Ġlove": 1794,
      "ĠChrist": 1795,
      "Ġclose": 1796,
      "selves": 1797,
      "ĠUniversity": 1798,
      "iety": 1799,
      "Ġavailable": 1800,
      "'ve": 1801,
      "gress": 1802,
      "Ġreported": 1803,
      "ances": 1804,
      "lement": 1805,
      "Ġstarted": 1806,
      "ensive": 1807,
      "Ġnational": 1808,
      "iron": 1809,
      "ĠMin": 1810,
      "Ġcond": 1811,
      "aff": 1812,
      "Ġ2016": 1813,
      "Ġtoget": 1814,
      "Ġtogether": 1815,
      "of": 1816,
      "Ġfollowing": 1817,
      "Ġ:": 1818,
      "use": 1819,
      "Ġsour": 1820,
      "Ġ16": 1821,
      "Ġ2015": 1822,
      "ĠSu": 1823,
      "ien": 1824,
      "ands": 1825,
      "Ġindust": 1826,
      "ĠAmerica": 1827,
      "Ġvideo": 1828,
      "Ġbill": 1829,
      "Ġidea": 1830,
      "Ġago": 1831,
      "Ġcreat": 1832,
      "aster": 1833,
      "Ġsaf": 1834,
      "ability": 1835,
      "arr": 1836,
      "oll": 1837,
      "ww": 1838,
      "Ġmom": 1839,
      "ĠPr": 1840,
      "Ġbased": 1841,
      "Ġcourt": 1842,
      "though": 1843,
      "rael": 1844,
      "ler": 1845,
      "uly": 1846,
      "orts": 1847,
      "Ġalmost": 1848,
      "Ġimpro": 1849,
      "cher": 1850,
      "pro": 1851,
      "Ġmult": 1852,
      "Ġanal": 1853,
      "Ġtrying": 1854,
      "urther": 1855,
      "Ġsaying": 1856,
      "ĠCent": 1857,
      "Ġclear": 1858,
      "ument": 1859,
      "ividual": 1860,
      "ief": 1861,
      "Ġtrad": 1862,
      "my": 1863,
      "Ġisn": 1864,
      "Ġhistory": 1865,
      "ids": 1866,
      "ĠPol": 1867,
      "Ġrul": 1868,
      "Ġbene": 1869,
      "resent": 1870,
      "ĠGr": 1871,
      "reed": 1872,
      "IN": 1873,
      "erence": 1874,
      "Ġhtt": 1875,
      "rest": 1876,
      "Ġlow": 1877,
      "Ġcomes": 1878,
      "utes": 1879,
      "itional": 1880,
      "Ġanything": 1881,
      "Ġpar": 1882,
      "cer": 1883,
      "Ġdeath": 1884,
      "ĠCanad": 1885,
      "ilar": 1886,
      "Ġfood": 1887,
      "Ġissue": 1888,
      "ĠNorth": 1889,
      "Ġer": 1890,
      "ustom": 1891,
      ".,": 1892,
      "Ġphot": 1893,
      "irc": 1894,
      "Ġbad": 1895,
      "ĠX": 1896,
      "Ġlive": 1897,
      "af": 1898,
      "Ġ@": 1899,
      "ãĤ": 1900,
      "ĠHis": 1901,
      "12": 1902,
      "Ġmess": 1903,
      "Ġpresent": 1904,
      "ĠÂ": 1905,
      "Ġmor": 1906,
      "Ġcompet": 1907,
      "ream": 1908,
      "Ġbehind": 1909,
      "Ġmiss": 1910,
      "Ġindividual": 1911,
      "Ġexperience": 1912,
      "Ġris": 1913,
      "osp": 1914,
      "ination": 1915,
      "Ġcomplete": 1916,
      "Ġaccount": 1917,
      "Ġlooking": 1918,
      "ĠEd": 1919,
      "Ġener": 1920,
      "Ġadded": 1921,
      "Ġhalf": 1922,
      "ĠWorld": 1923,
      "inton": 1924,
      "Ġaccess": 1925,
      "Ġsix": 1926,
      "rop": 1927,
      "unch": 1928,
      "ged": 1929,
      "Ġarea": 1930,
      "ĠMan": 1931,
      "Ġsecurity": 1932,
      "Ġtre": 1933,
      "rown": 1934,
      "uge": 1935,
      "ON": 1936,
      "Ġ2014": 1937,
      "__": 1938,
      "ails": 1939,
      "Ġstudy": 1940,
      "Ġentire": 1941,
      "ĠEng": 1942,
      "Ġvict": 1943,
      "OR": 1944,
      "erman": 1945,
      "ĠNe": 1946,
      "Ġattempt": 1947,
      "Ġdiscuss": 1948,
      "Ġwanted": 1949,
      "Ġnear": 1950,
      "Ġtaken": 1951,
      "igr": 1952,
      "ĠJust": 1953,
      "witter": 1954,
      "ĠNational": 1955,
      "Ġrather": 1956,
      "ĠIsrael": 1957,
      "par": 1958,
      "wards": 1959,
      "ĠWar": 1960,
      "Ġtot": 1961,
      "Ġ13": 1962,
      "Ġface": 1963,
      "lling": 1964,
      "Ġproper": 1965,
      "Ġtry": 1966,
      "Ġmilitary": 1967,
      "Ġthreat": 1968,
      "Ġblack": 1969,
      "Ġdecision": 1970,
      "Ġquick": 1971,
      "Ġ17": 1972,
      "play": 1973,
      "Ġplayer": 1974,
      "raw": 1975,
      "Ġsum": 1976,
      "cially": 1977,
      "Ġ14": 1978,
      "ows": 1979,
      "Ġsomeone": 1980,
      "IS": 1981,
      "ĠAss": 1982,
      "ĠInst": 1983,
      "ministr": 1984,
      "ashington": 1985,
      "aid": 1986,
      "Ġbenef": 1987,
      "ĠNow": 1988,
      "go": 1989,
      "Ġfall": 1990,
      "Ġgeneral": 1991,
      "Ġconcern": 1992,
      "ĠClinton": 1993,
      "Ġcult": 1994,
      "ĠAust": 1995,
      "ĠFe": 1996,
      "sy": 1997,
      "Ġbody": 1998,
      "Ġsingle": 1999,
      "Ġredu": 2000,
      "ĠCal": 2001,
      "Ġsw": 2002,
      "Ġfav": 2003,
      "Ġdoc": 2004,
      "Ġmass": 2005,
      "'m": 2006,
      "Ġsuper": 2007,
      "Ġmind": 2008,
      "Ġlearn": 2009,
      "ĠThese": 2010,
      "Ġspecial": 2011,
      "Ġtaking": 2012,
      "Ġcou": 2013,
      "Ġcomb": 2014,
      "Ġenergy": 2015,
      "ĠDep": 2016,
      "ĠApp": 2017,
      "Ġresearch": 2018,
      "Ġcoun": 2019,
      "Ġprobably": 2020,
      "ĠSome": 2021,
      "Ġhowever": 2022,
      "ĠGe": 2023,
      "ĠChina": 2024,
      "aper": 2025,
      "Ġnothing": 2026,
      "Ġwhole": 2027,
      "Ġaut": 2028,
      "Ġelse": 2029,
      "Ġsignific": 2030,
      "ĠBrit": 2031,
      "irl": 2032,
      "ĠWashington": 2033,
      "Ġcand": 2034,
      "Ġrelations": 2035,
      "Ġspace": 2036,
      "Ġservice": 2037,
      "Ġkey": 2038,
      "off": 2039,
      "ĠPart": 2040,
      "Ġz": 2041,
      "Ġpubl": 2042,
      "Ġsal": 2043,
      "amed": 2044,
      "Ġconv": 2045,
      "viron": 2046,
      "Ġpoints": 2047,
      "Ġcoming": 2048,
      "ĠMy": 2049,
      "rug": 2050,
      "ĠRes": 2051,
      "Ġwa": 2052,
      "ĠPe": 2053,
      "Ġbring": 2054,
      "sw": 2055,
      "ĠAct": 2056,
      "ape": 2057,
      "over": 2058,
      "ply": 2059,
      "asing": 2060,
      "cing": 2061,
      "ĠCity": 2062,
      "Ġconnect": 2063,
      "ming": 2064,
      "Ġsimilar": 2065,
      "AN": 2066,
      "Ġpolicy": 2067,
      "Ġmeas": 2068,
      "Ġchall": 2069,
      "**": 2070,
      "Ġjo": 2071,
      "reme": 2072,
      "ively": 2073,
      "Ġsus": 2074,
      "str": 2075,
      "Ġpret": 2076,
      "ĠAb": 2077,
      "ager": 2078,
      "Ġeither": 2079,
      "pping": 2080,
      "arter": 2081,
      "icult": 2082,
      "ify": 2083,
      "mb": 2084,
      "Ġcreate": 2085,
      "olution": 2086,
      "Ġtrue": 2087,
      "Ġrole": 2088,
      "arth": 2089,
      "ĠAf": 2090,
      "Ġexist": 2091,
      "Ġenc": 2092,
      "elt": 2093,
      "Ġimm": 2094,
      "Ġrepl": 2095,
      "Ġdescrib": 2096,
      "ully": 2097,
      "anies": 2098,
      "ĠDav": 2099,
      ".)": 2100,
      "Ġrights": 2101,
      "16": 2102,
      "ĠBy": 2103,
      "Ġbegan": 2104,
      "Ġofficials": 2105,
      "Ġstat": 2106,
      "Ġdevelopment": 2107,
      "aul": 2108,
      "Ġfront": 2109,
      "15": 2110,
      "Ġfederal": 2111,
      "ently": 2112,
      "Ġfoot": 2113,
      "nes": 2114,
      "Ġ198": 2115,
      "itted": 2116,
      "Ġstop": 2117,
      "lim": 2118,
      "aces": 2119,
      "lease": 2120,
      "Ġfeat": 2121,
      "ches": 2122,
      "rote": 2123,
      "acebook": 2124,
      "Ġ2013": 2125,
      "Ġhouse": 2126,
      "Ġcharacter": 2127,
      "ĠIntern": 2128,
      "ĠSouth": 2129,
      "Ġstudents": 2130,
      "now": 2131,
      "In": 2132,
      "Ġstates": 2133,
      "Ġtreat": 2134,
      "Ġseems": 2135,
      "Ġthird": 2136,
      "Ġstatement": 2137,
      "Ġbreak": 2138,
      "Ġpain": 2139,
      "lu": 2140,
      "Ġthemselves": 2141,
      "Ġeverything": 2142,
      "Ġfire": 2143,
      "ĠMe": 2144,
      "Ġfield": 2145,
      "ault": 2146,
      "sec": 2147,
      "Ġoutside": 2148,
      "Ġcustom": 2149,
      "Ġgun": 2150,
      "iday": 2151,
      "AR": 2152,
      "abl": 2153,
      "ĠDr": 2154,
      "anks": 2155,
      "Ġbegin": 2156,
      "ades": 2157,
      "pecially": 2158,
      "Ġdom": 2159,
      "Ġstri": 2160,
      "Ġ2012": 2161,
      "iod": 2162,
      "Ġopt": 2163,
      "Ġaction": 2164,
      "umb": 2165,
      "ung": 2166,
      "pite": 2167,
      "Ġsound": 2168,
      "Ġpick": 2169,
      "Ġcompl": 2170,
      "Ġstep": 2171,
      "Ġamount": 2172,
      "ili": 2173,
      "oid": 2174,
      "Ġissues": 2175,
      "Ġposition": 2176,
      "Ġfurther": 2177,
      "Ġroom": 2178,
      "Ġrepresent": 2179,
      "Ġwrote": 2180,
      "Ġcountries": 2181,
      "ĠWest": 2182,
      "ĠDo": 2183,
      "ĠAcc": 2184,
      "Ġfriends": 2185,
      "BC": 2186,
      "Ġ25": 2187,
      "Ġversion": 2188,
      "ES": 2189,
      "ana": 2190,
      "Ġlarg": 2191,
      "Ġwatch": 2192,
      "Ġexec": 2193,
      "Ġaddress": 2194,
      "Ġfinal": 2195,
      "Ġey": 2196,
      "Ġspecific": 2197,
      "Ġleaders": 2198,
      "eal": 2199,
      "Ġhit": 2200,
      "ĠMed": 2201,
      "vironment": 2202,
      "ilt": 2203,
      "ender": 2204,
      "ibility": 2205,
      "Ġsignificant": 2206,
      "ried": 2207,
      "ĠEn": 2208,
      "head": 2209,
      "ĠJan": 2210,
      ");": 2211,
      "eks": 2212,
      "Ġshows": 2213,
      "uation": 2214,
      "Ġprovide": 2215,
      "ev": 2216,
      "Ġ2017": 2217,
      "lam": 2218,
      "Ġlab": 2219,
      "ffic": 2220,
      "like": 2221,
      "Ġinit": 2222,
      "Ġdue": 2223,
      "yn": 2224,
      "Ġmatter": 2225,
      "Ġself": 2226,
      "ĠGu": 2227,
      "ĠCour": 2228,
      "ĠMus": 2229,
      "Ġtarg": 2230,
      "ĠFacebook": 2231,
      "Ġneg": 2232,
      "Ġprofess": 2233,
      "iddle": 2234,
      "Ġbuilding": 2235,
      "Ġmag": 2236,
      "ky": 2237,
      "Ġfig": 2238,
      "obal": 2239,
      "Ġred": 2240,
      "Ġbelow": 2241,
      "Ġeveryone": 2242,
      "Ġitself": 2243,
      "Ġoffice": 2244,
      "Ġreleased": 2245,
      "oon": 2246,
      "ograph": 2247,
      "Ġcompanies": 2248,
      "ĠMich": 2249,
      "aced": 2250,
      "amer": 2251,
      "duct": 2252,
      "Ġmusic": 2253,
      "Ġwasn": 2254,
      "Ġbecame": 2255,
      "Ġinclude": 2256,
      "Ġhours": 2257,
      "arlier": 2258,
      "Ġabove": 2259,
      "Ġrespons": 2260,
      "Ġcandid": 2261,
      "Ġneeded": 2262,
      "Ġrunning": 2263,
      "ĠIr": 2264,
      "Ġinterview": 2265,
      "Ġdifficult": 2266,
      "Ġparent": 2267,
      "Ġevidence": 2268,
      "'ll": 2269,
      "Ġagree": 2270,
      "ĠBar": 2271,
      "ask": 2272,
      "Ġvote": 2273,
      "ivil": 2274,
      "Ġsimply": 2275,
      "Ġelection": 2276,
      "Ġinj": 2277,
      "Ġjud": 2278,
      "oke": 2279,
      "Ġsaw": 2280,
      "Ġcommon": 2281,
      "Ġrad": 2282,
      "ĠSyri": 2283,
      "Ġtem": 2284,
      "unt": 2285,
      "Ġlat": 2286,
      "Ġ{": 2287,
      "Ġdeter": 2288,
      "Ġcontinue": 2289,
      "âĢĵ": 2290,
      "Ġ100": 2291,
      "hod": 2292,
      "Ġground": 2293,
      "Ġdou": 2294,
      "Ġbillion": 2295,
      "Ġadministr": 2296,
      "Ġrelease": 2297,
      "Ġindustry": 2298,
      "Ġcharg": 2299,
      "angu": 2300,
      "Ġhimself": 2301,
      "oring": 2302,
      "ĠTwitter": 2303,
      "irt": 2304,
      "Ġweeks": 2305,
      "ival": 2306,
      "Ġphys": 2307,
      "ote": 2308,
      "reg": 2309,
      "atives": 2310,
      "attle": 2311,
      "ĠSept": 2312,
      "ural": 2313,
      "Ġperiod": 2314,
      "Ġplayed": 2315,
      "ĠNews": 2316,
      "ÌĪ": 2317,
      "Ġtyp": 2318,
      "body": 2319,
      "Ġcop": 2320,
      "EN": 2321,
      "Ġgroups": 2322,
      "ĠWhite": 2323,
      "ery": 2324,
      "Ġexc": 2325,
      "Ġinstead": 2326,
      "Ġball": 2327,
      "Ġdeep": 2328,
      "ights": 2329,
      "Ġwoman": 2330,
      "Ġdam": 2331,
      "Ġquite": 2332,
      "Ġeduc": 2333,
      "Ġlost": 2334,
      "Ġplaying": 2335,
      "ĠCar": 2336,
      "yle": 2337,
      "ĠWill": 2338,
      "ĠGerman": 2339,
      "Ġlegal": 2340,
      "Ġfocus": 2341,
      "Ġhom": 2342,
      "Ġforward": 2343,
      "Ġ/": 2344,
      "ring": 2345,
      "Ġneeds": 2346,
      "ĠRepublican": 2347,
      "13": 2348,
      "Ġshoot": 2349,
      "Ġchanges": 2350,
      "aut": 2351,
      "Ġcirc": 2352,
      "Ġespecially": 2353,
      "epend": 2354,
      "ribut": 2355,
      "14": 2356,
      "ij": 2357,
      "ournal": 2358,
      "ser": 2359,
      "Ġgen": 2360,
      "Ġobject": 2361,
      "ĠSm": 2362,
      "irm": 2363,
      "Ġonline": 2364,
      "lev": 2365,
      "ancial": 2366,
      "Ġanim": 2367,
      "Ġabs": 2368,
      "ĠMore": 2369,
      "Ġpretty": 2370,
      "den": 2371,
      "Ġlate": 2372,
      "Ġshare": 2373,
      "ĠSte": 2374,
      "ament": 2375,
      "Ġvalue": 2376,
      "ule": 2377,
      "Ġhost": 2378,
      "where": 2379,
      "Ġhigher": 2380,
      "AS": 2381,
      "osing": 2382,
      "Ġdest": 2383,
      "Ġopportun": 2384,
      "17": 2385,
      "ĠCourt": 2386,
      "time": 2387,
      "Ġlo": 2388,
      "isc": 2389,
      "istic": 2390,
      "Ġconsider": 2391,
      "ĠCong": 2392,
      "ĠHar": 2393,
      "Ġsense": 2394,
      "Ġwrong": 2395,
      "ĠOct": 2396,
      "Ġaccept": 2397,
      "Ġblock": 2398,
      "18": 2399,
      "Ġdrug": 2400,
      "ĠJune": 2401,
      "Ġheld": 2402,
      "Ġhope": 2403,
      "ham": 2404,
      "ift": 2405,
      "Ġreview": 2406,
      "ogn": 2407,
      "Ġlonger": 2408,
      "oe": 2409,
      "ĠHill": 2410,
      "Ġeconomic": 2411,
      "rodu": 2412,
      "cil": 2413,
      "Ġcode": 2414,
      "Ġsoon": 2415,
      "Ġtit": 2416,
      "Ġworks": 2417,
      "iple": 2418,
      "reet": 2419,
      "Ġrecently": 2420,
      "Ġresults": 2421,
      "itting": 2422,
      "Ġ50": 2423,
      "Ġrespect": 2424,
      "Ġbar": 2425,
      "Ġce": 2426,
      "lege": 2427,
      "Ġapplic": 2428,
      "This": 2429,
      "medi": 2430,
      "Ġled": 2431,
      "Ġmoment": 2432,
      "Ġcred": 2433,
      "ĠEm": 2434,
      "ularly": 2435,
      "Ġalleg": 2436,
      "bit": 2437,
      "ned": 2438,
      "Ġwind": 2439,
      "action": 2440,
      "ittee": 2441,
      "Ġpotential": 2442,
      "cial": 2443,
      "anger": 2444,
      "ĠUK": 2445,
      "Ġanyone": 2446,
      "Ġtechnology": 2447,
      "Ġsite": 2448,
      "ples": 2449,
      "put": 2450,
      "Ġtrack": 2451,
      "Ġdi": 2452,
      "iding": 2453,
      "Ġstru": 2454,
      "Ġproblems": 2455,
      "ĠHere": 2456,
      "Ġarticle": 2457,
      "su": 2458,
      "Ġcontent": 2459,
      "Ġprim": 2460,
      "Ġansw": 2461,
      "ole": 2462,
      "onse": 2463,
      "Ġdecl": 2464,
      "ique": 2465,
      "Ġmot": 2466,
      "oph": 2467,
      "ĠDepartment": 2468,
      "Ġwalk": 2469,
      "ĠAccording": 2470,
      "Ġep": 2471,
      "aging": 2472,
      "Ġaverage": 2473,
      "ĠFriday": 2474,
      "Ġgoal": 2475,
      "Ġcannot": 2476,
      "St": 2477,
      "Ġap": 2478,
      "Ġrelationship": 2479,
      "hel": 2480,
      "Ġ2011": 2481,
      "Ġincrease": 2482,
      "Ġden": 2483,
      "ogle": 2484,
      "Ġaud": 2485,
      "ĠAug": 2486,
      "Ġ24": 2487,
      "Ġenvironment": 2488,
      "Ġwords": 2489,
      "ners": 2490,
      "Ġrev": 2491,
      "asons": 2492,
      "na": 2493,
      "Ġwebs": 2494,
      "Ġconsum": 2495,
      "fer": 2496,
      "Ġpie": 2497,
      "Ġreve": 2498,
      "Ġreceived": 2499,
      "Ġexpected": 2500,
      "Ġrelig": 2501,
      "25": 2502,
      "ael": 2503,
      "60": 2504,
      "ĠTV": 2505,
      "Ġage": 2506,
      "ĠMarch": 2507,
      "ĠQu": 2508,
      "Ġcontract": 2509,
      "Ġcreated": 2510,
      "Ġtotal": 2511,
      "Ġminutes": 2512,
      "ached": 2513,
      "ĠEven": 2514,
      "aving": 2515,
      "Ġstay": 2516,
      "ees": 2517,
      "ĠJuly": 2518,
      "lear": 2519,
      "ises": 2520,
      "ients": 2521,
      "Ġpred": 2522,
      "rel": 2523,
      "haps": 2524,
      "Ġpopular": 2525,
      "Ġhttp": 2526,
      "isl": 2527,
      "itution": 2528,
      "ĠPer": 2529,
      "Ġservices": 2530,
      "Ġwhite": 2531,
      "Ġ197": 2532,
      "Ġforce": 2533,
      "ores": 2534,
      "iter": 2535,
      "Ġdead": 2536,
      "ĠPal": 2537,
      "usion": 2538,
      "omm": 2539,
      "Ġnecess": 2540,
      "Ġinternational": 2541,
      "Ġinvolved": 2542,
      "Ġcheck": 2543,
      "Ġpack": 2544,
      "ĠSpe": 2545,
      "ends": 2546,
      "Ġprivate": 2547,
      "Ġcoll": 2548,
      "Ġcomput": 2549,
      "Ġupd": 2550,
      "itiz": 2551,
      "hern": 2552,
      "Ġbase": 2553,
      "Ġcal": 2554,
      "ĠRed": 2555,
      "Ġanti": 2556,
      "Ġsurpr": 2557,
      "right": 2558,
      "Ġfunction": 2559,
      "Ġways": 2560,
      "ilities": 2561,
      "Ġnearly": 2562,
      "bo": 2563,
      "Ġimpact": 2564,
      "fect": 2565,
      "ĠAustral": 2566,
      "Ġsen": 2567,
      "key": 2568,
      "Ġusers": 2569,
      "Ġannounced": 2570,
      "Ġhy": 2571,
      "ĠCont": 2572,
      "Ġclub": 2573,
      "ĠTues": 2574,
      "ests": 2575,
      "Ġrisk": 2576,
      "Ġspeak": 2577,
      "Ġstaff": 2578,
      "rap": 2579,
      "Ġsold": 2580,
      "Ġcomment": 2581,
      "Ġterror": 2582,
      "Ġnation": 2583,
      "ript": 2584,
      "uel": 2585,
      "Ġoriginal": 2586,
      "Ġdiv": 2587,
      "Ġsubject": 2588,
      "Ġestabl": 2589,
      "Ġlangu": 2590,
      "ĠAg": 2591,
      "ĠHer": 2592,
      "ĠTuesday": 2593,
      "Wh": 2594,
      "ĠApr": 2595,
      "Ġpersonal": 2596,
      "Ġquestions": 2597,
      "Ġrate": 2598,
      "de": 2599,
      "Ġscient": 2600,
      "Ġexecut": 2601,
      "Ġworked": 2602,
      "Ġliving": 2603,
      "ĠEl": 2604,
      "Ġinside": 2605,
      "ĠSch": 2606,
      "Ġsoft": 2607,
      "Ġport": 2608,
      "Ġeasy": 2609,
      "lt": 2610,
      "uary": 2611,
      "ĠDes": 2612,
      "Ġsqu": 2613,
      "Ġearlier": 2614,
      "Ġcases": 2615,
      "Ġfinancial": 2616,
      "aterial": 2617,
      "ĠCongress": 2618,
      "40": 2619,
      "ude": 2620,
      "ctor": 2621,
      "ĠGl": 2622,
      "Ġleave": 2623,
      "ĠMond": 2624,
      "Ġexact": 2625,
      "Ġplans": 2626,
      "aur": 2627,
      "lled": 2628,
      "joy": 2629,
      "Ġresponse": 2630,
      "ollow": 2631,
      "Ġkilled": 2632,
      "ams": 2633,
      "rought": 2634,
      "eter": 2635,
      "Ġshot": 2636,
      "Ġbecom": 2637,
      "ĠGod": 2638,
      "Ġmethod": 2639,
      "load": 2640,
      "Ġvol": 2641,
      "rect": 2642,
      "ĠGoogle": 2643,
      "Ġdefin": 2644,
      "Ġmodel": 2645,
      "ateg": 2646,
      "ips": 2647,
      "Ġdirector": 2648,
      "Ġbuy": 2649,
      "Ġexpress": 2650,
      "Ġlack": 2651,
      "osition": 2652,
      "Ġarrest": 2653,
      "Ġability": 2654,
      "ĠCor": 2655,
      "Ġassoci": 2656,
      "val": 2657,
      "itten": 2658,
      "Ġtou": 2659,
      "Ġroad": 2660,
      "Ġgave": 2661,
      "Ġheart": 2662,
      "ĠAmericans": 2663,
      "Ġfem": 2664,
      "ĠApril": 2665,
      "oved": 2666,
      "urch": 2667,
      "Ġnetwork": 2668,
      "Ġworth": 2669,
      "Ġparticip": 2670,
      "ze": 2671,
      "ĠSer": 2672,
      "izing": 2673,
      "Ġglobal": 2674,
      "Ġchance": 2675,
      "Ġgoes": 2676,
      "Ġbroad": 2677,
      "Ġmother": 2678,
      "oud": 2679,
      "ĠPaul": 2680,
      "ĠDavid": 2681,
      "Ġsource": 2682,
      "Ġtakes": 2683,
      "ĠSan": 2684,
      "ĠSeptember": 2685,
      "ĠGeor": 2686,
      "based": 2687,
      "Ġrequire": 2688,
      "Ġ...": 2689,
      "order": 2690,
      "ellig": 2691,
      "Ġtarget": 2692,
      "ĠFirst": 2693,
      "hood": 2694,
      "Ġtype": 2695,
      "bor": 2696,
      "Ġprice": 2697,
      "He": 2698,
      "apan": 2699,
      "ĠCalif": 2700,
      "Ġadm": 2701,
      "Ġworkers": 2702,
      "iment": 2703,
      "Ġimmedi": 2704,
      "Ġrespond": 2705,
      "ires": 2706,
      "ought": 2707,
      "Ġfavor": 2708,
      "che": 2709,
      "Ġmid": 2710,
      "ĠCount": 2711,
      "ills": 2712,
      "Ġdecided": 2713,
      "ray": 2714,
      "Ġgirl": 2715,
      "ĠMonday": 2716,
      "ging": 2717,
      "ops": 2718,
      "Ġ40": 2719,
      "Ġmeeting": 2720,
      "rem": 2721,
      "lex": 2722,
      "Ġ)": 2723,
      "oto": 2724,
      "ĠIslam": 2725,
      "Ġpublished": 2726,
      "Ġbehav": 2727,
      "Ġemer": 2728,
      "urd": 2729,
      "ĠThen": 2730,
      "ĠWed": 2731,
      "ĠSund": 2732,
      "ino": 2733,
      "icated": 2734,
      "Ġtal": 2735,
      "Ġfans": 2736,
      "okes": 2737,
      "Ġcapital": 2738,
      "\".": 2739,
      "Ġtool": 2740,
      "Ġpict": 2741,
      "Ġterms": 2742,
      "bl": 2743,
      "Ġ}": 2744,
      "Ġhappened": 2745,
      "Ġpers": 2746,
      "Ġevents": 2747,
      "Ġ2010": 2748,
      "Ġperformance": 2749,
      "Ġcurrently": 2750,
      "cast": 2751,
      "alt": 2752,
      "Ġfather": 2753,
      "Ġâ": 2754,
      "Ġreports": 2755,
      "Ġcollect": 2756,
      "Ġcareer": 2757,
      "Ġaffect": 2758,
      "Ġet": 2759,
      "ãĥ": 2760,
      "ursday": 2761,
      "atural": 2762,
      "Ġsituation": 2763,
      "ication": 2764,
      "ety": 2765,
      "icro": 2766,
      "Ġapproach": 2767,
      "Ġquickly": 2768,
      "Ġmember": 2769,
      "fully": 2770,
      "mon": 2771,
      "Ġwhose": 2772,
      "AL": 2773,
      "Ġemail": 2774,
      "Ġregard": 2775,
      "Ġturned": 2776,
      "Ġnorm": 2777,
      "Ġur": 2778,
      "Ġloss": 2779,
      "Ġmis": 2780,
      "Ġcause": 2781,
      "Ġbank": 2782,
      "Ġsimple": 2783,
      "ĠIS": 2784,
      "ĠTw": 2785,
      "ovember": 2786,
      "Ġoil": 2787,
      "Ġadministration": 2788,
      "Ġlower": 2789,
      "Ġlog": 2790,
      "ny": 2791,
      "ĠPost": 2792,
      "ĠThursday": 2793,
      "Ġcy": 2794,
      "Ġsuff": 2795,
      "ĠJapan": 2796,
      "ological": 2797,
      "Ġimprove": 2798,
      "ondon": 2799,
      "ĠPar": 2800,
      "Ġ21": 2801,
      "Ġcover": 2802,
      "Ġthous": 2803,
      "Ġrepe": 2804,
      "Ġnumbers": 2805,
      "Ġhon": 2806,
      "omb": 2807,
      "cember": 2808,
      "Ġcouple": 2809,
      "Ġcivil": 2810,
      "Ġboy": 2811,
      "Ġsett": 2812,
      "Ġenjoy": 2813,
      "ĠAugust": 2814,
      "Ġheard": 2815,
      "Ġround": 2816,
      "Ġtravel": 2817,
      "Ġfre": 2818,
      "Ġteams": 2819,
      "Ġinflu": 2820,
      "Ġtried": 2821,
      "Ġ22": 2822,
      "Ġarri": 2823,
      "Ġste": 2824,
      "Ġrace": 2825,
      "Ġfear": 2826,
      "Ġpoll": 2827,
      "Ġmaterial": 2828,
      "iction": 2829,
      "ĠWednes": 2830,
      "eed": 2831,
      "Ġtown": 2832,
      "Ġweap": 2833,
      "idered": 2834,
      "Ġknew": 2835,
      "force": 2836,
      "Ġill": 2837,
      "chie": 2838,
      "Ġhuge": 2839,
      "ett": 2840,
      "Ġspent": 2841,
      "Ġlives": 2842,
      "Ġpull": 2843,
      "istan": 2844,
      "ĠKe": 2845,
      "Ġengine": 2846,
      "ĠAng": 2847,
      "Ġsepar": 2848,
      "ĠNovember": 2849,
      "ĠSenate": 2850,
      "ĠJanuary": 2851,
      "oo": 2852,
      "ceed": 2853,
      "uses": 2854,
      "Ġsecret": 2855,
      "ĠWednesday": 2856,
      "Ġbud": 2857,
      "avy": 2858,
      "estern": 2859,
      "Ġvictim": 2860,
      "ruction": 2861,
      "rain": 2862,
      "vertise": 2863,
      "ĠSunday": 2864,
      "Ġoffer": 2865,
      "Ġgets": 2866,
      "ĠDecember": 2867,
      "Ġsize": 2868,
      "Ġlegisl": 2869,
      "gest": 2870,
      "Ġallowed": 2871,
      "ornia": 2872,
      "Ġwebsite": 2873,
      "ites": 2874,
      "ech": 2875,
      "ĠOctober": 2876,
      "ese": 2877,
      "Ġforeign": 2878,
      "Ġproduction": 2879,
      "ED": 2880,
      "ban": 2881,
      "Ġincluded": 2882,
      "Ġneigh": 2883,
      "Ġprevious": 2884,
      "Ġrules": 2885,
      "arily": 2886,
      "You": 2887,
      "Ġvisit": 2888,
      "Ġwants": 2889,
      "Ġdoll": 2890,
      "agement": 2891,
      "ĠOf": 2892,
      "atory": 2893,
      "Ġord": 2894,
      "Ġareas": 2895,
      "Ġvia": 2896,
      "Ġbrought": 2897,
      "Ġbi": 2898,
      "ĠBro": 2899,
      "Ġtrade": 2900,
      "ĠEuropean": 2901,
      "ĠCanada": 2902,
      "ĠBritish": 2903,
      "ĠStreet": 2904,
      "ĠFeb": 2905,
      "Ġcard": 2906,
      "Ġfast": 2907,
      "serv": 2908,
      "Ġboard": 2909,
      "Ġcontact": 2910,
      "istrict": 2911,
      "alled": 2912,
      "Ġprep": 2913,
      "Ġpopulation": 2914,
      "ĠParty": 2915,
      "Ġtext": 2916,
      "Ġconsidered": 2917,
      "ĠRussia": 2918,
      "Ġdemand": 2919,
      "Ġbuilt": 2920,
      "Ġreveal": 2921,
      "Ġphone": 2922,
      "Ġhands": 2923,
      "aily": 2924,
      "Ġveh": 2925,
      "ĠLondon": 2926,
      "cies": 2927,
      "raz": 2928,
      "ĠCalifornia": 2929,
      "ened": 2930,
      "ĠMichael": 2931,
      "Ġfelt": 2932,
      "orters": 2933,
      "Ġfair": 2934,
      "Ġrecogn": 2935,
      "Ġparticular": 2936,
      "ĠMcC": 2937,
      "ishing": 2938,
      "ume": 2939,
      "Ġupon": 2940,
      "sych": 2941,
      "Ġdig": 2942,
      "face": 2943,
      "ences": 2944,
      "ĠPat": 2945,
      "'d": 2946,
      "Ġdemon": 2947,
      "Ġgrowth": 2948,
      "Ġdro": 2949,
      "ĠChe": 2950,
      "Ġcitiz": 2951,
      "ĠAfric": 2952,
      "Ġ+": 2953,
      "ining": 2954,
      "Ġintrodu": 2955,
      "ĠIndia": 2956,
      "yond": 2957,
      "fl": 2958,
      "room": 2959,
      "ession": 2960,
      "Ġimage": 2961,
      "ma": 2962,
      "aturday": 2963,
      "uments": 2964,
      "ĠDonald": 2965,
      "down": 2966,
      "Ġlevels": 2967,
      "ctions": 2968,
      "Ġtraining": 2969,
      "idents": 2970,
      "ĠFollow": 2971,
      "If": 2972,
      "Ġwide": 2973,
      "undred": 2974,
      "Ġparents": 2975,
      "ening": 2976,
      "Ġmovement": 2977,
      "pper": 2978,
      "ructure": 2979,
      "ĠPark": 2980,
      "100": 2981,
      "ecause": 2982,
      "ĠFrom": 2983,
      "Ġexam": 2984,
      "rowd": 2985,
      "Ġleader": 2986,
      "Ġforces": 2987,
      "Ġeconomy": 2988,
      "Ġspeed": 2989,
      "ĠMark": 2990,
      "Ġperfect": 2991,
      "Ġ23": 2992,
      "Ġcoach": 2993,
      "hold": 2994,
      "aker": 2995,
      "ĠRead": 2996,
      "ysis": 2997,
      "Ġseven": 2998,
      "There": 2999,
      "ĠBlack": 3000,
      "ĠEast": 3001,
      "apt": 3002,
      "utions": 3003,
      "sequ": 3004,
      "Ġattention": 3005,
      "==": 3006,
      "king": 3007,
      "raq": 3008,
      "ĠFin": 3009,
      "âĢĿ.": 3010,
      "Ġeffort": 3011,
      "ĠTur": 3012,
      "Ġpractice": 3013,
      "ĠSw": 3014,
      "Ġconserv": 3015,
      "come": 3016,
      "Ġlooks": 3017,
      "cle": 3018,
      "ha": 3019,
      "Ġhot": 3020,
      "ĠInt": 3021,
      "Ġkids": 3022,
      "Ġwond": 3023,
      "ĠKing": 3024,
      "Ġachie": 3025,
      "Ġbur": 3026,
      "ĠSim": 3027,
      "ĠMor": 3028,
      "ground": 3029,
      "Ġlatest": 3030,
      "Ġslow": 3031,
      "Ġstrugg": 3032,
      "pir": 3033,
      "Ġreach": 3034,
      "Ġconduct": 3035,
      "Ġmorning": 3036,
      "anced": 3037,
      "\",": 3038,
      "Ġess": 3039,
      "ĠKore": 3040,
      "ĠMuslim": 3041,
      "ĠTH": 3042,
      "ĠSaturday": 3043,
      "Ġmatch": 3044,
      "ĠRussian": 3045,
      "vent": 3046,
      "chers": 3047,
      "âĢĶâĢĶ": 3048,
      "Ġpaper": 3049,
      "rench": 3050,
      "Ġsexual": 3051,
      "asc": 3052,
      "aries": 3053,
      "ĠIraq": 3054,
      "Ġimmigr": 3055,
      "Ġmessage": 3056,
      "Ġdocument": 3057,
      "Ġpage": 3058,
      "Ġregul": 3059,
      "Ġindepend": 3060,
      "ĠRepublicans": 3061,
      "ospital": 3062,
      "AC": 3063,
      "Ġliber": 3064,
      "Ġresour": 3065,
      "Ġlink": 3066,
      "Ġmultiple": 3067,
      "imin": 3068,
      "Ġmedical": 3069,
      "200": 3070,
      "aming": 3071,
      "Ġexperien": 3072,
      "oor": 3073,
      "ĠCons": 3074,
      "iant": 3075,
      "Ġcell": 3076,
      "ĠLab": 3077,
      "ibr": 3078,
      "Ġsort": 3079,
      "Ġvo": 3080,
      "ification": 3081,
      "Ġrac": 3082,
      "inese": 3083,
      "22": 3084,
      "--------": 3085,
      "Ġcritic": 3086,
      "Ġfeatures": 3087,
      "tr": 3088,
      "ĠTimes": 3089,
      "Ġ2008": 3090,
      "ibly": 3091,
      "Ġprevent": 3092,
      "?âĢĿ": 3093,
      "Ġbox": 3094,
      "Ġcapt": 3095,
      "Ġens": 3096,
      "ĠArab": 3097,
      "Ġmention": 3098,
      "Ġincreasing": 3099,
      "Ġinvestigation": 3100,
      "Ġlanguage": 3101,
      "ĠOther": 3102,
      "Ġ<": 3103,
      "Ġwritten": 3104,
      "IT": 3105,
      "ledge": 3106,
      "Ġextra": 3107,
      "Ġaddition": 3108,
      "Ġopportunity": 3109,
      "Ġsens": 3110,
      "Ġmob": 3111,
      "Ġcompletely": 3112,
      "inks": 3113,
      "Ġcross": 3114,
      "Ġund": 3115,
      "bed": 3116,
      "ĠJe": 3117,
      "Ġofficers": 3118,
      "Ġtalking": 3119,
      "idge": 3120,
      "ida": 3121,
      "Ġprogress": 3122,
      "Ġvarious": 3123,
      "eth": 3124,
      "Ġhor": 3125,
      "imately": 3126,
      "ges": 3127,
      "Ġreb": 3128,
      "ĠNet": 3129,
      "Ġbiggest": 3130,
      "Ġuser": 3131,
      "Ġpurch": 3132,
      "Ġsafe": 3133,
      "akers": 3134,
      "Ġviolence": 3135,
      "Ġdemonstr": 3136,
      "Ġsometimes": 3137,
      "atform": 3138,
      "Ġsong": 3139,
      "Ġcarry": 3140,
      "lying": 3141,
      "Ġmiddle": 3142,
      "OS": 3143,
      "ĠJew": 3144,
      "Ġprior": 3145,
      "Ph": 3146,
      "Ġpan": 3147,
      "Ġmovie": 3148,
      "][": 3149,
      "Ġrequired": 3150,
      "irth": 3151,
      "ĠPolice": 3152,
      "light": 3153,
      "uf": 3154,
      "uk": 3155,
      "Ġdespite": 3156,
      "Ġanswer": 3157,
      "Ġsystems": 3158,
      "Ġattacks": 3159,
      "tain": 3160,
      "Ġserious": 3161,
      "Ġextreme": 3162,
      "elligence": 3163,
      "Ġbott": 3164,
      "set": 3165,
      "Ġpurp": 3166,
      "eared": 3167,
      "Ġson": 3168,
      "Ġpen": 3169,
      "Ġeducation": 3170,
      "Ġmach": 3171,
      "ĠBel": 3172,
      "new": 3173,
      "ĠComp": 3174,
      "Ġproducts": 3175,
      "Ġhear": 3176,
      "Ġhundred": 3177,
      "ĠChinese": 3178,
      "Ġprison": 3179,
      "ĠRom": 3180,
      "ĠCenter": 3181,
      "Ġ27": 3182,
      "reedom": 3183,
      "OP": 3184,
      "ari": 3185,
      "unk": 3186,
      "ĠLet": 3187,
      "Ġclos": 3188,
      "Ġjobs": 3189,
      "Ġjournal": 3190,
      "Ġclaims": 3191,
      "icles": 3192,
      "entially": 3193,
      "Ġmajority": 3194,
      "IC": 3195,
      "Ġquality": 3196,
      "ĠSuper": 3197,
      "Ġsociety": 3198,
      "ension": 3199,
      "field": 3200,
      "ĠCr": 3201,
      "ications": 3202,
      "acher": 3203,
      "Ġaren": 3204,
      "Ġobv": 3205,
      "ille": 3206,
      "ĠGener": 3207,
      "Ġquarter": 3208,
      "Ġnamed": 3209,
      "Ġpoor": 3210,
      "ĠCoun": 3211,
      "US": 3212,
      "omp": 3213,
      "Ġlooked": 3214,
      "ico": 3215,
      "Ġstories": 3216,
      "ĠIran": 3217,
      "ĠTex": 3218,
      "Ġsearch": 3219,
      "Ġguys": 3220,
      "32": 3221,
      "Ġguy": 3222,
      "ĠSci": 3223,
      "Ġparticularly": 3224,
      "Ġchanged": 3225,
      "Ġpath": 3226,
      "Ġeight": 3227,
      "ĠSince": 3228,
      "uclear": 3229,
      "ĠMost": 3230,
      "Ġspokes": 3231,
      "Ġtable": 3232,
      "isions": 3233,
      "ĠSoc": 3234,
      "Ġready": 3235,
      "Ġsummer": 3236,
      "Ġchalleng": 3237,
      "coin": 3238,
      "Ġmodern": 3239,
      "Ġstar": 3240,
      "Ġwouldn": 3241,
      "nces": 3242,
      "Ġexactly": 3243,
      "Ġdied": 3244,
      "ĠMany": 3245,
      "Ġwrite": 3246,
      "anch": 3247,
      "aught": 3248,
      "Ġterm": 3249,
      "Ġpaid": 3250,
      "ĠWhy": 3251,
      "ĠSand": 3252,
      "Ġexcept": 3253,
      "ruary": 3254,
      "Ġstarting": 3255,
      "ously": 3256,
      "Ġinteresting": 3257,
      "ĠCounty": 3258,
      "illed": 3259,
      "Ġscene": 3260,
      "Ġsurve": 3261,
      "Ġcosts": 3262,
      "Ġinn": 3263,
      "Ġremain": 3264,
      "hib": 3265,
      "rast": 3266,
      "Ġfinally": 3267,
      "Ġdescribed": 3268,
      "ĠâĢ¦": 3269,
      "ope": 3270,
      "Ġones": 3271,
      "Ġrange": 3272,
      "Ġwriting": 3273,
      "Ġgiving": 3274,
      "Ġscreen": 3275,
      "Ġoccur": 3276,
      "lish": 3277,
      "Ġsn": 3278,
      "Ġaw": 3279,
      "Ġdraw": 3280,
      "enge": 3281,
      "Ġcrowd": 3282,
      "Ġcertainly": 3283,
      "Ġchief": 3284,
      "Ġdanger": 3285,
      "ĠUp": 3286,
      "Ġdoub": 3287,
      "iers": 3288,
      "Ġlay": 3289,
      "fort": 3290,
      "Ġdetails": 3291,
      "Ġmiles": 3292,
      "Ġearn": 3293,
      "Ġ28": 3294,
      "ĠEvery": 3295,
      "ivity": 3296,
      "Ġalthough": 3297,
      "Ġstuff": 3298,
      "Ġcomments": 3299,
      "zz": 3300,
      "45": 3301,
      "itch": 3302,
      "ĠServ": 3303,
      "Ġult": 3304,
      "ĠLeague": 3305,
      "Ġyourself": 3306,
      "Ġpressure": 3307,
      "erc": 3308,
      "Ġple": 3309,
      "illeg": 3310,
      "Ġleague": 3311,
      "Ġclimate": 3312,
      "Ġfix": 3313,
      "Ġhistor": 3314,
      "hest": 3315,
      "Ġhous": 3316,
      "Ġprovided": 3317,
      "Ġreading": 3318,
      "mp": 3319,
      "ĠHigh": 3320,
      "Ġefforts": 3321,
      "ĠGet": 3322,
      "Ġeffects": 3323,
      "Ġunc": 3324,
      "ĠFebruary": 3325,
      "Ġperhaps": 3326,
      "ales": 3327,
      "Ġnatural": 3328,
      "Ġunf": 3329,
      "Ġconvers": 3330,
      "Ġusually": 3331,
      "Ġselect": 3332,
      "ĠFrench": 3333,
      "Ġ2009": 3334,
      "oses": 3335,
      "Ġclean": 3336,
      "Ġment": 3337,
      "Ġsurv": 3338,
      "het": 3339,
      "ĠOff": 3340,
      "Ġ26": 3341,
      "ĠSyria": 3342,
      "Ġimplement": 3343,
      "Ġut": 3344,
      "Ġgrowing": 3345,
      "ĠJames": 3346,
      "overed": 3347,
      "ampions": 3348,
      "ani": 3349,
      "Ġspeech": 3350,
      "vertisement": 3351,
      "inary": 3352,
      "Ġparts": 3353,
      "99": 3354,
      "Ġban": 3355,
      "omen": 3356,
      "Ġdefense": 3357,
      "isis": 3358,
      "Ġleading": 3359,
      "Ġgas": 3360,
      "ago": 3361,
      "Ġconcept": 3362,
      "Ġcouldn": 3363,
      "Ġschools": 3364,
      "Ġresear": 3365,
      "Ġstra": 3366,
      "Ġregion": 3367,
      "Ġbudget": 3368,
      "itation": 3369,
      "itness": 3370,
      "Ġmill": 3371,
      "Ġconsist": 3372,
      "ĠAssoci": 3373,
      "FL": 3374,
      "wise": 3375,
      "lin": 3376,
      "Ġwife": 3377,
      "ĠDemocratic": 3378,
      "AM": 3379,
      "roid": 3380,
      "Ġlaws": 3381,
      "iny": 3382,
      "aves": 3383,
      "Ġstudent": 3384,
      "ĠIndian": 3385,
      "Ġculture": 3386,
      "Ġdog": 3387,
      "Ġtowards": 3388,
      "ĠTom": 3389,
      "lebr": 3390,
      "Ġgone": 3391,
      "Ġtro": 3392,
      "ĠMon": 3393,
      "pre": 3394,
      "ĠBo": 3395,
      "ĠDis": 3396,
      "Ġremember": 3397,
      "Ġthroughout": 3398,
      "Ġdevice": 3399,
      "Ġdisp": 3400,
      "ĠLast": 3401,
      "Ġremains": 3402,
      "Ġbeyond": 3403,
      "Ġtoward": 3404,
      "ĠApple": 3405,
      "yan": 3406,
      "Ġincludes": 3407,
      "ĠTor": 3408,
      "Ġchoice": 3409,
      "Ġstandard": 3410,
      "Ġsle": 3411,
      "itute": 3412,
      "ĠRober": 3413,
      "Ġrelative": 3414,
      "Ġsafety": 3415,
      "Ġhar": 3416,
      "ustr": 3417,
      "atever": 3418,
      "ĠBre": 3419,
      "ilies": 3420,
      "Ġthinking": 3421,
      "Ġimmediately": 3422,
      "BI": 3423,
      "Ġscience": 3424,
      "Ġdesigned": 3425,
      "mit": 3426,
      "Ġswe": 3427,
      "ĠWind": 3428,
      "Ġrequest": 3429,
      "airs": 3430,
      "Ġilleg": 3431,
      "Ġassist": 3432,
      "Ġblood": 3433,
      "ĠMinister": 3434,
      "Ġthousands": 3435,
      "ford": 3436,
      "ĠMart": 3437,
      "Ġsoftware": 3438,
      "arian": 3439,
      "ĠJack": 3440,
      "Ġrout": 3441,
      "ĠPlay": 3442,
      "Ġcounter": 3443,
      "Ġmaybe": 3444,
      "Ġavoid": 3445,
      "Ġpositive": 3446,
      "Ġdifference": 3447,
      "Ġver": 3448,
      "ĠWell": 3449,
      "24": 3450,
      "Ġbal": 3451,
      "Ġfile": 3452,
      "Ġstore": 3453,
      "ĠYes": 3454,
      "Ġtour": 3455,
      "oper": 3456,
      "Ġplatform": 3457,
      "Ġshowed": 3458,
      "Ġ60": 3459,
      "ĠRec": 3460,
      "wood": 3461,
      "ĠSchool": 3462,
      "Ġcharacters": 3463,
      "Ġpassed": 3464,
      "Ġepis": 3465,
      "Ġahead": 3466,
      "atter": 3467,
      "www": 3468,
      "EL": 3469,
      "Ġstage": 3470,
      "ems": 3471,
      "Ġpark": 3472,
      "Ġvoters": 3473,
      "ĠBen": 3474,
      "90": 3475,
      "ĠRich": 3476,
      "ara": 3477,
      "ĠHD": 3478,
      "Ġopin": 3479,
      "OM": 3480,
      "Ġrefer": 3481,
      "Ġincreased": 3482,
      "Ġconditions": 3483,
      "Ġten": 3484,
      "Ġmoving": 3485,
      "Ġdebate": 3486,
      "Ġencour": 3487,
      "Ġmoved": 3488,
      "urance": 3489,
      "EC": 3490,
      "ports": 3491,
      "iminal": 3492,
      "Ġrecomm": 3493,
      "Ġtur": 3494,
      "more": 3495,
      "Ġoption": 3496,
      "Ġnom": 3497,
      "Ġcorrect": 3498,
      "ĠPeople": 3499,
      "As": 3500,
      "Ġalone": 3501,
      "Ġofficer": 3502,
      "Ġagency": 3503,
      "ĠMet": 3504,
      "ux": 3505,
      "ĠAlthough": 3506,
      "Ġcenter": 3507,
      "ĠLike": 3508,
      "Ġaim": 3509,
      "ables": 3510,
      "ĠDemocrats": 3511,
      "bur": 3512,
      "Ġ>": 3513,
      "They": 3514,
      "Ġmeaning": 3515,
      "ĠTexas": 3516,
      "Ġadditional": 3517,
      "Ġtitle": 3518,
      "adem": 3519,
      "Ġyes": 3520,
      "ĠBig": 3521,
      "Ġcast": 3522,
      "aches": 3523,
      "iles": 3524,
      "itor": 3525,
      "oul": 3526,
      "icks": 3527,
      "Ġdate": 3528,
      "Ġtrust": 3529,
      "Ġcontinued": 3530,
      "Ġtwe": 3531,
      "Ġcomplex": 3532,
      "Ġreceive": 3533,
      "egr": 3534,
      "Ġlargest": 3535,
      "80": 3536,
      "ĠMo": 3537,
      "ĠReg": 3538,
      "Ġbenefits": 3539,
      "Ġx": 3540,
      "rupt": 3541,
      "icted": 3542,
      "Ġorganization": 3543,
      "Ġsat": 3544,
      "aly": 3545,
      "chan": 3546,
      "Ġsmart": 3547,
      "ae": 3548,
      "Ġdirectly": 3549,
      "using": 3550,
      "ĠGreen": 3551,
      "ĠAdd": 3552,
      "sp": 3553,
      "Ġtouch": 3554,
      "Ġcollege": 3555,
      "Ġdrive": 3556,
      "ĠInternational": 3557,
      "orks": 3558,
      "ĠOver": 3559,
      "ube": 3560,
      "Ġhelped": 3561,
      "Ġestim": 3562,
      "Ġcitizens": 3563,
      "ĠStar": 3564,
      "just": 3565,
      "add": 3566,
      "ĠDay": 3567,
      "ĠUnion": 3568,
      "Ġdark": 3569,
      "Ġsuspect": 3570,
      "Ġfootball": 3571,
      "áĦ": 3572,
      "áħ": 3573,
      "Ġfan": 3574,
      "imum": 3575,
      "Ġimag": 3576,
      "ĠMex": 3577,
      "venue": 3578,
      "Ġcalls": 3579,
      "Ġign": 3580,
      "ĠOur": 3581,
      "ĠEarth": 3582,
      "Ġappears": 3583,
      "35": 3584,
      "Ġsell": 3585,
      "Ġreality": 3586,
      "Ġanalysis": 3587,
      "Ġreasons": 3588,
      "Ġcompared": 3589,
      "roy": 3590,
      "ĠMag": 3591,
      "ĠBill": 3592,
      "Ġdisapp": 3593,
      "AP": 3594,
      "Ġnature": 3595,
      "Ġfailed": 3596,
      "ĠVal": 3597,
      "ength": 3598,
      "Ġpsych": 3599,
      "Ġeventually": 3600,
      "Ġdeg": 3601,
      "resh": 3602,
      "Ġmeant": 3603,
      "ĠWilliam": 3604,
      "EO": 3605,
      "enty": 3606,
      "ken": 3607,
      "men": 3608,
      "Ġbeginning": 3609,
      "Ġcomputer": 3610,
      "band": 3611,
      "ĠÂ£": 3612,
      "Ġcamer": 3613,
      "berg": 3614,
      "Ġcool": 3615,
      "Ġdetermin": 3616,
      "Ġactions": 3617,
      "Ġcommand": 3618,
      "Ġshown": 3619,
      "Ġeyes": 3620,
      "Ġnuclear": 3621,
      "Ġrule": 3622,
      "Ġconference": 3623,
      "ĠEnglish": 3624,
      "Ġactivity": 3625,
      "Ġtreatment": 3626,
      "Ġlaunch": 3627,
      "olute": 3628,
      "ĠBecause": 3629,
      "Ġcontribut": 3630,
      "Ġcharge": 3631,
      "iance": 3632,
      "Ġbattle": 3633,
      "Ġ(@": 3634,
      "Ġ29": 3635,
      "Ġwall": 3636,
      "Ġfirm": 3637,
      "Ġnecessary": 3638,
      "Ġcrisis": 3639,
      "ĠII": 3640,
      "Ġproperty": 3641,
      "roll": 3642,
      "Ġreform": 3643,
      "Ġeasily": 3644,
      "Ġlimited": 3645,
      "astic": 3646,
      "ĠGeorge": 3647,
      "Ġoverall": 3648,
      "Ġfamilies": 3649,
      "Ġfigure": 3650,
      "ression": 3651,
      "ocked": 3652,
      "ĠGovern": 3653,
      "ressed": 3654,
      "Ġbeaut": 3655,
      "Ġallows": 3656,
      "Ġbooks": 3657,
      "Ġcentral": 3658,
      "Ġexecutive": 3659,
      "Ġmanager": 3660,
      "Ġsigned": 3661,
      "Ġsusp": 3662,
      "Ġstraight": 3663,
      "64": 3664,
      "orney": 3665,
      "Ġpiece": 3666,
      "Ġadvant": 3667,
      "Ġgives": 3668,
      "Ġdamage": 3669,
      "):": 3670,
      "aa": 3671,
      "Ġgoals": 3672,
      "yl": 3673,
      "Ġcelebr": 3674,
      "Ġspending": 3675,
      "Ġprec": 3676,
      "Ġletter": 3677,
      "ext": 3678,
      "Ġsche": 3679,
      "Ġpresidential": 3680,
      "ĠSmith": 3681,
      "ĠBu": 3682,
      "Ġsubst": 3683,
      "RE": 3684,
      "Ġpowerful": 3685,
      "Ġemot": 3686,
      "ĠDef": 3687,
      "Ġstreng": 3688,
      "Ġcopy": 3689,
      "IA": 3690,
      "OT": 3691,
      "ĠAnt": 3692,
      "Ġcandidate": 3693,
      "ram": 3694,
      "ĠOh": 3695,
      "Ġcorpor": 3696,
      "Ġobserv": 3697,
      "ĠFlor": 3698,
      "Ġdraft": 3699,
      "bon": 3700,
      "aughter": 3701,
      "urt": 3702,
      "Ġgrad": 3703,
      "Ġbehavior": 3704,
      "ĠCommission": 3705,
      "Ġalleged": 3706,
      "Ġdetail": 3707,
      "ĠBook": 3708,
      "ING": 3709,
      "arning": 3710,
      "ĠMac": 3711,
      "Ġfollowed": 3712,
      "Ġpus": 3713,
      "ĠOp": 3714,
      "Ġconfir": 3715,
      "ĠSecret": 3716,
      "Ġrap": 3717,
      "Ġbirth": 3718,
      "ston": 3719,
      "Ġarch": 3720,
      "Ġfrequ": 3721,
      "ĠLa": 3722,
      "Ġdecades": 3723,
      "Ġhappy": 3724,
      "ufact": 3725,
      "ĠHam": 3726,
      "rief": 3727,
      "term": 3728,
      "Ġprograms": 3729,
      "Ġprojects": 3730,
      "Ġorigin": 3731,
      "Ġrob": 3732,
      "Ġsenior": 3733,
      "craft": 3734,
      "Ġtrou": 3735,
      "Ġvirt": 3736,
      "ĠYour": 3737,
      "ĠCouncil": 3738,
      "ĠJer": 3739,
      "Ġfeed": 3740,
      "23": 3741,
      "ĠPhil": 3742,
      "____": 3743,
      "Ġchallenge": 3744,
      "ius": 3745,
      "Ġmyself": 3746,
      "Ġcustomers": 3747,
      "ĠDuring": 3748,
      "uing": 3749,
      "dd": 3750,
      "iable": 3751,
      "Ġbrain": 3752,
      "Ġstudies": 3753,
      "Ġ2007": 3754,
      "ĠAlso": 3755,
      "ĠSun": 3756,
      "que": 3757,
      "Ġfeature": 3758,
      "Ġkept": 3759,
      "Ġfunding": 3760,
      "Ġindividuals": 3761,
      "encies": 3762,
      "ĠTod": 3763,
      "ĠGeneral": 3764,
      "Ġmist": 3765,
      "Ġhighly": 3766,
      "Ġpromot": 3767,
      "Ġattract": 3768,
      "ĠGold": 3769,
      "ĠAngel": 3770,
      "Ġapparent": 3771,
      "Ġcrime": 3772,
      "Ġfa": 3773,
      "alse": 3774,
      "Ġnice": 3775,
      "ĠGame": 3776,
      "Ġunique": 3777,
      "Sh": 3778,
      "erve": 3779,
      "Ġmix": 3780,
      "Ġdevices": 3781,
      "Ġnote": 3782,
      "riage": 3783,
      "ĠAP": 3784,
      "Ġmeasure": 3785,
      "ado": 3786,
      "Ġlif": 3787,
      "Ġminor": 3788,
      "Ġdoor": 3789,
      "Ġspecies": 3790,
      "ki": 3791,
      "Ġthrow": 3792,
      "Ġlines": 3793,
      "iring": 3794,
      "agon": 3795,
      "Ġblog": 3796,
      "Ġoptions": 3797,
      "Ġpeace": 3798,
      "Ġappeared": 3799,
      "Ġshooting": 3800,
      "orter": 3801,
      "Ġpreviously": 3802,
      "Ġspread": 3803,
      "Ġreligious": 3804,
      "Ġesc": 3805,
      "ĠAustralia": 3806,
      "Ġsto": 3807,
      "Ġautom": 3808,
      "ĠPalest": 3809,
      "?\"": 3810,
      "onents": 3811,
      "ĠBrown": 3812,
      "Ġuses": 3813,
      "Ġdemocr": 3814,
      "Ġsil": 3815,
      "estic": 3816,
      "itely": 3817,
      "Ġdisplay": 3818,
      "Ġrare": 3819,
      "ocks": 3820,
      "Ġsuccessful": 3821,
      "onent": 3822,
      "rol": 3823,
      "ĠEU": 3824,
      "ĠTrans": 3825,
      "ĠChic": 3826,
      "Ġgreater": 3827,
      "Ġlarger": 3828,
      "Ġprimary": 3829,
      "Ġresources": 3830,
      "Ch": 3831,
      "Ġshut": 3832,
      "27": 3833,
      "aint": 3834,
      "Ġpolitics": 3835,
      "Ġaware": 3836,
      "Ġfine": 3837,
      "Ġowners": 3838,
      "Ġforced": 3839,
      "Ġcentury": 3840,
      "Ġphysical": 3841,
      "Ġfighting": 3842,
      "owers": 3843,
      "see": 3844,
      "Ġrock": 3845,
      "Ġexpand": 3846,
      "Ġcat": 3847,
      "Ġang": 3848,
      "Ġenforce": 3849,
      "Ġideas": 3850,
      "Ġfully": 3851,
      "secut": 3852,
      "ĠHillary": 3853,
      "Ġconflic": 3854,
      "Ġimages": 3855,
      "uty": 3856,
      "ĠChristian": 3857,
      "Ġcredit": 3858,
      "ĠTwo": 3859,
      "Ġliter": 3860,
      "ĠBer": 3861,
      "26": 3862,
      "Ġlic": 3863,
      "Ġincome": 3864,
      "ĠSub": 3865,
      "Ġhaven": 3866,
      "Ġaltern": 3867,
      "Ġanaly": 3868,
      "Ġstyle": 3869,
      "ĠArt": 3870,
      "Ġtruth": 3871,
      "Ġemb": 3872,
      "wide": 3873,
      "iced": 3874,
      "Ġknows": 3875,
      "Ġstatus": 3876,
      "Ġband": 3877,
      "Ġappl": 3878,
      "Ġspot": 3879,
      "Ġsupposed": 3880,
      "pri": 3881,
      "ya": 3882,
      "osh": 3883,
      "ĠInternet": 3884,
      "ĠFlorida": 3885,
      "Ġhospital": 3886,
      "ategy": 3887,
      "Ġpropos": 3888,
      "iled": 3889,
      "antly": 3890,
      "ĠFrance": 3891,
      "arliam": 3892,
      "Ġseemed": 3893,
      "Ġbrother": 3894,
      "Ġetc": 3895,
      "Ġdise": 3896,
      "Ġsection": 3897,
      "ĠSam": 3898,
      "ĠStep": 3899,
      "Ġgreen": 3900,
      "Ġprem": 3901,
      "Ġcalling": 3902,
      "ĠAnother": 3903,
      "Ġweapons": 3904,
      "Ġice": 3905,
      "ĠLou": 3906,
      "Ġgold": 3907,
      "ĠAdvertisement": 3908,
      "Ġprint": 3909,
      "Ġdeveloped": 3910,
      "nown": 3911,
      "Ġir": 3912,
      "Ġjump": 3913,
      "Ġjudge": 3914,
      "ares": 3915,
      "rs": 3916,
      "ĠAir": 3917,
      "acing": 3918,
      "Ġnoted": 3919,
      "Ġcontinues": 3920,
      "ĠScott": 3921,
      "Ġsave": 3922,
      "ĠChicago": 3923,
      "Ġindic": 3924,
      "ĠCommittee": 3925,
      "Ġcharges": 3926,
      "ris": 3927,
      "Ġrelated": 3928,
      "Ġtheory": 3929,
      "Ġwait": 3930,
      "ĠPort": 3931,
      "ĠLaw": 3932,
      "Ġconcerns": 3933,
      "arliament": 3934,
      "cul": 3935,
      "lements": 3936,
      "Ġleaving": 3937,
      "ET": 3938,
      "ĠGermany": 3939,
      "Ġsend": 3940,
      "Ġshall": 3941,
      "ounds": 3942,
      "70": 3943,
      "vere": 3944,
      "Ġparties": 3945,
      "Ġregular": 3946,
      "Ġclaimed": 3947,
      ".âĢĻ": 3948,
      "Ġrise": 3949,
      "ĠRo": 3950,
      "part": 3951,
      "iders": 3952,
      "Ġqual": 3953,
      "Ġeye": 3954,
      "ĠSa": 3955,
      "Ġended": 3956,
      "ĠRob": 3957,
      "ID": 3958,
      "Ġcities": 3959,
      "ĠAlex": 3960,
      "ĠMike": 3961,
      "Ġimpl": 3962,
      "Ġadding": 3963,
      "Ġclearly": 3964,
      "Ġemployees": 3965,
      "Ġpros": 3966,
      "Ġintelligence": 3967,
      "Ġspend": 3968,
      "Ġmer": 3969,
      "Ġcolor": 3970,
      "Ġoffered": 3971,
      "Ġenem": 3972,
      "Ġcriminal": 3973,
      "Ġpolicies": 3974,
      "Ġtraditional": 3975,
      "Ġ196": 3976,
      "ĠMal": 3977,
      "ĠMil": 3978,
      "Ġactual": 3979,
      "Ġsales": 3980,
      "levision": 3981,
      "change": 3982,
      "iju": 3983,
      "ero": 3984,
      "while": 3985,
      "ĠBush": 3986,
      "ĠUN": 3987,
      "ifying": 3988,
      "Ġapplication": 3989,
      "ĠHealth": 3990,
      "istry": 3991,
      "Ġmechan": 3992,
      "28": 3993,
      "Ġmanufact": 3994,
      "Ġspir": 3995,
      "Ġreflect": 3996,
      "Ġcry": 3997,
      "Ġreached": 3998,
      "Ġplaces": 3999,
      "icit": 4000,
      "Ġvalues": 4001,
      "Ġnames": 4002,
      "Ġweekend": 4003,
      "Ġtend": 4004,
      "ĠPri": 4005,
      "Ġrates": 4006,
      "Ġlaun": 4007,
      "ona": 4008,
      "ĠFranc": 4009,
      "iverse": 4010,
      "umn": 4011,
      "Ġdream": 4012,
      "Ġproduce": 4013,
      "ica": 4014,
      "Ġwilling": 4015,
      "Ġknowledge": 4016,
      "Ġseeing": 4017,
      "Ġnormal": 4018,
      "Ġraised": 4019,
      "edy": 4020,
      "Ġsources": 4021,
      "mar": 4022,
      "Ġplant": 4023,
      "azing": 4024,
      "Ġintegr": 4025,
      "Ġhighest": 4026,
      "Ġvac": 4027,
      "Ġresearchers": 4028,
      "ĠPet": 4029,
      "irection": 4030,
      "Ġslight": 4031,
      "Ġchoose": 4032,
      "Ġpush": 4033,
      "Ġfemale": 4034,
      "Ġweight": 4035,
      "Ġpattern": 4036,
      "dom": 4037,
      "ĠCommun": 4038,
      "ĠWindows": 4039,
      "ĠAre": 4040,
      "Ġprovides": 4041,
      "Ġcreating": 4042,
      "Ġmassive": 4043,
      "ijuana": 4044,
      "Ġstation": 4045,
      "Ġpatients": 4046,
      "ĠStud": 4047,
      "ĠPre": 4048,
      "Ġinstall": 4049,
      "AD": 4050,
      "uman": 4051,
      "Ġmostly": 4052,
      "Ġorganiz": 4053,
      "Ġrank": 4054,
      "Ġdollars": 4055,
      "Ġwhatever": 4056,
      "Ġstrategy": 4057,
      "Ġarrested": 4058,
      "Ġillegal": 4059,
      "Ġcommer": 4060,
      "Ġhappens": 4061,
      "org": 4062,
      "Ġenter": 4063,
      "PA": 4064,
      "sey": 4065,
      "ĠOnce": 4066,
      "ĠCup": 4067,
      "Ġacqu": 4068,
      "Ġprotest": 4069,
      "Ġfreedom": 4070,
      "oti": 4071,
      "Ġadop": 4072,
      "Ġlose": 4073,
      "Ġmemory": 4074,
      "Ġstreet": 4075,
      "Ġbeat": 4076,
      "Ġmission": 4077,
      "Ġwhom": 4078,
      "Ġfeeling": 4079,
      "board": 4080,
      "CC": 4081,
      "oes": 4082,
      "iling": 4083,
      "Ġrestr": 4084,
      "rian": 4085,
      "ĠMiss": 4086,
      "ĠInstead": 4087,
      "Ġensure": 4088,
      "ference": 4089,
      "igned": 4090,
      "ribution": 4091,
      "Ġtrial": 4092,
      "Ġvoice": 4093,
      "ĠInc": 4094,
      "ĠAny": 4095,
      "Ġpicture": 4096,
      "ipp": 4097,
      "Ġtick": 4098,
      "Ġbelieved": 4099,
      "Ġeth": 4100,
      "Ġabsolute": 4101,
      "inn": 4102,
      "orrow": 4103,
      "ĠPress": 4104,
      "Ġship": 4105,
      "Ġscen": 4106,
      "Ġbed": 4107,
      "Ġlik": 4108,
      "lick": 4109,
      "Ġadvoc": 4110,
      "Ġmur": 4111,
      "ribe": 4112,
      "Ġeffic": 4113,
      "ented": 4114,
      "Ġweb": 4115,
      "earch": 4116,
      "38": 4117,
      "Ġprices": 4118,
      "Ġfresh": 4119,
      "Ġteach": 4120,
      "29": 4121,
      "ipped": 4122,
      "net": 4123,
      "ville": 4124,
      "ĠMad": 4125,
      "ĠNFL": 4126,
      "Ġappeal": 4127,
      "Ġminister": 4128,
      "Ġshared": 4129,
      "ĠEngland": 4130,
      "semb": 4131,
      "Ġassum": 4132,
      "fr": 4133,
      "Ġcaused": 4134,
      "Ġbasic": 4135,
      "21": 4136,
      "ĠBur": 4137,
      "abor": 4138,
      "Ġfeet": 4139,
      "ĠQue": 4140,
      "bum": 4141,
      "Ġvill": 4142,
      "ĠVer": 4143,
      "500": 4144,
      "gency": 4145,
      "Ġtrain": 4146,
      "Ġasking": 4147,
      "Ġmount": 4148,
      "Ġposted": 4149,
      "Ġwonder": 4150,
      "Ġadvantage": 4151,
      "no": 4152,
      "ection": 4153,
      "Ġincident": 4154,
      "gen": 4155,
      "aks": 4156,
      "Ġproduced": 4157,
      "Ġconfirmed": 4158,
      "miss": 4159,
      "Ġcars": 4160,
      "Ġdrink": 4161,
      "Ġcritical": 4162,
      "Ġborder": 4163,
      "ĠTim": 4164,
      "ĠLiber": 4165,
      "Ġfit": 4166,
      "inger": 4167,
      "ĠRock": 4168,
      "Ġagreed": 4169,
      "itude": 4170,
      "odes": 4171,
      "Ġassault": 4172,
      "Ġresidents": 4173,
      "Ġcommit": 4174,
      "Ġagreement": 4175,
      "ĠBit": 4176,
      "Ġadult": 4177,
      "ĠWestern": 4178,
      "ĠRel": 4179,
      "ĠThose": 4180,
      "ĠGreat": 4181,
      "olly": 4182,
      "Ġhero": 4183,
      "Ġgrand": 4184,
      "box": 4185,
      "Ġopening": 4186,
      "ĠTer": 4187,
      "Ġchair": 4188,
      "Ġsolution": 4189,
      "Ġrevealed": 4190,
      "ĠKorea": 4191,
      "Ġbenefit": 4192,
      "ĠAM": 4193,
      "oles": 4194,
      "Ġopposition": 4195,
      "Ġlegislation": 4196,
      "SP": 4197,
      "Ġbasis": 4198,
      "Ġpun": 4199,
      "Ġteacher": 4200,
      "Ġmobile": 4201,
      "ription": 4202,
      "Ġfavorite": 4203,
      "inated": 4204,
      "olic": 4205,
      "Ġhttps": 4206,
      "And": 4207,
      "Ġbeer": 4208,
      "ĠSecurity": 4209,
      "Ġlawy": 4210,
      "Ġauthorities": 4211,
      "point": 4212,
      "Ġlength": 4213,
      "Ġruns": 4214,
      "Ġresponsible": 4215,
      "Ġoperations": 4216,
      "Ġlearned": 4217,
      "What": 4218,
      "Ġinitial": 4219,
      "Ġfalse": 4220,
      "Ġshowing": 4221,
      "gypt": 4222,
      "Ġinterested": 4223,
      "âĢĿ,": 4224,
      "atically": 4225,
      "Ġlimit": 4226,
      "Ġdocuments": 4227,
      "But": 4228,
      "That": 4229,
      "Ġcandidates": 4230,
      "iful": 4231,
      "ĠUk": 4232,
      "ĠInter": 4233,
      "ĠCanadian": 4234,
      "IL": 4235,
      "Ġonto": 4236,
      "Ġgenerally": 4237,
      "ties": 4238,
      "Ġsun": 4239,
      "Ġpurpose": 4240,
      "Ġ80": 4241,
      "Ġvehicle": 4242,
      "mission": 4243,
      "Ġworse": 4244,
      "Ġunlike": 4245,
      "ĠImage": 4246,
      "TS": 4247,
      "Ġsleep": 4248,
      "Bl": 4249,
      "ĠProf": 4250,
      "ĠSee": 4251,
      "Ġdestroy": 4252,
      "Ġthus": 4253,
      "ĠBay": 4254,
      "aked": 4255,
      "Ġtemper": 4256,
      "Ġbeg": 4257,
      "ĠUnder": 4258,
      "Ġinsurance": 4259,
      "Ġbecomes": 4260,
      "ugg": 4261,
      "illing": 4262,
      "ampionship": 4263,
      "Ġwat": 4264,
      "ĠJo": 4265,
      "Ġchem": 4266,
      "Ġdebt": 4267,
      "Ġhundreds": 4268,
      "Ġamb": 4269,
      "Ġreject": 4270,
      "Ġinfluence": 4271,
      "âĢľ": 4272,
      "ĠFound": 4273,
      "BS": 4274,
      "ĠDel": 4275,
      "Ġ31": 4276,
      "ĠMicro": 4277,
      "Ġexisting": 4278,
      "Ġachieve": 4279,
      "mark": 4280,
      "ĠRobert": 4281,
      "uster": 4282,
      "Ġexplained": 4283,
      "Ġmarriage": 4284,
      "Ġindependent": 4285,
      ".'": 4286,
      "BA": 4287,
      "Ġge": 4288,
      "ĠKh": 4289,
      "Ġtelevision": 4290,
      "Ġinvestment": 4291,
      "ĠOffice": 4292,
      "ĠAtt": 4293,
      "ĠDet": 4294,
      "orthern": 4295,
      "OU": 4296,
      "orial": 4297,
      "Ġdistrict": 4298,
      "Ġinternet": 4299,
      "ĠIsraeli": 4300,
      "ĠTy": 4301,
      "Ġheavy": 4302,
      "soft": 4303,
      "house": 4304,
      "Ġdaily": 4305,
      "Ġcomfort": 4306,
      "ĠWho": 4307,
      "Ġopened": 4308,
      "Ġnegative": 4309,
      "vis": 4310,
      "Ġarm": 4311,
      "lor": 4312,
      "iation": 4313,
      "ĠMod": 4314,
      "ears": 4315,
      "Ġeffective": 4316,
      "Ġphoto": 4317,
      "Ġscore": 4318,
      "Ġrecords": 4319,
      "Ġjoin": 4320,
      "Ġfat": 4321,
      "Ġhus": 4322,
      "Ġdepartment": 4323,
      "outhern": 4324,
      "ĠJud": 4325,
      "ga": 4326,
      "Ġnotice": 4327,
      "actions": 4328,
      "Ġoffers": 4329,
      "Ġmillions": 4330,
      "mine": 4331,
      "Ġwild": 4332,
      "Ġcru": 4333,
      "Ġpartners": 4334,
      "ĠAc": 4335,
      "Ġsupported": 4336,
      "Ġcommunities": 4337,
      "Ġreplace": 4338,
      "Ġdigital": 4339,
      "ĠBoth": 4340,
      "ĠEgypt": 4341,
      "ĠJeff": 4342,
      "Ġdefe": 4343,
      "Ġseparate": 4344,
      "ĠHall": 4345,
      "Ġcontrovers": 4346,
      "Ġvictims": 4347,
      "Ġopinion": 4348,
      "ancy": 4349,
      "pective": 4350,
      "Ġunderstanding": 4351,
      "Ġreduce": 4352,
      "Ġaspect": 4353,
      "ih": 4354,
      "ĠCle": 4355,
      "akistan": 4356,
      "Ġmanagement": 4357,
      "aby": 4358,
      "bing": 4359,
      "Ġwitness": 4360,
      "ĠMer": 4361,
      "usive": 4362,
      "Ġhair": 4363,
      "ĠInstitute": 4364,
      "Ġfaith": 4365,
      "ĠDirect": 4366,
      "Ġalbum": 4367,
      "Ġenforcement": 4368,
      "Ġpet": 4369,
      "Ġmarijuana": 4370,
      "Ġcoverage": 4371,
      "Ġinstance": 4372,
      "Ġbecoming": 4373,
      "cell": 4374,
      "Ġcommittee": 4375,
      "ĠIslamic": 4376,
      "ĠStr": 4377,
      "Ġoccas": 4378,
      "Ġbrief": 4379,
      "ortunately": 4380,
      "Ġprofessional": 4381,
      "gn": 4382,
      "Ġwealth": 4383,
      "ĠYet": 4384,
      "Ġaccused": 4385,
      "Ġnegoti": 4386,
      "ĠFollowing": 4387,
      "ils": 4388,
      "ĠUs": 4389,
      "ĠPC": 4390,
      "ĠLos": 4391,
      "Ġsupporters": 4392,
      "Ġbrand": 4393,
      "ĠPhoto": 4394,
      "ĠJustice": 4395,
      "isher": 4396,
      "gu": 4397,
      "la": 4398,
      "ĠWall": 4399,
      "Ġdefend": 4400,
      "Ġpolitic": 4401,
      "vest": 4402,
      "Ġharm": 4403,
      "Ġactive": 4404,
      "Ġbusinesses": 4405,
      "Ġeat": 4406,
      "Ġ35": 4407,
      "ribute": 4408,
      "Ġrestaur": 4409,
      "ography": 4410,
      "ĠBack": 4411,
      "Ġworst": 4412,
      "ios": 4413,
      "Ġgra": 4414,
      "rial": 4415,
      "Ġeasier": 4416,
      "ste": 4417,
      "Ġserved": 4418,
      "33": 4419,
      "zen": 4420,
      "ada": 4421,
      "ĠRyan": 4422,
      "ĠThom": 4423,
      "Ġbackground": 4424,
      "iest": 4425,
      "ander": 4426,
      "Ġsurround": 4427,
      "ĠFBI": 4428,
      "Ġincred": 4429,
      "lands": 4430,
      "Ġannounce": 4431,
      "vant": 4432,
      "Ġbomb": 4433,
      "ĠCap": 4434,
      "ĠEv": 4435,
      "Ġtests": 4436,
      "Ġder": 4437,
      "Ġlearning": 4438,
      "ait": 4439,
      "oms": 4440,
      "Ġproposed": 4441,
      "Ġaudience": 4442,
      "ĠPalestin": 4443,
      "icip": 4444,
      "Ġscientists": 4445,
      "Ġ2006": 4446,
      "coming": 4447,
      "Ġdriver": 4448,
      "ĠCarol": 4449,
      "ĠHy": 4450,
      "Ġannual": 4451,
      "bour": 4452,
      "Ġmax": 4453,
      "Ġgraph": 4454,
      "Ġmap": 4455,
      "Ġsolid": 4456,
      "Ġtypes": 4457,
      "EM": 4458,
      "Ġcards": 4459,
      "ĠPakistan": 4460,
      "Ġassociated": 4461,
      "SA": 4462,
      "ords": 4463,
      "Ġputting": 4464,
      "vention": 4465,
      "Ġtools": 4466,
      "Ġdangerous": 4467,
      "ĠSil": 4468,
      "Ġlocation": 4469,
      "Ġfarm": 4470,
      "ãĤĻ": 4471,
      "ĠToday": 4472,
      "gl": 4473,
      "GB": 4474,
      "Ġgay": 4475,
      "agn": 4476,
      "resp": 4477,
      "ictions": 4478,
      "azon": 4479,
      "Ġtrend": 4480,
      "Ġdirection": 4481,
      "Ġclosed": 4482,
      "Ġscale": 4483,
      "ipe": 4484,
      "known": 4485,
      "Ġmale": 4486,
      "ulf": 4487,
      "Ġexcl": 4488,
      "Ġnotes": 4489,
      "Ġraise": 4490,
      "iliar": 4491,
      "fe": 4492,
      "oly": 4493,
      "andon": 4494,
      "Ġattend": 4495,
      "tered": 4496,
      "Ġvictory": 4497,
      "real": 4498,
      "Ġmurder": 4499,
      "Ġ90": 4500,
      "ota": 4501,
      "Ġappropri": 4502,
      "Ġconservative": 4503,
      "amb": 4504,
      "Ġcore": 4505,
      "Ġhearing": 4506,
      "Ġserve": 4507,
      "ĠSanders": 4508,
      "Ġepisode": 4509,
      "Ġdrop": 4510,
      "Ġwinning": 4511,
      "Ġcompetition": 4512,
      "Ġsmaller": 4513,
      "Ġwatching": 4514,
      "uct": 4515,
      "Ġnovel": 4516,
      "Ġolder": 4517,
      "works": 4518,
      "ĠSal": 4519,
      "Ġdecade": 4520,
      "ĠSecretary": 4521,
      "Ġnorth": 4522,
      "ĠJim": 4523,
      "Ġflag": 4524,
      "which": 4525,
      "met": 4526,
      "Ø§": 4527,
      "Ġcontext": 4528,
      "Ġpresence": 4529,
      "Ġexperiment": 4530,
      "rency": 4531,
      "Ġmachine": 4532,
      "NN": 4533,
      "Ġrefere": 4534,
      "Ġdrugs": 4535,
      "ĠTHE": 4536,
      "ION": 4537,
      "ĪĴ": 4538,
      "ĠBank": 4539,
      "Ġreturned": 4540,
      "Ġcondition": 4541,
      "55": 4542,
      "ĠFox": 4543,
      "uries": 4544,
      "ĠTre": 4545,
      "Ġload": 4546,
      "Ġsurface": 4547,
      "Ġactivities": 4548,
      "cks": 4549,
      "Ġlaunched": 4550,
      "ĠFrancis": 4551,
      "ingly": 4552,
      "Ġdriving": 4553,
      "FC": 4554,
      "Ġded": 4555,
      "Ġcharged": 4556,
      "inct": 4557,
      "Ġque": 4558,
      "Ġradio": 4559,
      "Ġdefinitely": 4560,
      "ibrary": 4561,
      "Ġborn": 4562,
      "Ġnine": 4563,
      "istics": 4564,
      "Ġ70": 4565,
      "itable": 4566,
      "Ġcompar": 4567,
      "ĠDespite": 4568,
      "34": 4569,
      "Ġvs": 4570,
      "do": 4571,
      "Ġinstit": 4572,
      "Ġneighbor": 4573,
      "OL": 4574,
      "asy": 4575,
      "Ġextremely": 4576,
      "spe": 4577,
      "nel": 4578,
      "formation": 4579,
      "Ġbelief": 4580,
      "Ġtelling": 4581,
      "Ġleadership": 4582,
      "Ġfinding": 4583,
      "ĠAngeles": 4584,
      "ĠSl": 4585,
      "Ġjustice": 4586,
      "season": 4587,
      "Ġoccup": 4588,
      "Ġestablished": 4589,
      "ĠTheir": 4590,
      "Ġtruly": 4591,
      "Ġgeneration": 4592,
      "ĠGood": 4593,
      "Ġtells": 4594,
      "Ġrepeated": 4595,
      "Ġstructure": 4596,
      "Ġamazing": 4597,
      "Ġwel": 4598,
      "ĠGree": 4599,
      "Ġafford": 4600,
      "Ġargument": 4601,
      "ctors": 4602,
      "Ġplays": 4603,
      "Ġestablish": 4604,
      "how": 4605,
      "going": 4606,
      "Ġbelieves": 4607,
      "acity": 4608,
      "Ġremoved": 4609,
      "ĠChris": 4610,
      "ĠRub": 4611,
      "Ġkick": 4612,
      "well": 4613,
      "hem": 4614,
      "ĠAndroid": 4615,
      "Ġexplain": 4616,
      "cont": 4617,
      "Ġtim": 4618,
      "ĠSup": 4619,
      "Ġfloor": 4620,
      "Ġentirely": 4621,
      "overy": 4622,
      "Ġtesting": 4623,
      "Ġmissing": 4624,
      "Ġlabor": 4625,
      "Ġinjury": 4626,
      "ĠGOP": 4627,
      "bert": 4628,
      "Ġdiscovered": 4629,
      "ĠConst": 4630,
      "olf": 4631,
      "ĠAssociation": 4632,
      "NS": 4633,
      "Ġoperation": 4634,
      "Ġdoubt": 4635,
      "Ġspoke": 4636,
      "annel": 4637,
      "igan": 4638,
      "Ġstated": 4639,
      "Ġphotos": 4640,
      "ĠMartin": 4641,
      "Ġ00": 4642,
      "vered": 4643,
      "ĠMat": 4644,
      "Ġcoal": 4645,
      "Ġtransfer": 4646,
      "witch": 4647,
      "Ġwaiting": 4648,
      "Ġgirls": 4649,
      "Ġhusband": 4650,
      "Ġcook": 4651,
      "Ġrough": 4652,
      "ĠLu": 4653,
      "Ġblue": 4654,
      "Ġdepend": 4655,
      "Ġbottom": 4656,
      "za": 4657,
      "ĠPM": 4658,
      "Ġexerc": 4659,
      "Ġgrant": 4660,
      "ception": 4661,
      "Ġrequires": 4662,
      "Ġdouble": 4663,
      "75": 4664,
      "adium": 4665,
      "Ġexpans": 4666,
      "ĠDec": 4667,
      "apers": 4668,
      "Ġcommercial": 4669,
      "Ġtransport": 4670,
      "ĠUkrain": 4671,
      "kins": 4672,
      "Ġcash": 4673,
      "ĠVir": 4674,
      "Ġrefuge": 4675,
      "Ġvotes": 4676,
      "Ġjoined": 4677,
      "!!": 4678,
      "When": 4679,
      "lig": 4680,
      "ãĢ": 4681,
      "Ġstock": 4682,
      "ola": 4683,
      "Ġviews": 4684,
      "oston": 4685,
      "phone": 4686,
      "Ġallowing": 4687,
      "Ġskills": 4688,
      "Ġcamera": 4689,
      "oman": 4690,
      "DA": 4691,
      "Ġran": 4692,
      "36": 4693,
      "RA": 4694,
      "inter": 4695,
      "arant": 4696,
      "ĠMill": 4697,
      "izes": 4698,
      "For": 4699,
      "Ġfant": 4700,
      "ĠLeg": 4701,
      "Ġnor": 4702,
      "Ġbul": 4703,
      "ĠLouis": 4704,
      "ht": 4705,
      "rad": 4706,
      "ĠOpen": 4707,
      "eds": 4708,
      "Ġdecisions": 4709,
      "Ġdomestic": 4710,
      "44": 4711,
      "itz": 4712,
      "Ġhack": 4713,
      "ĠHol": 4714,
      "Ġhasn": 4715,
      "Ġ2018": 4716,
      "icide": 4717,
      "ĠJose": 4718,
      "Ġ32": 4719,
      "Ġfeels": 4720,
      "Ġdie": 4721,
      "Ġaccur": 4722,
      "Ġsuggested": 4723,
      "isf": 4724,
      "ĠJes": 4725,
      "Ġtraffic": 4726,
      "****": 4727,
      "eah": 4728,
      "ĠWil": 4729,
      "UT": 4730,
      "Ġspl": 4731,
      "Ġdeploy": 4732,
      "Ġmanaged": 4733,
      "ossible": 4734,
      "kes": 4735,
      "Ġcaught": 4736,
      "Ġkid": 4737,
      "makers": 4738,
      "ĠSur": 4739,
      "Ġstandards": 4740,
      "lant": 4741,
      "Ġconsequ": 4742,
      "ĠMont": 4743,
      "Ġsites": 4744,
      "ĠDown": 4745,
      "Ġguess": 4746,
      "ĠCur": 4747,
      "Ġweak": 4748,
      "isted": 4749,
      "ĠJohnson": 4750,
      "itutional": 4751,
      "Ġcancer": 4752,
      "Ġkeeping": 4753,
      "ĠBritain": 4754,
      "ĠThomas": 4755,
      "anda": 4756,
      "Ġframe": 4757,
      "Ġidentity": 4758,
      "awn": 4759,
      "azine": 4760,
      "Ġstrength": 4761,
      "andom": 4762,
      "Ġdownload": 4763,
      "Ġissued": 4764,
      "Ġlargely": 4765,
      "Ġholding": 4766,
      "ĠMatt": 4767,
      "ĠOut": 4768,
      "Ġfocused": 4769,
      "ĠPrime": 4770,
      "Ġrecommend": 4771,
      "Don": 4772,
      "rig": 4773,
      "ĠMars": 4774,
      "anging": 4775,
      "osure": 4776,
      "ĠPlease": 4777,
      "Ġrat": 4778,
      "Ġsubsc": 4779,
      "ulated": 4780,
      "Ġ//": 4781,
      "Ġplaced": 4782,
      "ĠChurch": 4783,
      "ruit": 4784,
      "Ġtransl": 4785,
      "IM": 4786,
      "Ġgender": 4787,
      "Ġcontain": 4788,
      "ups": 4789,
      "Ġcircum": 4790,
      "CA": 4791,
      "Ġdaughter": 4792,
      "rie": 4793,
      "Ġconstruction": 4794,
      "Ġdiscussion": 4795,
      "Ġconflict": 4796,
      "wing": 4797,
      "ĠJones": 4798,
      "oyal": 4799,
      "Ġskin": 4800,
      "ĠMicrosoft": 4801,
      "cient": 4802,
      "ĠSupreme": 4803,
      "ĠParis": 4804,
      "ĠRichard": 4805,
      "ĠMexico": 4806,
      "Ġdisease": 4807,
      "rim": 4808,
      "Ġassess": 4809,
      "Ġproviding": 4810,
      "Ġconcerned": 4811,
      "Ġbanks": 4812,
      "ario": 4813,
      "oted": 4814,
      "Ġsequ": 4815,
      "Ġunit": 4816,
      "Ġcollection": 4817,
      "Ġmeasures": 4818,
      "night": 4819,
      "tained": 4820,
      "Ġsouth": 4821,
      "Ġotherwise": 4822,
      "ĠEr": 4823,
      "Ġanimals": 4824,
      "Ġcold": 4825,
      "Ġstrateg": 4826,
      "prof": 4827,
      "Ġmulti": 4828,
      "place": 4829,
      "Ġspect": 4830,
      "ĠAmazon": 4831,
      "Ġstopped": 4832,
      "Ġtask": 4833,
      "ady": 4834,
      "ĠJoe": 4835,
      "Ġspokesman": 4836,
      "Ġerror": 4837,
      "rey": 4838,
      "ĠBoston": 4839,
      "ĠWeb": 4840,
      "48": 4841,
      "ĠMary": 4842,
      "ĠResearch": 4843,
      "ini": 4844,
      "Ġsan": 4845,
      "ĠJon": 4846,
      "ĠImages": 4847,
      "Ġlived": 4848,
      "ĠLA": 4849,
      "ND": 4850,
      "Ġaward": 4851,
      "ĠMP": 4852,
      "Ġsports": 4853,
      "ĠChar": 4854,
      "ĠSyrian": 4855,
      "Ġhousing": 4856,
      "Ġplease": 4857,
      "ĠJewish": 4858,
      "ading": 4859,
      "Ġvoted": 4860,
      "Ġconnection": 4861,
      "Is": 4862,
      "Ġchurch": 4863,
      "Ġobvious": 4864,
      "Ġseek": 4865,
      "Ġuseful": 4866,
      "Ġfinished": 4867,
      "Ġrelatively": 4868,
      "Ġitems": 4869,
      "ĠGovernment": 4870,
      "mitted": 4871,
      "Ġpartner": 4872,
      "37": 4873,
      "IP": 4874,
      "Ġupdate": 4875,
      "but": 4876,
      "Ġ;": 4877,
      "Ġfle": 4878,
      "cknow": 4879,
      "onto": 4880,
      "Ġdeliver": 4881,
      "isation": 4882,
      "Ġhomes": 4883,
      "eline": 4884,
      "Ġ2005": 4885,
      "ĠFrank": 4886,
      "Ġconversation": 4887,
      "Ġearth": 4888,
      "Ġshape": 4889,
      "Ġhelping": 4890,
      "Ġfiles": 4891,
      "equ": 4892,
      "agues": 4893,
      "Ġidentified": 4894,
      "ĠAfrican": 4895,
      "Ġunivers": 4896,
      "ucky": 4897,
      "Ġelected": 4898,
      "Ġcuts": 4899,
      "Ġprofessor": 4900,
      "Ġimmigration": 4901,
      "Ġfigh": 4902,
      "ĠBern": 4903,
      "Ġabuse": 4904,
      "Ġfunds": 4905,
      "ĠSteve": 4906,
      "gers": 4907,
      "NA": 4908,
      "ĠFore": 4909,
      "Ġoffensive": 4910,
      "Ġnone": 4911,
      "ĠBob": 4912,
      "Ġ2000": 4913,
      "Ġinstitutions": 4914,
      "ania": 4915,
      "Ġfellow": 4916,
      "Ġstarts": 4917,
      "ĠShow": 4918,
      "onym": 4919,
      "Ġtherefore": 4920,
      "Ġstring": 4921,
      "what": 4922,
      "Ġaggress": 4923,
      "Ġcatch": 4924,
      "Ġfuel": 4925,
      "Ġdat": 4926,
      "aine": 4927,
      "ĠGroup": 4928,
      "ronic": 4929,
      "Ġintroduced": 4930,
      "Ġgain": 4931,
      "ĠCEO": 4932,
      "Ġvir": 4933,
      "ancing": 4934,
      "ĠAfrica": 4935,
      "Ġterrit": 4936,
      "Ġtough": 4937,
      "Ġsetting": 4938,
      "Ġfourth": 4939,
      "kin": 4940,
      "Ġsust": 4941,
      "Ġfundament": 4942,
      "verse": 4943,
      "Ġath": 4944,
      "hens": 4945,
      "Ġmentioned": 4946,
      "ano": 4947,
      "aded": 4948,
      "Ġdetect": 4949,
      "Ġplanet": 4950,
      "!âĢĿ": 4951,
      "eless": 4952,
      "Ġstanding": 4953,
      "ĠGrand": 4954,
      "idering": 4955,
      "ĠST": 4956,
      "ĠFederal": 4957,
      "Ġtweet": 4958,
      "itect": 4959,
      "ĠTra": 4960,
      "Ġheat": 4961,
      "Ġfell": 4962,
      "Ġarrived": 4963,
      "ĠLabour": 4964,
      "Ġslightly": 4965,
      "Ġcrew": 4966,
      "ula": 4967,
      "iot": 4968,
      "with": 4969,
      "Ġpair": 4970,
      "Ġthanks": 4971,
      "].": 4972,
      "39": 4973,
      "xual": 4974,
      "ĠWhe": 4975,
      "Ġspeaking": 4976,
      "Ġcolle": 4977,
      "Ġelectric": 4978,
      "Ġwindow": 4979,
      "Ġmental": 4980,
      "udd": 4981,
      "],": 4982,
      "Ġexchange": 4983,
      "Ġcovered": 4984,
      "Ġmodels": 4985,
      "Ġelections": 4986,
      "Ġbeautiful": 4987,
      "ĠSecond": 4988,
      "Ġincreasingly": 4989,
      "ĠML": 4990,
      "ource": 4991,
      "Ġplanning": 4992,
      "Ġfailure": 4993,
      "udi": 4994,
      "Ġchanging": 4995,
      "Ġrevolution": 4996,
      "ĠRem": 4997,
      "Ġbigger": 4998,
      "ka": 4999,
      "Ġcommitted": 5000,
      "Ġhappening": 5001,
      "Ġcateg": 5002,
      "ĠPublic": 5003,
      "Ġconclud": 5004,
      "Ġkilling": 5005,
      "IV": 5006,
      "illa": 5007,
      "ĠBefore": 5008,
      "Ġsteps": 5009,
      "65": 5010,
      "Ġsud": 5011,
      "Ġdevelopers": 5012,
      "ĠAR": 5013,
      "ĠMiddle": 5014,
      "acks": 5015,
      "ĠCharl": 5016,
      "Ġprinc": 5017,
      "ĠMur": 5018,
      "ĠMem": 5019,
      "Ġseat": 5020,
      "ĠStill": 5021,
      "Ġcouncil": 5022,
      "Ġacknow": 5023,
      "owl": 5024,
      "orders": 5025,
      "enses": 5026,
      "Ġsupply": 5027,
      "Ġfamiliar": 5028,
      "Ġdropped": 5029,
      "Re": 5030,
      "imal": 5031,
      "ĠRE": 5032,
      "Ġremind": 5033,
      "ĠDen": 5034,
      "Ġ45": 5035,
      "ĠAv": 5036,
      "Ġhealthy": 5037,
      "Ġtaxes": 5038,
      "Ġconvention": 5039,
      "ĠJapanese": 5040,
      "Ġbalance": 5041,
      "Ġwish": 5042,
      "ĠSpr": 5043,
      "ĠFire": 5044,
      "Ġunion": 5045,
      "ĠVirgin": 5046,
      "war": 5047,
      "Ġrich": 5048,
      "ĠProt": 5049,
      "odies": 5050,
      "Ġarmy": 5051,
      "Ġappre": 5052,
      "Ġseeking": 5053,
      "Ġnewsp": 5054,
      "Ġoperating": 5055,
      "Ġhonest": 5056,
      "Ġprepared": 5057,
      "Ġproposal": 5058,
      "ller": 5059,
      "ĠOffic": 5060,
      "Ġmere": 5061,
      "Ġresist": 5062,
      "ĠCollege": 5063,
      "ynam": 5064,
      "Ġcloser": 5065,
      "outs": 5066,
      "Ġunits": 5067,
      "Ġappoint": 5068,
      "Ġexperts": 5069,
      "Ġinterests": 5070,
      "ĠCentral": 5071,
      "Ġresponsibility": 5072,
      "uate": 5073,
      "ĠHist": 5074,
      "Ġcarried": 5075,
      "Ġowner": 5076,
      "bre": 5077,
      "win": 5078,
      "Ġyouth": 5079,
      "Ġexpert": 5080,
      "Ġapart": 5081,
      "Ġestimated": 5082,
      "ulate": 5083,
      "ĠUSA": 5084,
      "ĠMedia": 5085,
      "hand": 5086,
      "ghan": 5087,
      "Ġclick": 5088,
      "Ġattorney": 5089,
      "Ġfiled": 5090,
      "Ġpaying": 5091,
      "##": 5092,
      "Ġtrip": 5093,
      "Ġsolar": 5094,
      "Ġprotection": 5095,
      "ĠService": 5096,
      "Ġsudden": 5097,
      "Ġteen": 5098,
      "ENT": 5099,
      "Ġfaster": 5100,
      "ĠNor": 5101,
      "alls": 5102,
      "Ġplanned": 5103,
      "ĠBitcoin": 5104,
      "Ġvariety": 5105,
      "PD": 5106,
      "hy": 5107,
      "ĠMean": 5108,
      "Ġiniti": 5109,
      "uters": 5110,
      "Ġprefer": 5111,
      "ĠiPh": 5112,
      "Ġpresented": 5113,
      "Ġenvironmental": 5114,
      "run": 5115,
      "esters": 5116,
      "Ġstruct": 5117,
      "Ġimpossible": 5118,
      "Ġphil": 5119,
      "useum": 5120,
      "Ġdegree": 5121,
      "Ġspirit": 5122,
      "erous": 5123,
      "Ġdecide": 5124,
      "Ġ195": 5125,
      "ĠArmy": 5126,
      "Ġbreat": 5127,
      "78": 5128,
      "Ġauthority": 5129,
      "Ġstrike": 5130,
      "Ġtack": 5131,
      "Ġunless": 5132,
      "ĠâĢ¢": 5133,
      "ĠLat": 5134,
      "Ġadapt": 5135,
      "Ġscientific": 5136,
      "Ġsurvey": 5137,
      "Ġast": 5138,
      "Ġapply": 5139,
      "Ġfilms": 5140,
      "CH": 5141,
      "cript": 5142,
      "ipping": 5143,
      "ĠWork": 5144,
      "Ġcorner": 5145,
      "rees": 5146,
      "ĠRiver": 5147,
      "Ġsea": 5148,
      "Ġlocated": 5149,
      "onic": 5150,
      "Ġvul": 5151,
      "Ġflight": 5152,
      "Ġsch": 5153,
      "icy": 5154,
      "ĠMos": 5155,
      "ĠCarolina": 5156,
      "ĠYoung": 5157,
      "Ġultimately": 5158,
      "ĠToronto": 5159,
      "Ġodd": 5160,
      "Ġ2004": 5161,
      "Ġexpensive": 5162,
      "Ġsitting": 5163,
      "oral": 5164,
      "ĠPeter": 5165,
      "ĠDou": 5166,
      "ĠRoad": 5167,
      "Ġadjust": 5168,
      "icial": 5169,
      "Ġinternal": 5170,
      "osen": 5171,
      "ĠMs": 5172,
      "Ġoffering": 5173,
      "Ġtwice": 5174,
      "Ġpregn": 5175,
      "centr": 5176,
      "Ġstick": 5177,
      "Ġdeveloping": 5178,
      "pire": 5179,
      "lyn": 5180,
      "ĠHaw": 5181,
      "Ġrid": 5182,
      "No": 5183,
      "rick": 5184,
      "yr": 5185,
      "ĠVe": 5186,
      "ĠAT": 5187,
      "Ġscr": 5188,
      "Ġpieces": 5189,
      "oom": 5190,
      "Ġfif": 5191,
      "ĠRet": 5192,
      "Ġcommission": 5193,
      "look": 5194,
      "enced": 5195,
      "arks": 5196,
      "Ġdefensive": 5197,
      "anche": 5198,
      "Ġsuggests": 5199,
      "gar": 5200,
      "phas": 5201,
      "Ġcolumn": 5202,
      "Ġregarding": 5203,
      "ashed": 5204,
      "ĠMass": 5205,
      "Ġacadem": 5206,
      "ĠWatch": 5207,
      "ship": 5208,
      "Ġaid": 5209,
      "Ġhelps": 5210,
      "anned": 5211,
      "pret": 5212,
      "Ġlosing": 5213,
      "Ġagencies": 5214,
      "Ġstreets": 5215,
      "Ġrapid": 5216,
      "LE": 5217,
      "Ġflow": 5218,
      "Ġcarbon": 5219,
      "Ġapparently": 5220,
      "terday": 5221,
      "ĠUser": 5222,
      "Ġworry": 5223,
      "Ġintended": 5224,
      "Ġorganizations": 5225,
      "Ġabsolutely": 5226,
      "rible": 5227,
      "ĠRelease": 5228,
      "Ġturns": 5229,
      "pay": 5230,
      "Ġbag": 5231,
      "ĠPut": 5232,
      "oving": 5233,
      "Ġfinish": 5234,
      "Ġmicro": 5235,
      "rier": 5236,
      "aven": 5237,
      "cious": 5238,
      "Ġpit": 5239,
      "Ġpil": 5240,
      "ĠAri": 5241,
      "Ġwearing": 5242,
      "ĠAtlant": 5243,
      "Ġwriter": 5244,
      "suit": 5245,
      "Ġsides": 5246,
      "IG": 5247,
      "Ġfired": 5248,
      "Ġpositions": 5249,
      "sembly": 5250,
      "ader": 5251,
      "ocol": 5252,
      "Ġremove": 5253,
      "ĠAnn": 5254,
      "ĠCamp": 5255,
      "ocal": 5256,
      "roud": 5257,
      "Ġmut": 5258,
      "Ġlob": 5259,
      "Ġregime": 5260,
      "Ġsounds": 5261,
      "49": 5262,
      "ĠIsland": 5263,
      "Ġvoting": 5264,
      "Ġmigr": 5265,
      "lymp": 5266,
      "ĠChief": 5267,
      "Ġfigures": 5268,
      "Ġplenty": 5269,
      "issions": 5270,
      "porary": 5271,
      "Ġspecifically": 5272,
      "Ġpulled": 5273,
      "ĠConserv": 5274,
      "ĠScience": 5275,
      "Ġimagine": 5276,
      "ĠTime": 5277,
      "ĠGra": 5278,
      "ĠThough": 5279,
      "Ġequip": 5280,
      "olved": 5281,
      "Ġpercentage": 5282,
      "ĠBraz": 5283,
      "ĠAfghan": 5284,
      "Ġalternative": 5285,
      "Ġguard": 5286,
      "Ġfactors": 5287,
      "ĠFoundation": 5288,
      "Ġelements": 5289,
      "Ġprime": 5290,
      "Ġserver": 5291,
      "Ġcompleted": 5292,
      "Ġera": 5293,
      "Ġsurprise": 5294,
      "====": 5295,
      "Ġtast": 5296,
      "road": 5297,
      "Ġfactor": 5298,
      "ĠSupp": 5299,
      "Ġruling": 5300,
      "Ġemergency": 5301,
      "idden": 5302,
      "Ġequal": 5303,
      "Ġsale": 5304,
      "Ġapplications": 5305,
      "lets": 5306,
      "Ġaccident": 5307,
      "Ġveter": 5308,
      "Ġreligion": 5309,
      "Ġfol": 5310,
      "Ġguarant": 5311,
      "Ġ1990": 5312,
      "Ġpurchase": 5313,
      "Ġexpansion": 5314,
      "Ġvast": 5315,
      "azz": 5316,
      "Ġmarkets": 5317,
      "Ġtroops": 5318,
      "hi": 5319,
      "ĠBet": 5320,
      "ĠBBC": 5321,
      "ĠDan": 5322,
      "Ġherself": 5323,
      "Ġreact": 5324,
      "stream": 5325,
      "oty": 5326,
      "ĠLee": 5327,
      "Ġdetermine": 5328,
      "ĠAustralian": 5329,
      "DP": 5330,
      "iser": 5331,
      "Ġfacing": 5332,
      "under": 5333,
      "Ġfra": 5334,
      "Ġvision": 5335,
      "hedul": 5336,
      "Ġhumans": 5337,
      "Ġmethods": 5338,
      "ĠISIS": 5339,
      "Ġconducted": 5340,
      "Ġton": 5341,
      "Ġdetermined": 5342,
      "ĠOk": 5343,
      "standing": 5344,
      "Ġcalcul": 5345,
      "Ġevening": 5346,
      "Ġconsult": 5347,
      "Ġhate": 5348,
      "essions": 5349,
      "Ġsuit": 5350,
      "ker": 5351,
      "Ġconcentr": 5352,
      "ĠRad": 5353,
      "Ġviolent": 5354,
      "Ġexperienced": 5355,
      "ĠEach": 5356,
      "Ġclot": 5357,
      "Ġ500": 5358,
      "Ġanimal": 5359,
      "95": 5360,
      "Ġperspective": 5361,
      "31": 5362,
      "Ġgar": 5363,
      "Ġprosecut": 5364,
      "Ġsam": 5365,
      "ita": 5366,
      "ĠGM": 5367,
      "Ġattempts": 5368,
      "Ġbroken": 5369,
      "ĠSocial": 5370,
      "Ġtight": 5371,
      "cel": 5372,
      "iler": 5373,
      "Ġpotentially": 5374,
      "Ġtrouble": 5375,
      "Ġprove": 5376,
      "Ġroll": 5377,
      "Ġdomin": 5378,
      "PS": 5379,
      "asp": 5380,
      "ĠPenn": 5381,
      "ĠOlymp": 5382,
      "ĠColor": 5383,
      "ey": 5384,
      "iat": 5385,
      "mas": 5386,
      "Ġtourn": 5387,
      "ĠDistrict": 5388,
      "Ġuniversity": 5389,
      "ĠAndrew": 5390,
      "ĠOnly": 5391,
      "Ġcultural": 5392,
      "Ġid": 5393,
      "Ġweren": 5394,
      "47": 5395,
      "TV": 5396,
      "Ġfamous": 5397,
      "pired": 5398,
      "icate": 5399,
      "ruption": 5400,
      "Ġdram": 5401,
      "Ġcapacity": 5402,
      "adel": 5403,
      "ss": 5404,
      "ĠSum": 5405,
      "Ġpossibly": 5406,
      "Ġplus": 5407,
      "apter": 5408,
      "ĠDevelop": 5409,
      "ĠFort": 5410,
      "ortion": 5411,
      "endment": 5412,
      "Ġtypically": 5413,
      "Con": 5414,
      "Ġselling": 5415,
      "Ġseasons": 5416,
      "ours": 5417,
      "ĠDirector": 5418,
      "ĠBrazil": 5419,
      "ias": 5420,
      "person": 5421,
      "esh": 5422,
      "ĠGames": 5423,
      "ordin": 5424,
      "Ġchallenges": 5425,
      "Ġcert": 5426,
      "Ġupgr": 5427,
      "Ġtalks": 5428,
      "Ġpointed": 5429,
      "ĠWild": 5430,
      "estival": 5431,
      "ĠVict": 5432,
      "Ġsubs": 5433,
      "coh": 5434,
      "ĠSomet": 5435,
      "ĠMaybe": 5436,
      "ĠiPhone": 5437,
      "related": 5438,
      "Ġvulner": 5439,
      "Ġmaster": 5440,
      "Ġgreatest": 5441,
      "that": 5442,
      "employ": 5443,
      "Ġtele": 5444,
      "gent": 5445,
      "Ġmal": 5446,
      "ogue": 5447,
      "Ġsupporting": 5448,
      "âĢĶâĢĶâĢĶâĢĶ": 5449,
      "rastructure": 5450,
      "orage": 5451,
      "inner": 5452,
      "Ġuns": 5453,
      "ĠProject": 5454,
      "Ġconcl": 5455,
      "Ġpackage": 5456,
      "Ġvehicles": 5457,
      "Ġoriginally": 5458,
      "Ġmarg": 5459,
      "Ġreaction": 5460,
      "ĠAh": 5461,
      "ĠHuman": 5462,
      "Ġmaintain": 5463,
      "()": 5464,
      "Ġstars": 5465,
      "Ġboost": 5466,
      "ĠFrancisco": 5467,
      "Ġneighborhood": 5468,
      "My": 5469,
      "Ġmir": 5470,
      "Ġmand": 5471,
      "ĠSqu": 5472,
      "Ġsport": 5473,
      "Ġappropriate": 5474,
      "Ġappreci": 5475,
      "ĠMel": 5476,
      "ĠHolly": 5477,
      "Ġrandom": 5478,
      "Ġsoldiers": 5479,
      "Ar": 5480,
      "Ġadvance": 5481,
      "Ġbringing": 5482,
      "Ġpassing": 5483,
      "noon": 5484,
      "ulations": 5485,
      "Ġschedul": 5486,
      "atures": 5487,
      "Ġbought": 5488,
      "vey": 5489,
      "Ġforms": 5490,
      "ĠPhot": 5491,
      "uit": 5492,
      "Ġnarr": 5493,
      "Ġjail": 5494,
      "Ġstands": 5495,
      "Ġpredict": 5496,
      "Ġscript": 5497,
      "ensions": 5498,
      "ĠAbout": 5499,
      "ĠEnter": 5500,
      "Ġhyp": 5501,
      "otic": 5502,
      "ĠNAS": 5503,
      "Ġcorporate": 5504,
      "Ġequipment": 5505,
      "ST": 5506,
      "ĠBrew": 5507,
      "Ġlisten": 5508,
      "ĠFar": 5509,
      "Ġinnov": 5510,
      "free": 5511,
      "mail": 5512,
      "ĠLife": 5513,
      "Ġsignificantly": 5514,
      "ket": 5515,
      "Ġrent": 5516,
      "Ġagent": 5517,
      "Ġrefused": 5518,
      "Ġconfident": 5519,
      "Ġstret": 5520,
      "Ġproced": 5521,
      "Ġexpressed": 5522,
      "ĠMeanwhile": 5523,
      "ologies": 5524,
      "Ġcombined": 5525,
      "ĠOhio": 5526,
      "Ġproceed": 5527,
      "ĠOld": 5528,
      "Ġtransition": 5529,
      "ERS": 5530,
      "Ġthr": 5531,
      "Ġheav": 5532,
      "Ġdoctor": 5533,
      "Ġtreated": 5534,
      "ĠSky": 5535,
      "Ġyards": 5536,
      "ĠJournal": 5537,
      "Ġgovernments": 5538,
      "Ġcrimes": 5539,
      "ashion": 5540,
      "ĠMa": 5541,
      "Ġsecure": 5542,
      "ĠâĪĴ": 5543,
      "Ġchemical": 5544,
      "Americ": 5545,
      "Ġends": 5546,
      "Ġfrustr": 5547,
      "Ġlots": 5548,
      "Ġsurprising": 5549,
      "respond": 5550,
      "ÌĤ": 5551,
      "inent": 5552,
      "Ġrenew": 5553,
      "ĠFree": 5554,
      "ĠKenn": 5555,
      "Ġconsidering": 5556,
      "Ġsymb": 5557,
      "Ġargued": 5558,
      "Ġinvolve": 5559,
      "ĠMedic": 5560,
      "46": 5561,
      "mad": 5562,
      "sen": 5563,
      "Ġpowers": 5564,
      "arp": 5565,
      "state": 5566,
      "ĠYear": 5567,
      "Ġvisual": 5568,
      "Ġexperiences": 5569,
      "!\"": 5570,
      "ressive": 5571,
      "Ġmarried": 5572,
      "Ġ1980": 5573,
      "Ġoccurred": 5574,
      "ml": 5575,
      "Ġarms": 5576,
      "Ġpictures": 5577,
      "stein": 5578,
      "ĠUkraine": 5579,
      "cr": 5580,
      "hered": 5581,
      "Ġbound": 5582,
      "Ġloved": 5583,
      "ĠSant": 5584,
      "Ġplants": 5585,
      "Ġquant": 5586,
      "Ġstores": 5587,
      "ĠBus": 5588,
      "ĠNH": 5589,
      "oking": 5590,
      "Ġpasseng": 5591,
      "Ġdepart": 5592,
      "ĠTeam": 5593,
      "ĠTechn": 5594,
      "Ġnar": 5595,
      "Ġcollabor": 5596,
      "Le": 5597,
      "Tr": 5598,
      "elly": 5599,
      "ucks": 5600,
      "So": 5601,
      "mond": 5602,
      "Ġretail": 5603,
      "Ġopposed": 5604,
      "law": 5605,
      "Ġhat": 5606,
      "Ġgrew": 5607,
      "----------------": 5608,
      "Ġsatisf": 5609,
      ",âĢĻ": 5610,
      "enture": 5611,
      "Ġrain": 5612,
      "ĠRod": 5613,
      "ĠThanks": 5614,
      "Ġclim": 5615,
      "Ġaffected": 5616,
      "ĠVirginia": 5617,
      "gment": 5618,
      "pm": 5619,
      "range": 5620,
      "Ġbrow": 5621,
      "alo": 5622,
      "Ġgiant": 5623,
      "ĠMen": 5624,
      "olit": 5625,
      "ocking": 5626,
      "Ġsets": 5627,
      "Ġconstruct": 5628,
      "Ġdenied": 5629,
      "ĠLin": 5630,
      "Ġprospect": 5631,
      "Get": 5632,
      "Ġhurt": 5633,
      "ĠCNN": 5634,
      "Ġmessages": 5635,
      "Ġconnected": 5636,
      "Ġafternoon": 5637,
      "ternal": 5638,
      "Ġdistance": 5639,
      "Ġappearance": 5640,
      "Ġobviously": 5641,
      "Ġseriously": 5642,
      "Ġconsumers": 5643,
      "Ġrevenue": 5644,
      "Ġsector": 5645,
      "ĠWeek": 5646,
      "Ġhandle": 5647,
      "oma": 5648,
      "rip": 5649,
      "oken": 5650,
      "Ġinstruct": 5651,
      "Ġaircraft": 5652,
      "ĠColumb": 5653,
      "ATE": 5654,
      "Ġseconds": 5655,
      "Ġbroke": 5656,
      "Ġstress": 5657,
      "Ġstruggle": 5658,
      "hab": 5659,
      "eder": 5660,
      "uration": 5661,
      "Ġeffectively": 5662,
      "Ġmotiv": 5663,
      "Ġinput": 5664,
      "ĠWhere": 5665,
      "Ġbelong": 5666,
      "ĠSign": 5667,
      "Ġshift": 5668,
      "aren": 5669,
      "ĠJackson": 5670,
      "pass": 5671,
      "Ġwood": 5672,
      "ishes": 5673,
      "Ġbull": 5674,
      "ĠTop": 5675,
      "ilty": 5676,
      "Ġreserv": 5677,
      "Ġrape": 5678,
      "Ġadmitted": 5679,
      "Ġcells": 5680,
      "uations": 5681,
      "etic": 5682,
      "ownt": 5683,
      "ureau": 5684,
      "Ġemphas": 5685,
      "ĠGuard": 5686,
      "MA": 5687,
      "Ġtact": 5688,
      "ĠHarr": 5689,
      "Ġcontrast": 5690,
      "Ġaccounts": 5691,
      "Ġegg": 5692,
      "Ġunable": 5693,
      "Ġmatters": 5694,
      "TC": 5695,
      "asure": 5696,
      "Ġtechnical": 5697,
      "ĠRomney": 5698,
      "Ġphilos": 5699,
      "%)": 5700,
      "PR": 5701,
      "phia": 5702,
      "ributed": 5703,
      "Ġpanel": 5704,
      "Ġremained": 5705,
      "ĠDev": 5706,
      "li": 5707,
      "Ġcraft": 5708,
      "Ġdial": 5709,
      "ĠNov": 5710,
      "Ġspring": 5711,
      "Ġpossibility": 5712,
      "Ġterrorist": 5713,
      "bel": 5714,
      "Ġbatter": 5715,
      "Ġtalked": 5716,
      "apping": 5717,
      "Ġdebut": 5718,
      "Ġburn": 5719,
      "Ġgather": 5720,
      "Ġthank": 5721,
      "Ġsquare": 5722,
      "ĠBrook": 5723,
      "Ġquarterback": 5724,
      "Ġparliament": 5725,
      "sts": 5726,
      "Ġcooper": 5727,
      "Ġcapable": 5728,
      "life": 5729,
      "Ġtun": 5730,
      "ĠSher": 5731,
      "cean": 5732,
      "Ġcombat": 5733,
      "Ġguns": 5734,
      "ĠWilliams": 5735,
      "ĠLook": 5736,
      "ĠOS": 5737,
      "Ġ2003": 5738,
      "Ġcentre": 5739,
      "Ġdrivers": 5740,
      "Ġmaterials": 5741,
      "astern": 5742,
      "ĠRam": 5743,
      "Ġedge": 5744,
      "Ġartist": 5745,
      "Ġmovies": 5746,
      "Ġapproved": 5747,
      "Ġben": 5748,
      "osite": 5749,
      "Ġvalid": 5750,
      "Ġprivacy": 5751,
      "ĠJesus": 5752,
      "Ġhun": 5753,
      "ĠAut": 5754,
      "pet": 5755,
      "ĠCru": 5756,
      "Ġsem": 5757,
      "abilities": 5758,
      "nergy": 5759,
      "Ġoptim": 5760,
      "col": 5761,
      "rawn": 5762,
      "Ġincor": 5763,
      "oves": 5764,
      "Ġ2001": 5765,
      "Ġprompt": 5766,
      "Ġvideos": 5767,
      "Ġexcited": 5768,
      "Ġcas": 5769,
      "ĠLong": 5770,
      "ĠGen": 5771,
      "Ġclin": 5772,
      "Ġsigns": 5773,
      "ĠMuslims": 5774,
      "Ġbaby": 5775,
      "ĠFig": 5776,
      "Ġdifferences": 5777,
      "Ġglass": 5778,
      "Ġhopes": 5779,
      "adelphia": 5780,
      "ĠWomen": 5781,
      "ĠRev": 5782,
      "aza": 5783,
      "Ġtransform": 5784,
      "reens": 5785,
      "Ġpu": 5786,
      "agers": 5787,
      "Ġminimum": 5788,
      "Ġmort": 5789,
      "ache": 5790,
      "ĠAle": 5791,
      "istered": 5792,
      "ourney": 5793,
      "Ġeval": 5794,
      "Ġmode": 5795,
      "can": 5796,
      "Ġ300": 5797,
      "Ġsought": 5798,
      "ĠRight": 5799,
      "ĠOl": 5800,
      "oria": 5801,
      "ĠSol": 5802,
      "ĠAF": 5803,
      "Ġbasically": 5804,
      "vy": 5805,
      "Ġbare": 5806,
      "ĠRon": 5807,
      "Ġpled": 5808,
      "ĠThank": 5809,
      "Ġcreation": 5810,
      "iki": 5811,
      "Ġweapon": 5812,
      "Ġarchitect": 5813,
      "Ġenemy": 5814,
      "04": 5815,
      "gas": 5816,
      "ivered": 5817,
      "nell": 5818,
      "ĠNote": 5819,
      "aled": 5820,
      "ĠCath": 5821,
      "iency": 5822,
      "xy": 5823,
      "onom": 5824,
      "Ġremaining": 5825,
      "power": 5826,
      "Ġcart": 5827,
      "ĠLo": 5828,
      "Ġindeed": 5829,
      "Ġdiscl": 5830,
      "Ġcurrency": 5831,
      "Ġinfrastructure": 5832,
      "Ġdemocracy": 5833,
      "ĠStephen": 5834,
      "Ġsevere": 5835,
      "Ġtrig": 5836,
      "care": 5837,
      "zer": 5838,
      "Ġforg": 5839,
      "Ġminute": 5840,
      "ĠAgain": 5841,
      "cos": 5842,
      "uild": 5843,
      "aped": 5844,
      "Ġleads": 5845,
      "Ġinjured": 5846,
      "ĠPac": 5847,
      "Ġelimin": 5848,
      "Ġreduced": 5849,
      "Ġobjects": 5850,
      "mm": 5851,
      "post": 5852,
      "ala": 5853,
      "idel": 5854,
      "Ġperman": 5855,
      "Ġpoliticians": 5856,
      "Ġsession": 5857,
      "Ġcloud": 5858,
      "anged": 5859,
      "Ġclasses": 5860,
      "Ġdelay": 5861,
      "ĠTurkey": 5862,
      "Ġic": 5863,
      "Ġopponent": 5864,
      "ĠKim": 5865,
      "Ġexamples": 5866,
      "aling": 5867,
      "ava": 5868,
      "Ġperformed": 5869,
      "Ġfaces": 5870,
      "Ġcab": 5871,
      "ĠHel": 5872,
      "ffee": 5873,
      "ĠView": 5874,
      "Ġradical": 5875,
      "Ġdeclared": 5876,
      "Ġupdates": 5877,
      "Ġathlet": 5878,
      "Ġforget": 5879,
      "Ġwaste": 5880,
      "ĠEric": 5881,
      "ĠForce": 5882,
      "Ġpatient": 5883,
      "Ġpages": 5884,
      "ĠDani": 5885,
      "Ġrot": 5886,
      "Ġexplains": 5887,
      "Ġidentify": 5888,
      "edia": 5889,
      "ĠIll": 5890,
      "Ġopportunities": 5891,
      "07": 5892,
      "orse": 5893,
      "Ġweather": 5894,
      "abled": 5895,
      "ĠElect": 5896,
      "Ġenh": 5897,
      "Ġpray": 5898,
      "Ġtradition": 5899,
      "Ġpicked": 5900,
      "rist": 5901,
      "Ġexcell": 5902,
      "ounded": 5903,
      "ĠSystem": 5904,
      "ĠCompany": 5905,
      "Ġwear": 5906,
      "Ġfindings": 5907,
      "Ġlie": 5908,
      "ĠBest": 5909,
      "Ġwrites": 5910,
      "AF": 5911,
      "Ġbodies": 5912,
      "ĠAuthor": 5913,
      "Ġwidely": 5914,
      "essor": 5915,
      "Ġourselves": 5916,
      "ĠHollywood": 5917,
      "called": 5918,
      "long": 5919,
      "ionally": 5920,
      "ĠSing": 5921,
      "Ġdismiss": 5922,
      "Ġfees": 5923,
      "Ġguilty": 5924,
      "Ġbroadcast": 5925,
      "Ġfairly": 5926,
      "Ġlinked": 5927,
      "ĠPhiladelphia": 5928,
      "68": 5929,
      "Ġswitch": 5930,
      "Ġcro": 5931,
      "Ġphen": 5932,
      "ĠIre": 5933,
      "Ġwithd": 5934,
      "Ġadvanced": 5935,
      "Ġordered": 5936,
      "ĠSov": 5937,
      "Ġongoing": 5938,
      "ĠCarl": 5939,
      "Ġpool": 5940,
      "iami": 5941,
      "ĠMoore": 5942,
      "cohol": 5943,
      "PU": 5944,
      "arters": 5945,
      "Ġliqu": 5946,
      "duc": 5947,
      "Ġrealize": 5948,
      "Ġfacts": 5949,
      "ĠEll": 5950,
      "Ġnumerous": 5951,
      "Ġsuffered": 5952,
      "Ġdisappoint": 5953,
      "Ġsad": 5954,
      "Ġsecretary": 5955,
      "Ġapplied": 5956,
      "ican": 5957,
      "ĠPower": 5958,
      "ĠChild": 5959,
      "Ġapps": 5960,
      "Ġregulations": 5961,
      "ym": 5962,
      "ĠDaily": 5963,
      "unte": 5964,
      "dule": 5965,
      "Ġcorrespond": 5966,
      "ĠSpace": 5967,
      "Ġrecorded": 5968,
      "Ġcycle": 5969,
      "onna": 5970,
      "isters": 5971,
      "Ġflood": 5972,
      "Ġreaders": 5973,
      "Ġexplo": 5974,
      "Ġcolleagues": 5975,
      "ĠAD": 5976,
      "plom": 5977,
      "Ġarmed": 5978,
      "Ġmyster": 5979,
      "obe": 5980,
      "ampion": 5981,
      "Ġcauses": 5982,
      "Ġfaced": 5983,
      "Ġargue": 5984,
      "New": 5985,
      "ns": 5986,
      "iner": 5987,
      "Ġbatt": 5988,
      "Ġpal": 5989,
      "uts": 5990,
      "=\"": 5991,
      "ii": 5992,
      "top": 5993,
      "itors": 5994,
      "Ġrelevant": 5995,
      "Ġreplaced": 5996,
      ",'": 5997,
      "ĠCard": 5998,
      "Ġspons": 5999,
      "Ġquiet": 6000,
      "Ġexplan": 6001,
      "Ġnecessarily": 6002,
      "Ġproud": 6003,
      "Ġisland": 6004,
      "ĠWal": 6005,
      "ĠNations": 6006,
      "Ġsuppl": 6007,
      "ĠMichigan": 6008,
      "irty": 6009,
      "ulous": 6010,
      "Ġinvestors": 6011,
      "Ġlibrary": 6012,
      "Ġcann": 6013,
      "Ġinterpret": 6014,
      "ĠMcCain": 6015,
      "Ġnations": 6016,
      "ĠSports": 6017,
      "Ġconfirm": 6018,
      "Ġextent": 6019,
      "Ġcircumst": 6020,
      "ront": 6021,
      "ĠID": 6022,
      "ador": 6023,
      "Ġthoughts": 6024,
      "Ġbuildings": 6025,
      "Ġresponded": 6026,
      "Ġrestaurant": 6027,
      "Ġexercise": 6028,
      "ran": 6029,
      "ĠHome": 6030,
      "Ġvan": 6031,
      "Ġessentially": 6032,
      "OW": 6033,
      "ads": 6034,
      "Ġ36": 6035,
      "ĠClub": 6036,
      "iques": 6037,
      "ĠNext": 6038,
      "Ġliberal": 6039,
      "Ġvirtual": 6040,
      "CL": 6041,
      "lines": 6042,
      "lder": 6043,
      "Ġversions": 6044,
      "Ġtotally": 6045,
      "Ġmagazine": 6046,
      "ĠCub": 6047,
      "ĠGar": 6048,
      "Ġuniverse": 6049,
      "Ġcrack": 6050,
      "Ġreference": 6051,
      "Ġlegit": 6052,
      "Ġprotesters": 6053,
      "Ġhardware": 6054,
      "Ġdelivered": 6055,
      "Ġactivists": 6056,
      "Ġfraud": 6057,
      "date": 6058,
      "Ġlit": 6059,
      "ette": 6060,
      "unning": 6061,
      "ĠBlue": 6062,
      "Ġadvice": 6063,
      "Al": 6064,
      "Ġpra": 6065,
      "arden": 6066,
      "angers": 6067,
      "Ġunlikely": 6068,
      "tle": 6069,
      "ĠPR": 6070,
      "ĠWood": 6071,
      "Ġrally": 6072,
      "ĠFour": 6073,
      "Ġcoast": 6074,
      "Ġreporters": 6075,
      "Ġcaption": 6076,
      "42": 6077,
      "OD": 6078,
      "whel": 6079,
      "Ġtree": 6080,
      "Ġprohib": 6081,
      "aints": 6082,
      "Ġprin": 6083,
      "Ġshouldn": 6084,
      "Ġcombination": 6085,
      "ĠBarack": 6086,
      "Ġboys": 6087,
      "uous": 6088,
      "Ġbon": 6089,
      "Ġstorage": 6090,
      "ĠMic": 6091,
      "ĠVol": 6092,
      "Ġreportedly": 6093,
      "Ġdeclined": 6094,
      "ĠWay": 6095,
      "Ġabandon": 6096,
      "Ġpractices": 6097,
      "Ġcreative": 6098,
      "Ġwalking": 6099,
      "ĠPy": 6100,
      "Ġsuc": 6101,
      "Ġdoctors": 6102,
      "Ġreceiving": 6103,
      "Ġfranch": 6104,
      "IF": 6105,
      "Ġdynam": 6106,
      "Ġadds": 6107,
      "....": 6108,
      "Ġharder": 6109,
      "esc": 6110,
      "Ġhol": 6111,
      "Ġsyn": 6112,
      "Ġreporting": 6113,
      "Ġcriticism": 6114,
      "Ġconsistent": 6115,
      "ĠDefense": 6116,
      "Ġsister": 6117,
      "ompl": 6118,
      "ĠRay": 6119,
      "ĠRights": 6120,
      "Ġstatements": 6121,
      "Ġdivision": 6122,
      "Ġfemin": 6123,
      "razy": 6124,
      "ĠPalestinian": 6125,
      "43": 6126,
      "ooth": 6127,
      "rd": 6128,
      "erg": 6129,
      "ĠDie": 6130,
      "Ġbright": 6131,
      "Ġartists": 6132,
      "Ġdiagn": 6133,
      "ĠBru": 6134,
      "oked": 6135,
      "Ġscored": 6136,
      "Ġfish": 6137,
      "alax": 6138,
      "ĠSC": 6139,
      "Ġride": 6140,
      "Ġentertain": 6141,
      "ĠPlan": 6142,
      "Ġnetworks": 6143,
      "ĠIreland": 6144,
      "Ġconfidence": 6145,
      "Ġrelationships": 6146,
      "po": 6147,
      "Ġgap": 6148,
      "Ġoffense": 6149,
      "Ġblow": 6150,
      "Ġgrab": 6151,
      "Ġturning": 6152,
      "ĠSk": 6153,
      "Ġshop": 6154,
      "Ġhighlight": 6155,
      "Ġtalent": 6156,
      "Ġsubstant": 6157,
      "Ġlaugh": 6158,
      "Ġsav": 6159,
      "Ġoutput": 6160,
      "evin": 6161,
      "Ġyesterday": 6162,
      "ĠColorado": 6163,
      "Ġsucceed": 6164,
      "Ġing": 6165,
      "Ġpaint": 6166,
      "Ġpushed": 6167,
      "ellow": 6168,
      "resents": 6169,
      "Ġleaves": 6170,
      "Ġfavour": 6171,
      "Ġzone": 6172,
      "uls": 6173,
      "Ġadvert": 6174,
      "Ġemissions": 6175,
      "fortunately": 6176,
      "Ġgod": 6177,
      "Ġtech": 6178,
      "Ġsubsequ": 6179,
      "Ġmoral": 6180,
      "stood": 6181,
      "roit": 6182,
      "Ġdefault": 6183,
      "Ġexplos": 6184,
      "Ġinitially": 6185,
      "NC": 6186,
      "ĠCamer": 6187,
      "ĠFam": 6188,
      "andal": 6189,
      "ĠJul": 6190,
      "Ġemails": 6191,
      "Ġwarm": 6192,
      "Ġbrew": 6193,
      "fficient": 6194,
      "Ġallegations": 6195,
      "ÂŃ": 6196,
      "ÙĦ": 6197,
      "Ġauth": 6198,
      "Ġtom": 6199,
      "Ġtow": 6200,
      "oca": 6201,
      "ĠEnergy": 6202,
      "Ġintent": 6203,
      "Ġcontains": 6204,
      "Ġentered": 6205,
      "Ġbehavi": 6206,
      "TA": 6207,
      "ffect": 6208,
      "active": 6209,
      "Ġyounger": 6210,
      "Ġcopyright": 6211,
      "ĠMount": 6212,
      "ĠMiami": 6213,
      "ĠHen": 6214,
      "Ġsym": 6215,
      "Ġattempted": 6216,
      "Ġaccepted": 6217,
      "ĠBoard": 6218,
      "Ġlawyer": 6219,
      "burg": 6220,
      "Ġnewspaper": 6221,
      "rant": 6222,
      "ĠIts": 6223,
      "Ġ2002": 6224,
      "Ġprotests": 6225,
      "Ġlabel": 6226,
      "ja": 6227,
      "Ġfilled": 6228,
      "ĠVill": 6229,
      "Ġrow": 6230,
      "awa": 6231,
      "Ġaccompl": 6232,
      "Ġincreases": 6233,
      "Ġsuffering": 6234,
      "ĠAge": 6235,
      "ĠMax": 6236,
      "ĠNBA": 6237,
      "Ġsuicide": 6238,
      "Ġdecre": 6239,
      "Ġbug": 6240,
      "ĠSea": 6241,
      "Ġcustomer": 6242,
      "Ġimmigrants": 6243,
      "On": 6244,
      "agan": 6245,
      "class": 6246,
      "Ġconsequences": 6247,
      "bb": 6248,
      "orry": 6249,
      "ilit": 6250,
      "Ġconfig": 6251,
      "Ġpublicly": 6252,
      "Ġclassic": 6253,
      "Ġmoments": 6254,
      "host": 6255,
      "Ġpure": 6256,
      "ĠAsia": 6257,
      "Ġdatab": 6258,
      "tion": 6259,
      "Ġfly": 6260,
      "ĠPrem": 6261,
      "Ġplot": 6262,
      "Ġjoint": 6263,
      "Ġcheap": 6264,
      "ĠAfghanistan": 6265,
      "chen": 6266,
      "foot": 6267,
      "Ġwire": 6268,
      "Ġlock": 6269,
      "Ġremark": 6270,
      "Ġfollows": 6271,
      "Ġfewer": 6272,
      "Ġapprox": 6273,
      "Ġmissed": 6274,
      "Ġboss": 6275,
      "ĠLib": 6276,
      "Ġdiss": 6277,
      "Ġfundamental": 6278,
      "Ġbird": 6279,
      "Ġdry": 6280,
      "Ġelement": 6281,
      "Ġintention": 6282,
      "comm": 6283,
      "Ġsurprised": 6284,
      "Ġreferred": 6285,
      "Ġwal": 6286,
      "Ġstood": 6287,
      "Ġsentence": 6288,
      "Ġtargets": 6289,
      "Ġannouncement": 6290,
      "ixt": 6291,
      "Ġancient": 6292,
      "ali": 6293,
      "rog": 6294,
      "ĠBoy": 6295,
      "Ġskill": 6296,
      "Ġroute": 6297,
      "Ġroughly": 6298,
      "erences": 6299,
      "ocket": 6300,
      "Ġrepresents": 6301,
      "ĠIrish": 6302,
      "Ġinjuries": 6303,
      "88": 6304,
      "Box": 6305,
      "Ġhell": 6306,
      "ĠWalk": 6307,
      "Ġrub": 6308,
      "Ġexhib": 6309,
      "Ġshots": 6310,
      "ensity": 6311,
      "Ġassets": 6312,
      "Ġmagic": 6313,
      "Ġhistorical": 6314,
      "ĠTrib": 6315,
      "Ġjourney": 6316,
      "Ġflo": 6317,
      "ĠBrad": 6318,
      ",[": 6319,
      "ĠTest": 6320,
      "ĠWars": 6321,
      "ĠFurther": 6322,
      "Ġcontest": 6323,
      "ordan": 6324,
      "Ġplayoff": 6325,
      "Ġflat": 6326,
      "Ġeditor": 6327,
      "ĠChristmas": 6328,
      "Ġmotor": 6329,
      "ĠAriz": 6330,
      "born": 6331,
      "rors": 6332,
      "hent": 6333,
      "Ġske": 6334,
      "ĠLake": 6335,
      "Ġmanufacture": 6336,
      "Ġgrown": 6337,
      "chain": 6338,
      "ĠValley": 6339,
      "She": 6340,
      "rum": 6341,
      "Ġthinks": 6342,
      "Ġfort": 6343,
      "enda": 6344,
      "ograp": 6345,
      "Ġzero": 6346,
      "ĠCheck": 6347,
      "67": 6348,
      "ĠDiv": 6349,
      "Ġclient": 6350,
      "Ġeverybody": 6351,
      "Ġwarning": 6352,
      "ĠSpecial": 6353,
      "Ġemotional": 6354,
      "alty": 6355,
      "acle": 6356,
      "ĠNight": 6357,
      "Ġagents": 6358,
      "Ġbrings": 6359,
      "Ġinstru": 6360,
      "Ġcomfortable": 6361,
      "cons": 6362,
      "ĠIN": 6363,
      "Ġneither": 6364,
      "Ġresolution": 6365,
      "Ġdetailed": 6366,
      "Ġefficient": 6367,
      "west": 6368,
      "Ġtheme": 6369,
      "Ġstudio": 6370,
      "Ġimproved": 6371,
      "ato": 6372,
      "esome": 6373,
      "cho": 6374,
      "ĠKurd": 6375,
      "Ġbuying": 6376,
      "Ġbreaking": 6377,
      "Ġfuck": 6378,
      "Ġpitch": 6379,
      "Ġlies": 6380,
      "Ġmanage": 6381,
      "ko": 6382,
      "Ġtermin": 6383,
      "Ġhousehold": 6384,
      "Ġsongs": 6385,
      "ĠNASA": 6386,
      "Ġrail": 6387,
      "Ġdesire": 6388,
      "Ġempt": 6389,
      "Ġinspired": 6390,
      "Ġexistence": 6391,
      "Ġfrequently": 6392,
      "mates": 6393,
      "Ìĥ": 6394,
      "erm": 6395,
      "Ġbike": 6396,
      "Ġbond": 6397,
      "Ġanywhere": 6398,
      "Ġwarned": 6399,
      "Ġpromise": 6400,
      "Ġlisted": 6401,
      "ĠPolit": 6402,
      "Ġnav": 6403,
      "ĠTony": 6404,
      "ĠItal": 6405,
      "ĠOrgan": 6406,
      "ĠActions": 6407,
      "Ġnomine": 6408,
      "Ġsubsid": 6409,
      "Pro": 6410,
      "rich": 6411,
      "Ġguide": 6412,
      "Blue": 6413,
      "Man": 6414,
      "Ì§": 6415,
      "ÌĮ": 6416,
      "isp": 6417,
      "Ġdefined": 6418,
      "omin": 6419,
      "Ġrein": 6420,
      "ansas": 6421,
      "ĠScot": 6422,
      "Ġholds": 6423,
      "Ġrefugees": 6424,
      "Ġfill": 6425,
      "Ġgaming": 6426,
      "ĠFil": 6427,
      "Ġalg": 6428,
      "ĠStan": 6429,
      "iveness": 6430,
      "Ġdiplom": 6431,
      "gia": 6432,
      "urning": 6433,
      "Ġresident": 6434,
      "Ġallegedly": 6435,
      "dit": 6436,
      "Ġstorm": 6437,
      "Ġdeals": 6438,
      "Ġtrick": 6439,
      "Ġmeat": 6440,
      "Ġshel": 6441,
      "Ġmoder": 6442,
      "Ġtemperature": 6443,
      "Ġfashion": 6444,
      "Ġdownt": 6445,
      "ĠSP": 6446,
      "ĠIns": 6447,
      "Ġmetal": 6448,
      "Ġimportance": 6449,
      "ĠSaudi": 6450,
      "Ġadults": 6451,
      "icious": 6452,
      "Ġthread": 6453,
      "ĠBell": 6454,
      "ellect": 6455,
      "Ġ38": 6456,
      "Ġ48": 6457,
      "Ġopponents": 6458,
      "mosp": 6459,
      "Ġacting": 6460,
      "Ġnearby": 6461,
      "Ġconsumer": 6462,
      "ĠPerhaps": 6463,
      "Ġessential": 6464,
      "Ġteachers": 6465,
      "ĠNY": 6466,
      "emen": 6467,
      "Ġkit": 6468,
      "Ġsomewhat": 6469,
      "phy": 6470,
      "Ġreturns": 6471,
      "Ġdedicated": 6472,
      "adow": 6473,
      "ĠMu": 6474,
      "Ġevolution": 6475,
      "Ġrequirements": 6476,
      "Ġcarrying": 6477,
      "ĠServices": 6478,
      "BO": 6479,
      "Cl": 6480,
      "ĠCop": 6481,
      "ĠDi": 6482,
      "Ġflu": 6483,
      "Ġcrash": 6484,
      "Ġopposite": 6485,
      "Ġplane": 6486,
      "ĠSwed": 6487,
      "Ġterritory": 6488,
      "ĠSoviet": 6489,
      "icing": 6490,
      "acr": 6491,
      "ĠHa": 6492,
      "unction": 6493,
      "ologist": 6494,
      "ĠClass": 6495,
      "Ġthreats": 6496,
      "Ġearned": 6497,
      "press": 6498,
      "Ġupper": 6499,
      "Ġregistr": 6500,
      "Ġconfront": 6501,
      "Ġhoping": 6502,
      "Ġ1970": 6503,
      "Ġisol": 6504,
      "ĠThree": 6505,
      "Ġdecline": 6506,
      "ĠArch": 6507,
      "Ġserving": 6508,
      "Ġclosely": 6509,
      "ĠDetroit": 6510,
      "Ġscheduled": 6511,
      "lo": 6512,
      "level": 6513,
      "ĠKevin": 6514,
      "Ġoverwhel": 6515,
      "Ġprofit": 6516,
      "Ġcompetitive": 6517,
      "Ġheavily": 6518,
      "illance": 6519,
      "ĠItaly": 6520,
      "Ġentry": 6521,
      "Ġtested": 6522,
      "Ġpromised": 6523,
      "Ġemployment": 6524,
      "greg": 6525,
      "Ġsnow": 6526,
      "luding": 6527,
      "Ġgovernor": 6528,
      "Ġdeaths": 6529,
      "Ġpushing": 6530,
      "Ġnorthern": 6531,
      "ĠBa": 6532,
      "Ġcommunication": 6533,
      "Ġnoticed": 6534,
      "Ġdefinition": 6535,
      "Ġwins": 6536,
      "ĠTake": 6537,
      "Ġmanner": 6538,
      "ĠFinally": 6539,
      "Ġphenomen": 6540,
      "rid": 6541,
      "era": 6542,
      "Ġbear": 6543,
      "ĠAff": 6544,
      "ether": 6545,
      "Ġaside": 6546,
      "ideo": 6547,
      "Ġsole": 6548,
      "Ġunemploy": 6549,
      "Ġchairman": 6550,
      "áĨ": 6551,
      "Ġreput": 6552,
      "Ġsharing": 6553,
      "Ġ33": 6554,
      "Ġ34": 6555,
      "Ġlawsuit": 6556,
      "aze": 6557,
      "Ġinvolving": 6558,
      "ORE": 6559,
      "onymous": 6560,
      "Ġtiny": 6561,
      "ena": 6562,
      "Ġbat": 6563,
      "Ġhur": 6564,
      "ĠBas": 6565,
      "ĠOtt": 6566,
      "Ġresc": 6567,
      "MP": 6568,
      "name": 6569,
      "ĠBrian": 6570,
      "olve": 6571,
      "Ġwinner": 6572,
      "Ġstruck": 6573,
      "Ġtargeted": 6574,
      "Ġdu": 6575,
      "ĠOF": 6576,
      "ĠStory": 6577,
      "ĠSeattle": 6578,
      "efully": 6579,
      "Ġdiscussed": 6580,
      "Ġwalked": 6581,
      "Ġexcellent": 6582,
      "ĠArizona": 6583,
      "edd": 6584,
      "Ġalcohol": 6585,
      "Ġowned": 6586,
      "Ġindustrial": 6587,
      "ĠSociety": 6588,
      "ĠKen": 6589,
      "Ġheads": 6590,
      "Ġstream": 6591,
      "Ġhotel": 6592,
      "Ġphilosoph": 6593,
      "Ĥ¬": 6594,
      "sex": 6595,
      "izz": 6596,
      "ĠReal": 6597,
      "Ġmoves": 6598,
      "Ġfacility": 6599,
      "Ġmistake": 6600,
      "66": 6601,
      "inet": 6602,
      "Ġchart": 6603,
      "avor": 6604,
      "Ġrequests": 6605,
      "Ġproperties": 6606,
      "________": 6607,
      "ï¼": 6608,
      "lete": 6609,
      "ĠTit": 6610,
      "rive": 6611,
      "Ġ($": 6612,
      "Ġdealing": 6613,
      "Ġdistribution": 6614,
      "Ġsymbol": 6615,
      "inity": 6616,
      "Ġmine": 6617,
      "ĠHou": 6618,
      "ocation": 6619,
      "Ġremote": 6620,
      "Ġtournament": 6621,
      "Ġformed": 6622,
      "Ġsigning": 6623,
      "ĠConference": 6624,
      "Ġdescribe": 6625,
      "Ġselected": 6626,
      "77": 6627,
      "mes": 6628,
      "ĠCy": 6629,
      "ĠDC": 6630,
      "ĠEconom": 6631,
      "enders": 6632,
      "Ġobtained": 6633,
      "Ġcontroversial": 6634,
      "05": 6635,
      "arry": 6636,
      "MS": 6637,
      "word": 6638,
      "Ġwave": 6639,
      "ĠTO": 6640,
      "iform": 6641,
      "umin": 6642,
      "ĠLove": 6643,
      "Ġpassion": 6644,
      "ĠJews": 6645,
      "ĠAcadem": 6646,
      "Ġsees": 6647,
      "Ġusual": 6648,
      "Ġarticles": 6649,
      "ĠAssad": 6650,
      "Ġaspects": 6651,
      "isms": 6652,
      "Ġdiet": 6653,
      "ĠTal": 6654,
      "ĠTay": 6655,
      "ĠAvenue": 6656,
      "ĠBalt": 6657,
      "ĠRog": 6658,
      "ĠJordan": 6659,
      "Ġkinds": 6660,
      "Ġfeatured": 6661,
      "Ġupdated": 6662,
      "Ġillustr": 6663,
      "ĠScient": 6664,
      "41": 6665,
      "Ġbra": 6666,
      "atell": 6667,
      "apse": 6668,
      "Ġdiscover": 6669,
      "Ġlocations": 6670,
      "Ġfunctions": 6671,
      "Ġwinter": 6672,
      "Ġorders": 6673,
      "Ġsweet": 6674,
      "Ġacknowled": 6675,
      "Ġschol": 6676,
      "UR": 6677,
      "Ġcere": 6678,
      "asks": 6679,
      "ĠKelly": 6680,
      "ĠStand": 6681,
      "Ġconstant": 6682,
      "Ġvari": 6683,
      "Ġharass": 6684,
      "Ġnarrow": 6685,
      "fast": 6686,
      "ceived": 6687,
      "ĠDV": 6688,
      "ĠLew": 6689,
      "Ġ49": 6690,
      "Ġputs": 6691,
      "Ġcritics": 6692,
      "Ġparticipants": 6693,
      "nic": 6694,
      "Ġsick": 6695,
      "Ġdress": 6696,
      "ĠIP": 6697,
      "ĠLord": 6698,
      "ĠShare": 6699,
      "Ġpurposes": 6700,
      "Ġsplit": 6701,
      "300": 6702,
      "och": 6703,
      "Ġwriters": 6704,
      "Ġschedule": 6705,
      "ĠCharles": 6706,
      "IR": 6707,
      "anish": 6708,
      "ĠTot": 6709,
      "Ġsky": 6710,
      "Ġreasonable": 6711,
      "ĠAgency": 6712,
      "Ġslowly": 6713,
      "ati": 6714,
      "Ġproof": 6715,
      "Ġcausing": 6716,
      "ĠAmong": 6717,
      "Ġmaximum": 6718,
      "An": 6719,
      "ĠWhich": 6720,
      "Ġassume": 6721,
      "ĠJersey": 6722,
      "bec": 6723,
      "dog": 6724,
      "Ġsample": 6725,
      "aser": 6726,
      "ĠCIA": 6727,
      "Ġrepeatedly": 6728,
      "ba": 6729,
      "oric": 6730,
      "Ġrising": 6731,
      "ĠEnd": 6732,
      "Ġlatter": 6733,
      "rimination": 6734,
      "To": 6735,
      "def": 6736,
      "lv": 6737,
      "ĠNAT": 6738,
      "weight": 6739,
      "Ġexplore": 6740,
      "Ġterrorism": 6741,
      "Ġvillage": 6742,
      "Ġwatched": 6743,
      "ĠAL": 6744,
      "ĠLand": 6745,
      "ĠEduc": 6746,
      "Ġsomehow": 6747,
      "ensus": 6748,
      "Ġknowing": 6749,
      "Ġmarketing": 6750,
      "Ġanswers": 6751,
      "Ġsurrounding": 6752,
      "page": 6753,
      "ĠUnfortunately": 6754,
      "Ġpersonally": 6755,
      "gery": 6756,
      "Ġliterally": 6757,
      "Ġcircumstances": 6758,
      "ĠESP": 6759,
      "Ġshif": 6760,
      "Ġju": 6761,
      "Ġvolunte": 6762,
      "ĠTurk": 6763,
      "Ġdestroyed": 6764,
      "Ġcomparison": 6765,
      "EA": 6766,
      "erry": 6767,
      "ĠMot": 6768,
      "ĠDam": 6769,
      "ĠDun": 6770,
      "Ġalt": 6771,
      "Ġbutton": 6772,
      "Ġcontrolled": 6773,
      "zens": 6774,
      "Ġvice": 6775,
      "Ġembr": 6776,
      "Ġballot": 6777,
      "ĠContin": 6778,
      "Ġobserved": 6779,
      "anes": 6780,
      "sell": 6781,
      "ĠCivil": 6782,
      "Ġsho": 6783,
      "ĠJr": 6784,
      "Ġunus": 6785,
      "Ġexposed": 6786,
      "uable": 6787,
      "water": 6788,
      "Ġborrow": 6789,
      "ĠBat": 6790,
      "ĠHas": 6791,
      "Ġagenda": 6792,
      "Ġrealized": 6793,
      "ĠIndeed": 6794,
      "Ġsustain": 6795,
      "Ġprecise": 6796,
      "vin": 6797,
      "etime": 6798,
      "Ġdeleg": 6799,
      "ĠFord": 6800,
      "Ġdecent": 6801,
      "Ġdefeat": 6802,
      "ĠHistory": 6803,
      "Im": 6804,
      "friend": 6805,
      "amin": 6806,
      "ĠUse": 6807,
      "2016": 6808,
      "Ġurban": 6809,
      "Shop": 6810,
      "How": 6811,
      "sters": 6812,
      "Ġcoffee": 6813,
      "Ġjournalists": 6814,
      "Ġaf": 6815,
      "ashes": 6816,
      "ulture": 6817,
      "Ġdesper": 6818,
      "Ġbitcoin": 6819,
      "Ġbegins": 6820,
      "ĠBusiness": 6821,
      "Ġcongress": 6822,
      "Ġchain": 6823,
      "ĠYouT": 6824,
      "Ġproperly": 6825,
      "Ġhouses": 6826,
      "Ġ>>": 6827,
      "Ġcontributed": 6828,
      "uated": 6829,
      "Ġsand": 6830,
      "Ġlinks": 6831,
      "ĠCirc": 6832,
      "ĠDu": 6833,
      "eman": 6834,
      "Ġupcoming": 6835,
      "eping": 6836,
      "Ġ75": 6837,
      "ĠOrig": 6838,
      "ĠKorean": 6839,
      "ĠId": 6840,
      "iments": 6841,
      "Ġacts": 6842,
      "Ġideal": 6843,
      "Ġtrees": 6844,
      "Ġbaseball": 6845,
      "Ġimmediate": 6846,
      "Ġsuddenly": 6847,
      "Ġbunch": 6848,
      "ĠRef": 6849,
      "Ġstronger": 6850,
      "Ġwelcome": 6851,
      "ĠRuby": 6852,
      "II": 6853,
      "âĢĻ.": 6854,
      "Ġpolls": 6855,
      "VER": 6856,
      "Ġpapers": 6857,
      "style": 6858,
      "ĠLuc": 6859,
      "pected": 6860,
      "ĠAnth": 6861,
      "Ġnewslet": 6862,
      "Ġbasket": 6863,
      "Ġcutting": 6864,
      "woman": 6865,
      "Ġwake": 6866,
      "Ġgang": 6867,
      "Ġcourts": 6868,
      "Ġinfl": 6869,
      "Ġticket": 6870,
      "Ġfolks": 6871,
      "ugh": 6872,
      "Ġwest": 6873,
      "Ġhall": 6874,
      "ĠDNA": 6875,
      "ums": 6876,
      "Ġunknown": 6877,
      "Ġsimpl": 6878,
      "Ġrisks": 6879,
      "Ġauthors": 6880,
      "Ġatmosp": 6881,
      "Ġallies": 6882,
      "Ġoblig": 6883,
      "Ġconstit": 6884,
      "ĠConf": 6885,
      "Ġprotected": 6886,
      "ĠNetwork": 6887,
      "hetic": 6888,
      "ĠCommunity": 6889,
      "Ġfifth": 6890,
      "fire": 6891,
      "Ġpod": 6892,
      "ĠSnow": 6893,
      "ĠNob": 6894,
      "Ġchoices": 6895,
      "ĠCruz": 6896,
      "ĠHouston": 6897,
      "usal": 6898,
      "Ġchampionship": 6899,
      "Ġanymore": 6900,
      "Ġregional": 6901,
      "Ġcolon": 6902,
      "Ġtrading": 6903,
      "ographic": 6904,
      "08": 6905,
      "ĠSaf": 6906,
      "rence": 6907,
      "Ġsquad": 6908,
      "aire": 6909,
      "orith": 6910,
      "igation": 6911,
      "ĠCO": 6912,
      "ĠBra": 6913,
      "ĠNick": 6914,
      "ĠLive": 6915,
      "Ġchose": 6916,
      "Ġcommitment": 6917,
      "pool": 6918,
      "va": 6919,
      "wan": 6920,
      "Ġbid": 6921,
      "ĠSS": 6922,
      "umer": 6923,
      "Ġchannel": 6924,
      "ĠJosh": 6925,
      "Ġroster": 6926,
      "Ġfee": 6927,
      "Ġattacked": 6928,
      "Ġaudio": 6929,
      "Ġtrib": 6930,
      "ĠCH": 6931,
      "Ġmedic": 6932,
      "Ġposts": 6933,
      "Ġdistinct": 6934,
      "Ġmeetings": 6935,
      "Ġbench": 6936,
      "Ġregularly": 6937,
      "ĠDavis": 6938,
      "Ġtypical": 6939,
      "oming": 6940,
      "iger": 6941,
      "Ġdesk": 6942,
      "Ġproved": 6943,
      "Ġapproval": 6944,
      "Ġmotion": 6945,
      "oration": 6946,
      "athan": 6947,
      "Ġamounts": 6948,
      "Ġencourage": 6949,
      "ĠCross": 6950,
      "Ġmanip": 6951,
      "anges": 6952,
      "Ġcommunications": 6953,
      "ĠIndepend": 6954,
      "Ġprimarily": 6955,
      "Photo": 6956,
      "Ġscenes": 6957,
      "list": 6958,
      "ÂĴ": 6959,
      "Ġtort": 6960,
      "rehens": 6961,
      "ĠMake": 6962,
      "ĠThus": 6963,
      "ĠVan": 6964,
      "Ġcampus": 6965,
      "ĠDaniel": 6966,
      "ref": 6967,
      "Ġgro": 6968,
      "ĠChampionship": 6969,
      "Ġdirected": 6970,
      "Ġpurs": 6971,
      "Ġsituations": 6972,
      "Ġfacilities": 6973,
      "ĠDownload": 6974,
      "ĠItalian": 6975,
      "01": 6976,
      "hus": 6977,
      "Ġmouth": 6978,
      "Ġnative": 6979,
      "ĠNBC": 6980,
      "allas": 6981,
      "Ġnobody": 6982,
      "ĠSpanish": 6983,
      "Ġhonor": 6984,
      "dro": 6985,
      "izon": 6986,
      "Ġanyway": 6987,
      "Ġblame": 6988,
      "Ġunderstood": 6989,
      "Ġfinds": 6990,
      "Ġsending": 6991,
      "Ġstuck": 6992,
      "rome": 6993,
      "orted": 6994,
      "ifications": 6995,
      "Ġ64": 6996,
      "Ġstrongly": 6997,
      "Ġlimits": 6998,
      "Ġdeeply": 6999,
      "Ġtag": 7000,
      "irms": 7001,
      "Ġchosen": 7002,
      "Ġrejected": 7003,
      "GBT": 7004,
      "dr": 7005,
      "Ġeating": 7006,
      "ĠSn": 7007,
      "imore": 7008,
      "oster": 7009,
      "Ġincl": 7010,
      "ĠPhone": 7011,
      "Ġtaught": 7012,
      "utral": 7013,
      "ĠSar": 7014,
      "amm": 7015,
      "Ġspin": 7016,
      "inson": 7017,
      "Ġwarming": 7018,
      "Ġarguments": 7019,
      "Ġaccurate": 7020,
      "ĠPutin": 7021,
      "85": 7022,
      "twitter": 7023,
      "Ġdrawn": 7024,
      "ĠSuch": 7025,
      "otes": 7026,
      "Ġforth": 7027,
      "Ġconver": 7028,
      "Ġkil": 7029,
      "ĠInf": 7030,
      "Ġextended": 7031,
      "Ġmerely": 7032,
      "pan": 7033,
      "rary": 7034,
      "Ġfasc": 7035,
      "Ġanx": 7036,
      "Ġmurd": 7037,
      "ĠPan": 7038,
      "Ġengage": 7039,
      "Ġsurveillance": 7040,
      "Ġdogs": 7041,
      "bal": 7042,
      "ho": 7043,
      "ipl": 7044,
      "pes": 7045,
      "ua": 7046,
      "watch": 7047,
      "Ġrival": 7048,
      "ĠInvest": 7049,
      "Ġterrible": 7050,
      "Ġsupports": 7051,
      "Ġenemies": 7052,
      "cur": 7053,
      "gro": 7054,
      "ĠTurn": 7055,
      "utch": 7056,
      "Ġchampion": 7057,
      "Ġdrag": 7058,
      "Ġdriven": 7059,
      "Ġequival": 7060,
      "ĠDemocrat": 7061,
      "Ġdollar": 7062,
      "Ġseats": 7063,
      "Ġintellect": 7064,
      "Ġevil": 7065,
      "Ġlawmakers": 7066,
      "Ġscheme": 7067,
      "Ġfighters": 7068,
      "CE": 7069,
      "Ġstack": 7070,
      "Ġintense": 7071,
      "Ġphones": 7072,
      "ĠBlock": 7073,
      "Ġparam": 7074,
      "ĠKey": 7075,
      "aaaa": 7076,
      "Ġsympt": 7077,
      "BlueBox": 7078,
      "Ġwestern": 7079,
      "ĠSouthern": 7080,
      "ĠCast": 7081,
      "Ġ37": 7082,
      "Ġbills": 7083,
      "Ġaggressive": 7084,
      "anchester": 7085,
      "ĠYouTube": 7086,
      "Ġcup": 7087,
      "Ġcrazy": 7088,
      "isan": 7089,
      "Ġinqu": 7090,
      "olt": 7091,
      "ĠFund": 7092,
      "Ġdisag": 7093,
      "Ġattended": 7094,
      "Ġstrange": 7095,
      "ĠDisney": 7096,
      "Ġlicense": 7097,
      "',": 7098,
      "cers": 7099,
      "nam": 7100,
      "ington": 7101,
      "agram": 7102,
      "Ġexciting": 7103,
      "Ġrecognize": 7104,
      "ĠSever": 7105,
      "orough": 7106,
      "ingu": 7107,
      "Ġduty": 7108,
      "ules": 7109,
      "Ġsomewhere": 7110,
      "ĠVis": 7111,
      "ciples": 7112,
      "Ġmatches": 7113,
      "Ġaimed": 7114,
      "Ġgonna": 7115,
      "owered": 7116,
      "illy": 7117,
      "Ġrum": 7118,
      "ĠDid": 7119,
      "Ġdozen": 7120,
      "Ġfunny": 7121,
      "Ġpromote": 7122,
      "Ġalongside": 7123,
      "Ġdatabase": 7124,
      "ĠCall": 7125,
      "Ġofficially": 7126,
      "Ġincent": 7127,
      "osexual": 7128,
      "prise": 7129,
      "Ġresulting": 7130,
      "Ġtopic": 7131,
      "Ġemployee": 7132,
      "Ġteaching": 7133,
      "ĠAttorney": 7134,
      "ĠWilson": 7135,
      "ilarly": 7136,
      "inding": 7137,
      "Ġrepresented": 7138,
      "Ġperfectly": 7139,
      "Ġlikes": 7140,
      "Ġhang": 7141,
      "umber": 7142,
      "Ġretire": 7143,
      "anny": 7144,
      "Ġapproximately": 7145,
      "TH": 7146,
      "star": 7147,
      "acter": 7148,
      "ĠHot": 7149,
      "hers": 7150,
      "ĠMiller": 7151,
      "ĠDevelopment": 7152,
      "Ġexplanation": 7153,
      "69": 7154,
      "Ġeast": 7155,
      "ĠCare": 7156,
      "ĠLy": 7157,
      "Ġmainstream": 7158,
      "Ġinnoc": 7159,
      "OC": 7160,
      "link": 7161,
      "Ġsouthern": 7162,
      "Ġstadium": 7163,
      "ĠMS": 7164,
      "ĠParliament": 7165,
      "Ġrus": 7166,
      "ĠData": 7167,
      "ĠFre": 7168,
      "Ġalive": 7169,
      "Ġchances": 7170,
      "Ġking": 7171,
      "Ġblocks": 7172,
      "Ġcounty": 7173,
      "upid": 7174,
      "arsh": 7175,
      "Ġprofile": 7176,
      "Ġclaiming": 7177,
      "ĠJudge": 7178,
      "Ġempty": 7179,
      "lock": 7180,
      "Ġpic": 7181,
      "ĠCD": 7182,
      "Ġheight": 7183,
      "Ġselection": 7184,
      "Ġclar": 7185,
      "Ġtea": 7186,
      "Ġ55": 7187,
      "NSW": 7188,
      "EW": 7189,
      "Ġ?": 7190,
      "ĠâĢĻ": 7191,
      "Ġabortion": 7192,
      ".\"[": 7193,
      "Ġincredibly": 7194,
      "Ġgall": 7195,
      "Ġring": 7196,
      "Ġrig": 7197,
      "Ġnewly": 7198,
      "Ġprovince": 7199,
      "Ġdepth": 7200,
      "Ġruled": 7201,
      "Ġfranchise": 7202,
      "da": 7203,
      "celer": 7204,
      "ĠJu": 7205,
      "intend": 7206,
      "Ġcondem": 7207,
      "ĠServer": 7208,
      "ĠLabor": 7209,
      "Ġfarmers": 7210,
      "ĠManchester": 7211,
      "ĠLight": 7212,
      "essed": 7213,
      "Ġimpressive": 7214,
      "Ġmixed": 7215,
      "Ġstretch": 7216,
      "ivery": 7217,
      "asters": 7218,
      "ima": 7219,
      "verty": 7220,
      "osis": 7221,
      "Ġrecon": 7222,
      "onsin": 7223,
      "Ġfixed": 7224,
      "Ġnarrative": 7225,
      "Ġpermanent": 7226,
      "gun": 7227,
      "aron": 7228,
      "Ġpoverty": 7229,
      "Ġelsewhere": 7230,
      "Ġparking": 7231,
      "Our": 7232,
      "ÌĢ": 7233,
      "Ġsomebody": 7234,
      "Ġworldwide": 7235,
      "azi": 7236,
      "Ġexplicit": 7237,
      "Ġfalling": 7238,
      "regon": 7239,
      "isconsin": 7240,
      "Ġestimates": 7241,
      "Ġminority": 7242,
      "world": 7243,
      "Ġpip": 7244,
      "sea": 7245,
      "ĠCost": 7246,
      "Ġstead": 7247,
      "ĠHo": 7248,
      "Ġneck": 7249,
      "abis": 7250,
      "ĠEastern": 7251,
      "Ġcorruption": 7252,
      "ĠProgram": 7253,
      "Ġsolve": 7254,
      "ĠLinux": 7255,
      "FF": 7256,
      "bar": 7257,
      "ĠIT": 7258,
      "ĠMoh": 7259,
      "Ġworried": 7260,
      "ĠAsh": 7261,
      "ĠAdv": 7262,
      "ĠMrs": 7263,
      "Ġaffili": 7264,
      "Ġangry": 7265,
      "Ġpilot": 7266,
      "ocaust": 7267,
      "Ġalgorith": 7268,
      "ĠMajor": 7269,
      "Ġmayor": 7270,
      "ĠSeries": 7271,
      "CS": 7272,
      "DS": 7273,
      "ĠLittle": 7274,
      "Ġimper": 7275,
      "Ġroot": 7276,
      "Ġinstalled": 7277,
      "Ġpersonnel": 7278,
      "Ġgenerated": 7279,
      "Ġkeeps": 7280,
      "Ġsuccessfully": 7281,
      "Ġanticip": 7282,
      "ĠSenator": 7283,
      "Ġdrinking": 7284,
      "American": 7285,
      "esy": 7286,
      "ĠSir": 7287,
      "Ġoutcome": 7288,
      "Ġ39": 7289,
      "Ġgenerate": 7290,
      "ĠGeorgia": 7291,
      "Ġcrypt": 7292,
      "ĠBaltimore": 7293,
      "game": 7294,
      "kel": 7295,
      "ĠDig": 7296,
      "ĠOper": 7297,
      "ĠUt": 7298,
      "Ġgotten": 7299,
      "Ġexpectations": 7300,
      "Ġconstantly": 7301,
      "Ġfields": 7302,
      "amber": 7303,
      "ĠNavy": 7304,
      "ĠGi": 7305,
      "ials": 7306,
      "ĠMcG": 7307,
      "you": 7308,
      "eda": 7309,
      "Ġflex": 7310,
      "âĢĺ": 7311,
      "owed": 7312,
      "Ġconven": 7313,
      "ĠUb": 7314,
      "Ġinspir": 7315,
      "Ġlights": 7316,
      "All": 7317,
      "boy": 7318,
      "stone": 7319,
      "ĠClick": 7320,
      "Ġexcess": 7321,
      "ishment": 7322,
      "Ġescape": 7323,
      "making": 7324,
      "Ġped": 7325,
      "Ġrelief": 7326,
      "Ġties": 7327,
      "ĠCome": 7328,
      "ĠBowl": 7329,
      "ĠWater": 7330,
      "ĠDallas": 7331,
      "ĠRick": 7332,
      "Ġregistered": 7333,
      "Ġending": 7334,
      "ĠAdam": 7335,
      "iscal": 7336,
      "profit": 7337,
      "ĠCatholic": 7338,
      "ĠCa": 7339,
      "ĠCre": 7340,
      "iev": 7341,
      "Ġrecovery": 7342,
      "Ġvisited": 7343,
      "Ġthreatened": 7344,
      "AY": 7345,
      "HD": 7346,
      "cles": 7347,
      "Ġunw": 7348,
      "ĠDoes": 7349,
      "Ġfeedback": 7350,
      "Ġautomatically": 7351,
      "One": 7352,
      "dis": 7353,
      "uine": 7354,
      "viously": 7355,
      "Ġcos": 7356,
      "ĠPay": 7357,
      "Ġnominee": 7358,
      "ĠPoint": 7359,
      "Ġshr": 7360,
      "Ġscores": 7361,
      "ĠAsian": 7362,
      "Ġtransp": 7363,
      "Ġprivile": 7364,
      "Ġparticipate": 7365,
      "Ġflying": 7366,
      "ighter": 7367,
      "Ġexists": 7368,
      "ĠUFC": 7369,
      "Ġcoordin": 7370,
      "athy": 7371,
      "Ġbrut": 7372,
      "Ġregardless": 7373,
      "Ġincredible": 7374,
      "Ġhits": 7375,
      "Ġreward": 7376,
      "Ġwelf": 7377,
      "ĠHom": 7378,
      "Ġhabit": 7379,
      "Ġunp": 7380,
      "Ġrecru": 7381,
      "obile": 7382,
      "Ġaccomp": 7383,
      "Ġbuff": 7384,
      "Ġsurgery": 7385,
      "ĠAdministr": 7386,
      "Ġinformed": 7387,
      "Ġengaged": 7388,
      "51": 7389,
      "Un": 7390,
      "Ġpace": 7391,
      "alle": 7392,
      "ĠNS": 7393,
      "quarters": 7394,
      "Ġentit": 7395,
      "Ġprocesses": 7396,
      "ĠPlus": 7397,
      "mont": 7398,
      "ras": 7399,
      "itals": 7400,
      "itarian": 7401,
      "Ġporn": 7402,
      "ĠOs": 7403,
      "Ġdeveloper": 7404,
      "Ġconcluded": 7405,
      "ĠRadio": 7406,
      "Ġwelfare": 7407,
      "inf": 7408,
      "ila": 7409,
      "ĠWisconsin": 7410,
      "eland": 7411,
      "earing": 7412,
      "ologists": 7413,
      "ĠConstitution": 7414,
      "ĠEducation": 7415,
      "ĠCam": 7416,
      "istent": 7417,
      "Ġwithdraw": 7418,
      "ĠAcademy": 7419,
      "ĠHay": 7420,
      "ĠDar": 7421,
      "ĠCoast": 7422,
      "Ġassistance": 7423,
      "ĠSometimes": 7424,
      "ĠDiego": 7425,
      "ye": 7426,
      "Ġtoler": 7427,
      "Ġweird": 7428,
      "Ġru": 7429,
      "ifies": 7430,
      "Ġobser": 7431,
      "Ġvolume": 7432,
      "ĠNHL": 7433,
      "ĠESPN": 7434,
      "athered": 7435,
      "Ġbanned": 7436,
      "Ġsup": 7437,
      "Ġtruck": 7438,
      "ĠStat": 7439,
      "Ġmarked": 7440,
      "aturally": 7441,
      "Ġ1999": 7442,
      "ĠBry": 7443,
      "ĠOregon": 7444,
      "Ġhadn": 7445,
      "Ġcomprom": 7446,
      "Ġscoring": 7447,
      "ĠHead": 7448,
      "print": 7449,
      "there": 7450,
      "Ġdepending": 7451,
      "Donald": 7452,
      "writ": 7453,
      "rete": 7454,
      "acare": 7455,
      "ĠCA": 7456,
      "ĠFoot": 7457,
      "ĠInformation": 7458,
      "Ġdefence": 7459,
      "ĠBuild": 7460,
      "Ġresistance": 7461,
      "Ġtaste": 7462,
      "gener": 7463,
      "Ġtied": 7464,
      "ĠZeal": 7465,
      "Ġsolutions": 7466,
      "scar": 7467,
      "scape": 7468,
      "Ġstrikes": 7469,
      "ĠEmail": 7470,
      "Ġexpression": 7471,
      "Ġracial": 7472,
      "alaxy": 7473,
      "Ġdowntown": 7474,
      "Ġbes": 7475,
      "ĠIce": 7476,
      "ĠDark": 7477,
      "redit": 7478,
      "ĠThrough": 7479,
      "Ġeverywhere": 7480,
      "Ġmagn": 7481,
      "Ġcaptured": 7482,
      "ĠForeign": 7483,
      "Getty": 7484,
      "Ġreputation": 7485,
      "1000": 7486,
      "jo": 7487,
      "tra": 7488,
      "ĠMid": 7489,
      "ĠBox": 7490,
      "Ġcomponents": 7491,
      "Ġextract": 7492,
      "Ġthousand": 7493,
      "ĠSat": 7494,
      "ĠPS": 7495,
      "ĠFood": 7496,
      "ogether": 7497,
      "Ġunex": 7498,
      "type": 7499,
      "Ġassert": 7500,
      "Ġdiscipl": 7501,
      "Ġmedium": 7502,
      "Ġfeelings": 7503,
      "Ġpenalty": 7504,
      "Ġrarely": 7505,
      "Ġdistr": 7506,
      "Ġfounder": 7507,
      "ĠCentre": 7508,
      "Ġapartment": 7509,
      "Ġcapture": 7510,
      "Ġtroub": 7511,
      "Ġbattery": 7512,
      "At": 7513,
      "Se": 7514,
      "bury": 7515,
      "Ġ42": 7516,
      "ĠAlab": 7517,
      "untu": 7518,
      "Ġimplementation": 7519,
      "Ġadopted": 7520,
      "ĠProfessor": 7521,
      "Ġcrucial": 7522,
      "oz": 7523,
      "Ġhidden": 7524,
      "Ġthick": 7525,
      "ĠSony": 7526,
      "ĠOK": 7527,
      "Ġworker": 7528,
      "ĠTaylor": 7529,
      "09": 7530,
      "ĠBible": 7531,
      "ĠNever": 7532,
      "ĠGall": 7533,
      "Ġenable": 7534,
      "Ġcompens": 7535,
      "Ġroles": 7536,
      "ĠWithout": 7537,
      "Ġloan": 7538,
      "Ġmachines": 7539,
      "Ġlawyers": 7540,
      "Ġgranted": 7541,
      "ĠKennedy": 7542,
      "idelines": 7543,
      "With": 7544,
      "gender": 7545,
      "ĠCS": 7546,
      "abb": 7547,
      "Ġdozens": 7548,
      "Ġphase": 7549,
      "Ġproducer": 7550,
      "Ġcontinuing": 7551,
      "ĠEngine": 7552,
      "Be": 7553,
      "cow": 7554,
      "Ġsatell": 7555,
      "Ġfault": 7556,
      "ĠHospital": 7557,
      "Ġalien": 7558,
      "ĠYeah": 7559,
      "Ġstrict": 7560,
      "Ġtechnologies": 7561,
      "Ġraising": 7562,
      "Ġprinciples": 7563,
      "86": 7564,
      "By": 7565,
      "htt": 7566,
      "repre": 7567,
      "Ġwage": 7568,
      "Ġfirms": 7569,
      "ĠHave": 7570,
      "antic": 7571,
      "Ġuniform": 7572,
      "Ġ400": 7573,
      "Ġexposure": 7574,
      "Ġpayment": 7575,
      "Ġlaid": 7576,
      "Ġcomplaint": 7577,
      "Ġsettlement": 7578,
      "Ġneighbour": 7579,
      "Ġacademic": 7580,
      "Ġdisaster": 7581,
      "Ġtechniques": 7582,
      "Sp": 7583,
      "Ġsoul": 7584,
      "ĠReview": 7585,
      "Ġgenuine": 7586,
      "ĠTurkish": 7587,
      "ez": 7588,
      "Ġfake": 7589,
      "owa": 7590,
      "raid": 7591,
      "Ġclients": 7592,
      "Ġextrem": 7593,
      "Ġformat": 7594,
      "Ġencoun": 7595,
      "ESS": 7596,
      "Ġphysic": 7597,
      "reprene": 7598,
      "cus": 7599,
      "Ġtor": 7600,
      "Ġok": 7601,
      "ora": 7602,
      "Ġmel": 7603,
      "amacare": 7604,
      "Ġcontem": 7605,
      "oval": 7606,
      "Ġpasses": 7607,
      "ĠBelg": 7608,
      "Ġpatterns": 7609,
      "87": 7610,
      "Ġbath": 7611,
      "Ġinev": 7612,
      "Ġloud": 7613,
      "ilton": 7614,
      "ĠGiven": 7615,
      "Ġplug": 7616,
      "Ġfounded": 7617,
      "Ġvoter": 7618,
      "Ġmovements": 7619,
      "Ġdegrees": 7620,
      "lights": 7621,
      "Ġho": 7622,
      "ione": 7623,
      "Ġitem": 7624,
      "ĠLGBT": 7625,
      "Ġregions": 7626,
      "Ġhistoric": 7627,
      "Ġroutine": 7628,
      "Ġequivalent": 7629,
      "ĠAlabama": 7630,
      "Pe": 7631,
      "orne": 7632,
      "ĠBull": 7633,
      "Ġven": 7634,
      "Ġconscious": 7635,
      "ĠSpain": 7636,
      "ilipp": 7637,
      "Ġconsumption": 7638,
      "amsung": 7639,
      "Ġprinciple": 7640,
      "ĠZealand": 7641,
      "ao": 7642,
      "ctic": 7643,
      "ĠRose": 7644,
      "Ġsufficient": 7645,
      "Ġvaluable": 7646,
      "otted": 7647,
      "ĠGlobal": 7648,
      "DB": 7649,
      "Ġsaved": 7650,
      "ĠStart": 7651,
      "rently": 7652,
      "Ġbehalf": 7653,
      "ĠGetty": 7654,
      "Ġassistant": 7655,
      "Ġvacc": 7656,
      "ĠAnthony": 7657,
      "inos": 7658,
      "Ġpounds": 7659,
      "Ġdict": 7660,
      "Ġcomic": 7661,
      "Ġshock": 7662,
      "ĠKent": 7663,
      "icken": 7664,
      "Ġregister": 7665,
      "Ġresulted": 7666,
      "Ġhumanity": 7667,
      "Ġclubs": 7668,
      "Ġvirus": 7669,
      "ĠWhether": 7670,
      "Every": 7671,
      "Ġdim": 7672,
      "lls": 7673,
      "ĠPot": 7674,
      "Ġactor": 7675,
      "Ġdeck": 7676,
      "Ġelite": 7677,
      "Ġmainly": 7678,
      "Ġnegotiations": 7679,
      "ĠSquare": 7680,
      "Ġsight": 7681,
      "Ġfought": 7682,
      "ĠNation": 7683,
      "ĠAlbert": 7684,
      "Ġorganized": 7685,
      "ĠHarry": 7686,
      "Ġsanctions": 7687,
      "Ġthin": 7688,
      "Ġmaint": 7689,
      "Ġconstitutional": 7690,
      "Ġenjoyed": 7691,
      "ĠJoseph": 7692,
      "PM": 7693,
      "vard": 7694,
      "ystem": 7695,
      "Ġinner": 7696,
      "Ġlegs": 7697,
      "sylv": 7698,
      "ĠMarket": 7699,
      "ouch": 7700,
      "Ġshares": 7701,
      "Ġenthus": 7702,
      "Ġlegend": 7703,
      "Ġinfect": 7704,
      "ĠSteven": 7705,
      "Ġtitles": 7706,
      "Ġfears": 7707,
      "Ġindicate": 7708,
      "ĠÙ": 7709,
      "Ġiron": 7710,
      "Ġtall": 7711,
      "olis": 7712,
      "usted": 7713,
      "asts": 7714,
      "Ġemerged": 7715,
      "Ġawesome": 7716,
      "Ġestablishment": 7717,
      "lers": 7718,
      "inch": 7719,
      "ĠCat": 7720,
      "Ġexceed": 7721,
      "ĠEp": 7722,
      "aug": 7723,
      "ĠAssembly": 7724,
      "who": 7725,
      "Ġconclusion": 7726,
      "een": 7727,
      "Ġble": 7728,
      "ĠFull": 7729,
      "ĠGov": 7730,
      "Ġ1960": 7731,
      "Ġsurvive": 7732,
      "Ġexclusive": 7733,
      "ĠAp": 7734,
      "ĠHun": 7735,
      "ĠViet": 7736,
      "Ġflaw": 7737,
      "Ġreturning": 7738,
      "Ġ0100": 7739,
      "thew": 7740,
      "Ġepisodes": 7741,
      "ĠCameron": 7742,
      "ĠSeveral": 7743,
      "iy": 7744,
      "Ġbom": 7745,
      "arms": 7746,
      "Ġprominent": 7747,
      "ĠChristians": 7748,
      "ĠPennsylv": 7749,
      "ĠPacific": 7750,
      "ĠLewis": 7751,
      "Ġren": 7752,
      "ĠNorthern": 7753,
      "Ġspr": 7754,
      "Ġmonit": 7755,
      "Ġcounsel": 7756,
      "74": 7757,
      "ta": 7758,
      "agg": 7759,
      "Ġproven": 7760,
      "ria": 7761,
      "Ġplastic": 7762,
      "Ġbusy": 7763,
      "Ġchallenging": 7764,
      "html": 7765,
      "Ġvulnerable": 7766,
      "ca": 7767,
      "wo": 7768,
      "ĠSource": 7769,
      "ĠKn": 7770,
      "Ġrecip": 7771,
      "Ġremem": 7772,
      "Ġbranch": 7773,
      "Ġdemands": 7774,
      "Ġmilk": 7775,
      "Ġphotograph": 7776,
      "Ġrecognized": 7777,
      "inem": 7778,
      "Ġcited": 7779,
      "Ġyield": 7780,
      "hips": 7781,
      "Ġextensive": 7782,
      "Ġ95": 7783,
      "ĠIraqi": 7784,
      "ami": 7785,
      "riers": 7786,
      "Ġphr": 7787,
      "Ġsubjects": 7788,
      "Ġpriority": 7789,
      "Ġreferring": 7790,
      "Ġelectricity": 7791,
      "Ġwid": 7792,
      "Ġbars": 7793,
      "Ġluck": 7794,
      "imm": 7795,
      "ĠPen": 7796,
      "ĠGirl": 7797,
      "acking": 7798,
      "Ġuncom": 7799,
      "Ġpossession": 7800,
      "Ġrespectively": 7801,
      "Ġresource": 7802,
      "ĠScotland": 7803,
      "Ġ>>>": 7804,
      "inations": 7805,
      "Ġraces": 7806,
      "Ġdiscrimination": 7807,
      "Ġpropag": 7808,
      "eb": 7809,
      "han": 7810,
      "Ġmail": 7811,
      "Ġnut": 7812,
      "ĠBad": 7813,
      "Ġouts": 7814,
      "Ġsmooth": 7815,
      "ĠMusic": 7816,
      "ĠPatrick": 7817,
      "Ġtackle": 7818,
      "ĠCBS": 7819,
      "Ġstations": 7820,
      "ockey": 7821,
      "ĠEs": 7822,
      "Ġconvin": 7823,
      "ĠSpring": 7824,
      "Ġpassengers": 7825,
      "59": 7826,
      "fall": 7827,
      "pie": 7828,
      "Ġtox": 7829,
      "ĠLog": 7830,
      "plate": 7831,
      "ĠReuters": 7832,
      "Ġastron": 7833,
      "ĠPennsylvania": 7834,
      "df": 7835,
      "ĠSamsung": 7836,
      "ĠWik": 7837,
      "Ġjury": 7838,
      "ĠKat": 7839,
      "ibilities": 7840,
      "Ġlistening": 7841,
      "Ġbarely": 7842,
      "rypt": 7843,
      "Ġconspir": 7844,
      "Ġfootage": 7845,
      "Ġvisitors": 7846,
      "mal": 7847,
      "Ġmaps": 7848,
      "ĠAND": 7849,
      "ulating": 7850,
      "Ġcha": 7851,
      "Ġenorm": 7852,
      "Ġagric": 7853,
      "Ġmyth": 7854,
      "Ġdescribes": 7855,
      "ĠMagic": 7856,
      "Ġunusual": 7857,
      "62": 7858,
      "Ġcable": 7859,
      "ĠWas": 7860,
      "ĠRoyal": 7861,
      "ĠGun": 7862,
      "Ġbacked": 7863,
      "Ġgoods": 7864,
      "Ġheaded": 7865,
      "Ġveget": 7866,
      "lah": 7867,
      "ĠNOT": 7868,
      "Ġexternal": 7869,
      "away": 7870,
      "Ġoperate": 7871,
      "Ġcompete": 7872,
      "Ġwonderful": 7873,
      "ĠGreece": 7874,
      "ĠBernie": 7875,
      "rep": 7876,
      "Ġhired": 7877,
      "etary": 7878,
      "âĢĻ,": 7879,
      "ĠPerson": 7880,
      "ĠJac": 7881,
      "Ġoutr": 7882,
      "Ġads": 7883,
      "Ġfinance": 7884,
      "Ġinterface": 7885,
      "Ġcareful": 7886,
      "Ġjournalist": 7887,
      "Ġutil": 7888,
      "Ġliked": 7889,
      "Ġridic": 7890,
      "Ġveteran": 7891,
      "TER": 7892,
      "worth": 7893,
      "Ġrely": 7894,
      "abs": 7895,
      "Ġanybody": 7896,
      "appy": 7897,
      "ĠMayor": 7898,
      "Ġportion": 7899,
      "Ġcollected": 7900,
      "Ġliquid": 7901,
      "400": 7902,
      "uros": 7903,
      "Ġcontribute": 7904,
      "ĠDead": 7905,
      "ĠRelated": 7906,
      "ĠDVD": 7907,
      "Ġsymptoms": 7908,
      "car": 7909,
      "aning": 7910,
      "ĠSound": 7911,
      "ĠHaving": 7912,
      "istor": 7913,
      "Ġdisorder": 7914,
      "Ġblind": 7915,
      "Ġproducing": 7916,
      "Ġretired": 7917,
      "ĠAustin": 7918,
      "Ġlanguages": 7919,
      "Ġassociation": 7920,
      "Ġneighb": 7921,
      "ĠGreek": 7922,
      "Ġtap": 7923,
      "Ġwine": 7924,
      "Ġstable": 7925,
      "ĠHard": 7926,
      "ĠFO": 7927,
      "Ġsignal": 7928,
      "Ġprogramming": 7929,
      "ĠObamacare": 7930,
      "ĠAllen": 7931,
      "Ġshortly": 7932,
      "ĠMedical": 7933,
      "Ġlicens": 7934,
      "Ġsamples": 7935,
      "Ġtherap": 7936,
      "Ġpa": 7937,
      "ogen": 7938,
      "Ġdeliber": 7939,
      "burgh": 7940,
      "Ġincorpor": 7941,
      "ĠPremier": 7942,
      "ĠBuff": 7943,
      "ĠRus": 7944,
      "ĠGreg": 7945,
      "Ġoverse": 7946,
      "Ġregulation": 7947,
      "Ġspeaks": 7948,
      "Ġhole": 7949,
      "Ġstim": 7950,
      "ifer": 7951,
      "ĠAlban": 7952,
      "Ġacceler": 7953,
      "Ġentering": 7954,
      "Ġboat": 7955,
      "Ġmenu": 7956,
      "Ġrepresentative": 7957,
      "Ġuncertain": 7958,
      "ĠFamily": 7959,
      "rell": 7960,
      "ĠMoon": 7961,
      "Ġriver": 7962,
      "ĠEarlier": 7963,
      "Ġobst": 7964,
      "Ġextension": 7965,
      "ĠBeach": 7966,
      "Ġreducing": 7967,
      "Ġintellectual": 7968,
      "ĠTem": 7969,
      "Ġ65": 7970,
      "Ġtaxpay": 7971,
      "Ġprofession": 7972,
      "ĠColumbia": 7973,
      "ĠHenry": 7974,
      "Ġoverwhelming": 7975,
      "Ġbasketball": 7976,
      "ni": 7977,
      "Ġwww": 7978,
      "Ġgathered": 7979,
      "ĠSN": 7980,
      "ĠBall": 7981,
      "Ġvisible": 7982,
      "Ġcreates": 7983,
      "Ġfeaturing": 7984,
      "ĠNATO": 7985,
      "%.": 7986,
      "ester": 7987,
      "idency": 7988,
      "Ġstupid": 7989,
      "rient": 7990,
      "ĠArm": 7991,
      "Ġfrag": 7992,
      "ĠAmendment": 7993,
      "Ġplatforms": 7994,
      "ĠVegas": 7995,
      "72": 7996,
      "pread": 7997,
      "rets": 7998,
      "asion": 7999,
      "ĠIowa": 8000,
      "Ġpermission": 8001,
      "Ġhandful": 8002,
      "Ġforever": 8003,
      "Ġtemporary": 8004,
      "Ġlosses": 8005,
      "Ġconvinced": 8006,
      "Ġhide": 8007,
      "ĠMuseum": 8008,
      "ĠForm": 8009,
      "Ġsharp": 8010,
      "Ġjazz": 8011,
      "Ġsuggesting": 8012,
      "Ġpractical": 8013,
      "CD": 8014,
      "Ġdinner": 8015,
      "Ġhook": 8016,
      "ĠExt": 8017,
      "Ġadvis": 8018,
      "Ġcomplicated": 8019,
      "Ġachieved": 8020,
      "ĠRoman": 8021,
      "Ġreforms": 8022,
      "Ġefficiency": 8023,
      "Ġafraid": 8024,
      "PG": 8025,
      "heast": 8026,
      "ĠAC": 8027,
      "ĠFair": 8028,
      "ĠLind": 8029,
      "idespread": 8030,
      "Ġreduction": 8031,
      "Ġtracks": 8032,
      "Ġpurchased": 8033,
      "ĠNSA": 8034,
      "izer": 8035,
      "angel": 8036,
      "inking": 8037,
      "Ġinvited": 8038,
      "Ġreporter": 8039,
      "Ġdevast": 8040,
      "Ġdelivery": 8041,
      "Ġstatistics": 8042,
      "Ġindependence": 8043,
      "news": 8044,
      "Ġexception": 8045,
      "Ġsuspended": 8046,
      "ĠAPI": 8047,
      "Ġcontroversy": 8048,
      "ĠUsing": 8049,
      "err": 8050,
      "Ġbail": 8051,
      "ĠWW": 8052,
      "Ġspark": 8053,
      "ĠPhilipp": 8054,
      "Ġfriendly": 8055,
      "Ġdeeper": 8056,
      "Ġterrorists": 8057,
      "Ġcoalition": 8058,
      "Ġrapidly": 8059,
      "79": 8060,
      "Ġaver": 8061,
      "ĠHit": 8062,
      "Ġdeserv": 8063,
      "Ġobtain": 8064,
      "Ġchecks": 8065,
      "Ġmissile": 8066,
      "month": 8067,
      "Ġmos": 8068,
      "rolled": 8069,
      "ĠFred": 8070,
      "this": 8071,
      "anted": 8072,
      "outube": 8073,
      "ĠJason": 8074,
      "Ġperpet": 8075,
      "teen": 8076,
      "Ġfailing": 8077,
      "ĠExper": 8078,
      "ĠMexican": 8079,
      "Ġdemocratic": 8080,
      "front": 8081,
      "Ġstructures": 8082,
      "mate": 8083,
      "erts": 8084,
      "itar": 8085,
      "store": 8086,
      "ĠMir": 8087,
      "usions": 8088,
      "Ġdoors": 8089,
      "Ġattacking": 8090,
      "Ġviewers": 8091,
      "Ġimprovements": 8092,
      "Ġprepare": 8093,
      "Ġtickets": 8094,
      "Oh": 8095,
      "mo": 8096,
      "ĠAction": 8097,
      "ĠBah": 8098,
      "ĠVideo": 8099,
      "Ġrose": 8100,
      "Ġprofits": 8101,
      "Ġcollapse": 8102,
      "Ġengineering": 8103,
      "Ġcategory": 8104,
      "ĠMoscow": 8105,
      "63": 8106,
      "Ad": 8107,
      "EP": 8108,
      "ĠAS": 8109,
      "acked": 8110,
      "Ġguest": 8111,
      "ĠMinnes": 8112,
      "ĠConservative": 8113,
      "EG": 8114,
      "mod": 8115,
      "wr": 8116,
      "Ġdad": 8117,
      "ĠCL": 8118,
      "ĠRa": 8119,
      "Ġships": 8120,
      "Ġpeak": 8121,
      "Ġindicated": 8122,
      "Ġbridge": 8123,
      "including": 8124,
      "Ġinterviews": 8125,
      "Ġstruggling": 8126,
      "Ġwing": 8127,
      "ĠSH": 8128,
      "ĠPu": 8129,
      "portion": 8130,
      "Ġterr": 8131,
      "Ġ150": 8132,
      "Ġconservatives": 8133,
      "Ġfantasy": 8134,
      "Ġbrowser": 8135,
      "\"]": 8136,
      "73": 8137,
      "800": 8138,
      "AA": 8139,
      "har": 8140,
      "Ġdiversity": 8141,
      "icity": 8142,
      "Ġgained": 8143,
      "iley": 8144,
      "eck": 8145,
      "Ġinteract": 8146,
      "lessly": 8147,
      "Ġphotograp": 8148,
      "Ġunemployment": 8149,
      "Ġloyal": 8150,
      "ura": 8151,
      "Ġstab": 8152,
      "Ġprote": 8153,
      "ĠAli": 8154,
      "Ġdiscovery": 8155,
      "Ġcontrols": 8156,
      "Ġlogic": 8157,
      "ĠGraham": 8158,
      "ĠOlympic": 8159,
      "Ġtape": 8160,
      "Ġsoph": 8161,
      "Ġwidespread": 8162,
      "enter": 8163,
      "ĠSix": 8164,
      "ĠPitt": 8165,
      "osit": 8166,
      "aph": 8167,
      "sole": 8168,
      "ĠKeep": 8169,
      "Ġcameras": 8170,
      "Ġatmosphere": 8171,
      "Ġpump": 8172,
      "ĠTun": 8173,
      "Ġasks": 8174,
      "Ġrural": 8175,
      "Ġcontained": 8176,
      "iana": 8177,
      "icket": 8178,
      "Ġ->": 8179,
      "Ġownership": 8180,
      "Ġbegun": 8181,
      "Ġpetition": 8182,
      "case": 8183,
      "fare": 8184,
      "Ġfruit": 8185,
      "ĠSet": 8186,
      "opher": 8187,
      "Ġupset": 8188,
      "ĠAndre": 8189,
      "ĠReport": 8190,
      "Ġpopulations": 8191,
      "Ġ1998": 8192,
      "ãģ®": 8193,
      "inois": 8194,
      "ĠâĤ¬": 8195,
      "ĠUbuntu": 8196,
      "elect": 8197,
      "rical": 8198,
      "sa": 8199,
      "Ġocean": 8200,
      "Ġhitting": 8201,
      "ĠTown": 8202,
      "ĠPA": 8203,
      "Ġcomprehens": 8204,
      "ĠDeath": 8205,
      "aska": 8206,
      "ĠBroad": 8207,
      "ĠKingdom": 8208,
      "ihad": 8209,
      "ĠáĦ": 8210,
      "Ġtasks": 8211,
      "Ġgrounds": 8212,
      "Ġcovering": 8213,
      "Ġmanufacturing": 8214,
      "Ġscrut": 8215,
      "bro": 8216,
      "bow": 8217,
      "sl": 8218,
      "ðŁ": 8219,
      "ĠTenn": 8220,
      "ĠWH": 8221,
      "vernment": 8222,
      "ĠIndones": 8223,
      "Ġelectronic": 8224,
      "Ġ1997": 8225,
      "Ġdescription": 8226,
      "Ġcollective": 8227,
      "Ġimplemented": 8228,
      "ĠBrewing": 8229,
      "Ġfiscal": 8230,
      "ĠPL": 8231,
      "ĠLear": 8232,
      "ĠJava": 8233,
      "ĠGolden": 8234,
      "EF": 8235,
      "Ġtip": 8236,
      "ĠTR": 8237,
      "ĠList": 8238,
      "ĠGaza": 8239,
      "Ġcolors": 8240,
      "Ġintervention": 8241,
      "Ġedition": 8242,
      "Ġdepends": 8243,
      "Ġcampaigns": 8244,
      "Ġviewed": 8245,
      "Ġauthent": 8246,
      "Ġcitizen": 8247,
      "Ġopinions": 8248,
      "Ġignored": 8249,
      "ped": 8250,
      "ĠSus": 8251,
      "aki": 8252,
      "ĠYemen": 8253,
      "Ġcoaches": 8254,
      "Ġflash": 8255,
      "Ġformal": 8256,
      "ĠBelow": 8257,
      "Ġwalls": 8258,
      "ĠMatthew": 8259,
      "QL": 8260,
      "then": 8261,
      "isa": 8262,
      "Ġyellow": 8263,
      "ĠOak": 8264,
      "Ġwheel": 8265,
      "Ġkm": 8266,
      "aching": 8267,
      "Ġjoining": 8268,
      "Ġadvertising": 8269,
      "cific": 8270,
      "Ġfab": 8271,
      "Ġelev": 8272,
      "Ġexport": 8273,
      "ĠLiver": 8274,
      "Ġshit": 8275,
      "ĠOscar": 8276,
      "ĠUlt": 8277,
      "aret": 8278,
      "Ġ44": 8279,
      "Ġletters": 8280,
      "Ġactivist": 8281,
      "Ġcomputers": 8282,
      "ĠPatri": 8283,
      "Ġforgot": 8284,
      "lahoma": 8285,
      "Big": 8286,
      "Ex": 8287,
      "cription": 8288,
      "ded": 8289,
      "Ġtheat": 8290,
      "Ġham": 8291,
      "Ġarrange": 8292,
      "Ġamid": 8293,
      "Ġoffices": 8294,
      "Ġ99": 8295,
      "Ġestimate": 8296,
      "Ġattempting": 8297,
      "Ġdrawing": 8298,
      "Ġreferend": 8299,
      "Ġsin": 8300,
      "Ġfulf": 8301,
      "Ġlucky": 8302,
      "ĠHT": 8303,
      "ĠRos": 8304,
      "ĠLim": 8305,
      "ĠLow": 8306,
      "rous": 8307,
      "ordon": 8308,
      "Ġ41": 8309,
      "Ġestate": 8310,
      "ĠControl": 8311,
      "ĠAnton": 8312,
      "))": 8313,
      "58": 8314,
      "ked": 8315,
      "Ġwars": 8316,
      "Ġthrown": 8317,
      "Ġranks": 8318,
      "ĠOnt": 8319,
      "Ġrecording": 8320,
      "Ġserves": 8321,
      "ĠiP": 8322,
      "Ġunclear": 8323,
      "Ġappointed": 8324,
      "UL": 8325,
      "fol": 8326,
      "iti": 8327,
      "Ġrational": 8328,
      "ĠStadium": 8329,
      "Ġaffairs": 8330,
      "ĠiOS": 8331,
      "ĠHarvard": 8332,
      "Ġreviews": 8333,
      "Ġadvocates": 8334,
      "Ġcannabis": 8335,
      "maker": 8336,
      "zing": 8337,
      "ammed": 8338,
      "ĠGT": 8339,
      "Ġsoil": 8340,
      "Ġspoken": 8341,
      "Ġentreprene": 8342,
      "iversary": 8343,
      "Ġpayments": 8344,
      "Ġorganic": 8345,
      "hour": 8346,
      "sm": 8347,
      "wa": 8348,
      "ĠWin": 8349,
      "ĠFed": 8350,
      "interest": 8351,
      "Ġpresum": 8352,
      "Ġimprovement": 8353,
      "Ġsteel": 8354,
      "02": 8355,
      "52": 8356,
      "Ġdump": 8357,
      "Ġgam": 8358,
      "Ġgear": 8359,
      "ĠHop": 8360,
      "Ġcomponent": 8361,
      "ĠShort": 8362,
      "Ġfoundation": 8363,
      "enez": 8364,
      "Ġmeasured": 8365,
      "Ġaddressed": 8366,
      "Ġsettings": 8367,
      "Ġranked": 8368,
      "Ġcertific": 8369,
      "Ġlegitimate": 8370,
      "Ġtomorrow": 8371,
      "eding": 8372,
      "section": 8373,
      "ifest": 8374,
      "udes": 8375,
      "ounced": 8376,
      "ĠLeon": 8377,
      "Ġtrail": 8378,
      "Ġprocessing": 8379,
      "Ġentertainment": 8380,
      "bul": 8381,
      "ĠCra": 8382,
      "uset": 8383,
      "Ġneutral": 8384,
      "Ġshout": 8385,
      "Ġsalary": 8386,
      "Ġvirtually": 8387,
      "ĠOklahoma": 8388,
      "Ġpuzz": 8389,
      "ĠMinnesota": 8390,
      "found": 8391,
      "ĠPent": 8392,
      "Ġcarefully": 8393,
      "Ġfunded": 8394,
      "ĠColl": 8395,
      "Ġbarrel": 8396,
      "Ġstayed": 8397,
      "Ġnormally": 8398,
      "Ġillness": 8399,
      "ĠIII": 8400,
      "53": 8401,
      "iary": 8402,
      "Ùİ": 8403,
      "ĠÎ": 8404,
      "itary": 8405,
      "ĠCro": 8406,
      "ĠMORE": 8407,
      "ĠFreedom": 8408,
      "ĠUr": 8409,
      "ipal": 8410,
      "Ġimproving": 8411,
      "Ġacquired": 8412,
      "'.": 8413,
      "rison": 8414,
      "Ġtank": 8415,
      "Ġrevel": 8416,
      "Ġclosing": 8417,
      "Ġscream": 8418,
      "Ġversus": 8419,
      "ĠPolicy": 8420,
      "ĠWalker": 8421,
      "Ġcontaining": 8422,
      "Ġpublication": 8423,
      "Ġscenario": 8424,
      "ĠQueen": 8425,
      "ĠIllinois": 8426,
      "dri": 8427,
      "Ġhint": 8428,
      "Ġreven": 8429,
      "ĠRand": 8430,
      "Ġvary": 8431,
      "Ġscandal": 8432,
      "weet": 8433,
      "ĠMinistry": 8434,
      "Ġrecommended": 8435,
      "otype": 8436,
      "iel": 8437,
      "ĠTan": 8438,
      "ĠSure": 8439,
      "ĠEvent": 8440,
      "ultane": 8441,
      "Ġactors": 8442,
      "text": 8443,
      "Ġbrill": 8444,
      "Ġsurf": 8445,
      "ĠBloom": 8446,
      "Ġcapabilities": 8447,
      "Ġconvicted": 8448,
      "ommod": 8449,
      "ĠSilver": 8450,
      "57": 8451,
      "esty": 8452,
      "Ġovert": 8453,
      "Ġshoulder": 8454,
      "Ġproviders": 8455,
      "Ġdrives": 8456,
      "ĠConnect": 8457,
      "Ġcorporations": 8458,
      "Ġwealthy": 8459,
      "Ġphilosophy": 8460,
      "OV": 8461,
      "Ġcock": 8462,
      "igen": 8463,
      "urb": 8464,
      "agh": 8465,
      "Ġvital": 8466,
      "Ġalter": 8467,
      "Ġ1996": 8468,
      "Ġcontracts": 8469,
      "ĠAssociated": 8470,
      "56": 8471,
      "bn": 8472,
      "dem": 8473,
      "oen": 8474,
      "uce": 8475,
      "Ġ~": 8476,
      "oured": 8477,
      "ĠABC": 8478,
      "Ġrating": 8479,
      "ĠRen": 8480,
      "Ġgrass": 8481,
      "Ġheading": 8482,
      "Ġpromises": 8483,
      "Ġdestruction": 8484,
      "ĠCorpor": 8485,
      "ĠBrother": 8486,
      "ĠFigure": 8487,
      "Ġbehaviour": 8488,
      "Ġreferendum": 8489,
      "she": 8490,
      "ito": 8491,
      "stract": 8492,
      "Ġgift": 8493,
      "ĠChel": 8494,
      "ĠLater": 8495,
      "pload": 8496,
      "Ġrecover": 8497,
      "Ġpersonality": 8498,
      "Ġwarrant": 8499,
      "Ġ1994": 8500,
      "ĠSpeaking": 8501,
      "Ġroads": 8502,
      "Ġsensitive": 8503,
      "ĠBerlin": 8504,
      "lad": 8505,
      "uties": 8506,
      "Ġplate": 8507,
      "Ġ2019": 8508,
      "atern": 8509,
      "phones": 8510,
      "Ġpolitically": 8511,
      "Ġdeputy": 8512,
      "Ġminds": 8513,
      "Star": 8514,
      "Ġapolog": 8515,
      "Ġinvolvement": 8516,
      "heim": 8517,
      "sect": 8518,
      "Ġcomedy": 8519,
      "Ġje": 8520,
      "Ġextend": 8521,
      "Ġcomplaints": 8522,
      "Ġuniversities": 8523,
      "\")": 8524,
      "count": 8525,
      "itter": 8526,
      "Ġfu": 8527,
      "ĠCode": 8528,
      "Ġindex": 8529,
      "Ġtestim": 8530,
      "Ġdistributed": 8531,
      "Ġethnic": 8532,
      "Ġbreath": 8533,
      "ĠAdministration": 8534,
      "54": 8535,
      "89": 8536,
      "imp": 8537,
      "ĠBudd": 8538,
      "Ġtrained": 8539,
      "ecut": 8540,
      "ĠAltern": 8541,
      "Ġhardly": 8542,
      "Ġstatist": 8543,
      "Ġcyber": 8544,
      "Ġracist": 8545,
      "ĠBrooklyn": 8546,
      "Ġdynamic": 8547,
      "Not": 8548,
      "aus": 8549,
      "ĠTri": 8550,
      "ĠMain": 8551,
      "ĠMah": 8552,
      "ĠHor": 8553,
      "Ġdrama": 8554,
      "annels": 8555,
      "ĠArabia": 8556,
      "Ġmistakes": 8557,
      "Ġpregnancy": 8558,
      "Ġguarantee": 8559,
      "asi": 8560,
      "ĠSU": 8561,
      "ĠAward": 8562,
      "Ġtechnique": 8563,
      "Ġforest": 8564,
      "Ġbrothers": 8565,
      "ĠPortland": 8566,
      "Ġappreciate": 8567,
      "bian": 8568,
      "Ġsacr": 8569,
      "aria": 8570,
      "ĠNorm": 8571,
      "archy": 8572,
      "Ġelig": 8573,
      "Ġinvestigate": 8574,
      "iences": 8575,
      "Ġconnections": 8576,
      "Ġprogressive": 8577,
      "Ġencouraged": 8578,
      "ĠHarris": 8579,
      "TR": 8580,
      "cia": 8581,
      "uma": 8582,
      "These": 8583,
      "screen": 8584,
      "199": 8585,
      "Ġdiscussions": 8586,
      "ĠDesign": 8587,
      "Ġbeliefs": 8588,
      "Ġingred": 8589,
      "Ġscholars": 8590,
      "!)": 8591,
      "600": 8592,
      "fund": 8593,
      "Ġfro": 8594,
      "acon": 8595,
      "olen": 8596,
      "ĠLas": 8597,
      "ources": 8598,
      "Ġaccommod": 8599,
      "Ġabsence": 8600,
      "ĠEmpire": 8601,
      "Ġreaching": 8602,
      "ĠDivision": 8603,
      "aeda": 8604,
      "yo": 8605,
      "Ġtail": 8606,
      "Ġdance": 8607,
      "Ġlists": 8608,
      "ĠCook": 8609,
      "ĠRun": 8610,
      "ĠRoss": 8611,
      "Ġprosec": 8612,
      "Ġheadquarters": 8613,
      "ĠXbox": 8614,
      "Ġdemonstrated": 8615,
      "Ġlobby": 8616,
      "Ġclothes": 8617,
      "enth": 8618,
      "Ġlying": 8619,
      "Ġele": 8620,
      "ĠNic": 8621,
      "Ġnotion": 8622,
      "Ġeastern": 8623,
      "flix": 8624,
      "Ġawarded": 8625,
      "Ġupgrade": 8626,
      "ĠTechnology": 8627,
      "ĠChildren": 8628,
      "Ġinstrument": 8629,
      "aud": 8630,
      "from": 8631,
      "lay": 8632,
      "Ġmo": 8633,
      "âĢĲ": 8634,
      "Ġrender": 8635,
      "Ġconce": 8636,
      "oding": 8637,
      "obs": 8638,
      "Ġtransactions": 8639,
      "Ġhandling": 8640,
      "ikes": 8641,
      "Ġconcrete": 8642,
      "ĠPalestinians": 8643,
      "Ġtweeted": 8644,
      "Ġdramatic": 8645,
      "ĠFootball": 8646,
      "usetts": 8647,
      "mary": 8648,
      "Ġfate": 8649,
      "Ġfestival": 8650,
      "ouri": 8651,
      "Ġmuseum": 8652,
      "Ġdrew": 8653,
      "ivals": 8654,
      "ĠAnderson": 8655,
      "olds": 8656,
      "cover": 8657,
      "Ġmembership": 8658,
      "Ġemployed": 8659,
      "Ġexpanded": 8660,
      "Ġrestrictions": 8661,
      "mers": 8662,
      "Ġnaturally": 8663,
      "ira": 8664,
      "ĠFive": 8665,
      "Ġscreens": 8666,
      "achusetts": 8667,
      "ounce": 8668,
      "ĠProv": 8669,
      "Ġchest": 8670,
      "ãģ¦": 8671,
      "Ġequally": 8672,
      "Ġadmit": 8673,
      "ĠLiverpool": 8674,
      "eals": 8675,
      "Ġ%": 8676,
      "Ġthrew": 8677,
      "ĠTen": 8678,
      "igs": 8679,
      "ĠBon": 8680,
      "rix": 8681,
      "isting": 8682,
      "Ġaccus": 8683,
      "arrass": 8684,
      "Ġdivor": 8685,
      "Ġconversations": 8686,
      "ĠBooks": 8687,
      "Ġassumed": 8688,
      "06": 8689,
      "LY": 8690,
      "itage": 8691,
      "Ġlin": 8692,
      "ĠCreat": 8693,
      "Ġsty": 8694,
      "Ġstages": 8695,
      "ĠPT": 8696,
      "Ġraw": 8697,
      "ĠEth": 8698,
      "ĠON": 8699,
      "Ġpoly": 8700,
      "comp": 8701,
      "Ġmarks": 8702,
      "Ġlandscape": 8703,
      "ĠJustin": 8704,
      "Ġfallen": 8705,
      "Ġtransportation": 8706,
      "ĠMaryland": 8707,
      "Ġbonus": 8708,
      "Ġdisagree": 8709,
      "pled": 8710,
      "Ġsuffer": 8711,
      "ĠIntelligence": 8712,
      "Ġconsistently": 8713,
      "Ġabandoned": 8714,
      "Ġshopping": 8715,
      "ML": 8716,
      "Ġwages": 8717,
      "ouver": 8718,
      "Ġrom": 8719,
      "Ġjur": 8720,
      "Ġlowest": 8721,
      "Ġsalt": 8722,
      "Ġstrategic": 8723,
      "intendo": 8724,
      "76": 8725,
      "inction": 8726,
      "Ġvend": 8727,
      "Ġ2020": 8728,
      "Ġunions": 8729,
      "ika": 8730,
      "Ġperforming": 8731,
      "Ġdomain": 8732,
      "Ġcriticized": 8733,
      "Ġhypot": 8734,
      "Ġunexpected": 8735,
      "core": 8736,
      "Ġtone": 8737,
      "icism": 8738,
      "emed": 8739,
      "Ġincidents": 8740,
      "ĠChair": 8741,
      "Ġinvestigators": 8742,
      "Ġwebsites": 8743,
      "ĠIndiana": 8744,
      "Ġbeauty": 8745,
      "ĠAtlanta": 8746,
      "senal": 8747,
      "Ġdub": 8748,
      "thon": 8749,
      "unior": 8750,
      "ĠKansas": 8751,
      "Ġ1992": 8752,
      "Ġbreaks": 8753,
      "Ġblockchain": 8754,
      "Ġproposals": 8755,
      "Ġenormous": 8756,
      "dney": 8757,
      "Ġanger": 8758,
      "ĠBlake": 8759,
      "Ġdrone": 8760,
      "ĠCommon": 8761,
      "books": 8762,
      "ijing": 8763,
      "Ġfantastic": 8764,
      "Ġconventional": 8765,
      "Ġphenomenon": 8766,
      "Image": 8767,
      "ÌĨ": 8768,
      "ĠLine": 8769,
      "ĠJenn": 8770,
      "Ġpreced": 8771,
      "amps": 8772,
      "Ġobs": 8773,
      "lando": 8774,
      "ĠSean": 8775,
      "Ġswim": 8776,
      "ĠEnvironment": 8777,
      "Ġhorror": 8778,
      "ĠAtlantic": 8779,
      "Ġentitled": 8780,
      "lan": 8781,
      "made": 8782,
      "ĠCore": 8783,
      "ĠHind": 8784,
      "ĠGulf": 8785,
      "Ġovers": 8786,
      "Ġdefine": 8787,
      "Ġacid": 8788,
      "cience": 8789,
      "Ġcenters": 8790,
      "tenance": 8791,
      "Ġgenetic": 8792,
      "ĠMassachusetts": 8793,
      "Ġsubsequent": 8794,
      "cut": 8795,
      "Ġsorry": 8796,
      "Ġwra": 8797,
      "ĠBud": 8798,
      "Ġsugar": 8799,
      "Ġentr": 8800,
      "ĠTherefore": 8801,
      "Ġ1995": 8802,
      "ĠEdit": 8803,
      "Ġlayer": 8804,
      "Ġsuspected": 8805,
      "AB": 8806,
      "bell": 8807,
      "xit": 8808,
      "youtube": 8809,
      "isons": 8810,
      "Ġbub": 8811,
      "Ġmarch": 8812,
      "owing": 8813,
      "ĠBang": 8814,
      "ĠPass": 8815,
      "ordinary": 8816,
      "itionally": 8817,
      "Ġcommonly": 8818,
      "EE": 8819,
      "iens": 8820,
      "yer": 8821,
      "ĠFix": 8822,
      "umes": 8823,
      "ĠHell": 8824,
      "Ġcovers": 8825,
      "Ġsmoke": 8826,
      "Ġsubmitted": 8827,
      "Ġsimultane": 8828,
      "Ġmodule": 8829,
      "ancouver": 8830,
      "ĠSmart": 8831,
      "ĠCrime": 8832,
      "Ġawareness": 8833,
      "Ġqualified": 8834,
      "ĠGuardian": 8835,
      "iro": 8836,
      "Ġfing": 8837,
      "Ġstability": 8838,
      "child": 8839,
      "keep": 8840,
      "Ġpreserv": 8841,
      "Ġpursu": 8842,
      "Ġ1993": 8843,
      "Ġprotecting": 8844,
      "afe": 8845,
      "Ġpublisher": 8846,
      "Ġprisoners": 8847,
      "Ġodds": 8848,
      "vo": 8849,
      "Ġinject": 8850,
      "ĠDal": 8851,
      "ĠWarren": 8852,
      "Ġportray": 8853,
      "ĠHamilton": 8854,
      "Ġliterature": 8855,
      "ĠSupport": 8856,
      "Ġmedicine": 8857,
      "Int": 8858,
      "ĠAz": 8859,
      "Ġadmin": 8860,
      "Ġunpre": 8861,
      "Ġquote": 8862,
      "Ġdrones": 8863,
      "government": 8864,
      "Ġdivided": 8865,
      "RS": 8866,
      "cling": 8867,
      "rec": 8868,
      "Ġcig": 8869,
      "Ġmic": 8870,
      "Ġspaces": 8871,
      "Ġcrimin": 8872,
      "ĠSeason": 8873,
      "Ġbrown": 8874,
      "ĠBridge": 8875,
      "Ġfoods": 8876,
      "trans": 8877,
      "Ġharassment": 8878,
      "held": 8879,
      "thur": 8880,
      "Ġ46": 8881,
      "Ġunderlying": 8882,
      "Ġpersons": 8883,
      "ĠRoberts": 8884,
      "ĠGovernor": 8885,
      "Ġfighter": 8886,
      "ĠMichel": 8887,
      "Ġregistration": 8888,
      "aun": 8889,
      "ĠTed": 8890,
      "Ġjoy": 8891,
      "Ġtwenty": 8892,
      "Ġproducers": 8893,
      "rooms": 8894,
      "ĠDenver": 8895,
      "####": 8896,
      "Ġinquir": 8897,
      "LC": 8898,
      "Ġgains": 8899,
      "ĠFestival": 8900,
      "Ġrecall": 8901,
      "Ġinvent": 8902,
      "ĠLeader": 8903,
      "Ġreads": 8904,
      "ĠBeijing": 8905,
      "Ġacknowledged": 8906,
      "Ġencounter": 8907,
      "Ġfinger": 8908,
      "Ġles": 8909,
      "aya": 8910,
      "Ġdelic": 8911,
      "agraph": 8912,
      "inder": 8913,
      "Ġdisrupt": 8914,
      "veland": 8915,
      "ĠNev": 8916,
      "Ġreplied": 8917,
      "Ġrepresenting": 8918,
      "Ġtips": 8919,
      "Ġgent": 8920,
      "irts": 8921,
      "ĠRac": 8922,
      "ĠVancouver": 8923,
      "Ġ43": 8924,
      "ĠFormer": 8925,
      "ernel": 8926,
      "Ġseemingly": 8927,
      "AND": 8928,
      "Ġcalm": 8929,
      "Ġembarrass": 8930,
      "ĠCharlie": 8931,
      "Ġeggs": 8932,
      ".-": 8933,
      "Ġbureau": 8934,
      "ĠSab": 8935,
      "igg": 8936,
      "ĠMun": 8937,
      "ĠHann": 8938,
      "ĠFR": 8939,
      "abeth": 8940,
      "plus": 8941,
      "wered": 8942,
      "Ġconsent": 8943,
      "Ġreader": 8944,
      "Ġadventure": 8945,
      "Ġstriking": 8946,
      "ĠEliz": 8947,
      "Ġthrowing": 8948,
      "Ġinitiative": 8949,
      "Ġcasual": 8950,
      "Ġinflation": 8951,
      "hero": 8952,
      "Ġinsisted": 8953,
      "ĠBeing": 8954,
      "ĠBatman": 8955,
      "dy": 8956,
      "essel": 8957,
      "Ġpin": 8958,
      "Ġbeach": 8959,
      "ĠHold": 8960,
      "asted": 8961,
      "ailed": 8962,
      "Ġtransit": 8963,
      "Ġhanded": 8964,
      "Ġchildhood": 8965,
      "Ġinvestigations": 8966,
      "Ġdrove": 8967,
      "Ġbottle": 8968,
      "Ġassessment": 8969,
      "allel": 8970,
      "iche": 8971,
      "ĠTour": 8972,
      "ĠSad": 8973,
      "ĠAst": 8974,
      "ethe": 8975,
      "ĠBron": 8976,
      "ĠGordon": 8977,
      "Ġremoval": 8978,
      "Ġsmell": 8979,
      "Ġtransgender": 8980,
      "scale": 8981,
      "arring": 8982,
      "Ġerrors": 8983,
      "ĠMarsh": 8984,
      "ĠSnowden": 8985,
      "03": 8986,
      "BN": 8987,
      "Os": 8988,
      "iate": 8989,
      "ĠTro": 8990,
      "ĠBand": 8991,
      "Ġrhet": 8992,
      "Ġcompe": 8993,
      "ĠGre": 8994,
      "ĠOcc": 8995,
      "acket": 8996,
      "Ġspots": 8997,
      "ĠCooper": 8998,
      "Ġargues": 8999,
      "Ġauto": 9000,
      "Ġmerch": 9001,
      "Ġframework": 9002,
      "Ġcooperation": 9003,
      "Ġsupplies": 9004,
      "ĠRussell": 9005,
      "ĠChelsea": 9006,
      "61": 9007,
      "83": 9008,
      "ĠCapt": 9009,
      "irk": 9010,
      "Ġrush": 9011,
      "ĠRoy": 9012,
      "ĠRather": 9013,
      "Ġexit": 9014,
      "ĠJere": 9015,
      "Ġ47": 9016,
      "ĠUnlike": 9017,
      "Ġ51": 9018,
      "ĠPlace": 9019,
      "Ġpremium": 9020,
      "Ġrestaurants": 9021,
      "Ġmargin": 9022,
      "ĠOntario": 9023,
      "%,": 9024,
      "AG": 9025,
      "alysis": 9026,
      "Ġsaving": 9027,
      "Ġattached": 9028,
      "Ġfactory": 9029,
      "ĠRepresent": 9030,
      "ĠBruce": 9031,
      "Ġcust": 9032,
      "Ġgross": 9033,
      "Ġstone": 9034,
      "ĠField": 9035,
      "berry": 9036,
      "Ġ1950": 9037,
      "Ġfails": 9038,
      "Ġinvestigating": 9039,
      "ĠNetflix": 9040,
      "People": 9041,
      "TP": 9042,
      "vity": 9043,
      "itol": 9044,
      "arre": 9045,
      "Ġmask": 9046,
      "ĠHur": 9047,
      "ĠDO": 9048,
      "Ġsynt": 9049,
      "Ġmusical": 9050,
      "Ġarrive": 9051,
      "========": 9052,
      "Ġdismissed": 9053,
      "</": 9054,
      "ĠMach": 9055,
      "irlf": 9056,
      "Ġweigh": 9057,
      "ĠPict": 9058,
      "iller": 9059,
      "ĠHon": 9060,
      "agu": 9061,
      "ĠDream": 9062,
      "oret": 9063,
      "Ġabroad": 9064,
      "ĠSydney": 9065,
      "Ġrooms": 9066,
      "Ġhomeless": 9067,
      "Ġultimate": 9068,
      "Ġignore": 9069,
      "ught": 9070,
      "Ġnerv": 9071,
      "Ġreverse": 9072,
      "ĠCab": 9073,
      "ĠMuch": 9074,
      "ĠDog": 9075,
      "ĠNintendo": 9076,
      "ĠJay": 9077,
      "ptions": 9078,
      "Ġintr": 9079,
      "Ġages": 9080,
      "assador": 9081,
      "Ġsheet": 9082,
      "Ġremarks": 9083,
      "Ġmini": 9084,
      "Ġformation": 9085,
      "Ġappearances": 9086,
      "Ġwindows": 9087,
      "Ġparticipation": 9088,
      "Ġburning": 9089,
      "Ġcontributions": 9090,
      "Ġemotions": 9091,
      "irlfriend": 9092,
      "ÙĬ": 9093,
      "eters": 9094,
      "ĠCustom": 9095,
      "ĠBurn": 9096,
      "ĠHong": 9097,
      "ipedia": 9098,
      "Ġmanagers": 9099,
      "ahu": 9100,
      "ĠOnline": 9101,
      "ĠPhill": 9102,
      "Ġarguing": 9103,
      "ĠMetro": 9104,
      "ĠMississ": 9105,
      "Ġreplacement": 9106,
      "Ġsubstantial": 9107,
      "Ġkilomet": 9108,
      "Ġthorough": 9109,
      "omes": 9110,
      "oded": 9111,
      "Ġviolation": 9112,
      "backs": 9113,
      "ĠMoreover": 9114,
      "Ġbias": 9115,
      "Ġcoaching": 9116,
      "ĠAnti": 9117,
      "ĠType": 9118,
      "********": 9119,
      "Ġuniversal": 9120,
      "Ġtactics": 9121,
      "Ġsemi": 9122,
      "zed": 9123,
      "Ġchannels": 9124,
      "icking": 9125,
      "Ġdonations": 9126,
      "Ġkeys": 9127,
      "Ġsmoking": 9128,
      "Ġgreatly": 9129,
      "Ġclassified": 9130,
      "Ġsentenced": 9131,
      "Ġtrem": 9132,
      "Ġordinary": 9133,
      "ĠRemember": 9134,
      "zy": 9135,
      "Ġcoc": 9136,
      "ĠBal": 9137,
      "Ġconsole": 9138,
      "ignment": 9139,
      "comes": 9140,
      "ĠFront": 9141,
      "Ġdepression": 9142,
      "Ġcircle": 9143,
      "Ġaffordable": 9144,
      "Ġholiday": 9145,
      "Ġconspiracy": 9146,
      "Ġ\\": 9147,
      "Ġfoss": 9148,
      "ĠTai": 9149,
      "Ġlun": 9150,
      "ĠPo": 9151,
      "ĠWat": 9152,
      "ĠDave": 9153,
      "ĠDisc": 9154,
      "ĠOx": 9155,
      "Ġchapter": 9156,
      "ĠUnt": 9157,
      "ĠTrade": 9158,
      "Ġwarn": 9159,
      "Ġelectoral": 9160,
      "Ġstepped": 9161,
      "ĠSimon": 9162,
      "ĠCapital": 9163,
      "ocolate": 9164,
      "KE": 9165,
      "iability": 9166,
      "Ġtens": 9167,
      "inite": 9168,
      "orous": 9169,
      "orable": 9170,
      "Ġdiverse": 9171,
      "ĠNone": 9172,
      "ĠEb": 9173,
      "Ġ57": 9174,
      "Ġcounts": 9175,
      "Ġstudied": 9176,
      "ĠHoward": 9177,
      "ĠUpdate": 9178,
      "Ġutility": 9179,
      "enezuel": 9180,
      "ĠAk": 9181,
      "oli": 9182,
      "ĠHoll": 9183,
      "ocument": 9184,
      "ĠThird": 9185,
      "ultural": 9186,
      "Ġnoise": 9187,
      "Ġmonitor": 9188,
      "ĠLeban": 9189,
      "Ġservers": 9190,
      "Ġweekly": 9191,
      "Ġlegacy": 9192,
      "Ġrequiring": 9193,
      "Ġhoped": 9194,
      "Ġinvolves": 9195,
      "Ġspokeswoman": 9196,
      "ĠEveryone": 9197,
      "Ġspectrum": 9198,
      "Ġanxiety": 9199,
      "ecutive": 9200,
      "author": 9201,
      "high": 9202,
      "Ġhosp": 9203,
      "ĠTower": 9204,
      "ĠâĢĿ": 9205,
      "ppy": 9206,
      "ĠNon": 9207,
      "Ġcance": 9208,
      "Ġcompare": 9209,
      "Ġscope": 9210,
      "ĠIndust": 9211,
      "Ġoccurs": 9212,
      "ĠManagement": 9213,
      "ĠMorris": 9214,
      "Ġexclus": 9215,
      "Ġprosecutors": 9216,
      "Ġinnocent": 9217,
      "Ġbrilliant": 9218,
      "jud": 9219,
      "only": 9220,
      "uted": 9221,
      "ĠWould": 9222,
      "Ġnoting": 9223,
      "Ġcontrad": 9224,
      "Ġattitude": 9225,
      "Ġfundra": 9226,
      "Ġrepresentatives": 9227,
      "Ġloans": 9228,
      "Ġdispute": 9229,
      "Ps": 9230,
      "Up": 9231,
      "hot": 9232,
      "Â°": 9233,
      "ĠØ": 9234,
      "Ġwider": 9235,
      "Ġbread": 9236,
      "Ġlunch": 9237,
      "Ġlocked": 9238,
      "mann": 9239,
      "Ġprovision": 9240,
      "Ġinsult": 9241,
      "Ġvisiting": 9242,
      "ublished": 9243,
      "Ġjudgment": 9244,
      "ĠReddit": 9245,
      "ĠHawai": 9246,
      "Ġpursue": 9247,
      "gage": 9248,
      "hol": 9249,
      "uction": 9250,
      "Ġfur": 9251,
      "Ġsteal": 9252,
      "Ġstolen": 9253,
      "ĠBoe": 9254,
      "ĠLink": 9255,
      "Ġshame": 9256,
      "iano": 9257,
      "Ġinterior": 9258,
      "hesis": 9259,
      "Ġgrid": 9260,
      "Ġphysically": 9261,
      "Ġconsideration": 9262,
      "Ġrecognition": 9263,
      "ĠBuy": 9264,
      "ĠSanta": 9265,
      "(\"": 9266,
      "Ġmad": 9267,
      "ĠLS": 9268,
      "ĠGB": 9269,
      "Ġcoinc": 9270,
      "pha": 9271,
      "Ġreliable": 9272,
      "Ġstudying": 9273,
      "Ġinteraction": 9274,
      "Ġprotocol": 9275,
      "Ġimportantly": 9276,
      "Ġairport": 9277,
      "ropri": 9278,
      "Ġresponses": 9279,
[...]
