{
  "version": "1.0",
  "truncation": null,
  "padding": null,
  "added_tokens": [
    {
      "id": 0,
      "content": "<pad>",
      "single_word": false,
      "lstrip": false,
      "rstrip": false,
      "normalized": false,
      "special": true
    },
    {
      "id": 1,
      "content": "<eos>",
      "single_word": false,
      "lstrip": false,
      "rstrip": false,
      "normalized": false,
      "special": true
    },
    {
      "id": 2,
      "content": "<unk>",
      "single_word": false,
      "lstrip": false,
      "rstrip": false,
      "normalized": false,
      "special": true
    }
  ],
  "normalizer": null,
  "pre_tokenizer": {
    "type": "ByteLevel",
    "add_prefix_space": true,
    "trim_offsets": true,
    "use_regex": true
  },
  "post_processor": {
    "type": "ByteLevel",
    "add_prefix_space": true,
    "trim_offsets": false,
    "use_regex": true
  },
  "decoder": null,
  "model": {
    "type": "BPE",
    "dropout": null,
    "unk_token": null,
    "continuing_subword_prefix": null,
    "end_of_word_suffix": null,
    "fuse_unk": false,
    "byte_fallback": false,
    "ignore_merges": false,
    "vocab": {
      "<pad>": 0,
      "<eos>": 1,
      "<unk>": 2,
      "!": 3,
      "\"": 4,
      "#": 5,
      "$": 6,
      "%": 7,
      "&": 8,
      "'": 9,
      "(": 10,
      ")": 11,
      "*": 12,
      "+": 13,
      ",": 14,
      "-": 15,
      ".": 16,
      "/": 17,
      "0": 18,
      "1": 19,
      "2": 20,
      "3": 21,
      "4": 22,
      "5": 23,
      "6": 24,
      "7": 25,
      "8": 26,
      "9": 27,
      ":": 28,
      ";": 29,
      "<": 30,
      "=": 31,
      ">": 32,
      "?": 33,
      "@": 34,
      "A": 35,
      "B": 36,
      "C": 37,
      "D": 38,
      "E": 39,
      "F": 40,
      "G": 41,
      "H": 42,
      "I": 43,
      "J": 44,
      "K": 45,
      "L": 46,
      "M": 47,
      "N": 48,
      "O": 49,
      "P": 50,
      "Q": 51,
      "R": 52,
      "S": 53,
      "T": 54,
      "U": 55,
      "V": 56,
      "W": 57,
      "X": 58,
      "Y": 59,
      "Z": 60,
      "[": 61,
      "\\": 62,
      "]": 63,
      "^": 64,
      "_": 65,
      "`": 66,
      "a": 67,
      "b": 68,
      "c": 69,
      "d": 70,
      "e": 71,
      "f": 72,
      "g": 73,
      "h": 74,
      "i": 75,
      "j": 76,
      "k": 77,
      "l": 78,
      "m": 79,
      "n": 80,
      "o": 81,
      "p": 82,
      "q": 83,
      "r": 84,
      "s": 85,
      "t": 86,
      "u": 87,
      "v": 88,
      "w": 89,
      "x": 90,
      "y": 91,
      "z": 92,
      "{": 93,
      "|": 94,
      "}": 95,
      "~": 96,
      "Ċ": 97,
      "Ġ": 98,
      "Ġt": 99,
      "Ġa": 100,
      "he": 101,
      "in": 102,
      "re": 103,
      "Ġthe": 104,
      "on": 105,
      "er": 106,
      "Ġs": 107,
      "Ġw": 108,
      "at": 109,
      "Ġo": 110,
      "en": 111,
      "Ġc": 112,
      "it": 113,
      "is": 114,
      "an": 115,
      "or": 116,
      "Ġb": 117,
      "es": 118,
      "ed": 119,
      "Ġf": 120,
      "ing": 121,
      "Ġp": 122,
      "ou": 123,
      "Ġan": 124,
      "al": 125,
      "Ġto": 126,
      "ar": 127,
      "Ġm": 128,
      "Ġin": 129,
      "Ġof": 130,
      "ĠĊ": 131,
      "Ġd": 132,
      "Ġh": 133,
      "as": 134,
      "Ġand": 135,
      "ic": 136,
      "Ġth": 137,
      "le": 138,
      "om": 139,
      "ion": 140,
      "ll": 141,
      "ent": 142,
      "ĠT": 143,
      "Ġn": 144,
      "Ġl": 145,
      "Ġre": 146,
      "st": 147,
      "ve": 148,
      "Ġe": 149,
      "ly": 150,
      "Ġbe": 151,
      "ĠI": 152,
      "Ġg": 153,
      "ro": 154,
      "id": 155,
      "ĠS": 156,
      "ut": 157,
      "ac": 158,
      "ĠA": 159,
      "ot": 160,
      "Ġon": 161,
      "Ġthat": 162,
      "ay": 163,
      "et": 164,
      "Ġis": 165,
      "im": 166,
      "ad": 167,
      "am": 168,
      "ow": 169,
      "se": 170,
      "ig": 171,
      "Ġfor": 172,
      "ĠC": 173,
      "ver": 174,
      "ct": 175,
      "ur": 176,
      "ld": 177,
      "Ġy": 178,
      "Ġu": 179,
      "Ġst": 180,
      "ĠM": 181,
      "Ġit": 182,
      "Ġhe": 183,
      "ĠB": 184,
      "ir": 185,
      "ation": 186,
      "ith": 187,
      "ĠThe": 188,
      "Ġwh": 189,
      "ce": 190,
      "ter": 191,
      "ol": 192,
      "Ġwe": 193,
      "il": 194,
      "Ġwith": 195,
      "Ġas": 196,
      "ĠP": 197,
      "ch": 198,
      "ĠW": 199,
      "ill": 200,
      "nd": 201,
      "Ġyou": 202,
      "ers": 203,
      "ĠH": 204,
      "Ġwas": 205,
      "ke": 206,
      "Ġcon": 207,
      "Ġde": 208,
      "Ġr": 209,
      "her": 210,
      "ĠD": 211,
      "if": 212,
      "ag": 213,
      "ate": 214,
      "Ġat": 215,
      "ĠR": 216,
      "ts": 217,
      "Ġha": 218,
      "ore": 219,
      "Ġse": 220,
      "ĠF": 221,
      "Ġpro": 222,
      "ul": 223,
      "Ġ1": 224,
      "pp": 225,
      "ri": 226,
      "ment": 227,
      "Ġare": 228,
      "us": 229,
      "Ġcom": 230,
      "and": 231,
      "nt": 232,
      "Ġ(": 233,
      "op": 234,
      "ĠN": 235,
      "ain": 236,
      "Ġ2": 237,
      "igh": 238,
      "est": 239,
      "rom": 240,
      "res": 241,
      "od": 242,
      "th": 243,
      "Ġne": 244,
      "Ġex": 245,
      "um": 246,
      "ĠL": 247,
      "ab": 248,
      "ĠG": 249,
      "Ġnot": 250,
      "Ġv": 251,
      "ess": 252,
      "ity": 253,
      "Ġor": 254,
      "ist": 255,
      "Ġhave": 256,
      "os": 257,
      "ould": 258,
      "em": 259,
      "un": 260,
      "Ġby": 261,
      "Ġfrom": 262,
      "oc": 263,
      "Ġsu": 264,
      "ive": 265,
      "ĠE": 266,
      "el": 267,
      "Ġal": 268,
      "'s": 269,
      "Ġsh": 270,
      "ĠO": 271,
      "Ġthis": 272,
      "qu": 273,
      "pe": 274,
      "art": 275,
      "ust": 276,
      "ant": 277,
      "ort": 278,
      "Ġle": 279,
      "ies": 280,
      "Ġ\"": 281,
      "Ġch": 282,
      "end": 283,
      "Ġsa": 284,
      "Ġab": 285,
      "00": 286,
      "out": 287,
      "ĠJ": 288,
      "all": 289,
      "red": 290,
      "ie": 291,
      "ack": 292,
      "ally": 293,
      "Ġpl": 294,
      "Ġhas": 295,
      "Ġgo": 296,
      "ight": 297,
      "iv": 298,
      "ard": 299,
      "ome": 300,
      "our": 301,
      "Ġhis": 302,
      "ear": 303,
      "ost": 304,
      "gh": 305,
      "ra": 306,
      "Ġj": 307,
      "ĠU": 308,
      "ak": 309,
      "ud": 310,
      "Ġdo": 311,
      "Ġwor": 312,
      "ast": 313,
      "Ġthey": 314,
      "rou": 315,
      "Ġbut": 316,
      "Ġwill": 317,
      "Ġsaid": 318,
      "ge": 319,
      "Ġwhe": 320,
      "ich": 321,
      "Ġall": 322,
      "Ġk": 323,
      "ok": 324,
      "Ġcan": 325,
      "Ġwho": 326,
      "ans": 327,
      "ide": 328,
      "pt": 329,
      "Ġtr": 330,
      "Ġout": 331,
      "ĠTh": 332,
      "Ġint": 333,
      "ther": 334,
      "ial": 335,
      "Ġtheir": 336,
      "ame": 337,
      "ff": 338,
      "ect": 339,
      "ong": 340,
      "ĠIn": 341,
      "ice": 342,
      "ions": 343,
      "pl": 344,
      "Ġmore": 345,
      "ure": 346,
      "age": 347,
      "Ġup": 348,
      "one": 349,
      "ike": 350,
      "Ġme": 351,
      "ous": 352,
      "Ġad": 353,
      "Ġwere": 354,
      "ap": 355,
      "ine": 356,
      "act": 357,
      "ĠK": 358,
      "Ġabout": 359,
      "ated": 360,
      "Ġone": 361,
      "ub": 362,
      "ime": 363,
      "Ġso": 364,
      "ĠSt": 365,
      "are": 366,
      "Ġhad": 367,
      "Ġus": 368,
      "ber": 369,
      "ep": 370,
      "Ġcl": 371,
      "Ġits": 372,
      "Ġim": 373,
      "og": 374,
      "ue": 375,
      "Ġwould": 376,
      "cc": 377,
      "Ġwhich": 378,
      "iz": 379,
      "ake": 380,
      "Ġ20": 381,
      "ind": 382,
      "Ġen": 383,
      "very": 384,
      "Ġag": 385,
      "ia": 386,
      "Ġte": 387,
      "Ġcont": 388,
      "Ġun": 389,
      "Ġoff": 390,
      "Ġcomp": 391,
      "per": 392,
      "Ġbeen": 393,
      "ip": 394,
      "au": 395,
      "ays": 396,
      "ign": 397,
      "Ġyear": 398,
      "ew": 399,
      "so": 400,
      "ace": 401,
      "ary": 402,
      "ook": 403,
      "ĠY": 404,
      "Ġev": 405,
      "ere": 406,
      "Ġlike": 407,
      "Ġinc": 408,
      "Ġman": 409,
      "Ġpe": 410,
      "ose": 411,
      "ry": 412,
      "Ġper": 413,
      "able": 414,
      "Ġres": 415,
      "Ġsp": 416,
      "Ġother": 417,
      "ass": 418,
      "ations": 419,
      "ord": 420,
      "mer": 421,
      "ite": 422,
      "ks": 423,
      "Ġsome": 424,
      "ire": 425,
      "ile": 426,
      "Ġyour": 427,
      "ence": 428,
      "ople": 429,
      "ĠCh": 430,
      "Ġ201": 431,
      "ib": 432,
      "Ġover": 433,
      "Ġthan": 434,
      "Ġdis": 435,
      "Ġbec": 436,
      "ical": 437,
      "Ġthem": 438,
      "Ġnew": 439,
      "own": 440,
      "ance": 441,
      "ough": 442,
      "Ġalso": 443,
      "Ġar": 444,
      "ress": 445,
      "Ġapp": 446,
      "Ġwhat": 447,
      "ru": 448,
      "Ġany": 449,
      "Ġwhen": 450,
      "ree": 451,
      "orm": 452,
      "ase": 453,
      "Ġsc": 454,
      "fter": 455,
      "ens": 456,
      "Ġqu": 457,
      "Ġpeople": 458,
      "av": 459,
      "ail": 460,
      "Ġthere": 461,
      "ĠV": 462,
      "ond": 463,
      "Ġjust": 464,
      "ĠIt": 465,
      "ach": 466,
      "Ġtime": 467,
      "Ġ3": 468,
      "Ġpart": 469,
      "Ġkn": 470,
      "Ġget": 471,
      "ount": 472,
      "Ġif": 473,
      "lic": 474,
      "Ġher": 475,
      "ĠHe": 476,
      "ian": 477,
      "reat": 478,
      "ont": 479,
      "Ġwork": 480,
      "Ġtw": 481,
      "oin": 482,
      "ction": 483,
      "ors": 484,
      "Ġno": 485,
      "irst": 486,
      "ings": 487,
      "ound": 488,
      "vel": 489,
      "du": 490,
      "Ġrec": 491,
      "Ġinto": 492,
      "ult": 493,
      "Ġmy": 494,
      "ory": 495,
      "Ġour": 496,
      "ition": 497,
      "ĠWe": 498,
      "Ġpre": 499,
      "ident": 500,
      "Ġ-": 501,
      "ang": 502,
      "Ġplay": 503,
      "ause": 504,
      "ons": 505,
      "port": 506,
      "ove": 507,
      "ick": 508,
      "wn": 509,
      "ob": 510,
      "ink": 511,
      "ates": 512,
      "ade": 513,
      "hing": 514,
      "Ġ19": 515,
      "oll": 516,
      "vers": 517,
      "Ġshe": 518,
      "Ġpol": 519,
      "itt": 520,
      "Ġhow": 521,
      "Ġro": 522,
      "amp": 523,
      "ark": 524,
      "Ġafter": 525,
      "ild": 526,
      "Ġfirst": 527,
      "aw": 528,
      "nder": 529,
      "Ġcould": 530,
      "ne": 531,
      "ĠBut": 532,
      "Ġatt": 533,
      "Ġfe": 534,
      "ious": 535,
      "Ġacc": 536,
      "Ġpr": 537,
      "'t": 538,
      "ov": 539,
      "ĠWh": 540,
      "ĠThis": 541,
      "Ġonly": 542,
      "Ġhim": 543,
      "Ġtwo": 544,
      "Ġspe": 545,
      "Ġcomm": 546,
      "hed": 547,
      "erv": 548,
      "form": 549,
      "Ġact": 550,
      "Ġbet": 551,
      "ish": 552,
      "ict": 553,
      "Ġbl": 554,
      "we": 555,
      "Ġdec": 556,
      "ĠAnd": 557,
      ".\"": 558,
      "Ġback": 559,
      "Ġmost": 560,
      "ces": 561,
      "ning": 562,
      "Ġam": 563,
      "Ġ4": 564,
      "ft": 565,
      "Ġdid": 566,
      "oy": 567,
      "ood": 568,
      "Ġco": 569,
      "rough": 570,
      "Ġyears": 571,
      "round": 572,
      "ec": 573,
      "Ġagain": 574,
      "ual": 575,
      "Ġunder": 576,
      "iss": 577,
      "ater": 578,
      "iff": 579,
      "tern": 580,
      "Ġbecause": 581,
      "Ġdes": 582,
      "ents": 583,
      "ise": 584,
      "Ġeven": 585,
      "Ġcons": 586,
      "ublic": 587,
      "ull": 588,
      "lud": 589,
      "te": 590,
      "rit": 591,
      "sel": 592,
      "Ġnow": 593,
      "Ġ$": 594,
      "ĠAs": 595,
      "ments": 596,
      "ck": 597,
      "Ġneed": 598,
      "ĠUn": 599,
      "day": 600,
      "Ġknow": 601,
      "Ġ5": 602,
      "Ġem": 603,
      "Ġsee": 604,
      "Ġinv": 605,
      "pect": 606,
      "fore": 607,
      "ced": 608,
      "old": 609,
      "Ġadd": 610,
      "Ġind": 611,
      "ock": 612,
      "urn": 613,
      "Ġsupp": 614,
      "Ġevery": 615,
      "Ġmake": 616,
      "Ġ[": 617,
      "man": 618,
      "Ġsec": 619,
      "uch": 620,
      ",\"": 621,
      "ational": 622,
      "Ġthese": 623,
      "Ġmay": 624,
      "Ġwant": 625,
      "ject": 626,
      "Ġwhere": 627,
      "ĠTr": 628,
      "ys": 629,
      "oun": 630,
      "ph": 631,
      "Ġbu": 632,
      "..": 633,
      "vern": 634,
      "row": 635,
      "Ġlook": 636,
      "les": 637,
      "Ġway": 638,
      "Ġrel": 639,
      "Ġrem": 640,
      "ied": 641,
      "iew": 642,
      "Ġmany": 643,
      "Ġthen": 644,
      "ating": 645,
      "lect": 646,
      "Ġbeing": 647,
      "Ġreg": 648,
      "rib": 649,
      "aking": 650,
      "oss": 651,
      "ily": 652,
      "Ġinclud": 653,
      "Ġsay": 654,
      "Ġdiff": 655,
      "xt": 656,
      "ason": 657,
      "meric": 658,
      "Ġimp": 659,
      "ren": 660,
      "ump": 661,
      "Ġthose": 662,
      "Ġwell": 663,
      "ited": 664,
      "ased": 665,
      "Ġthink": 666,
      "ĠRe": 667,
      "Ġthrough": 668,
      "Ġcall": 669,
      "Ġpres": 670,
      "Ġshould": 671,
      "Ġvery": 672,
      "uring": 673,
      "ower": 674,
      "Ġdef": 675,
      "Ġsy": 676,
      "Ġfl": 677,
      "other": 678,
      "hen": 679,
      "als": 680,
      "und": 681,
      "ific": 682,
      "ath": 683,
      ").": 684,
      "ĠNew": 685,
      "Ġshow": 686,
      "Ġlast": 687,
      "ĠAmeric": 688,
      "Ġdoes": 689,
      "Ġmuch": 690,
      "ting": 691,
      "ities": 692,
      "Ġown": 693,
      "ues": 694,
      "Ġbel": 695,
      "ty": 696,
      "Ġass": 697,
      "ters": 698,
      "Ġend": 699,
      "Ġstate": 700,
      "ran": 701,
      "Ġdown": 702,
      "Ġ200": 703,
      "oth": 704,
      "Ġbefore": 705,
      "arg": 706,
      "Ġph": 707,
      "arly": 708,
      "ative": 709,
      "Ġcount": 710,
      "Ġuse": 711,
      "omet": 712,
      "ĠAl": 713,
      "Ġlong": 714,
      "Ġke": 715,
      "ram": 716,
      "ĠIf": 717,
      "ward": 718,
      "ell": 719,
      "ven": 720,
      "Ġgovern": 721,
      "ible": 722,
      "ics": 723,
      "ener": 724,
      "ince": 725,
      "Ġfin": 726,
      "Ġmade": 727,
      "Ġmon": 728,
      "ĠAn": 729,
      "up": 730,
      "),": 731,
      "ble": 732,
      "Ġsuch": 733,
      "ĠYou": 734,
      "Ġsm": 735,
      "ton": 736,
      "Ġhel": 737,
      "ms": 738,
      "ool": 739,
      "ars": 740,
      "ife": 741,
      "ists": 742,
      "Ġstud": 743,
      "Ġteam": 744,
      "ful": 745,
      "Ġgoing": 746,
      "ually": 747,
      "com": 748,
      "Ġbr": 749,
      "Ġeff": 750,
      "Ġsub": 751,
      "ix": 752,
      "Ġstart": 753,
      "its": 754,
      "Ġpoin": 755,
      "Ġgood": 756,
      "ility": 757,
      "Ġworld": 758,
      "Ġset": 759,
      "erson": 760,
      "olog": 761,
      "000": 762,
      "ork": 763,
      "cy": 764,
      "Ġagainst": 765,
      "Ġac": 766,
      "Ġwee": 767,
      "Ġ6": 768,
      "Ġrep": 769,
      "Ġent": 770,
      "Ġprov": 771,
      "Ġhelp": 772,
      "Ġstill": 773,
      "ert": 774,
      "ĠAr": 775,
      "stem": 776,
      "illion": 777,
      "gan": 778,
      "imes": 779,
      "Ġsur": 780,
      "Ġinst": 781,
      "ween": 782,
      "ollow": 783,
      "ĠThey": 784,
      "Ġsays": 785,
      "Ġob": 786,
      "Ġprodu": 787,
      "ax": 788,
      "Ġcol": 789,
      "Ġright": 790,
      "Ġmin": 791,
      "Ġgu": 792,
      "cess": 793,
      "Ġgame": 794,
      "Ġlead": 795,
      "Ġwhile": 796,
      "alk": 797,
      "ism": 798,
      "Ġinter": 799,
      "roup": 800,
      "Ġbetween": 801,
      "Ġconf": 802,
      "Ġtake": 803,
      "ier": 804,
      "ets": 805,
      "Ġed": 806,
      "Ġhigh": 807,
      "Ġsim": 808,
      "Ġoffic": 809,
      "ĠCom": 810,
      "hes": 811,
      "read": 812,
      "ures": 813,
      "Ġsame": 814,
      "ĠSe": 815,
      "ange": 816,
      "Ġlaw": 817,
      "Ġdiffere": 818,
      "self": 819,
      "--": 820,
      "air": 821,
      "ros": 822,
      "ĠDe": 823,
      "Ġ10": 824,
      "Ġcr": 825,
      "Ġdisc": 826,
      "ĠFor": 827,
      "Ġstr": 828,
      "Ġop": 829,
      "ah": 830,
      "hip": 831,
      "Ġthough": 832,
      "arch": 833,
      "ames": 834,
      "land": 835,
      "Ġnum": 836,
      "gg": 837,
      "az": 838,
      "Ġsign": 839,
      "ner": 840,
      "way": 841,
      "io": 842,
      "cent": 843,
      "ĠLe": 844,
      "ĠIs": 845,
      "any": 846,
      "Ġter": 847,
      "Ġsomet": 848,
      "Ġexp": 849,
      "ution": 850,
      "Ġref": 851,
      "Ġins": 852,
      "ives": 853,
      "ĠThat": 854,
      "led": 855,
      "Ġser": 856,
      "ĠSh": 857,
      "atch": 858,
      "velop": 859,
      "Ġaround": 860,
      "Ġmem": 861,
      "Ġ7": 862,
      "uss": 863,
      "Ġgovernment": 864,
      "Ġmed": 865,
      "ever": 866,
      "Ġtrans": 867,
      "Ġthree": 868,
      "ather": 869,
      "ouse": 870,
      "Ġsystem": 871,
      "Ġspec": 872,
      "Ġret": 873,
      "Ġfound": 874,
      "Ġreal": 875,
      "ved": 876,
      "Ġreport": 877,
      "Ġcour": 878,
      "ving": 879,
      "Ġrun": 880,
      "ĠTrump": 881,
      "Ġreally": 882,
      "Ġ8": 883,
      "oot": 884,
      "The": 885,
      "ĠIm": 886,
      "Ġcur": 887,
      "Ġcar": 888,
      "Ġhere": 889,
      "Ġpublic": 890,
      "ale": 891,
      "Ġwom": 892,
      "ĠCl": 893,
      "ci": 894,
      ".[": 895,
      "Ġmod": 896,
      "Ġhand": 897,
      "ĠSo": 898,
      "alth": 899,
      "Ġgreat": 900,
      "ern": 901,
      "Ġgroup": 902,
      "ying": 903,
      "ices": 904,
      "Ġext": 905,
      "Ġused": 906,
      "Ġexper": 907,
      "Ġsl": 908,
      "ave": 909,
      "Ġ0": 910,
      "Ġsupport": 911,
      "min": 912,
      "Ġ'": 913,
      "Ġfam": 914,
      "Ġread": 915,
      "Ġduring": 916,
      "ense": 917,
      "Ġhapp": 918,
      "cept": 919,
      "Ġday": 920,
      "ng": 921,
      "ision": 922,
      "Ġfind": 923,
      "irect": 924,
      "Ġ9": 925,
      "orts": 926,
      "con": 927,
      "Ġdet": 928,
      "ines": 929,
      "Ġplan": 930,
      "Ġboth": 931,
      "ered": 932,
      "Ġgr": 933,
      "Ġserv": 934,
      "Ġbig": 935,
      "Ġprog": 936,
      "chool": 937,
      "Ġcre": 938,
      "Ġfil": 939,
      "ĠThere": 940,
      "ages": 941,
      "pr": 942,
      "ically": 943,
      "ared": 944,
      "ins": 945,
      "uth": 946,
      "ular": 947,
      "Ġgener": 948,
      "Ġtold": 949,
      "ene": 950,
      "Ġmonth": 951,
      "Ġdevelop": 952,
      "Ġfollow": 953,
      "ivers": 954,
      "Ġperson": 955,
      "Ġfew": 956,
      "akes": 957,
      "tt": 958,
      "ves": 959,
      "ric": 960,
      "get": 961,
      "bers": 962,
      "Ġfact": 963,
      "ĠOn": 964,
      "Ġtoo": 965,
      "oh": 966,
      "Ġsince": 967,
      "Ġleg": 968,
      "Ġwar": 969,
      "med": 970,
      "ording": 971,
      "ĠHow": 972,
      "Ġloc": 973,
      "Ġprot": 974,
      "der": 975,
      "aj": 976,
      "Ġpolit": 977,
      "Ġiss": 978,
      "Ġopp": 979,
      "Ġvot": 980,
      "Ġbelie": 981,
      "Ġrequ": 982,
      "Ġlot": 983,
      "Ġcle": 984,
      "Ġweek": 985,
      "Ġcommun": 986,
      "Ġput": 987,
      "att": 988,
      "Ġexpl": 989,
      "ank": 990,
      "ized": 991,
      "ash": 992,
      "Ġanother": 993,
      "vent": 994,
      "Ġsoc": 995,
      "Ġcent": 996,
      "ata": 997,
      "ĠBl": 998,
      "Ġchar": 999,
      "uc": 1000,
      "Ġart": 1001,
      "ĠAd": 1002,
      "Ġresp": 1003,
      "Ġsomething": 1004,
      "Ġdont": 1005,
      "Ġeach": 1006,
      "Ġhead": 1007,
      "Ġdifferent": 1008,
      "ted": 1009,
      "ute": 1010,
      "rent": 1011,
      "Ġpass": 1012,
      "ox": 1013,
      "ness": 1014,
      "ross": 1015,
      "Ġcor": 1016,
      "ize": 1017,
      "thing": 1018,
      "iet": 1019,
      "iness": 1020,
      "Ġchild": 1021,
      "ĠPro": 1022,
      "arl": 1023,
      "Ġpower": 1024,
      "Ġbus": 1025,
      "Ġthings": 1026,
      "Ġfar": 1027,
      "Ġmight": 1028,
      "ex": 1029,
      "Ġcontin": 1030,
      "ĠIts": 1031,
      "Ġinvest": 1032,
      "Ġmet": 1033,
      "ĠRep": 1034,
      "Ġlife": 1035,
      "Ġrele": 1036,
      "view": 1037,
      "Ġche": 1038,
      "ik": 1039,
      "ee": 1040,
      "Ġdem": 1041,
      "20": 1042,
      "Ġnever": 1043,
      "gy": 1044,
      "Ġdep": 1045,
      "ody": 1046,
      "Ġcome": 1047,
      "Ġgot": 1048,
      "Ġnext": 1049,
      "Ġask": 1050,
      "Ġallow": 1051,
      "ights": 1052,
      "Ġfeel": 1053,
      "ats": 1054,
      "Ġcamp": 1055,
      "Ġfr": 1056,
      "ient": 1057,
      "Ġinf": 1058,
      "Ġbest": 1059,
      "ience": 1060,
      "ired": 1061,
      "Ġpercent": 1062,
      "Ġopen": 1063,
      "Ġhome": 1064,
      "erest": 1065,
      "Ġposs": 1066,
      "ĠWhen": 1067,
      "ital": 1068,
      "Ġmark": 1069,
      "Ġpost": 1070,
      "ittle": 1071,
      "ten": 1072,
      "ĠInd": 1073,
      "Ġseem": 1074,
      "Ġsecond": 1075,
      "orn": 1076,
      "osed": 1077,
      "Ġquest": 1078,
      "Ġav": 1079,
      "Ġincre": 1080,
      "Ġmil": 1081,
      "less": 1082,
      "Ġcare": 1083,
      "Ġdist": 1084,
      "Ġconc": 1085,
      "ĠPh": 1086,
      "ield": 1087,
      "Ġproble": 1088,
      "Ġpri": 1089,
      "Ġdirect": 1090,
      "ret": 1091,
      "riend": 1092,
      "Ġwithout": 1093,
      "Ġincluding": 1094,
      "Ġmillion": 1095,
      "Ġstand": 1096,
      "ĠUS": 1097,
      "Ġplace": 1098,
      "Ġwr": 1099,
      "Ġide": 1100,
      "Ġhard": 1101,
      "Ġadv": 1102,
      "ug": 1103,
      "Ġcomple": 1104,
      "Ġbuild": 1105,
      "Ġless": 1106,
      "leg": 1107,
      "ately": 1108,
      "ĠShe": 1109,
      "ple": 1110,
      "ration": 1111,
      "Ġbeh": 1112,
      "ĠQ": 1113,
      "Ġcountry": 1114,
      "Ġtop": 1115,
      "ably": 1116,
      "chn": 1117,
      "Ġcontro": 1118,
      "ral": 1119,
      "Ġhum": 1120,
      "arn": 1121,
      "Ġinform": 1122,
      "Ġnumber": 1123,
      "Ġbetter": 1124,
      "Ġca": 1125,
      "Ġimport": 1126,
      "ished": 1127,
      "Ġfour": 1128,
      "aim": 1129,
      "anc": 1130,
      "Ġmov": 1131,
      "Ġel": 1132,
      "Ġseason": 1133,
      "ways": 1134,
      "oney": 1135,
      "ants": 1136,
      "line": 1137,
      "ling": 1138,
      "Ġschool": 1139,
      "Ġprogram": 1140,
      "ĠAt": 1141,
      "Ġpoint": 1142,
      "Ġtra": 1143,
      "Ġpartic": 1144,
      "Ġtri": 1145,
      "Ġappro": 1146,
      "Ġcase": 1147,
      "Ġturn": 1148,
      "ains": 1149,
      "conom": 1150,
      "Ġdon": 1151,
      "Ġkeep": 1152,
      "Ġgl": 1153,
      "ĠBe": 1154,
      "Ġ.": 1155,
      "Ġrecent": 1156,
      "Ġattack": 1157,
      "ption": 1158,
      "Ġlittle": 1159,
      "Ġeffect": 1160,
      "ained": 1161,
      "Ġcalled": 1162,
      "Ġpop": 1163,
      "ised": 1164,
      "ency": 1165,
      "Ġpolice": 1166,
      "ĠAmerican": 1167,
      "ering": 1168,
      "Ġfull": 1169,
      "Ġbro": 1170,
      "Ġrest": 1171,
      "ĠSp": 1172,
      "ocr": 1173,
      "ploy": 1174,
      "Ġann": 1175,
      "Ġinterest": 1176,
      "ajor": 1177,
      "be": 1178,
      "ode": 1179,
      "Ġleft": 1180,
      "ĠZ": 1181,
      "Ġmove": 1182,
      "Ġmain": 1183,
      "vious": 1184,
      "inal": 1185,
      "Ġprocess": 1186,
      "Ġpos": 1187,
      "pped": 1188,
      "Ġdata": 1189,
      "Ġval": 1190,
      "Ġcap": 1191,
      "atic": 1192,
      "ina": 1193,
      "Ġfun": 1194,
      "ready": 1195,
      "iving": 1196,
      "Ġpay": 1197,
      "Ġsmall": 1198,
      "the": 1199,
      "Ġlevel": 1200,
      "me": 1201,
      "eng": 1202,
      "Ġdri": 1203,
      "son": 1204,
      "Ġform": 1205,
      "ĠOb": 1206,
      "ature": 1207,
      "Ġwin": 1208,
      "Ġusing": 1209,
      "Ġbre": 1210,
      "ĠWhat": 1211,
      "orth": 1212,
      "ĠUnited": 1213,
      "nce": 1214,
      "arge": 1215,
      "Ġchange": 1216,
      "ract": 1217,
      "ided": 1218,
      "Ġunt": 1219,
      "Ġ--": 1220,
      "ird": 1221,
      "ians": 1222,
      "ology": 1223,
      "Ġalready": 1224,
      "uro": 1225,
      "Ġrece": 1226,
      "Ġeconom": 1227,
      "Ġnews": 1228,
      "ron": 1229,
      "Ġexpect": 1230,
      "Ġprom": 1231,
      "Ġwhy": 1232,
      "Ġbusiness": 1233,
      "Ġwomen": 1234,
      "Ġprof": 1235,
      "ĠMr": 1236,
      "ertain": 1237,
      "Ġeas": 1238,
      "10": 1239,
      "uck": 1240,
      "'re": 1241,
      "Ġlist": 1242,
      "Ġfree": 1243,
      "Ġlet": 1244,
      "Ġpur": 1245,
      "ĠAll": 1246,
      "Ġsol": 1247,
      "Ġpresident": 1248,
      "reen": 1249,
      "ional": 1250,
      "Ġcurrent": 1251,
      "ann": 1252,
      "...": 1253,
      "Ġproject": 1254,
      "Ġsk": 1255,
      "lection": 1256,
      "Ġhist": 1257,
      "Ġofficial": 1258,
      "Ġhealth": 1259,
      "Ġstory": 1260,
      "Ġalways": 1261,
      "Ġdesign": 1262,
      "Ġchang": 1263,
      "ĠComm": 1264,
      "els": 1265,
      "ards": 1266,
      "Ġlater": 1267,
      "ama": 1268,
      "Ġmoney": 1269,
      "Ġclass": 1270,
      "Ġthing": 1271,
      "aign": 1272,
      "ission": 1273,
      "Ġtest": 1274,
      "Ġtechn": 1275,
      "iven": 1276,
      "Ġmajor": 1277,
      "Ġclaim": 1278,
      "stand": 1279,
      "Ġable": 1280,
      "used": 1281,
      "Ġbook": 1282,
      "Ġmat": 1283,
      "Ġorgan": 1284,
      "ases": 1285,
      "Ġbo": 1286,
      "Ġrese": 1287,
      "Ġty": 1288,
      "Ġvis": 1289,
      "ample": 1290,
      "Ġpar": 1291,
      "Ġfriend": 1292,
      "Ġcity": 1293,
      "Ġaway": 1294,
      "iversity": 1295,
      "Ġtalk": 1296,
      "int": 1297,
      "ĠOne": 1298,
      "aining": 1299,
      "Ġdays": 1300,
      "Ġmen": 1301,
      "iver": 1302,
      "ĠGo": 1303,
      "Ġpast": 1304,
      "Ġ12": 1305,
      "Ġcompany": 1306,
      "sc": 1307,
      "Ġjob": 1308,
      "ruct": 1309,
      "eral": 1310,
      "ior": 1311,
      "Ġhappen": 1312,
      "cl": 1313,
      "ead": 1314,
      "ĠTo": 1315,
      "Ġest": 1316,
      "ator": 1317,
      "Ġinformation": 1318,
      "Ġleast": 1319,
      "Ġoper": 1320,
      "ccess": 1321,
      "Ġmaking": 1322,
      "urity": 1323,
      "Ġmust": 1324,
      "Ġenough": 1325,
      "Ġfac": 1326,
      "ĠRepublic": 1327,
      "Ġhop": 1328,
      "ĠCan": 1329,
      "wit": 1330,
      "Ġconst": 1331,
      "ides": 1332,
      "uthor": 1333,
      "ality": 1334,
      "oad": 1335,
      "Ġgrow": 1336,
      "Ġpat": 1337,
      "Ġedit": 1338,
      "Ġaff": 1339,
      "ending": 1340,
      "Ġkill": 1341,
      "ush": 1342,
      "ohn": 1343,
      "Ġelect": 1344,
      "//": 1345,
      "ĠPres": 1346,
      "Ġimportant": 1347,
      "ĠNo": 1348,
      "Ġcampaign": 1349,
      "Ġtell": 1350,
      "Ġold": 1351,
      "Ġcost": 1352,
      "Ġ15": 1353,
      "ention": 1354,
      "rid": 1355,
      "Ġdeal": 1356,
      "here": 1357,
      "ury": 1358,
      "outh": 1359,
      "Ġfund": 1360,
      "Ġuntil": 1361,
      "ured": 1362,
      "Ġ=": 1363,
      "app": 1364,
      "ĠPl": 1365,
      "iol": 1366,
      "ries": 1367,
      "Ġcame": 1368,
      "to": 1369,
      "ĠCon": 1370,
      "ror": 1371,
      "veral": 1372,
      "ified": 1373,
      "Ġkind": 1374,
      "acy": 1375,
      "Ġview": 1376,
      "Ġlarge": 1377,
      "Ġmar": 1378,
      "ĠChr": 1379,
      "atur": 1380,
      "side": 1381,
      "ider": 1382,
      "Ġfamily": 1383,
      "ĠSy": 1384,
      "ĠSc": 1385,
      "ived": 1386,
      "Ġintern": 1387,
      "Ġvar": 1388,
      "enn": 1389,
      "Ġsit": 1390,
      "raph": 1391,
      "Ġactually": 1392,
      "ĠMay": 1393,
      "ĠMar": 1394,
      "ember": 1395,
      "ony": 1396,
      "Ġdev": 1397,
      "Ġgames": 1398,
      "Ġpo": 1399,
      "Ġbecome": 1400,
      "ott": 1401,
      "Ġpolitical": 1402,
      "ney": 1403,
      "Ġorder": 1404,
      "ley": 1405,
      "Ġoften": 1406,
      "ising": 1407,
      "Ġ#": 1408,
      "Ġworking": 1409,
      "Ġra": 1410,
      "Ġtook": 1411,
      "alf": 1412,
      "Ġdeb": 1413,
      "work": 1414,
      "Ġtax": 1415,
      "Ġ18": 1416,
      "Ġmean": 1417,
      "bs": 1418,
      "ĠOr": 1419,
      "Ġbit": 1420,
      "ister": 1421,
      "ĠMc": 1422,
      "Ġpolic": 1423,
      "ĠJohn": 1424,
      "ĠAm": 1425,
      "ream": 1426,
      "ware": 1427,
      "Ġaccording": 1428,
      "Ġes": 1429,
      "ĠWith": 1430,
      "Ġ199": 1431,
      "ĠDem": 1432,
      "ps": 1433,
      "aring": 1434,
      "Ġplayers": 1435,
      "Ġdel": 1436,
      "Ġformer": 1437,
      "Ġrecord": 1438,
      "ization": 1439,
      "by": 1440,
      "Ġcharac": 1441,
      "aps": 1442,
      "ger": 1443,
      "year": 1444,
      "Ġfore": 1445,
      "Ġvide": 1446,
      "augh": 1447,
      "Ġever": 1448,
      "Ġsocial": 1449,
      "most": 1450,
      "Ġve": 1451,
      "Ġbas": 1452,
      "Ġline": 1453,
      "Ġla": 1454,
      "ĠPresident": 1455,
      "Ġtimes": 1456,
      "Ġgive": 1457,
      "iqu": 1458,
      "ison": 1459,
      "Ġdoing": 1460,
      "Ġevent": 1461,
      "ued": 1462,
      "Ġperform": 1463,
      "Ġhuman": 1464,
      "rew": 1465,
      "Ġair": 1466,
      "Ġ11": 1467,
      "Ġreturn": 1468,
      "ither": 1469,
      "Ġmeet": 1470,
      "icle": 1471,
      "for": 1472,
      "Ġword": 1473,
      "ster": 1474,
      "Ġseveral": 1475,
      "ER": 1476,
      "ĠAfter": 1477,
      "Ġseen": 1478,
      "Ġname": 1479,
      "iber": 1480,
      "Ġmarket": 1481,
      "Ġviol": 1482,
      "Ġyoung": 1483,
      "Ġvers": 1484,
      "Ġmembers": 1485,
      "Ġcrit": 1486,
      "Ġchildren": 1487,
      "ĠEuro": 1488,
      "Ġdr": 1489,
      "50": 1490,
      "gin": 1491,
      "iam": 1492,
      "Ġhaving": 1493,
      "Ġsuccess": 1494,
      "ĠYork": 1495,
      "let": 1496,
      "idd": 1497,
      "ands": 1498,
      "Ġsing": 1499,
      "ined": 1500,
      "uture": 1501,
      "Ġocc": 1502,
      "Ġnight": 1503,
      "Ġexample": 1504,
      "Ġfive": 1505,
      "Ġearly": 1506,
      "Ġ]": 1507,
      "ĠNot": 1508,
      "aken": 1509,
      "Ġwater": 1510,
      "ĠCol": 1511,
      "Ġant": 1512,
      "Ġeng": 1513,
      "Ġlikely": 1514,
      "ĠStates": 1515,
      "mber": 1516,
      "ĠRuss": 1517,
      "ortun": 1518,
      "Ġwhether": 1519,
      "19": 1520,
      "Ġpot": 1521,
      "Ġwithin": 1522,
      "Ġappear": 1523,
      "ched": 1524,
      "verage": 1525,
      "Ġcommunity": 1526,
      "Ġsex": 1527,
      "co": 1528,
      "Ġi": 1529,
      "urs": 1530,
      "Ġmedia": 1531,
      "Ġarg": 1532,
      "Ġcho": 1533,
      "idence": 1534,
      "Ġpress": 1535,
      "Ġsure": 1536,
      "ium": 1537,
      "lf": 1538,
      "ories": 1539,
      "Ġinvol": 1540,
      "Ġmonths": 1541,
      "Ġequ": 1542,
      "Ġactiv": 1543,
      "Ġdone": 1544,
      "Ġmilit": 1545,
      "Ġamong": 1546,
      "Ġwent": 1547,
      "orld": 1548,
      "ones": 1549,
      "Ġprop": 1550,
      "Ġlocal": 1551,
      "ially": 1552,
      "Ġonce": 1553,
      "ĠHowever": 1554,
      "ators": 1555,
      "Ġfail": 1556,
      "ended": 1557,
      "wh": 1558,
      "ivid": 1559,
      "ague": 1560,
      "ubl": 1561,
      "ane": 1562,
      "Ġresult": 1563,
      "ĠSen": 1564,
      "Ġproblem": 1565,
      "artment": 1566,
      "oci": 1567,
      "Ġavail": 1568,
      "Ġquestion": 1569,
      "Ġhour": 1570,
      "book": 1571,
      "AT": 1572,
      "ests": 1573,
      "raft": 1574,
      "Ġpriv": 1575,
      "Ġside": 1576,
      "ĠTe": 1577,
      "ĠEx": 1578,
      "Ġshort": 1579,
      "Ġreason": 1580,
      "ĠBr": 1581,
      "Ġcontrol": 1582,
      "Ġalong": 1583,
      "une": 1584,
      "Ġyet": 1585,
      "ots": 1586,
      "Ġdesc": 1587,
      "ential": 1588,
      "Ġcertain": 1589,
      "ai": 1590,
      "ĠState": 1591,
      "Ġunderstand": 1592,
      "ball": 1593,
      "vert": 1594,
      "nect": 1595,
      "Ġacross": 1596,
      "iting": 1597,
      "ourn": 1598,
      "ef": 1599,
      "Ġproduct": 1600,
      "Ġ&": 1601,
      "Ġmeans": 1602,
      "----": 1603,
      "ederal": 1604,
      "Ġwrit": 1605,
      "Ġpossible": 1606,
      "Ġknown": 1607,
      "itive": 1608,
      "://": 1609,
      "ald": 1610,
      "Ġcourse": 1611,
      "Ġfuture": 1612,
      "ĠHouse": 1613,
      "ĠWhile": 1614,
      "Ġ,": 1615,
      "Ġfilm": 1616,
      "Ġinvestig": 1617,
      "ĠFl": 1618,
      "ulation": 1619,
      "Ġ|": 1620,
      "Ġhold": 1621,
      "Ġothers": 1622,
      "Ġprotect": 1623,
      "aged": 1624,
      "Ġmakes": 1625,
      "Ġgiven": 1626,
      "Ġstrong": 1627,
      "ored": 1628,
      "Ġauthor": 1629,
      "Ġorig": 1630,
      "Ġbelieve": 1631,
      "Ġthought": 1632,
      "unt": 1633,
      "Ġfight": 1634,
      "11": 1635,
      "imate": 1636,
      "itions": 1637,
      "sh": 1638,
      "Ġsent": 1639,
      "30": 1640,
      "ĠEurope": 1641,
      "uff": 1642,
      "ĠDemocr": 1643,
      "Ġ*": 1644,
      "Ġtoday": 1645,
      "Ġasked": 1646,
      "Ġmus": 1647,
      "por": 1648,
      "Ġhig": 1649,
      "ober": 1650,
      "Ġprob": 1651,
      "Ġ30": 1652,
      "ĠSec": 1653,
      "Ġnon": 1654,
      "Ġsugg": 1655,
      "Ġlim": 1656,
      "ashing": 1657,
      "Ġgetting": 1658,
      "Ġnet": 1659,
      "Ġfoc": 1660,
      "arm": 1661,
      "back": 1662,
      "Ġlove": 1663,
      "ults": 1664,
      "Ġident": 1665,
      "Ġemploy": 1666,
      "Ġcut": 1667,
      "Ġpract": 1668,
      "Ġclose": 1669,
      "Ġannoun": 1670,
      "Ġseries": 1671,
      "ĠUniversity": 1672,
      "ĠChrist": 1673,
      "Ġnational": 1674,
      "Ġavailable": 1675,
      "Ġland": 1676,
      "selves": 1677,
      "not": 1678,
      "Ġstarted": 1679,
      "ĠMin": 1680,
      "'ve": 1681,
      "Ġreported": 1682,
      "lement": 1683,
      "Ġ16": 1684,
      "ensive": 1685,
      "ĠCo": 1686,
      "reet": 1687,
      "ĠSu": 1688,
      "Ġcond": 1689,
      "iron": 1690,
      "Ġsaf": 1691,
      "Ġ:": 1692,
      "Ġ2016": 1693,
      "Ġfollowing": 1694,
      "Ġtoget": 1695,
      "Ġsour": 1696,
      "Ġtogether": 1697,
      "Ġ2015": 1698,
      "Ġindust": 1699,
      "ien": 1700,
      "of": 1701,
      "ĠObama": 1702,
      "iety": 1703,
      "Ġcreat": 1704,
      "aff": 1705,
      "Ġbill": 1706,
      "Ġvideo": 1707,
      "Ġdidnt": 1708,
      "Ġidea": 1709,
      "ĠPr": 1710,
      "use": 1711,
      "Ġago": 1712,
      "Ġmom": 1713,
      "ability": 1714,
      "ww": 1715,
      "ances": 1716,
      "ids": 1717,
      "Ġbased": 1718,
      "Ġalmost": 1719,
      "cher": 1720,
      "Ġmult": 1721,
      "Ġparty": 1722,
      "Ġimpro": 1723,
      "uly": 1724,
      "Ġtrying": 1725,
      "Ġanal": 1726,
      "ĠPol": 1727,
      "though": 1728,
      "Ġtrad": 1729,
      "Ġclear": 1730,
      "ĠCent": 1731,
      "urther": 1732,
      "Ġsaying": 1733,
      "aster": 1734,
      "ument": 1735,
      "ividual": 1736,
      "ief": 1737,
      "Ġhistory": 1738,
      "Ġrul": 1739,
      "utes": 1740,
      "Ġcourt": 1741,
      "Ġlow": 1742,
      "Ġbene": 1743,
      "Ġhtt": 1744,
      "resent": 1745,
      "Ġcomes": 1746,
      "reed": 1747,
      "IN": 1748,
      "ring": 1749,
      "Ġcoun": 1750,
      "erence": 1751,
      "itional": 1752,
      "cer": 1753,
      "Ġanything": 1754,
      "Ġdeath": 1755,
      "ĠCanad": 1756,
      "rest": 1757,
      "Ġbad": 1758,
      "ler": 1759,
      "Ġfood": 1760,
      "ĠHis": 1761,
      "ilar": 1762,
      "eg": 1763,
      ".,": 1764,
      "ĠX": 1765,
      "ĠNorth": 1766,
      "par": 1767,
      "Ġer": 1768,
      "Ġissue": 1769,
      "ows": 1770,
      "ustom": 1771,
      "Ġphot": 1772,
      "my": 1773,
      "Ġ@": 1774,
      "irc": 1775,
      "Ġlive": 1776,
      "Ġlight": 1777,
      "inc": 1778,
      "Ġpresent": 1779,
      "af": 1780,
      "Ġmess": 1781,
      "Ġmor": 1782,
      "Ġcompet": 1783,
      "ĠMy": 1784,
      "Ġmiss": 1785,
      "rop": 1786,
      "Ġcomplete": 1787,
      "Ġbehind": 1788,
      "eb": 1789,
      "rael": 1790,
      "Ġris": 1791,
      "Ġindividual": 1792,
      "ĠJust": 1793,
      "Ġexperience": 1794,
      "minist": 1795,
      "Ġcompan": 1796,
      "osp": 1797,
      "ĠEd": 1798,
      "12": 1799,
      "Ġlooking": 1800,
      "ĠWorld": 1801,
      "Ġener": 1802,
      "ination": 1803,
      "Ġhalf": 1804,
      "Ġadded": 1805,
      "Ġsix": 1806,
      "Ġaccess": 1807,
      "ĠThese": 1808,
      "unch": 1809,
      "Ġtre": 1810,
      "Ġthats": 1811,
      "Ġsecurity": 1812,
      "ĠNow": 1813,
      "ged": 1814,
      "ĠWar": 1815,
      "ails": 1816,
      "Ġprevious": 1817,
      "Ġjoin": 1818,
      "ĠHar": 1819,
      "ĠMan": 1820,
      "Ġvict": 1821,
      "ĠEng": 1822,
      "ĠBro": 1823,
      "Ġ2014": 1824,
      "ON": 1825,
      "Ġentire": 1826,
      "__": 1827,
      "Ġ13": 1828,
      "Ġattem": 1829,
      "OR": 1830,
      "Ġstates": 1831,
      "uge": 1832,
      "erman": 1833,
      "Ġarea": 1834,
      "Ġnear": 1835,
      "Ġdiscuss": 1836,
      "Ġtaken": 1837,
      "Ġwanted": 1838,
      "ĠNational": 1839,
      "Ġtot": 1840,
      "wards": 1841,
      "Ġblack": 1842,
      "Ġ17": 1843,
      "Ġrather": 1844,
      "Ġproper": 1845,
      "Ġ14": 1846,
      "ĠSome": 1847,
      "Ġstudy": 1848,
      "Ġthreat": 1849,
      "witter": 1850,
      "ev": 1851,
      "Ġface": 1852,
      "Ġtry": 1853,
      "Ġmilitary": 1854,
      "ĠInst": 1855,
      "Ġquick": 1856,
      "Ġdecision": 1857,
      "Ġsum": 1858,
      "ĠAss": 1859,
      "raw": 1860,
      "cially": 1861,
      "pro": 1862,
      "play": 1863,
      "ĠDon": 1864,
      "Ġbenef": 1865,
      "ĠAmerica": 1866,
      "Ġsuper": 1867,
      "Ġcult": 1868,
      "Ġfall": 1869,
      "IS": 1870,
      "Ġconcern": 1871,
      "aid": 1872,
      "ĠAust": 1873,
      "Ġspecial": 1874,
      "ĠPe": 1875,
      "Ġmass": 1876,
      "Ġredu": 1877,
      "ĠAb": 1878,
      "Ġsingle": 1879,
      "Ġgeneral": 1880,
      "ĠGr": 1881,
      "Ġsw": 1882,
      "Ġfav": 1883,
      "ĠCal": 1884,
      "ĠApp": 1885,
      "Ġdoc": 1886,
      "sy": 1887,
      "Ġtaking": 1888,
      "Ġmind": 1889,
      "ches": 1890,
      "Ġcomb": 1891,
      "'m": 1892,
      "Ġlearn": 1893,
      "ĠCar": 1894,
      "ĠDep": 1895,
      "Ġcou": 1896,
      "Ġbody": 1897,
      "Ġenergy": 1898,
      "Ġdoesnt": 1899,
      "Ġsignific": 1900,
      "Ġprobably": 1901,
      "Ġaut": 1902,
      "Ġz": 1903,
      "Ġresearch": 1904,
      "Ġplayer": 1905,
      "Ġnothing": 1906,
      "ĠRes": 1907,
      "Ġhowever": 1908,
      "Ġwhole": 1909,
      "ĠWashing": 1910,
      "ĠBrit": 1911,
      "Ġsomeone": 1912,
      "Ġkey": 1913,
      "irl": 1914,
      "Ġwon": 1915,
      "Ġcand": 1916,
      "Ġrelations": 1917,
      "Ġsal": 1918,
      "Ġcoming": 1919,
      "Ġspace": 1920,
      "Ġpubl": 1921,
      "Ġservice": 1922,
      "ĠAct": 1923,
      "viron": 1924,
      "Ġpoints": 1925,
      "rug": 1926,
      "aper": 1927,
      "Ġbring": 1928,
      "ĠIsrael": 1929,
      "Ġwa": 1930,
      "ĠBy": 1931,
      ".)": 1932,
      "ape": 1933,
      "Ġconnect": 1934,
      "go": 1935,
      "asing": 1936,
      "ĠCity": 1937,
      "cing": 1938,
      "ply": 1939,
      "mb": 1940,
      "ĠPart": 1941,
      "Ġmeas": 1942,
      "ĠDav": 1943,
      "Ġchall": 1944,
      "sw": 1945,
      "Ġsimilar": 1946,
      "Ġpolicy": 1947,
      "ming": 1948,
      "Ġsus": 1949,
      "AN": 1950,
      "**": 1951,
      "ĠGe": 1952,
      "Ġpret": 1953,
      "ĠDo": 1954,
      "reme": 1955,
      "Ġelse": 1956,
      "ively": 1957,
      "Ġimm": 1958,
      "Ġtrue": 1959,
      "Ġcreate": 1960,
      "Ġeither": 1961,
      "nes": 1962,
      "ĠAf": 1963,
      "off": 1964,
      "pping": 1965,
      "ify": 1966,
      "Ġexist": 1967,
      "Ġenc": 1968,
      "Ġrole": 1969,
      "arent": 1970,
      "Ġrepl": 1971,
      "elt": 1972,
      "Ġdescrib": 1973,
      "inton": 1974,
      "olution": 1975,
      "ĠWashington": 1976,
      "Ġrights": 1977,
      "ager": 1978,
      "Th": 1979,
      "Ġstar": 1980,
      "aces": 1981,
      "Ġofficials": 1982,
      "arth": 1983,
      "Ġstat": 1984,
      "ully": 1985,
      "Ġbegan": 1986,
      "We": 1987,
      "Ġdevelopment": 1988,
      "Ġfoot": 1989,
      "aul": 1990,
      "Ġfederal": 1991,
      "Ġstop": 1992,
      "Ġstudents": 1993,
      "over": 1994,
      "ently": 1995,
      "Ġ198": 1996,
      "itted": 1997,
      "lease": 1998,
      "Ġfeat": 1999,
      "Ġtem": 2000,
      "ĠIntern": 2001,
      "Ġhouse": 2002,
      "Ġ2013": 2003,
      "Ġbreak": 2004,
      "ĠSouth": 2005,
      "acebook": 2006,
      "rote": 2007,
      "Ġpain": 2008,
      "lim": 2009,
      "16": 2010,
      "Ġtreat": 2011,
      "Ġthird": 2012,
      "Ġyoure": 2013,
      "Ġshows": 2014,
      "anks": 2015,
      "Ġseems": 2016,
      "Ġfire": 2017,
      "Ġstatement": 2018,
      "lling": 2019,
      "ades": 2020,
      "rict": 2021,
      "Ġfield": 2022,
      "Ġoutside": 2023,
      "Ġthemselves": 2024,
      "Ġeverything": 2025,
      "Ġfriends": 2026,
      "Ġgun": 2027,
      "15": 2028,
      "Ġdom": 2029,
      "amed": 2030,
      "Ġsuggest": 2031,
      "Ġcustom": 2032,
      "abl": 2033,
      "AR": 2034,
      "Ġbegin": 2035,
      "Ġopt": 2036,
      "Ġcharacter": 2037,
      "Ġstri": 2038,
      "pecially": 2039,
      "lu": 2040,
      "Ġ2012": 2041,
      "Ġsound": 2042,
      "iod": 2043,
      "ung": 2044,
      "Ġaction": 2045,
      "Ġcompl": 2046,
      "umb": 2047,
      "Ġ25": 2048,
      "Ġfront": 2049,
      "Ġpick": 2050,
      "Ġstep": 2051,
      "ĠDr": 2052,
      "now": 2053,
      "pite": 2054,
      "eal": 2055,
      "ĠAcc": 2056,
      "Ġfurther": 2057,
      "Ġissues": 2058,
      "Ġrepresent": 2059,
      "Ġleaders": 2060,
      "Ġposition": 2061,
      "Ġsignificant": 2062,
      "oid": 2063,
      "Ġroom": 2064,
      "Ġlarg": 2065,
      "Ġey": 2066,
      "ili": 2067,
      "Ġwrote": 2068,
      "icult": 2069,
      "Ġcountries": 2070,
      "Ġfinal": 2071,
      "ES": 2072,
      "Ġwatch": 2073,
      "ilt": 2074,
      "BC": 2075,
      "Ġexec": 2076,
      "Ġaddress": 2077,
      "ĠClinton": 2078,
      "Ġversion": 2079,
      "ĠMed": 2080,
      "ĠJan": 2081,
      "Ġspecific": 2082,
      "sec": 2083,
      "ĠBar": 2084,
      "Ġhit": 2085,
      "ĠEn": 2086,
      "vironment": 2087,
      "ibility": 2088,
      "Ġweeks": 2089,
      "Ġprovide": 2090,
      "ried": 2091,
      "Ġself": 2092,
      ");": 2093,
      "ĠWest": 2094,
      "ĠMus": 2095,
      "uation": 2096,
      "ender": 2097,
      "Ġ2017": 2098,
      "Ġlab": 2099,
      "ffic": 2100,
      "Ġinit": 2101,
      "lam": 2102,
      "head": 2103,
      "Ġdue": 2104,
      "Ġneg": 2105,
      "Ġadminist": 2106,
      "Ġmatter": 2107,
      "Ġtarg": 2108,
      "Ġred": 2109,
      "ĠCour": 2110,
      "Ġprofess": 2111,
      "ĠFacebook": 2112,
      "ky": 2113,
      "Ġmag": 2114,
      "oke": 2115,
      "obal": 2116,
      "Ġgroups": 2117,
      "iddle": 2118,
      "ana": 2119,
      "Ġfig": 2120,
      "ĠChina": 2121,
      "br": 2122,
      "Ġbelow": 2123,
      "Ġbuilding": 2124,
      "Ġreleased": 2125,
      "Ġitself": 2126,
      "ĠMich": 2127,
      "ograph": 2128,
      "Ġcompanies": 2129,
      "Ġoffice": 2130,
      "ĠGu": 2131,
      "aced": 2132,
      "Ġ100": 2133,
      "duct": 2134,
      "like": 2135,
      "Ġmusic": 2136,
      "Ġbecame": 2137,
      "oon": 2138,
      "Ġinclude": 2139,
      "Ġhours": 2140,
      "aren": 2141,
      "Ġrespons": 2142,
      "Ġabove": 2143,
      "arlier": 2144,
      "yn": 2145,
      "Ġrad": 2146,
      "Ġcandid": 2147,
      "Ġdifficult": 2148,
      "Ġrunning": 2149,
      "Ġevidence": 2150,
      "Ġneeded": 2151,
      "Ġinterview": 2152,
      "Ġagree": 2153,
      "'ll": 2154,
      "Ġcommon": 2155,
      "Ġsimply": 2156,
      "Ġjud": 2157,
      "Ġinj": 2158,
      "Ġelection": 2159,
      "Ġvote": 2160,
      "ivil": 2161,
      "Ġsaw": 2162,
      "ĠSyri": 2163,
      "Ġcontinue": 2164,
      "Ġdou": 2165,
      "Ġdeter": 2166,
      "Ġ{": 2167,
      "ĠMe": 2168,
      "Ġbar": 2169,
      "ask": 2170,
      "Ġlat": 2171,
      "Ġground": 2172,
      "hod": 2173,
      "Ġbillion": 2174,
      "atives": 2175,
      "Ġphys": 2176,
      "amer": 2177,
      "Ġcharg": 2178,
      "Ġeveryone": 2179,
      "Ġindustry": 2180,
      "Ġrelease": 2181,
      "irt": 2182,
      "Ġdeep": 2183,
      "Ġhimself": 2184,
      "oring": 2185,
      "angu": 2186,
      "Ġ/": 2187,
      "Ġperiod": 2188,
      "ĠNews": 2189,
      "Ġtyp": 2190,
      "Ġcop": 2191,
      "ĠTwitter": 2192,
      "Ġplayed": 2193,
      "Ġhom": 2194,
      "ural": 2195,
      "ĠSept": 2196,
      "ĠWill": 2197,
      "Ġexc": 2198,
      "ival": 2199,
      "ote": 2200,
      "Ġcant": 2201,
      "ĠWhite": 2202,
      "Ġeduc": 2203,
      "Ġdam": 2204,
      "Ġlost": 2205,
      "Ġquite": 2206,
      "Ġball": 2207,
      "Ġinstead": 2208,
      "ault": 2209,
      "Ġplaying": 2210,
      "Ġaccount": 2211,
      "Ġlegal": 2212,
      "EN": 2213,
      "attle": 2214,
      "ĠSm": 2215,
      "ery": 2216,
      "ĠGerman": 2217,
      "yle": 2218,
      "reg": 2219,
      "Ġneeds": 2220,
      "Ġfocus": 2221,
      "Ġforward": 2222,
      "Ġgen": 2223,
      "Ġchanges": 2224,
      "Ġshoot": 2225,
      "ĠRepublican": 2226,
      "Ġcirc": 2227,
      "Ġespecially": 2228,
      "ĠMore": 2229,
      "Ġabs": 2230,
      "ribut": 2231,
      "ij": 2232,
      "Ġhes": 2233,
      "Ġobject": 2234,
      "epend": 2235,
      "Ġonline": 2236,
      "ournal": 2237,
      "Ġpretty": 2238,
      "Ġdest": 2239,
      "aut": 2240,
      "Ġshare": 2241,
      "It": 2242,
      "Ġanim": 2243,
      "Ġhost": 2244,
      "Ġlate": 2245,
      "ancial": 2246,
      "Ġopportun": 2247,
      "Ġvalue": 2248,
      "13": 2249,
      "14": 2250,
      "Ġ50": 2251,
      "Ġhigher": 2252,
      "osing": 2253,
      "AS": 2254,
      "ule": 2255,
      "Ġlo": 2256,
      "ĠCong": 2257,
      "Ġconsider": 2258,
      "den": 2259,
      "lev": 2260,
      "irm": 2261,
      "Ġwrong": 2262,
      "isc": 2263,
      "body": 2264,
      "Ġdrug": 2265,
      "Ġblock": 2266,
      "Ġsense": 2267,
      "ĠOct": 2268,
      "ser": 2269,
      "where": 2270,
      "Ġheld": 2271,
      "Ġreview": 2272,
      "Ġhope": 2273,
      "ental": 2274,
      "ĠHill": 2275,
      "Ġwoman": 2276,
      "17": 2277,
      "ners": 2278,
      "istic": 2279,
      "Ġeconomic": 2280,
      "ores": 2281,
      "ĠJune": 2282,
      "ham": 2283,
      "Ġlonger": 2284,
      "ogn": 2285,
      "Ġcode": 2286,
      "ift": 2287,
      "overed": 2288,
      "Ġworks": 2289,
      "Ġsoon": 2290,
      "Ġrespect": 2291,
      "Ġserious": 2292,
      "cil": 2293,
      "iple": 2294,
      "Ġtit": 2295,
      "Ġrecently": 2296,
      "rodu": 2297,
      "ĠFran": 2298,
      "Ġmot": 2299,
      "Ġresults": 2300,
      "itting": 2301,
      "ples": 2302,
      "Ġcred": 2303,
      "Ġattempt": 2304,
      "Ġapplic": 2305,
      "ĠCourt": 2306,
      "18": 2307,
      "Ġce": 2308,
      "ĠFrid": 2309,
      "ĠNe": 2310,
      "Ġled": 2311,
      "ĠAg": 2312,
      "asons": 2313,
      "Ġalleg": 2314,
      "medi": 2315,
      "ularly": 2316,
      "ĠEm": 2317,
      "ned": 2318,
      "Ġpotential": 2319,
      "Ġwind": 2320,
      "lege": 2321,
      "ĠEven": 2322,
      "Ġmoment": 2323,
      "ĠUK": 2324,
      "Ġtechnology": 2325,
      "oe": 2326,
      "Ġtrack": 2327,
      "Ġprim": 2328,
      "gr": 2329,
      "bit": 2330,
      "anger": 2331,
      "Ġstru": 2332,
      "Ġcontent": 2333,
      "Ġproblems": 2334,
      "Ġep": 2335,
      "Ġaccept": 2336,
      "ĠAccording": 2337,
      "Ġansw": 2338,
      "Ġaverage": 2339,
      "arter": 2340,
      "ients": 2341,
      "Ġwalk": 2342,
      "Ġdecl": 2343,
      "Ġ24": 2344,
      "Ġarticle": 2345,
      "ees": 2346,
      "time": 2347,
      "oph": 2348,
      "onse": 2349,
      "Ġap": 2350,
      "Ġdi": 2351,
      "ĠSte": 2352,
      "Ġcannot": 2353,
      "Ġden": 2354,
      "Ġrev": 2355,
      "aging": 2356,
      "ique": 2357,
      "ole": 2358,
      "Ġgoal": 2359,
      "put": 2360,
      "Ġanyone": 2361,
      "cial": 2362,
      "Ġrelig": 2363,
      "Ġrelationship": 2364,
      "Ġenvironment": 2365,
      "Ġaud": 2366,
      "Ġincrease": 2367,
      "Ġsite": 2368,
      "ittee": 2369,
      "ĠAug": 2370,
      "Ġ2011": 2371,
      "Ġwords": 2372,
      "Ġreve": 2373,
      "Ġwebs": 2374,
      "Ġpie": 2375,
      "Ġwhite": 2376,
      "iding": 2377,
      "Ġconsum": 2378,
      "Ġexpected": 2379,
      "ĠMarch": 2380,
      "Ġreceived": 2381,
      "Ġtotal": 2382,
      "ĠCont": 2383,
      "fer": 2384,
      "ĠTV": 2385,
      "ĠPer": 2386,
      "ĠQu": 2387,
      "ises": 2388,
      "Ġcreated": 2389,
      "Ġusers": 2390,
      "Ġage": 2391,
      "hel": 2392,
      "Ġminutes": 2393,
      "Ġstay": 2394,
      "Ġanti": 2395,
      "Ġdead": 2396,
      "Ġlaws": 2397,
      "ached": 2398,
      "ael": 2399,
      "ĠDepartment": 2400,
      "Ġpred": 2401,
      "Ġpoll": 2402,
      "ĠPal": 2403,
      "ĠJuly": 2404,
      "aving": 2405,
      "Ġservices": 2406,
      "ĠFriday": 2407,
      "ends": 2408,
      "Ġpopular": 2409,
      "25": 2410,
      "val": 2411,
      "Ġinternational": 2412,
      "str": 2413,
      "Ġhttp": 2414,
      "Ġteams": 2415,
      "haps": 2416,
      "isl": 2417,
      "Ġnecess": 2418,
      "Ġ197": 2419,
      "Ġcoll": 2420,
      "ĠSpe": 2421,
      "Ġforce": 2422,
      "hern": 2423,
      "Ġinvolved": 2424,
      "Ġcheck": 2425,
      "Ġprivate": 2426,
      "lear": 2427,
      "ĠRed": 2428,
      "usion": 2429,
      "iter": 2430,
      "Ġcal": 2431,
      "Ġpack": 2432,
      "omm": 2433,
      "60": 2434,
      "Ġcomput": 2435,
      "action": 2436,
      "Ġupd": 2437,
      "itution": 2438,
      "Ġterror": 2439,
      "itiz": 2440,
      "Ġamount": 2441,
      "Ġsurpr": 2442,
      "Ġhy": 2443,
      "Ġbase": 2444,
      "ĠIve": 2445,
      "ĠAustral": 2446,
      "Ġnearly": 2447,
      "Ġfunction": 2448,
      "Ġways": 2449,
      "rel": 2450,
      "ilities": 2451,
      "na": 2452,
      "Ġrisk": 2453,
      "fect": 2454,
      "Ġannounced": 2455,
      "ĠHer": 2456,
      "Ġclub": 2457,
      "Ġspeak": 2458,
      "Ġdiv": 2459,
      "Ġsen": 2460,
      "ĠTues": 2461,
      "Ġstaff": 2462,
      "Ġsold": 2463,
      "Ġcomment": 2464,
      "rap": 2465,
      "Ġpersonal": 2466,
      "Ġestabl": 2467,
      "ĠEl": 2468,
      "ression": 2469,
      "Ġsubject": 2470,
      "Ġoriginal": 2471,
      "ĠDes": 2472,
      "In": 2473,
      "Ġlangu": 2474,
      "Ġliving": 2475,
      "uel": 2476,
      "ĠApr": 2477,
      "ĠGod": 2478,
      "Ġscient": 2479,
      "Ġdidn": 2480,
      "ĠGl": 2481,
      "hood": 2482,
      "Ġquestions": 2483,
      "Ġsoft": 2484,
      "bo": 2485,
      "ogle": 2486,
      "ĠPar": 2487,
      "Ġworked": 2488,
      "Ġrate": 2489,
      "ressed": 2490,
      "Ġexecut": 2491,
      "ĠSch": 2492,
      "lt": 2493,
      "Ġpers": 2494,
      "Ġinside": 2495,
      "Ġeasy": 2496,
      "Ġsqu": 2497,
      "Ġport": 2498,
      "uary": 2499,
      "right": 2500,
      "ips": 2501,
      "ĠCongress": 2502,
      "ude": 2503,
      "Ġplans": 2504,
      "Ġfinancial": 2505,
      "Ġcases": 2506,
      "Ġearlier": 2507,
      "Ġleave": 2508,
      "aterial": 2509,
      "ĠMond": 2510,
      "Ġexact": 2511,
      "oint": 2512,
      "ĠFr": 2513,
      "Ġvol": 2514,
      "ias": 2515,
      "Ġresponse": 2516,
      "aur": 2517,
      "key": 2518,
      "Ġkilled": 2519,
      "joy": 2520,
      "rought": 2521,
      "Ġshot": 2522,
      "Ġbecom": 2523,
      "Ġisnt": 2524,
      "Ġdefin": 2525,
      "rect": 2526,
      "Ġtou": 2527,
      "Ġmethod": 2528,
      "Ġlack": 2529,
      "ills": 2530,
      "load": 2531,
      "ĠTuesday": 2532,
      "Ġbuy": 2533,
      "ĠAmericans": 2534,
      "Ġmodel": 2535,
      "40": 2536,
      "Ġfem": 2537,
      "ĠWed": 2538,
      "ateg": 2539,
      "ĠCor": 2540,
      "Ġarrest": 2541,
      "Ġability": 2542,
      "Ġassoci": 2543,
      "ires": 2544,
      "ĠSer": 2545,
      "Ġroad": 2546,
      "ĠFirst": 2547,
      "itten": 2548,
      "Ġglobal": 2549,
      "Ġgave": 2550,
      "oud": 2551,
      "Ġparticip": 2552,
      "ĠApril": 2553,
      "ĠPaul": 2554,
      "Ġworth": 2555,
      "oved": 2556,
      "Ġbroad": 2557,
      "Ġmother": 2558,
      "osition": 2559,
      "eter": 2560,
      "urch": 2561,
      "Ġgoes": 2562,
      "Ġtheres": 2563,
      "ctor": 2564,
      "izing": 2565,
      "Ġchance": 2566,
      "Ġdirector": 2567,
      "ĠThen": 2568,
      "ops": 2569,
      "Ġ)": 2570,
      "ze": 2571,
      "ĠGeor": 2572,
      "Ġ...": 2573,
      "Ġtakes": 2574,
      "ĠSan": 2575,
      "Ġworkers": 2576,
      "ĠDavid": 2577,
      "Ġsource": 2578,
      "lled": 2579,
      "Ġ40": 2580,
      "Ġrequire": 2581,
      "ray": 2582,
      "ĠSeptember": 2583,
      "Ġnetwork": 2584,
      "Ġtarget": 2585,
      "Ġadm": 2586,
      "Ġimmedi": 2587,
      "ĠCalif": 2588,
      "based": 2589,
      "Ġprice": 2590,
      "Ġtype": 2591,
      "ĠIslam": 2592,
      "St": 2593,
      "order": 2594,
      "Ġgirl": 2595,
      "Ġfavor": 2596,
      "Ġrespond": 2597,
      "eed": 2598,
      "Ġmid": 2599,
      "Ġdecided": 2600,
      "ĠCount": 2601,
      "ought": 2602,
      "urd": 2603,
      "Ġnorm": 2604,
      "ighb": 2605,
      "arents": 2606,
      "Ġemer": 2607,
      "Ġmeeting": 2608,
      "lex": 2609,
      "ĠĠ": 2610,
      "okes": 2611,
      "Ġbehav": 2612,
      "Ġpublished": 2613,
      "ging": 2614,
      "ĠSund": 2615,
      "Ġfans": 2616,
      "Ġreports": 2617,
      "Ġtal": 2618,
      "icated": 2619,
      "oto": 2620,
      "Ġevents": 2621,
      "Ġpict": 2622,
      "Ġtool": 2623,
      "\".": 2624,
      "Ġterms": 2625,
      "Ġcapital": 2626,
      "Ġ}": 2627,
      "Ġhappened": 2628,
      "Ġperformance": 2629,
      "Ġheav": 2630,
      "Ġ2010": 2631,
      "ĠTw": 2632,
      "Ġcollect": 2633,
      "Ġfather": 2634,
      "Ġmis": 2635,
      "Ġcurrently": 2636,
      "ĠThats": 2637,
      "king": 2638,
      "Ġet": 2639,
      "Ġur": 2640,
      "Ġcareer": 2641,
      "Ġaffect": 2642,
      "ino": 2643,
      "rem": 2644,
      "ĠJap": 2645,
      "ĠMonday": 2646,
      "Ġwhose": 2647,
      "ĠIS": 2648,
      "Ġapproach": 2649,
      "atural": 2650,
      "Ġsituation": 2651,
      "Ġquickly": 2652,
      "Ġcause": 2653,
      "ication": 2654,
      "Ġregard": 2655,
      "ĠGoogle": 2656,
      "AL": 2657,
      "Ġturned": 2658,
      "Ġloss": 2659,
      "Ġemail": 2660,
      "ellig": 2661,
      "ety": 2662,
      "ĠThurs": 2663,
      "che": 2664,
      "Ġsimple": 2665,
      "fully": 2666,
      "Ġoil": 2667,
      "Ġdro": 2668,
      "Ġconv": 2669,
      "ny": 2670,
      "ĠPost": 2671,
      "Ġlog": 2672,
      "Ġ21": 2673,
      "Ġcivil": 2674,
      "alt": 2675,
      "omb": 2676,
      "Ġcy": 2677,
      "Ġlower": 2678,
      "Ġhon": 2679,
      "icro": 2680,
      "Ġmember": 2681,
      "Ġrepe": 2682,
      "Ġ22": 2683,
      "Ġsuff": 2684,
      "Ġimprove": 2685,
      "Ġcover": 2686,
      "Ġfre": 2687,
      "Ġthous": 2688,
      "Ġnumbers": 2689,
      "Ġboy": 2690,
      "ovember": 2691,
      "Ġsett": 2692,
      "mon": 2693,
      "Ġround": 2694,
      "Ġheard": 2695,
      "cember": 2696,
      "Ġenjoy": 2697,
      "Ġtravel": 2698,
      "ĠAugust": 2699,
      "ological": 2700,
      "ĠWell": 2701,
      "Ġinflu": 2702,
      "Ġtried": 2703,
      "Ġfear": 2704,
      "Ġbank": 2705,
      "Ġarri": 2706,
      "Ġrace": 2707,
      "Ġill": 2708,
      "oo": 2709,
      "ĠKe": 2710,
      "Ġmaterial": 2711,
      "Ġhuge": 2712,
      "Ġste": 2713,
      "Ġweap": 2714,
      "ites": 2715,
      "Ġknew": 2716,
      "Ġsecret": 2717,
      "ris": 2718,
      "ĠWednes": 2719,
      "Ġtown": 2720,
      "idered": 2721,
      "uses": 2722,
      "Ġcouple": 2723,
      "Ġpull": 2724,
      "chie": 2725,
      "Ġspent": 2726,
      "ĠOf": 2727,
      "Ġlives": 2728,
      "Ġsepar": 2729,
      "force": 2730,
      "Ġvictim": 2731,
      "ĠJanuary": 2732,
      "Ġimpact": 2733,
      "ript": 2734,
      "ceed": 2735,
      "ĠThursday": 2736,
      "Ġengine": 2737,
      "Ġbud": 2738,
      "Ġareas": 2739,
      "Ġoffer": 2740,
      "rain": 2741,
      "gest": 2742,
      "estern": 2743,
      "ĠNovember": 2744,
      "ruction": 2745,
      "ondon": 2746,
      "Ġgets": 2747,
      "Ġforeign": 2748,
      "vertise": 2749,
      "Ġlegisl": 2750,
      "Ġsize": 2751,
      "ĠDecember": 2752,
      "ĠAnt": 2753,
      "ett": 2754,
      "Ġallowed": 2755,
      "ĠCaliforn": 2756,
      "ĠAng": 2757,
      "ĠSenate": 2758,
      "Ġproduction": 2759,
      "Ġcontr": 2760,
      "bl": 2761,
      "Ġneighb": 2762,
      "ED": 2763,
      "Ġrules": 2764,
      "ĠOctober": 2765,
      "Ġincluded": 2766,
      "Ġcontract": 2767,
      "Ġvisit": 2768,
      "Ġord": 2769,
      "Ġwebsite": 2770,
      "Ġheart": 2771,
      "ĠBec": 2772,
      "ĠJapan": 2773,
      "Ġwants": 2774,
      "arily": 2775,
      "Ġdoll": 2776,
      "Ġprevent": 2777,
      "ech": 2778,
      "Ġfast": 2779,
      "Ġtrade": 2780,
      "Ġexam": 2781,
      "ĠEuropean": 2782,
      "atory": 2783,
      "Ġbrought": 2784,
      "Ġhear": 2785,
      "Ġvia": 2786,
      "ese": 2787,
      "ĠBritish": 2788,
      "ĠWednesday": 2789,
      "istan": 2790,
      "Ġprep": 2791,
      "ĠFeb": 2792,
      "ban": 2793,
      "Ġfair": 2794,
      "agement": 2795,
      "orters": 2796,
      "Ġdemand": 2797,
      "Ġcard": 2798,
      "Ġbuilt": 2799,
      "Ġconsidered": 2800,
      "alled": 2801,
      "Ġones": 2802,
      "Ġreveal": 2803,
      "Ġhands": 2804,
      "Ġveh": 2805,
      "sych": 2806,
      "Ġdig": 2807,
      "Ġpopulation": 2808,
      "ences": 2809,
      "ĠFrom": 2810,
      "aily": 2811,
      "Ġnation": 2812,
      "Ġfelt": 2813,
      "ĠStreet": 2814,
      "Ġrecogn": 2815,
      "ĠMcC": 2816,
      "ĠPat": 2817,
      "ened": 2818,
      "cies": 2819,
      "serv": 2820,
      "Ġdemon": 2821,
      "ĠMichael": 2822,
      "Ġphone": 2823,
      "Ġparticular": 2824,
      "Ġupon": 2825,
      "ĠAfric": 2826,
      "ĠSunday": 2827,
      "ishing": 2828,
      "raz": 2829,
      "Ġgrowth": 2830,
      "Ġboard": 2831,
      "'d": 2832,
      "Ġcitiz": 2833,
      "Ġ+": 2834,
      "ressive": 2835,
      "ĠDonald": 2836,
      "ĠHere": 2837,
      "face": 2838,
      "Ġintrodu": 2839,
      "ĠBlack": 2840,
      "yond": 2841,
      "Ġparents": 2842,
      "ĠFollow": 2843,
      "room": 2844,
      "ession": 2845,
      "Ġtraining": 2846,
      "Ġimage": 2847,
      "ĠFin": 2848,
      "ume": 2849,
      "Ġadministration": 2850,
      "ctions": 2851,
      "idents": 2852,
      "uments": 2853,
      "Ġ23": 2854,
      "Ġdoesn": 2855,
      "Ġlevels": 2856,
      "utions": 2857,
      "Ġwide": 2858,
      "undred": 2859,
      "iction": 2860,
      "ĠSatur": 2861,
      "Ġperfect": 2862,
      "ening": 2863,
      "ĠLondon": 2864,
      "ructure": 2865,
      "ĠParty": 2866,
      "Ġtheyre": 2867,
      "ĠMor": 2868,
      "rowd": 2869,
      "pts": 2870,
      "ĠRead": 2871,
      "Ġforces": 2872,
      "Ġspeed": 2873,
      "chers": 2874,
      "ĠMark": 2875,
      "down": 2876,
      "Ġmovement": 2877,
      "ĠCalifornia": 2878,
      "ĠInt": 2879,
      "pper": 2880,
      "Ġcoach": 2881,
      "ĠPark": 2882,
      "Ġkids": 2883,
      "Ġens": 2884,
      "Ġeconomy": 2885,
      "fl": 2886,
      "ĠSw": 2887,
      "ysis": 2888,
      "ĠTur": 2889,
      "Ġleader": 2890,
      "ĠChe": 2891,
      "Ġhot": 2892,
      "ĠSim": 2893,
      "ĠMuslim": 2894,
      "hold": 2895,
      "ek": 2896,
      "Ġconserv": 2897,
      "ges": 2898,
      "raq": 2899,
      "Ġpractice": 2900,
      "==": 2901,
      "sequ": 2902,
      "ĠEvery": 2903,
      "Ġattention": 2904,
      "Ġeffort": 2905,
      "Ġslow": 2906,
      "Ġwond": 2907,
      "Ġseven": 2908,
      "Ġlooks": 2909,
      "Ġbur": 2910,
      "ĠRussian": 2911,
      "Ġess": 2912,
      "Ġachie": 2913,
      "ĠTH": 2914,
      "Ġstrugg": 2915,
      "Ġconduct": 2916,
      "Ġlatest": 2917,
      "Ġreach": 2918,
      "ĠEast": 2919,
      "apt": 2920,
      "Ġsexual": 2921,
      "Ġmatch": 2922,
      "Ġliber": 2923,
      "ĠKore": 2924,
      "ground": 2925,
      "anced": 2926,
      "\",": 2927,
      "aker": 2928,
      "ĠRepublicans": 2929,
      "Ġindepend": 2930,
      "come": 2931,
      "rench": 2932,
      "Ġimmig": 2933,
      "Ġfell": 2934,
      "asc": 2935,
      "Ġmorning": 2936,
      "aries": 2937,
      "ĠIraq": 2938,
      "ĠCons": 2939,
      "Ġrac": 2940,
      "Ġdocument": 2941,
      "Ġregul": 2942,
      "Ġmessage": 2943,
      "pir": 2944,
      "Ġpage": 2945,
      "Ġmultiple": 2946,
      "Ġmedical": 2947,
      "coin": 2948,
      "Ġresour": 2949,
      "ĠOther": 2950,
      "Ġexperien": 2951,
      "rown": 2952,
      "ĠLab": 2953,
      "Ġpaper": 2954,
      "imin": 2955,
      "Ġlink": 2956,
      "AC": 2957,
      "ma": 2958,
      "Ġsort": 2959,
      "cast": 2960,
      "cle": 2961,
      "Ġcell": 2962,
      "100": 2963,
      "Ġvo": 2964,
      "ĠArab": 2965,
      "eth": 2966,
      "ification": 2967,
      "inese": 2968,
      "ĠWhy": 2969,
      "Ġcritic": 2970,
      "--------": 2971,
      "Ġfeatures": 2972,
      "Ġextra": 2973,
      "iant": 2974,
      "Ġbox": 2975,
      "ĠTimes": 2976,
      "Ġ2008": 2977,
      "Ġ<": 2978,
      "ibly": 2979,
      "Ġcapt": 2980,
      "Ġincreasing": 2981,
      "ĠSam": 2982,
      "Ġofficers": 2983,
      "22": 2984,
      "Ġund": 2985,
      "Ġcompletely": 2986,
      "ospital": 2987,
      "inks": 2988,
      "Ġmention": 2989,
      "Ġsens": 2990,
      "Ġvarious": 2991,
      "akers": 2992,
      "ĠCanada": 2993,
      "Ġmob": 2994,
      "Ġwritten": 2995,
      "Ġinvestigation": 2996,
      "ĠRussia": 2997,
      "oor": 2998,
      "Ġopportunity": 2999,
      "ĠSaturday": 3000,
      "ĠId": 3001,
      "Ġaddition": 3002,
      "ledge": 3003,
      "Ġlanguage": 3004,
      "IT": 3005,
      "Ġcross": 3006,
      "pre": 3007,
      "uk": 3008,
      "Ġextreme": 3009,
      "Ġhor": 3010,
      "ĠNet": 3011,
      "Ġsystems": 3012,
      "ĠIndia": 3013,
      "Ġtalking": 3014,
      "Ġreb": 3015,
      "Ġbiggest": 3016,
      "range": 3017,
      "ĠJew": 3018,
      "ĠSuper": 3019,
      "imately": 3020,
      "ĠKing": 3021,
      "bed": 3022,
      "uf": 3023,
      "Ġmiddle": 3024,
      "Ġpurch": 3025,
      "Ġviolence": 3026,
      "][": 3027,
      "Ġcarry": 3028,
      "As": 3029,
      "Ġpan": 3030,
      "Ġsometimes": 3031,
      "atform": 3032,
      "Ġpurp": 3033,
      "Ġsong": 3034,
      "200": 3035,
      "ĠMost": 3036,
      "Ġprior": 3037,
      "OS": 3038,
      "ĠPolice": 3039,
      "lying": 3040,
      "ĠOur": 3041,
      "arr": 3042,
      "Ġdespite": 3043,
      "Ġrequired": 3044,
      "irth": 3045,
      "ĠBel": 3046,
      "Ġattacks": 3047,
      "Ġanswer": 3048,
      "Ġ27": 3049,
      "ĠChinese": 3050,
      "Ġbott": 3051,
      "ĠSince": 3052,
      "Ġcontact": 3053,
      "Ġguys": 3054,
      "Ġeducation": 3055,
      "Ġproducts": 3056,
      "Ġmach": 3057,
      "eared": 3058,
      "Ġhundred": 3059,
      "ĠRom": 3060,
      "tain": 3061,
      "Ġpen": 3062,
      "ĠMany": 3063,
      "Ġprison": 3064,
      "icles": 3065,
      "Ph": 3066,
      "ĠGener": 3067,
      "lin": 3068,
      "Ġtext": 3069,
      "ibr": 3070,
      "ken": 3071,
      "Ġclos": 3072,
      "reedom": 3073,
      "set": 3074,
      "Ġjobs": 3075,
      "light": 3076,
      "OP": 3077,
      "Ġjournal": 3078,
      "Ġquality": 3079,
      "Ġmajority": 3080,
      "Ġclaims": 3081,
      "entially": 3082,
      "Ġmovie": 3083,
      "ĠCoun": 3084,
      "ĠTex": 3085,
      "Ġpoor": 3086,
      "ĠCenter": 3087,
      "Ġsearch": 3088,
      "ĠSoc": 3089,
      "IC": 3090,
      "ications": 3091,
      "iment": 3092,
      "Ġlooked": 3093,
      "acher": 3094,
      "Ġpath": 3095,
      "ĠSci": 3096,
      "field": 3097,
      "Ġnamed": 3098,
      "ension": 3099,
      "iers": 3100,
      "Ġobvious": 3101,
      "Ġparticularly": 3102,
      "ida": 3103,
      "ĠComp": 3104,
      "Ġmodern": 3105,
      "isions": 3106,
      "Ġquarter": 3107,
      "Ġstories": 3108,
      "Ġchanged": 3109,
      "Ġeight": 3110,
      "Ġready": 3111,
      "Ġchalleng": 3112,
      "elligence": 3113,
      "Ġwasnt": 3114,
      "uclear": 3115,
      "Ġspokes": 3116,
      "US": 3117,
      "Ġuser": 3118,
      "ĠYes": 3119,
      "Ġschools": 3120,
      "32": 3121,
      "Ġexcept": 3122,
      "nces": 3123,
      "Ġtable": 3124,
      "Ġsociety": 3125,
      "Ġsn": 3126,
      "Ġinn": 3127,
      "ĠSand": 3128,
      "Ġexactly": 3129,
      "Ġwrite": 3130,
      "Ġpaid": 3131,
      "Ġdied": 3132,
      "ament": 3133,
      "Ġson": 3134,
      "aught": 3135,
      "Ġterm": 3136,
      "Ġdanger": 3137,
      "Ġstarting": 3138,
      "uing": 3139,
      "Ġremain": 3140,
      "Ġsurve": 3141,
      "ĠUp": 3142,
      "ruary": 3143,
      "Ġinteresting": 3144,
      "ously": 3145,
      "Ġcosts": 3146,
      "Ġaw": 3147,
      "Ġscene": 3148,
      "Ġfinally": 3149,
      "illed": 3150,
      "hib": 3151,
      "Ġdescribed": 3152,
      "ari": 3153,
      "Ġwriting": 3154,
      "enge": 3155,
      "Ġgiving": 3156,
      "Ġ28": 3157,
      "uit": 3158,
      "Ġrange": 3159,
      "ĠJe": 3160,
      "Ġoccur": 3161,
      "lish": 3162,
      "ales": 3163,
      "Ġsafe": 3164,
      "Ġcrowd": 3165,
      "Ġguy": 3166,
      "Ġlay": 3167,
      "Ġcertainly": 3168,
      "Ġdraw": 3169,
      "Ġhistor": 3170,
      "Ġchief": 3171,
      "Ġult": 3172,
      "Ġunc": 3173,
      "Ġearn": 3174,
      "Ġfix": 3175,
      "ille": 3176,
      "Ġsummer": 3177,
      "ĠCounty": 3178,
      "erc": 3179,
      "itch": 3180,
      "Ġmiles": 3181,
      "Ġnatural": 3182,
      "Ġdoub": 3183,
      "Ġstuff": 3184,
      "ĠGet": 3185,
      "Ġdetails": 3186,
      "Ġalthough": 3187,
      "Ġclimate": 3188,
      "Ġpressure": 3189,
      "Ġhous": 3190,
      "Ġple": 3191,
      "ĠServ": 3192,
      "Ġcomments": 3193,
      "ivity": 3194,
      "ope": 3195,
      "Ġunf": 3196,
      "zz": 3197,
      "Ġil": 3198,
      "hest": 3199,
      "omp": 3200,
      "oses": 3201,
      "Ġscreen": 3202,
      "Ġyourself": 3203,
      "Ġreading": 3204,
      "ĠHigh": 3205,
      "Ġclean": 3206,
      "Ġprovided": 3207,
      "ha": 3208,
      "new": 3209,
      "45": 3210,
      "Ġut": 3211,
      "Ġconvers": 3212,
      "Ġeffects": 3213,
      "Ġefforts": 3214,
      "orks": 3215,
      "ĠFebruary": 3216,
      "ico": 3217,
      "Ġ26": 3218,
      "Ġselect": 3219,
      "ĠOff": 3220,
      "Ġusually": 3221,
      "Ġperhaps": 3222,
      "Ġsurv": 3223,
      "ĠFrench": 3224,
      "ĠJames": 3225,
      "Ġ2009": 3226,
      "Ġbi": 3227,
      "Ġgrowing": 3228,
      "Ġspeech": 3229,
      "Ġimplement": 3230,
      "Ġstra": 3231,
      "ampions": 3232,
      "Ġcris": 3233,
      "ĠLeague": 3234,
      "Ġban": 3235,
      "mp": 3236,
      "vertisement": 3237,
      "het": 3238,
      "inary": 3239,
      "itness": 3240,
      "Ġ60": 3241,
      "fort": 3242,
      "ĠLast": 3243,
      "Ġleading": 3244,
      "Ġparts": 3245,
      "Ġgas": 3246,
      "Ġconsist": 3247,
      "ĠOh": 3248,
      "Ġdefense": 3249,
      "ĠDis": 3250,
      "Ġresear": 3251,
      "ĠDemocratic": 3252,
      "Ġbudget": 3253,
      "Ġmill": 3254,
      "itation": 3255,
      "airs": 3256,
      "ĠIndian": 3257,
      "ĠAssoci": 3258,
      "tr": 3259,
      "ĠTom": 3260,
      "Ġdog": 3261,
      "ĠPeople": 3262,
      "Ġgone": 3263,
      "FL": 3264,
      "aves": 3265,
      "Ġcharacters": 3266,
      "wise": 3267,
      "Ġtro": 3268,
      "Ġculture": 3269,
      "AM": 3270,
      "iny": 3271,
      "ĠBre": 3272,
      "Ġdisp": 3273,
      "99": 3274,
      "Ġtowards": 3275,
      "Ġhar": 3276,
      "Ġstandard": 3277,
      "Ġthroughout": 3278,
      "Ġbeyond": 3279,
      "Ġspot": 3280,
      "Ġremember": 3281,
      "Ġremains": 3282,
      "Ġcele": 3283,
      "Ġtoward": 3284,
      "Ġilleg": 3285,
      "Ġsle": 3286,
      "Ġswe": 3287,
      "ĠTor": 3288,
      "ĠIran": 3289,
      "roid": 3290,
      "ĠRober": 3291,
      "Ġincludes": 3292,
      "Ġsafety": 3293,
      "Ġrelative": 3294,
      "Ġchoice": 3295,
      "unk": 3296,
      "Ġthinking": 3297,
      "ĠPlay": 3298,
      "Ġimmediately": 3299,
      "Ġdesigned": 3300,
      "ĠLike": 3301,
      "ilies": 3302,
      "ĠWind": 3303,
      "Ġscience": 3304,
      "ani": 3305,
      "Ġblood": 3306,
      "ĠBo": 3307,
      "ems": 3308,
      "BI": 3309,
      "Ġbal": 3310,
      "arian": 3311,
      "icks": 3312,
      "ĠStar": 3313,
      "Ġstudent": 3314,
      "atever": 3315,
      "Ġrequest": 3316,
      "Ġdevice": 3317,
      "Ġthousands": 3318,
      "mit": 3319,
      "Ġver": 3320,
      "Ġwife": 3321,
      "reng": 3322,
      "ĠJack": 3323,
      "Ġmaybe": 3324,
      "Ġassist": 3325,
      "ĠBig": 3326,
      "ĠRec": 3327,
      "Ġpositive": 3328,
      "Ġcounter": 3329,
      "ĠAlthough": 3330,
      "Ġrout": 3331,
      "Ġavoid": 3332,
      "Ġsoftware": 3333,
      "ford": 3334,
      "wood": 3335,
      "ĠMart": 3336,
      "Ġdifference": 3337,
      "Ġtour": 3338,
      "Ġfile": 3339,
      "itute": 3340,
      "Ġleague": 3341,
      "Ġplatform": 3342,
      "Ġshowed": 3343,
      "Ġepis": 3344,
      "ĠSchool": 3345,
      "Ġyes": 3346,
      "Ġopin": 3347,
      "ĠBecause": 3348,
      "Ġstage": 3349,
      "ĠOver": 3350,
      "Ġpassed": 3351,
      "Ġcorrect": 3352,
      "Ġahead": 3353,
      "ago": 3354,
      "Ġvoters": 3355,
      "Ġmoving": 3356,
      "www": 3357,
      "ĠRich": 3358,
      "EL": 3359,
      "Ġten": 3360,
      "iles": 3361,
      "ĠMinister": 3362,
      "Ġregion": 3363,
      "ĠSyria": 3364,
      "Ġconditions": 3365,
      "Ġencour": 3366,
      "de": 3367,
      "ĠHD": 3368,
      "Ġdebate": 3369,
      "Ġnom": 3370,
      "Ġrefer": 3371,
      "Ġincreased": 3372,
      "ables": 3373,
      "Ġmoved": 3374,
      "atter": 3375,
      "ĠBen": 3376,
      "ĠReg": 3377,
      "24": 3378,
      "OM": 3379,
      "Ġtur": 3380,
      "Ġstore": 3381,
      "ĠIll": 3382,
      "EC": 3383,
      "Ġ>": 3384,
      "urance": 3385,
      "ĠDemocrats": 3386,
      "ĠMet": 3387,
      "Ġrecomm": 3388,
      "Ġpark": 3389,
      "Ġmeaning": 3390,
      "iminal": 3391,
      "sp": 3392,
      "ounts": 3393,
      "Ġoption": 3394,
      "ux": 3395,
      "Ġaim": 3396,
      "acts": 3397,
      "Ġx": 3398,
      "Ġadditional": 3399,
      "Ġalone": 3400,
      "bur": 3401,
      "ĠTexas": 3402,
      "oper": 3403,
      "Ġtrust": 3404,
      "Ġdark": 3405,
      "adem": 3406,
      "rants": 3407,
      "yan": 3408,
      "ĠAdd": 3409,
      "Ġlargest": 3410,
      "aches": 3411,
      "oul": 3412,
      "ĠGreen": 3413,
      "Ġtitle": 3414,
      "ĠMon": 3415,
      "Ġtwe": 3416,
      "Ġcontinued": 3417,
      "Ġreceive": 3418,
      "Ġcomplex": 3419,
      "Ġsmart": 3420,
      "Ġdate": 3421,
      "Ġdirectly": 3422,
      "Ġsat": 3423,
      "Ġ29": 3424,
      "Ġcenter": 3425,
      "Ġbenefits": 3426,
      "Ġcitizens": 3427,
      "Ġwont": 3428,
      "Ġdrive": 3429,
      "Ġhelped": 3430,
      "ĠInternational": 3431,
      "ĠMex": 3432,
      "Ġtouch": 3433,
      "This": 3434,
      "Ġdemonstr": 3435,
      "chan": 3436,
      "Ġimag": 3437,
      "Ġdisapp": 3438,
      "Ġofficer": 3439,
      "ĠDay": 3440,
      "Ġestim": 3441,
      "Ġsuspect": 3442,
      "Ġign": 3443,
      "Ġfootball": 3444,
      "using": 3445,
      "Ġreality": 3446,
      "Ġfailed": 3447,
      "imum": 3448,
      "ĠMag": 3449,
      "Ġcalls": 3450,
      "Ġcollege": 3451,
      "Ġpsych": 3452,
      "Ġappears": 3453,
      "Ġsell": 3454,
      "ĠEarth": 3455,
      "venue": 3456,
      "aa": 3457,
      "ĠBill": 3458,
      "Ġfan": 3459,
      "Ġanalysis": 3460,
      "ĠVal": 3461,
      "Ġreasons": 3462,
      "Ġcompared": 3463,
      "ae": 3464,
      "add": 3465,
      "AP": 3466,
      "roy": 3467,
      "ĠWilliam": 3468,
      "ube": 3469,
      "Ġcool": 3470,
      "ength": 3471,
      "Ġnature": 3472,
      "Ġdeg": 3473,
      "Ġeventually": 3474,
      "Ġmeant": 3475,
      "resh": 3476,
      "Ġbooks": 3477,
      "Ġbeginning": 3478,
      "EO": 3479,
      "berg": 3480,
      "Ġeyes": 3481,
      "Ġrule": 3482,
      "Ġcamer": 3483,
      "Ġcommand": 3484,
      "ĠEnglish": 3485,
      "enty": 3486,
      "itor": 3487,
      "ĠCr": 3488,
      "Ġactions": 3489,
      "Ġnuclear": 3490,
      "ĠMo": 3491,
      "rupt": 3492,
      "Ġshown": 3493,
      "Ġlaunch": 3494,
      "35": 3495,
      "Ġactivity": 3496,
      "Ġcrisis": 3497,
      "Ġorganization": 3498,
      "Ġtreatment": 3499,
      "ĠUnion": 3500,
      "Ġwall": 3501,
      "Ġbattle": 3502,
      "Ġreform": 3503,
      "olute": 3504,
      "Ġconference": 3505,
      "Ġcomputer": 3506,
      "Ġnecessary": 3507,
      "aly": 3508,
      "Ġcontribut": 3509,
      "Ġ(@": 3510,
      "Ġcharge": 3511,
      "Ġlimited": 3512,
      "Ġproperty": 3513,
      "Ġdetermin": 3514,
      "ĠGovern": 3515,
      "astic": 3516,
      "men": 3517,
      "vention": 3518,
      "Ġcast": 3519,
      "Ġfa": 3520,
      "ĠII": 3521,
      "Ġeasily": 3522,
      "Ġbeaut": 3523,
      "Ġagency": 3524,
      "Ġoverall": 3525,
      "more": 3526,
      "Ġsusp": 3527,
      "Ġfigure": 3528,
      "Ġstraight": 3529,
      "Ġfamilies": 3530,
      "roll": 3531,
      "Ġcentral": 3532,
      "ĠApple": 3533,
      "ocked": 3534,
      "ĠTod": 3535,
      "Ġallows": 3536,
      "omen": 3537,
      "Ġprec": 3538,
      "ocks": 3539,
      "ĠDef": 3540,
      "Ġsigned": 3541,
      "yl": 3542,
      "Ġpiece": 3543,
      "80": 3544,
      "ara": 3545,
      "ĠMac": 3546,
      "Ġsubst": 3547,
      "Ġprojects": 3548,
      "Ġprograms": 3549,
      "Ġadvant": 3550,
      "Ġindividuals": 3551,
      "Ġcustomers": 3552,
      "Ġexecutive": 3553,
      "64": 3554,
      "90": 3555,
      "Ġgives": 3556,
      "ĠGeorge": 3557,
      "Ġdamage": 3558,
      "iance": 3559,
      "Ġgoals": 3560,
      "):": 3561,
      "Ġpresidential": 3562,
      "onents": 3563,
      "ĠYour": 3564,
      "Ġspending": 3565,
      "Ġmist": 3566,
      "Ġletter": 3567,
      "Ġemot": 3568,
      "Ġpowerful": 3569,
      "ĠSmith": 3570,
      "Ġreligious": 3571,
      "Ġsche": 3572,
      "Ġcorpor": 3573,
      "ĠHam": 3574,
      "Ġmanager": 3575,
      "Ġcopy": 3576,
      "ĠBu": 3577,
      "aming": 3578,
      "Ġfirm": 3579,
      "Ġlif": 3580,
      "ĠTheres": 3581,
      "Ġstreng": 3582,
      "ĠBook": 3583,
      "ĠOp": 3584,
      "Ġgrad": 3585,
      "ĠFlor": 3586,
      "just": 3587,
      "Ġrap": 3588,
      "OT": 3589,
      "RE": 3590,
      "band": 3591,
      "Ġalleged": 3592,
      "Ġpus": 3593,
      "ĠDuring": 3594,
      "Ġobserv": 3595,
      "arning": 3596,
      "Ġdetail": 3597,
      "urt": 3598,
      "Ġvirt": 3599,
      "Ġtrou": 3600,
      "Ġbehavior": 3601,
      "ĠMatt": 3602,
      "Ġconfir": 3603,
      "ĠSecret": 3604,
      "ING": 3605,
      "Ġfrequ": 3606,
      "Ġfollowed": 3607,
      "ext": 3608,
      "Ġarch": 3609,
      "Ġorigin": 3610,
      "Ġhappy": 3611,
      "Ġrob": 3612,
      "Ġbirth": 3613,
      "term": 3614,
      "Ġdecades": 3615,
      "bon": 3616,
      "ĠJer": 3617,
      "Ġhighly": 3618,
      "ĠAlso": 3619,
      "ufact": 3620,
      "rief": 3621,
      "ĠPhil": 3622,
      "Ġsenior": 3623,
      "Ġfeed": 3624,
      "Ġdevices": 3625,
      "ĠCouncil": 3626,
      "rs": 3627,
      "ĠSun": 3628,
      "ĠGold": 3629,
      "Ġcandidate": 3630,
      "Ġchallenge": 3631,
      "Ġprin": 3632,
      "Ġpromot": 3633,
      "____": 3634,
      "ĠGame": 3635,
      "Ġnice": 3636,
      "ĠLa": 3637,
      "ius": 3638,
      "Ġpeace": 3639,
      "Ġmyself": 3640,
      "iable": 3641,
      "Ġstudies": 3642,
      "Ġfunding": 3643,
      "oes": 3644,
      "Ġkept": 3645,
      "Ġ2007": 3646,
      "Ġcrime": 3647,
      "Ġfeature": 3648,
      "encies": 3649,
      "23": 3650,
      "Wh": 3651,
      "amb": 3652,
      "Ġapparent": 3653,
      "ares": 3654,
      "owers": 3655,
      "ranch": 3656,
      "ĠCommission": 3657,
      "Ġmix": 3658,
      "Ġdemocr": 3659,
      "Ġmeasure": 3660,
      "ĠAngel": 3661,
      "ston": 3662,
      "alse": 3663,
      "Ġunique": 3664,
      "Ġowners": 3665,
      "ĠTrans": 3666,
      "ĠAP": 3667,
      "ĠPalest": 3668,
      "Ġthrow": 3669,
      "see": 3670,
      "Ġspread": 3671,
      "Ġnote": 3672,
      "ĠGeneral": 3673,
      "erve": 3674,
      "riage": 3675,
      "dd": 3676,
      "Ġlines": 3677,
      "Ġminor": 3678,
      "Ġspecies": 3679,
      "Ġoptions": 3680,
      "aughter": 3681,
      "Ġesc": 3682,
      "Ġdoor": 3683,
      "Ġappeared": 3684,
      "Ġblog": 3685,
      "Ġsil": 3686,
      "iring": 3687,
      "Ġbrain": 3688,
      "Ġshooting": 3689,
      "craft": 3690,
      "Ġpreviously": 3691,
      "Ġautom": 3692,
      "Ġshut": 3693,
      "ĠTwo": 3694,
      "ĠChic": 3695,
      "Ġsuccessful": 3696,
      "Ġliter": 3697,
      "Ġisn": 3698,
      "Ġrare": 3699,
      "Ġuses": 3700,
      "ĠBrown": 3701,
      "?\"": 3702,
      "Ġdisplay": 3703,
      "Ġprimary": 3704,
      "Ġcat": 3705,
      "Ġaltern": 3706,
      "itely": 3707,
      "Ġrock": 3708,
      "Ġgreater": 3709,
      "ĠHillary": 3710,
      "orney": 3711,
      "estic": 3712,
      "Ġlarger": 3713,
      "Ġphysical": 3714,
      "Ġaware": 3715,
      "ĠBer": 3716,
      "ĠEU": 3717,
      "Ġfighting": 3718,
      "Ġfine": 3719,
      "Ġpolitics": 3720,
      "Ġforced": 3721,
      "Ġsto": 3722,
      "Ġresources": 3723,
      "Ġang": 3724,
      "Ġfully": 3725,
      "Ġexpand": 3726,
      "ĠChristian": 3727,
      "ĠArt": 3728,
      "orter": 3729,
      "Ġdraft": 3730,
      "Ġenforce": 3731,
      "ki": 3732,
      "aint": 3733,
      "Ġideas": 3734,
      "Ġcredit": 3735,
      "IA": 3736,
      "rol": 3737,
      "secut": 3738,
      "ĠSub": 3739,
      "Ġconflic": 3740,
      "Ġcentury": 3741,
      "Ġimages": 3742,
      "que": 3743,
      "27": 3744,
      "Ġgreen": 3745,
      "Ġtruth": 3746,
      "Ġlic": 3747,
      "Ġemb": 3748,
      "Ġanaly": 3749,
      "osh": 3750,
      "uty": 3751,
      "Ġincome": 3752,
      "Ġstyle": 3753,
      "Ġgold": 3754,
      "Ġknows": 3755,
      "agon": 3756,
      "26": 3757,
      "iced": 3758,
      "Ġstatus": 3759,
      "Ġir": 3760,
      "Ġagg": 3761,
      "Ġappl": 3762,
      "Ġsupposed": 3763,
      "ĠAnother": 3764,
      "ĠAre": 3765,
      "wide": 3766,
      "Ġprem": 3767,
      "ĠInternet": 3768,
      "iled": 3769,
      "Ġbrother": 3770,
      "Ġdise": 3771,
      "Ġseemed": 3772,
      "Ġpropos": 3773,
      "Ġetc": 3774,
      "ategy": 3775,
      "arliam": 3776,
      "Ġweapons": 3777,
      "ĠStep": 3778,
      "Ġattract": 3779,
      "Ġsection": 3780,
      "ĠAir": 3781,
      "Ġcalling": 3782,
      "Ġice": 3783,
      "Ġdeveloped": 3784,
      "lands": 3785,
      "antly": 3786,
      "ĠAdvertisement": 3787,
      "Ġsave": 3788,
      "Ġjump": 3789,
      "ĠLou": 3790,
      "Ġindic": 3791,
      "Ġcontinues": 3792,
      "ĠLaw": 3793,
      "Ġnoted": 3794,
      "nown": 3795,
      "Ġregular": 3796,
      "Ġtheory": 3797,
      "Ġhospital": 3798,
      "Ġwait": 3799,
      "Ġnormal": 3800,
      "ĠPort": 3801,
      "Ġemployees": 3802,
      "Ġrelated": 3803,
      "lements": 3804,
      "Ġcharges": 3805,
      "iders": 3806,
      "ĠRob": 3807,
      "Ġconcerns": 3808,
      "acing": 3809,
      "Ġshall": 3810,
      "Ġleaving": 3811,
      "Ġenem": 3812,
      "ĠAny": 3813,
      "cul": 3814,
      "Ġinteg": 3815,
      "Ġsend": 3816,
      "ounds": 3817,
      "Ġintelligence": 3818,
      "ET": 3819,
      "ĠAlex": 3820,
      "Ġmer": 3821,
      "Ġqual": 3822,
      "Ġclearly": 3823,
      "Ġtraditional": 3824,
      "ado": 3825,
      "ĠMike": 3826,
      "Ġpros": 3827,
      "Ġparties": 3828,
      "Ġcolor": 3829,
      "Ġclaimed": 3830,
      "Ġimpl": 3831,
      "Ġrise": 3832,
      "ĠPre": 3833,
      "Ġcriminal": 3834,
      "Ġended": 3835,
      "pri": 3836,
      "Ġconcept": 3837,
      "Ġoffered": 3838,
      "Ġcities": 3839,
      "ID": 3840,
      "onent": 3841,
      "vere": 3842,
      "Ġspend": 3843,
      "Ġadding": 3844,
      "Ġpatients": 3845,
      "ĠScott": 3846,
      "Ġpolicies": 3847,
      "ĠMil": 3848,
      "org": 3849,
      "Ġ196": 3850,
      "Ġactual": 3851,
      "ĠCommittee": 3852,
      "Ġorganiz": 3853,
      "ĠFlorida": 3854,
      "ĠMal": 3855,
      "rated": 3856,
      "Ġband": 3857,
      "Ġsales": 3858,
      "Ġjudge": 3859,
      "Ġspir": 3860,
      "ĠHealth": 3861,
      "ĠPet": 3862,
      "ĠUN": 3863,
      "arliament": 3864,
      "aud": 3865,
      "iju": 3866,
      "ĠBush": 3867,
      "Ġmanufact": 3868,
      "ifying": 3869,
      "ya": 3870,
      "Ġtelev": 3871,
      "Ġexch": 3872,
      "Ġmechan": 3873,
      "Sh": 3874,
      "Ġcry": 3875,
      "ĠRo": 3876,
      "Ġreflect": 3877,
      "Ġreached": 3878,
      "Ġplaces": 3879,
      "Ġvalues": 3880,
      "ĠOnce": 3881,
      "Ġnames": 3882,
      "istry": 3883,
      "Ġpredict": 3884,
      "Ġapplication": 3885,
      "ĠChicago": 3886,
      "Ġtend": 3887,
      "ining": 3888,
      "Ġdream": 3889,
      "icit": 3890,
      "ĠAustralia": 3891,
      "Ġrates": 3892,
      "Ġlaun": 3893,
      "while": 3894,
      "Ġwilling": 3895,
      "Ġknowledge": 3896,
      "28": 3897,
      "Ġraised": 3898,
      "umn": 3899,
      "Ġproduce": 3900,
      "Ġseeing": 3901,
      "ĠCommun": 3902,
      "Ġsources": 3903,
      "Ġpush": 3904,
      "ĠStud": 3905,
      "Ġhighest": 3906,
      "Ġmassive": 3907,
      "Ġvac": 3908,
      "Ġslight": 3909,
      "ĠPri": 3910,
      "iverse": 3911,
      "Ġchoose": 3912,
      "Ġresearchers": 3913,
      "Ġillegal": 3914,
      "Ġweight": 3915,
      "azing": 3916,
      "Ġpattern": 3917,
      "ĠFrance": 3918,
      "Ġfemale": 3919,
      "Ġfreedom": 3920,
      "irection": 3921,
      "ĠWindows": 3922,
      "Ġcreating": 3923,
      "Ġmostly": 3924,
      "Ġprovides": 3925,
      "ĠInstead": 3926,
      "mar": 3927,
      "ona": 3928,
      "Ġwhatever": 3929,
      "Ġplant": 3930,
      "Ġinstall": 3931,
      "Ġabsolute": 3932,
      "Ġdollars": 3933,
      "Ġrank": 3934,
      "Ġweekend": 3935,
      "Ġarrested": 3936,
      "Ġstrategy": 3937,
      "Ġcommer": 3938,
      "AD": 3939,
      "ero": 3940,
      "edy": 3941,
      "ĠMiss": 3942,
      "ica": 3943,
      "Ġenter": 3944,
      "ijuana": 3945,
      "70": 3946,
      "Ġadop": 3947,
      "Ġhappens": 3948,
      "Ġdram": 3949,
      "Ġlik": 3950,
      "Ġstation": 3951,
      "Ġlose": 3952,
      "ĠThose": 3953,
      "Ġacqu": 3954,
      "Ġmemory": 3955,
      "Ġeth": 3956,
      "Ġfeeling": 3957,
      "Ġbeat": 3958,
      "ĠCup": 3959,
      "ĠGermany": 3960,
      "aks": 3961,
      "Ġprotest": 3962,
      "Ġstreet": 3963,
      "ĠLet": 3964,
      "CC": 3965,
      "oti": 3966,
      "ils": 3967,
      "Ġwhom": 3968,
      "Ġ80": 3969,
      "Ġensure": 3970,
      "dom": 3971,
      "ĠInc": 3972,
      "iling": 3973,
      "orrow": 3974,
      "ĠMad": 3975,
      "ipp": 3976,
      "Ġcars": 3977,
      "Ġmission": 3978,
      "ĠHum": 3979,
      "Ġtrial": 3980,
      "SP": 3981,
      "Ġbasic": 3982,
      "Ġvoice": 3983,
      "Ġbed": 3984,
      "Ġtick": 3985,
      "Ġfresh": 3986,
      "ribution": 3987,
      "ios": 3988,
      "ĠPress": 3989,
      "Ġscen": 3990,
      "Ġbelieved": 3991,
      "ĠConf": 3992,
      "board": 3993,
      "Ġpicture": 3994,
      "Ġeffic": 3995,
      "ĠGreat": 3996,
      "Ġshared": 3997,
      "Ġteach": 3998,
      "ĠTrumps": 3999,
      "Ġadvoc": 4000,
      "ented": 4001,
      "igned": 4002,
      "earch": 4003,
      "Ġmur": 4004,
      "Ġprices": 4005,
      "Ġweb": 4006,
      "ĠNFL": 4007,
      "ipped": 4008,
      "inn": 4009,
      "Ġstream": 4010,
      "sey": 4011,
      "rian": 4012,
      "odes": 4013,
      "Ġappeal": 4014,
      "Ġcelebr": 4015,
      "38": 4016,
      "agn": 4017,
      "ĠVer": 4018,
      "Ġassum": 4019,
      "Ġcaused": 4020,
      "Ġcritical": 4021,
      "semb": 4022,
      "ĠBit": 4023,
      "lick": 4024,
      "Ġsun": 4025,
      "ĠBur": 4026,
      "ĠLiber": 4027,
      "olly": 4028,
      "Ġfeet": 4029,
      "ĠTim": 4030,
      "Ġvill": 4031,
      "Ġwonder": 4032,
      "ĠRel": 4033,
      "Ġasking": 4034,
      "He": 4035,
      "Ġincident": 4036,
      "29": 4037,
      "bum": 4038,
      "gency": 4039,
      "Ġproduced": 4040,
      "Ġprogress": 4041,
      "Ġposted": 4042,
      "Ġconfirmed": 4043,
      "Ġuns": 4044,
      "Ġadvantage": 4045,
      "ĠWestern": 4046,
      "abor": 4047,
      "ribe": 4048,
      "Ġborder": 4049,
      "Ġagreed": 4050,
      "Ġtrain": 4051,
      "Ġdrink": 4052,
      "Ġfit": 4053,
      "ĠTer": 4054,
      "Ġresidents": 4055,
      "ection": 4056,
      "ĠRock": 4057,
      "Ġgrand": 4058,
      "Ġcommit": 4059,
      "ĠSee": 4060,
      "21": 4061,
      "itude": 4062,
      "Ġcandidates": 4063,
      "Ġagreement": 4064,
      "ears": 4065,
      "Ġfalse": 4066,
      "issions": 4067,
      "ĠAM": 4068,
      "Ġopening": 4069,
      "Ġsolution": 4070,
      "oles": 4071,
      "Ġeye": 4072,
      "Ġmobile": 4073,
      "Ġbenefit": 4074,
      "Ġrevealed": 4075,
      "Ġship": 4076,
      "ĠUnder": 4077,
      "Ġchair": 4078,
      "Ġteacher": 4079,
      "ĠSecurity": 4080,
      "ugg": 4081,
      "Ġhero": 4082,
      "ĠQue": 4083,
      "Ġbasis": 4084,
      "Ġfavorite": 4085,
      "Ch": 4086,
      "ĠEngland": 4087,
      "Ġvictims": 4088,
      "Ġlegislation": 4089,
      "ription": 4090,
      "ĠWho": 4091,
      "inated": 4092,
      "Ġresponsible": 4093,
      "Ġopposition": 4094,
      "Ġhttps": 4095,
      "Ġmount": 4096,
      "ams": 4097,
      "Ġminister": 4098,
      "Ġoperations": 4099,
      "Ġlawy": 4100,
      "Ġruns": 4101,
      "Ġauthorities": 4102,
      "Ġinitial": 4103,
      "Ġlength": 4104,
      "ĠInter": 4105,
      "Ġshowing": 4106,
      "ĠProf": 4107,
      "Ġlearned": 4108,
      "ĠWere": 4109,
      "Ġgenerally": 4110,
      "500": 4111,
      "ĠUk": 4112,
      "Ġinterested": 4113,
      "Ġdestroy": 4114,
      "Ġdocuments": 4115,
      "TS": 4116,
      "box": 4117,
      "Ġpun": 4118,
      "Ġbeer": 4119,
      "Ġlimit": 4120,
      "atically": 4121,
      "etic": 4122,
      "ĠHy": 4123,
      "ĠCanadian": 4124,
      "iful": 4125,
      "Ġworse": 4126,
      "Ġregist": 4127,
      "IL": 4128,
      "Ġwat": 4129,
      "olic": 4130,
      "Ġonto": 4131,
      "Ġunlike": 4132,
      "Ġsleep": 4133,
      "ties": 4134,
      "Ġpurpose": 4135,
      "mission": 4136,
      "ĠKh": 4137,
      "ĠImage": 4138,
      "Ġtemper": 4139,
      "PA": 4140,
      "Ġ31": 4141,
      "Ġamb": 4142,
      "Ġchem": 4143,
      "Ġdebt": 4144,
      "Ġhundreds": 4145,
      "Ġthus": 4146,
      "aked": 4147,
      "Ġindependent": 4148,
      "inger": 4149,
      "ĠFound": 4150,
      "Ġinsurance": 4151,
      "Ġbecomes": 4152,
      "Ġreject": 4153,
      "ords": 4154,
      "Ġvehicle": 4155,
      "mers": 4156,
      "Ġbeg": 4157,
      "Ġgovernments": 4158,
      "Ġinfluence": 4159,
      "ampionship": 4160,
      "ĠDet": 4161,
      "ĠAtt": 4162,
      "ĠDel": 4163,
      "Ġmarriage": 4164,
      "Ġexisting": 4165,
      "Ġheavy": 4166,
      "BS": 4167,
      "ĠBay": 4168,
      "ĠBoth": 4169,
      "Ġinvestment": 4170,
      "Ġachieve": 4171,
      "ĠRobert": 4172,
      "ĠCle": 4173,
      "ĠMicro": 4174,
      "ĠIr": 4175,
      "Ġpartners": 4176,
      ".'": 4177,
      "ville": 4178,
      "Ġnegative": 4179,
      "ĠMod": 4180,
      "Ġexplained": 4181,
      "Ġfat": 4182,
      "Ġcomfort": 4183,
      "Ġpurs": 4184,
      "ĠIsraeli": 4185,
      "OU": 4186,
      "orial": 4187,
      "ĠTy": 4188,
      "orthern": 4189,
      "Ġarm": 4190,
      "Ġdigital": 4191,
      "Ġdaily": 4192,
      "Ġ90": 4193,
      "Ġwild": 4194,
      "illing": 4195,
      "ĠUs": 4196,
      "Ġopened": 4197,
      "Ġeffective": 4198,
      "ĠOffice": 4199,
      "Ġrecords": 4200,
      "ĠMer": 4201,
      "ĠAc": 4202,
      "ĠJud": 4203,
      "Ġtelevision": 4204,
      "Ġcru": 4205,
      "ront": 4206,
      "Ġhus": 4207,
      "Ġnotice": 4208,
      "ĠJeff": 4209,
      "iation": 4210,
      "uster": 4211,
      "Ġinternet": 4212,
      "Ġmillions": 4213,
      "ĠPak": 4214,
      "Ġscore": 4215,
      "Ġsupported": 4216,
      "Ġstre": 4217,
      "Ġphoto": 4218,
      "gen": 4219,
      "vis": 4220,
      "outhern": 4221,
      "ih": 4222,
      "ĠEgy": 4223,
      "Ġoffers": 4224,
      "Ġ35": 4225,
      "Ġdefe": 4226,
      "Ġgra": 4227,
      "Ġcontrovers": 4228,
      "Ġreplace": 4229,
      "Ġunderstanding": 4230,
      "house": 4231,
      "mine": 4232,
      "ĠHall": 4233,
      "Ġcommunities": 4234,
      "Ġseparate": 4235,
      "Ġreduce": 4236,
      "Ġopinion": 4237,
      "Ġfaith": 4238,
      "ĠIslamic": 4239,
      "ĠHes": 4240,
      "pective": 4241,
      "oms": 4242,
      "ĠBack": 4243,
      "rant": 4244,
      "Ġaspect": 4245,
      "Ġ70": 4246,
      "Ġwitness": 4247,
      "Ġpet": 4248,
      "ĠDirect": 4249,
      "ĠYet": 4250,
      "Ġhair": 4251,
      "usive": 4252,
      "ĠLos": 4253,
      "ĠFollowing": 4254,
      "Ġalbum": 4255,
      "Ġprofessional": 4256,
      "bing": 4257,
      "ĠDist": 4258,
      "Ġwealth": 4259,
      "Ġnegoti": 4260,
      "Ġoccas": 4261,
      "Ġbecoming": 4262,
      "Ġcoverage": 4263,
      "BA": 4264,
      "mark": 4265,
      "Ġbrief": 4266,
      "cell": 4267,
      "Ġinstance": 4268,
      "Ġmanagement": 4269,
      "Ġactive": 4270,
      "lor": 4271,
      "ĠPC": 4272,
      "ĠEv": 4273,
      "iest": 4274,
      "works": 4275,
      "ĠWall": 4276,
      "Ġaccused": 4277,
      "Ġsupporters": 4278,
      "Ġdefend": 4279,
      "ortunately": 4280,
      "Ġmarijuana": 4281,
      "Ġeat": 4282,
      "Ġweve": 4283,
      "ĠPhoto": 4284,
      "ctors": 4285,
      "Ġworst": 4286,
      "Ġincred": 4287,
      "Ġenforcement": 4288,
      "isher": 4289,
      "ĠFranc": 4290,
      "ĠJustice": 4291,
      "Ġdangerous": 4292,
      "ĠPalestin": 4293,
      "Ġserved": 4294,
      "Ġlearning": 4295,
      "Ġrestaur": 4296,
      "Ġbusinesses": 4297,
      "ancy": 4298,
      "ĠThom": 4299,
      "Ġbackground": 4300,
      "ribute": 4301,
      "Ġpolitic": 4302,
      "Ġeasier": 4303,
      "Ġtests": 4304,
      "ĠInstitute": 4305,
      "Ġsurround": 4306,
      "Ġbomb": 4307,
      "ĠCap": 4308,
      "Ġbrand": 4309,
      "Ġsolid": 4310,
      "Ġwasn": 4311,
      "ĠFBI": 4312,
      "rial": 4313,
      "gn": 4314,
      "vant": 4315,
      "Ġcards": 4316,
      "Ġharm": 4317,
      "ĠSl": 4318,
      "Ġannounce": 4319,
      "Ġscientists": 4320,
      "Ġder": 4321,
      "ait": 4322,
      "ĠTHE": 4323,
      "Ġran": 4324,
      "33": 4325,
      "Ġgay": 4326,
      "Ġproposed": 4327,
      "known": 4328,
      "Ġmax": 4329,
      "ĠJim": 4330,
      "zen": 4331,
      "ĠCarol": 4332,
      "ography": 4333,
      "Ġtypes": 4334,
      "ĠSil": 4335,
      "aby": 4336,
      "Ġdepartment": 4337,
      "Ġannual": 4338,
      "Ġassociated": 4339,
      "Ġcommittee": 4340,
      "Ġgraph": 4341,
      "tered": 4342,
      "Ġ2006": 4343,
      "Ġputting": 4344,
      "Ġrestrict": 4345,
      "Ġappropri": 4346,
      "icip": 4347,
      "ander": 4348,
      "Ġmap": 4349,
      "vest": 4350,
      "ĠGood": 4351,
      "Ġlocation": 4352,
      "Ġtrend": 4353,
      "ĠMont": 4354,
      "Ġwouldnt": 4355,
      "Ġtools": 4356,
      "Ġclosed": 4357,
      "ĠKorea": 4358,
      "ĠSanders": 4359,
      "Ġexcl": 4360,
      "Ġvictory": 4361,
      "If": 4362,
      "oly": 4363,
      "Ġmale": 4364,
      "Ġdirection": 4365,
      "Ġnotes": 4366,
      "Ġassault": 4367,
      "Ġraise": 4368,
      "Ġaudience": 4369,
      "GB": 4370,
      "cks": 4371,
      "ĠSal": 4372,
      "actions": 4373,
      "coming": 4374,
      "Ġattend": 4375,
      "Ġwinning": 4376,
      "ipe": 4377,
      "andon": 4378,
      "Ġscale": 4379,
      "Ġserve": 4380,
      "Ġconservative": 4381,
      "rim": 4382,
      "ste": 4383,
      "ulf": 4384,
      "iliar": 4385,
      "ĠDespite": 4386,
      "Ġextremely": 4387,
      "Ġmurder": 4388,
      "Ġcore": 4389,
      "Ġsmaller": 4390,
      "Ġdrugs": 4391,
      "ĠSecretary": 4392,
      "Ġhearing": 4393,
      "Ġnovel": 4394,
      "Ġnations": 4395,
      "Ġflag": 4396,
      "Ġolder": 4397,
      "Ġdrop": 4398,
      "ĠFox": 4399,
      "ours": 4400,
      "Ġwatching": 4401,
      "ĠEgypt": 4402,
      "ĠTheir": 4403,
      "Ġrefere": 4404,
      "Ġcompetition": 4405,
      "NS": 4406,
      "Ġpresence": 4407,
      "Ġnorth": 4408,
      "olf": 4409,
      "agues": 4410,
      "resp": 4411,
      "Ġinstit": 4412,
      "Ġcondition": 4413,
      "NN": 4414,
      "ION": 4415,
      "Ġload": 4416,
      "Ġreturned": 4417,
      "Ġdefinitely": 4418,
      "EM": 4419,
      "ĠTre": 4420,
      "Ġsurface": 4421,
      "Ġded": 4422,
      "Ġdecade": 4423,
      "Ġactivities": 4424,
      "55": 4425,
      "uries": 4426,
      "Ġgirls": 4427,
      "Ġdriving": 4428,
      "Ġepisode": 4429,
      "Ġborn": 4430,
      "Ġmachine": 4431,
      "Ġlaunched": 4432,
      "FC": 4433,
      "Ġcharged": 4434,
      "Ġtelling": 4435,
      "ĠPakistan": 4436,
      "Bl": 4437,
      "inct": 4438,
      "istics": 4439,
      "rency": 4440,
      "Ġradio": 4441,
      "ibrary": 4442,
      "Ġnine": 4443,
      "Ġcompar": 4444,
      "Ġoccup": 4445,
      "apers": 4446,
      "Ġvs": 4447,
      "soft": 4448,
      "Ġbelief": 4449,
      "Ġyoull": 4450,
      "Ġarent": 4451,
      "OL": 4452,
      "Ġfinding": 4453,
      "34": 4454,
      "Ġleadership": 4455,
      "uct": 4456,
      "Ġque": 4457,
      "Ġjustice": 4458,
      "Ġwel": 4459,
      "Ġtruly": 4460,
      "Ġafford": 4461,
      "Ġestablished": 4462,
      "nel": 4463,
      "Ġtim": 4464,
      "ingly": 4465,
      "ota": 4466,
      "ada": 4467,
      "Ġestablish": 4468,
      "ĠAngeles": 4469,
      "Ġsuit": 4470,
      "Ġamazing": 4471,
      "ĠRyan": 4472,
      "Ġrepeated": 4473,
      "season": 4474,
      "Ġtells": 4475,
      "Ġkick": 4476,
      "ĠToday": 4477,
      "gl": 4478,
      "ĠSup": 4479,
      "Ġplays": 4480,
      "ĠChris": 4481,
      "ĠBank": 4482,
      "ĠGree": 4483,
      "ĠRub": 4484,
      "formation": 4485,
      "Ġbelieves": 4486,
      "Ġargument": 4487,
      "eds": 4488,
      "asy": 4489,
      "ĠSur": 4490,
      "Ġstructure": 4491,
      "Ġremoved": 4492,
      "Ġmissing": 4493,
      "acity": 4494,
      "Ġsud": 4495,
      "Ġsites": 4496,
      "Ġdouble": 4497,
      "overy": 4498,
      "ĠDec": 4499,
      "ĠConst": 4500,
      "Ġblue": 4501,
      "Ġdiscovered": 4502,
      "Ġgeneration": 4503,
      "Ġentirely": 4504,
      "part": 4505,
      "Ġexplain": 4506,
      "ĠFrancis": 4507,
      "Ġ00": 4508,
      "ĠGOP": 4509,
      "kins": 4510,
      "hem": 4511,
      "azon": 4512,
      "Ġtesting": 4513,
      "Ġlabor": 4514,
      "Ġinjury": 4515,
      "Ġneighbor": 4516,
      "Ġrefuge": 4517,
      "Ġfloor": 4518,
      "Ġcoal": 4519,
      "Ġoperation": 4520,
      "which": 4521,
      "Ġexerc": 4522,
      "Ġspoke": 4523,
      "Ġphotos": 4524,
      "Ġstated": 4525,
      "Ġdepend": 4526,
      "going": 4527,
      "Ġdoubt": 4528,
      "Ġbottom": 4529,
      "Ġge": 4530,
      "Ġwaiting": 4531,
      "Ġrequires": 4532,
      "Ġdriver": 4533,
      "ĠPlease": 4534,
      "Ġrough": 4535,
      "Ġtransport": 4536,
      "Ġtransfer": 4537,
      "Ġcash": 4538,
      "ĠPM": 4539,
      "ĠVir": 4540,
      "Ġcook": 4541,
      "Ġexpans": 4542,
      "Ġgrant": 4543,
      "ĠMill": 4544,
      "adium": 4545,
      "Ġcommercial": 4546,
      "ĠUkrain": 4547,
      "rig": 4548,
      "ĠAndroid": 4549,
      "Ġvotes": 4550,
      "!!": 4551,
      "kes": 4552,
      "Ġfant": 4553,
      "ĠOut": 4554,
      "annel": 4555,
      "Ġjoined": 4556,
      "lig": 4557,
      "ĠLeg": 4558,
      "Ġallowing": 4559,
      "Ġviews": 4560,
      "ĠAssociation": 4561,
      "ht": 4562,
      "Ġ32": 4563,
      "ception": 4564,
      "Ġskills": 4565,
      "Ġdomestic": 4566,
      "Ġdism": 4567,
      "ĠOpen": 4568,
      "Ġbanks": 4569,
      "witch": 4570,
      "Ġhack": 4571,
      "Ġstock": 4572,
      "izes": 4573,
      "ridge": 4574,
      "arant": 4575,
      "ĠCur": 4576,
      "ĠHol": 4577,
      "ĠLouis": 4578,
      "75": 4579,
      "Ġbul": 4580,
      "Ġnor": 4581,
      "isf": 4582,
      "well": 4583,
      "itz": 4584,
      "Ġdie": 4585,
      "ĠJes": 4586,
      "36": 4587,
      "bert": 4588,
      "Ġfeels": 4589,
      "Ġspl": 4590,
      "Ġweak": 4591,
      "ĠBost": 4592,
      "ĠLu": 4593,
      "Ġ2018": 4594,
      "Ġdecisions": 4595,
      "Ġsuggested": 4596,
      "makers": 4597,
      "Ġaccur": 4598,
      "phone": 4599,
      "ups": 4600,
      "Ġcamera": 4601,
      "44": 4602,
      "icide": 4603,
      "Ġmanaged": 4604,
      "Ġtraffic": 4605,
      "Ġdeploy": 4606,
      "ĠDown": 4607,
      "****": 4608,
      "Ġstandards": 4609,
      "UT": 4610,
      "Ġcaught": 4611,
      "eah": 4612,
      "ĠAtl": 4613,
      "Ġresist": 4614,
      "Ġconsequ": 4615,
      "Ġcontext": 4616,
      "ossible": 4617,
      "awn": 4618,
      "ĠWhe": 4619,
      "Ġskin": 4620,
      "oman": 4621,
      "Ġlargely": 4622,
      "how": 4623,
      "Ġgender": 4624,
      "Ġcancer": 4625,
      "Ġguess": 4626,
      "Ġkeeping": 4627,
      "Ġidentity": 4628,
      "ĠObam": 4629,
      "itutional": 4630,
      "DA": 4631,
      "Ġstrateg": 4632,
      "Ġanimals": 4633,
      "ĠMartin": 4634,
      "Ġcouldnt": 4635,
      "Ġdownload": 4636,
      "Ġholding": 4637,
      "ĠPrime": 4638,
      "RA": 4639,
      "ĠMars": 4640,
      "Ġframe": 4641,
      "Ġkid": 4642,
      "Ġissued": 4643,
      "Ġstrength": 4644,
      "ruit": 4645,
      "Ġrecommend": 4646,
      "You": 4647,
      "cont": 4648,
      "Ġrat": 4649,
      "Ġfocused": 4650,
      "ĠThomas": 4651,
      "Ġ//": 4652,
      "andom": 4653,
      "ĠEr": 4654,
      "ĠChar": 4655,
      "Ġsubsc": 4656,
      "Ġtransl": 4657,
      "Ġfilms": 4658,
      "Ġplaced": 4659,
      "Ġdiscussion": 4660,
      "],": 4661,
      "ola": 4662,
      "ulated": 4663,
      "osure": 4664,
      "Ġcontain": 4665,
      "ĠChurch": 4666,
      "anging": 4667,
      "Ġconcerned": 4668,
      "ĠSupreme": 4669,
      "ĠNS": 4670,
      "hens": 4671,
      "Ġcircum": 4672,
      "IM": 4673,
      "Ġsan": 4674,
      "Ġcold": 4675,
      "Ġconstruction": 4676,
      "Ġdisease": 4677,
      "].": 4678,
      "Ġsequ": 4679,
      "Ġsports": 4680,
      "Ġassess": 4681,
      "Ġcollection": 4682,
      "oyal": 4683,
      "Ġmulti": 4684,
      "Ġconflict": 4685,
      "Ġproviding": 4686,
      "Ġmeasures": 4687,
      "ĠParis": 4688,
      "ads": 4689,
      "ĠResearch": 4690,
      "wing": 4691,
      "Ġsouth": 4692,
      "ĠWil": 4693,
      "Ġotherwise": 4694,
      "Ġerror": 4695,
      "tained": 4696,
      "ĠMary": 4697,
      "Ġspect": 4698,
      "antic": 4699,
      "Ġstopped": 4700,
      "Ġtask": 4701,
      "ĠRichard": 4702,
      "la": 4703,
      "Ġspokesman": 4704,
      "Ġhusband": 4705,
      "ĠJewish": 4706,
      "za": 4707,
      "ĠFe": 4708,
      "ĠJon": 4709,
      "ĠWeb": 4710,
      "ĠImages": 4711,
      "Ġconnection": 4712,
      "Ġplease": 4713,
      "ĠLA": 4714,
      "real": 4715,
      "Ġlived": 4716,
      "ĠSyrian": 4717,
      "Ġhomes": 4718,
      "ĠMP": 4719,
      "ND": 4720,
      "cious": 4721,
      "igan": 4722,
      "Ġchurch": 4723,
      "Ġhousing": 4724,
      "ĠJones": 4725,
      "Ġunivers": 4726,
      "cient": 4727,
      "Ġrelatively": 4728,
      "Ġ;": 4729,
      "Ġaward": 4730,
      "Ġunit": 4731,
      "48": 4732,
      "Ġvoted": 4733,
      "Ġhell": 4734,
      "Ġseek": 4735,
      "Ġuseful": 4736,
      "Ġfinished": 4737,
      "ading": 4738,
      "place": 4739,
      "ĠAfrican": 4740,
      "IP": 4741,
      "Ġitems": 4742,
      "CA": 4743,
      "azine": 4744,
      "37": 4745,
      "Ġfle": 4746,
      "cknow": 4747,
      "Ġdeliver": 4748,
      "Ġupdate": 4749,
      "ĠBob": 4750,
      "ĠBitcoin": 4751,
      "anda": 4752,
      "Ġhelping": 4753,
      "Ġtough": 4754,
      "rie": 4755,
      "Ġfiles": 4756,
      "Ġfunds": 4757,
      "Ġconversation": 4758,
      "night": 4759,
      "Ġearth": 4760,
      "ĠFore": 4761,
      "Ġidentified": 4762,
      "Ġshape": 4763,
      "ĠJose": 4764,
      "Ġimmigration": 4765,
      "Ġdat": 4766,
      "Ġabuse": 4767,
      "Ġoffensive": 4768,
      "Ġinstitutions": 4769,
      "rey": 4770,
      "Ġnone": 4771,
      "ady": 4772,
      "Ġpartner": 4773,
      "Ġ2005": 4774,
      "Ġcuts": 4775,
      "oted": 4776,
      "Ġelected": 4777,
      "prof": 4778,
      "ĠBern": 4779,
      "Ġfigh": 4780,
      "ario": 4781,
      "ĠRem": 4782,
      "eline": 4783,
      "ĠStr": 4784,
      "Ġ2000": 4785,
      "mitted": 4786,
      "ini": 4787,
      "isation": 4788,
      "ĠJohnson": 4789,
      "ĠBoston": 4790,
      "Ġcatch": 4791,
      "Ġstring": 4792,
      "ĠGrand": 4793,
      "met": 4794,
      "ĠGroup": 4795,
      "Ġsust": 4796,
      "Ġterrit": 4797,
      "Ġstarts": 4798,
      "asts": 4799,
      "Ġvir": 4800,
      "ĠShow": 4801,
      "onym": 4802,
      "ĠSteve": 4803,
      "ĠJoe": 4804,
      "Ġtherefore": 4805,
      "Ġprofessor": 4806,
      "Ġfuel": 4807,
      "ĠCEO": 4808,
      "ronic": 4809,
      "NA": 4810,
      "Ġdaughter": 4811,
      "Ġgain": 4812,
      "ĠST": 4813,
      "ĠFederal": 4814,
      "Ġstanding": 4815,
      "Ġfourth": 4816,
      "Ġintroduced": 4817,
      "ĠGovernment": 4818,
      "Ġath": 4819,
      "Ġsetting": 4820,
      "ucky": 4821,
      "equ": 4822,
      "Ġlets": 4823,
      "ancing": 4824,
      "ĠBefore": 4825,
      "ĠOk": 4826,
      "rast": 4827,
      "ĠTra": 4828,
      "Ġheat": 4829,
      "Ġrevolution": 4830,
      "Ġslightly": 4831,
      "bor": 4832,
      "ĠMem": 4833,
      "eless": 4834,
      "Ġdetect": 4835,
      "Ġmentioned": 4836,
      "aded": 4837,
      "verse": 4838,
      "oung": 4839,
      "There": 4840,
      "Is": 4841,
      "idering": 4842,
      "alls": 4843,
      "acks": 4844,
      "point": 4845,
      "Ġmental": 4846,
      "Ġarrived": 4847,
      "Ġtweet": 4848,
      "ĠMexico": 4849,
      "itect": 4850,
      "Ġthanks": 4851,
      "Ġmodels": 4852,
      "Ġbeautiful": 4853,
      "Ġspeaking": 4854,
      "Ġcrew": 4855,
      "ĠML": 4856,
      "udd": 4857,
      "Ġcolle": 4858,
      "ĠAmazon": 4859,
      "ĠSecond": 4860,
      "Ġwindow": 4861,
      "Ġ45": 4862,
      "39": 4863,
      "Ġcovered": 4864,
      "ĠCharl": 4865,
      "Ġelections": 4866,
      "Ġelectric": 4867,
      "Ġexchange": 4868,
      "Ġpair": 4869,
      "Ġcommitted": 4870,
      "Ġexpress": 4871,
      "ula": 4872,
      "Ġbigger": 4873,
      "Ġdevelopers": 4874,
      "Ġfailure": 4875,
      "Ġincreasingly": 4876,
      "ĠPublic": 4877,
      "Ġrid": 4878,
      "Ġchanging": 4879,
      "Ġcateg": 4880,
      "ĠStill": 4881,
      "enses": 4882,
      "Ġplanning": 4883,
      "Ġkilling": 4884,
      "ĠMur": 4885,
      "Ġsteps": 4886,
      "xual": 4887,
      "ĠAv": 4888,
      "ĠMiddle": 4889,
      "Ġprinc": 4890,
      "iot": 4891,
      "Ġconclud": 4892,
      "Ġhappening": 4893,
      "ĠAR": 4894,
      "ource": 4895,
      "Ġunits": 4896,
      "ĠProt": 4897,
      "IV": 4898,
      "no": 4899,
      "owl": 4900,
      "Ġbalance": 4901,
      "ĠMicrosoft": 4902,
      "gers": 4903,
      "ania": 4904,
      "ĠHist": 4905,
      "Ġdropped": 4906,
      "ĠVirgin": 4907,
      "Ġrich": 4908,
      "Ġexperts": 4909,
      "Ġhealthy": 4910,
      "Ġcouncil": 4911,
      "Ġacknow": 4912,
      "ĠSk": 4913,
      "ĠRE": 4914,
      "Ġseat": 4915,
      "ĠFire": 4916,
      "ĠOffic": 4917,
      "onto": 4918,
      "ĠJapanese": 4919,
      "ghan": 4920,
      "orders": 4921,
      "Ġsupply": 4922,
      "Ġremind": 4923,
      "imal": 4924,
      "Ġfamiliar": 4925,
      "odies": 4926,
      "Ġmere": 4927,
      "Ġprepared": 4928,
      "Ġwish": 4929,
      "ĠDen": 4930,
      "Ġtaxes": 4931,
      "Ġhonest": 4932,
      "war": 4933,
      "ĠSpr": 4934,
      "Ġplanet": 4935,
      "olid": 4936,
      "Ġappre": 4937,
      "Ġoperating": 4938,
      "ĠAfrica": 4939,
      "65": 4940,
      "Ġseeking": 4941,
      "Ġnewsp": 4942,
      "Ġorganizations": 4943,
      "illa": 4944,
      "Ġcarried": 4945,
      "Ġclick": 4946,
      "Ġinterests": 4947,
      "Ġroll": 4948,
      "Ġresponsibility": 4949,
      "ynam": 4950,
      "Ġproposal": 4951,
      "hy": 4952,
      "isted": 4953,
      "Ġcloser": 4954,
      "ga": 4955,
      "Ġyouth": 4956,
      "Ġexpert": 4957,
      "Ġapart": 4958,
      "Ġsudden": 4959,
      "rate": 4960,
      "uate": 4961,
      "rees": 4962,
      "Ġestimated": 4963,
      "ĠWork": 4964,
      "ulate": 4965,
      "Ġimpossible": 4966,
      "Ġspirit": 4967,
      "ĠCollege": 4968,
      "Ġprotection": 4969,
      "##": 4970,
      "Ġphil": 4971,
      "Ġplanned": 4972,
      "Ġfiled": 4973,
      "Ġpaying": 4974,
      "ĠBritain": 4975,
      "Ġenvironmental": 4976,
      "upp": 4977,
      "Ġast": 4978,
      "ĠNor": 4979,
      "Ġfaster": 4980,
      "Ġstruct": 4981,
      "Ġarmy": 4982,
      "Ġtrip": 4983,
      "ĠCentral": 4984,
      "Ġiniti": 4985,
      "ĠMean": 4986,
      "aine": 4987,
      "Ġprefer": 4988,
      "Ġsolar": 4989,
      "Ġvariety": 4990,
      "ĠiPh": 4991,
      "Ġscientific": 4992,
      "Ġvolunt": 4993,
      "esters": 4994,
      "Ġteen": 4995,
      "Ġunion": 4996,
      "Ġpresented": 4997,
      "ĠMedia": 4998,
      "PD": 4999,
      "Ġfellow": 5000,
      "uters": 5001,
      "ENT": 5002,
      "run": 5003,
      "inner": 5004,
      "Ġworlds": 5005,
      "Ġauthority": 5006,
      "useum": 5007,
      "ĠService": 5008,
      "Ġdegree": 5009,
      "Ġbreat": 5010,
      "outs": 5011,
      "Ġvul": 5012,
      "Ġ195": 5013,
      "Ġdecide": 5014,
      "Ġstrike": 5015,
      "Ġtack": 5016,
      "erous": 5017,
      "Ġunless": 5018,
      "78": 5019,
      "spe": 5020,
      "do": 5021,
      "arks": 5022,
      "Ġseasons": 5023,
      "ĠLat": 5024,
      "fe": 5025,
      "ĠMos": 5026,
      "Ġapply": 5027,
      "ipping": 5028,
      "Ġabsolutely": 5029,
      "ĠMs": 5030,
      "Ġcorner": 5031,
      "Ġinternal": 5032,
      "Ġsch": 5033,
      "icy": 5034,
      "Ġsea": 5035,
      "Ġadjust": 5036,
      "ĠUSA": 5037,
      "Ġsurvey": 5038,
      "Ġultimately": 5039,
      "CH": 5040,
      "Ġlocated": 5041,
      "ĠRiver": 5042,
      "ĠRoad": 5043,
      "Ġdeveloping": 5044,
      "Ġodd": 5045,
      "Ġflight": 5046,
      "Ġowner": 5047,
      "ĠMaybe": 5048,
      "Ġsitting": 5049,
      "ano": 5050,
      "ĠDou": 5051,
      "ointed": 5052,
      "Ġexpensive": 5053,
      "ĠLabour": 5054,
      "Ġscr": 5055,
      "onic": 5056,
      "anta": 5057,
      "Ġpregn": 5058,
      "Ġ2004": 5059,
      "Ġstick": 5060,
      "ĠHaw": 5061,
      "Ġoffering": 5062,
      "avy": 5063,
      "Ġtwice": 5064,
      "hand": 5065,
      "lyn": 5066,
      "Ġdistrict": 5067,
      "ĠAT": 5068,
      "Ġacadem": 5069,
      "ĠPut": 5070,
      "Ġfif": 5071,
      "ĠAnn": 5072,
      "ĠWatch": 5073,
      "ĠRet": 5074,
      "osen": 5075,
      "Ġadapt": 5076,
      "phas": 5077,
      "Ġsuggests": 5078,
      "Ġsides": 5079,
      "ĠArmy": 5080,
      "Ġpieces": 5081,
      "Ġmig": 5082,
      "ĠMass": 5083,
      "Ġdefensive": 5084,
      "enced": 5085,
      "ader": 5086,
      "Ġ500": 5087,
      "Ġflow": 5088,
      "Ġregarding": 5089,
      "Ġcolumn": 5090,
      "Ġrapid": 5091,
      "Ġalternative": 5092,
      "Ġcarbon": 5093,
      "ka": 5094,
      "Ġaid": 5095,
      "lets": 5096,
      "ashed": 5097,
      "Ġlosing": 5098,
      "Ġstreets": 5099,
      "bre": 5100,
      "Ġconce": 5101,
      "Ġagencies": 5102,
      "Ġhelps": 5103,
      "Ġturns": 5104,
      "Ġapparently": 5105,
      "gu": 5106,
      "Ġmut": 5107,
      "Ġworry": 5108,
      "Ġintended": 5109,
      "Ġfinish": 5110,
      "oom": 5111,
      "ĠAri": 5112,
      "ĠPeter": 5113,
      "net": 5114,
      "Ġpit": 5115,
      "icial": 5116,
      "ĠCamp": 5117,
      "ĠThough": 5118,
      "ĠYoung": 5119,
      "anned": 5120,
      "LE": 5121,
      "Ġbag": 5122,
      "Ġattorney": 5123,
      "ĠRelease": 5124,
      "Ġparent": 5125,
      "Ġlob": 5126,
      "rible": 5127,
      "Ġpositions": 5128,
      "Ġcoin": 5129,
      "oral": 5130,
      "Ġfired": 5131,
      "Ġpil": 5132,
      "ĠSomet": 5133,
      "ĠUser": 5134,
      "ĠCarolina": 5135,
      "mas": 5136,
      "pire": 5137,
      "Ġwearing": 5138,
      "Ġaccident": 5139,
      "Ġsounds": 5140,
      "days": 5141,
      "ĠTime": 5142,
      "anche": 5143,
      "gar": 5144,
      "rick": 5145,
      "ocol": 5146,
      "Ġremove": 5147,
      "ĠConserv": 5148,
      "sembly": 5149,
      "IG": 5150,
      "Ġmicro": 5151,
      "Ġvoting": 5152,
      "ĠScience": 5153,
      "49": 5154,
      "ĠEach": 5155,
      "roud": 5156,
      "ĠOnly": 5157,
      "Ġfigures": 5158,
      "Ġapplications": 5159,
      "ĠToronto": 5160,
      "ĠBraz": 5161,
      "Ġconcent": 5162,
      "ĠChief": 5163,
      "Ġtast": 5164,
      "rier": 5165,
      "Ġcommission": 5166,
      "Ġemergency": 5167,
      "Ġimagine": 5168,
      "Ġhate": 5169,
      "lymp": 5170,
      "oving": 5171,
      "Ġequip": 5172,
      "ĠSupp": 5173,
      "Ġspecifically": 5174,
      "Ġpulled": 5175,
      "ss": 5176,
      "Ġplenty": 5177,
      "porary": 5178,
      "Ġgar": 5179,
      "Ġmarkets": 5180,
      "Ġpercentage": 5181,
      "Ġcompleted": 5182,
      "Ġequal": 5183,
      "what": 5184,
      "ĠAfghan": 5185,
      "Ġguard": 5186,
      "Ġsurprise": 5187,
      "ĠBet": 5188,
      "Ġvision": 5189,
      "Ġprime": 5190,
      "Ġfactor": 5191,
      "ĠISIS": 5192,
      "ns": 5193,
      "ĠDan": 5194,
      "Ġvast": 5195,
      "Ġwhats": 5196,
      "Ġguarant": 5197,
      "ĠIsland": 5198,
      "Ġfactors": 5199,
      "Ġveter": 5200,
      "====": 5201,
      "yr": 5202,
      "Ġelements": 5203,
      "ocal": 5204,
      "icted": 5205,
      "Ġreligion": 5206,
      "olved": 5207,
      "Ġruling": 5208,
      "Ġexpansion": 5209,
      "Ġsale": 5210,
      "Ġbroken": 5211,
      "ĠFrank": 5212,
      "Ġton": 5213,
      "Ġfol": 5214,
      "ĠGra": 5215,
      "Ġ1990": 5216,
      "Ġpurchase": 5217,
      "pay": 5218,
      "atures": 5219,
      "Ġherself": 5220,
      "azz": 5221,
      "Ġhumans": 5222,
      "Ġdetermine": 5223,
      "ĠSocial": 5224,
      "Ġtroops": 5225,
      "ĠBBC": 5226,
      "ĠAustralian": 5227,
      "Ġmethods": 5228,
      "hedul": 5229,
      "Ġfacing": 5230,
      "Ġcalcul": 5231,
      "Ġdetermined": 5232,
      "DP": 5233,
      "Ġsam": 5234,
      "ĠRad": 5235,
      "Ġviolent": 5236,
      "Ġconducted": 5237,
      "ĠLook": 5238,
      "Ġclot": 5239,
      "with": 5240,
      "Ġcultural": 5241,
      "Ġdomin": 5242,
      "Ġexperienced": 5243,
      "PS": 5244,
      "essions": 5245,
      "Ġpotentially": 5246,
      "Ġperspective": 5247,
      "ker": 5248,
      "stream": 5249,
      "Ġera": 5250,
      "cel": 5251,
      "Ġwriter": 5252,
      "Ġid": 5253,
      "Ġtight": 5254,
      "Ġprove": 5255,
      "ĠGM": 5256,
      "Ġserver": 5257,
      "Ġprosecut": 5258,
      "Ġtrouble": 5259,
      "Ġattempts": 5260,
      "iser": 5261,
      "ĠOlymp": 5262,
      "ĠAndrew": 5263,
      "ĠDevelop": 5264,
      "onald": 5265,
      "ĠSum": 5266,
      "raud": 5267,
      "Ġconsult": 5268,
      "ĠPenn": 5269,
      "asp": 5270,
      "ĠAh": 5271,
      "oty": 5272,
      "Ġfamous": 5273,
      "Ġtourn": 5274,
      "Ġuniversity": 5275,
      "standing": 5276,
      "terday": 5277,
      "Ġregime": 5278,
      "Ġcapacity": 5279,
      "ĠColor": 5280,
      "ĠFoundation": 5281,
      "31": 5282,
      "95": 5283,
      "adel": 5284,
      "ĠGames": 5285,
      "pired": 5286,
      "iler": 5287,
      "Ġselling": 5288,
      "ruption": 5289,
      "Ġevening": 5290,
      "look": 5291,
      "icate": 5292,
      "Ġplus": 5293,
      "win": 5294,
      "Ġpossibly": 5295,
      "Ġcert": 5296,
      "ĠWild": 5297,
      "Ġtypically": 5298,
      "Ġvehicles": 5299,
      "Ġchallenges": 5300,
      "ĠHuman": 5301,
      "TV": 5302,
      "ortion": 5303,
      "apter": 5304,
      "Ġdrivers": 5305,
      "Ġvulner": 5306,
      "Ġstars": 5307,
      "ĠFar": 5308,
      "ordin": 5309,
      "ĠVict": 5310,
      "ĠProject": 5311,
      "Ġhyp": 5312,
      "iat": 5313,
      "Ġupgr": 5314,
      "Ġprofit": 5315,
      "()": 5316,
      "47": 5317,
      "Ġsubs": 5318,
      "Ġanimal": 5319,
      "Ġtalks": 5320,
      "but": 5321,
      "Ġmal": 5322,
      "Ġmir": 5323,
      "Ġyouve": 5324,
      "Ġpointed": 5325,
      "Ġdepart": 5326,
      "Ġsoldiers": 5327,
      "Ġappropriate": 5328,
      "Ġgreatest": 5329,
      "coh": 5330,
      "Ġmarg": 5331,
      "Ġnar": 5332,
      "endment": 5333,
      "Ġsupporting": 5334,
      "Ġboost": 5335,
      "ĠAbout": 5336,
      "Ġmand": 5337,
      "Ġreaction": 5338,
      "related": 5339,
      "ĠBrew": 5340,
      "ĠLife": 5341,
      "ĠLee": 5342,
      "Ġoriginally": 5343,
      "ĠDirector": 5344,
      "rastructure": 5345,
      "orage": 5346,
      "ĠSqu": 5347,
      "ĠHolly": 5348,
      "Ġconcl": 5349,
      "ĠEnter": 5350,
      "Ġbought": 5351,
      "ĠMel": 5352,
      "Ġadvance": 5353,
      "Ġmaintain": 5354,
      "Ġneighborhood": 5355,
      "ĠKenn": 5356,
      "ogue": 5357,
      "Ġbringing": 5358,
      "Ġappreci": 5359,
      "ĠiPhone": 5360,
      "hi": 5361,
      "Ġpackage": 5362,
      "Ġrandom": 5363,
      "ulations": 5364,
      "Ġforms": 5365,
      "Ġschedul": 5366,
      "Ġcorporate": 5367,
      "ĠDistrict": 5368,
      "Ġpassing": 5369,
      "ĠPhot": 5370,
      "Ġstands": 5371,
      "Ġsignificantly": 5372,
      "isters": 5373,
      "Ġstores": 5374,
      "Ġadministr": 5375,
      "Ġinnov": 5376,
      "noon": 5377,
      "ĠWhere": 5378,
      "Ġlisten": 5379,
      "ĠFree": 5380,
      "estival": 5381,
      "ĠOld": 5382,
      "Ġintent": 5383,
      "ensions": 5384,
      "Ġexperiment": 5385,
      "ERS": 5386,
      "Ġequipment": 5387,
      "ey": 5388,
      "ĠSky": 5389,
      "ĠNAS": 5390,
      "ucks": 5391,
      "idden": 5392,
      "Ġstret": 5393,
      "Ġjail": 5394,
      "Ġconfident": 5395,
      "gent": 5396,
      "employ": 5397,
      "Ġhed": 5398,
      "Ġrefused": 5399,
      "otic": 5400,
      "Ġchemical": 5401,
      "gress": 5402,
      "Ġmaster": 5403,
      "Ġproced": 5404,
      "ĠThanks": 5405,
      "Ġexpressed": 5406,
      "Ġplants": 5407,
      "Ġfrust": 5408,
      "ĠMeanwhile": 5409,
      "ĠDont": 5410,
      "Ġarms": 5411,
      "Ġends": 5412,
      "Ġcrimes": 5413,
      "Ġtransition": 5414,
      "Ġtreated": 5415,
      "Ġcombined": 5416,
      "Ġsurprising": 5417,
      "Ġpowers": 5418,
      "Ġthr": 5419,
      "Ġproceed": 5420,
      "Ġsport": 5421,
      "Ġsymb": 5422,
      "ĠTechn": 5423,
      "ml": 5424,
      "ĠBus": 5425,
      "Ġconsidering": 5426,
      "ologies": 5427,
      "Ġlots": 5428,
      "ĠMedic": 5429,
      "ĠJournal": 5430,
      "Ġmovies": 5431,
      "mail": 5432,
      "under": 5433,
      "uts": 5434,
      "Ġyards": 5435,
      "Ġhavent": 5436,
      "ĠRight": 5437,
      "ĠThank": 5438,
      "Ġsecure": 5439,
      "ashion": 5440,
      "Ġvisual": 5441,
      "Ġargued": 5442,
      "ĠFrancisco": 5443,
      "ship": 5444,
      "Ġbound": 5445,
      "Ġrenew": 5446,
      "mes": 5447,
      "Ġagent": 5448,
      "Ġquant": 5449,
      "Ġinvolve": 5450,
      "Ġpictures": 5451,
      "Ġexperiences": 5452,
      "!\"": 5453,
      "Ġloved": 5454,
      "ĠNH": 5455,
      "Ġmarried": 5456,
      "Ġ1980": 5457,
      "Ġcollabor": 5458,
      "ĠBrazil": 5459,
      "Ġpasseng": 5460,
      "Ġoccurred": 5461,
      "Ġreact": 5462,
      "ĠOhio": 5463,
      "respond": 5464,
      "hered": 5465,
      "Ġrain": 5466,
      "ĠRod": 5467,
      "oking": 5468,
      "Ġopposed": 5469,
      "46": 5470,
      "ST": 5471,
      "Ġretail": 5472,
      "For": 5473,
      "mond": 5474,
      "ita": 5475,
      "Ġbull": 5476,
      "arp": 5477,
      "Ġnarr": 5478,
      "Ġgrew": 5479,
      "Ġsets": 5480,
      "Ġconstruct": 5481,
      "Ġrape": 5482,
      "ĠTeam": 5483,
      "Ġsatisf": 5484,
      "Ġhurt": 5485,
      "sts": 5486,
      "Ġclim": 5487,
      "Ġconnected": 5488,
      "Ġdenied": 5489,
      "----------------": 5490,
      "Ġhat": 5491,
      "Ġaffected": 5492,
      "Ġbrow": 5493,
      "ĠCNN": 5494,
      "Ġobviously": 5495,
      "Ġprospect": 5496,
      "ĠLin": 5497,
      "Ġconsumers": 5498,
      "gment": 5499,
      "pm": 5500,
      "ĠTop": 5501,
      "ocking": 5502,
      "ellow": 5503,
      "Ġmessages": 5504,
      "cript": 5505,
      "Ġ300": 5506,
      "ĠWeek": 5507,
      "Ġafternoon": 5508,
      "Ġdistance": 5509,
      "Ġrevenue": 5510,
      "ĠSign": 5511,
      "Ġappearance": 5512,
      "mad": 5513,
      "Ġthank": 5514,
      "Ġbelong": 5515,
      "Ġinstruct": 5516,
      "Ġhandle": 5517,
      "Ġbroke": 5518,
      "Ġseriously": 5519,
      "Ġtact": 5520,
      "ĠOS": 5521,
      "Ġeffectively": 5522,
      "ĠColumb": 5523,
      "Ġterrorist": 5524,
      "Ġstruggle": 5525,
      "Ġgiant": 5526,
      "Ġstress": 5527,
      "agers": 5528,
      "Ġshift": 5529,
      "ternal": 5530,
      "Ġseconds": 5531,
      "ATE": 5532,
      "Ġmotiv": 5533,
      "ller": 5534,
      "ĠWin": 5535,
      "rip": 5536,
      "oken": 5537,
      "hab": 5538,
      "Ġwood": 5539,
      "oves": 5540,
      "Ġadmitted": 5541,
      "Ġcells": 5542,
      "ĠVirginia": 5543,
      "sen": 5544,
      "uations": 5545,
      "state": 5546,
      "ĠKell": 5547,
      "eder": 5548,
      "Ġinput": 5549,
      "uration": 5550,
      "Ġreserv": 5551,
      "Ġtechnical": 5552,
      "Ġphilos": 5553,
      "person": 5554,
      "Ġegg": 5555,
      "ownt": 5556,
      "Ġemphas": 5557,
      "TC": 5558,
      "reens": 5559,
      "ishes": 5560,
      "vey": 5561,
      "ilty": 5562,
      "Ġunable": 5563,
      "Ġsector": 5564,
      "Ġmatters": 5565,
      "Ġcas": 5566,
      "alo": 5567,
      "Ġaccounts": 5568,
      "Ġradical": 5569,
      "Ġburn": 5570,
      "ĠCru": 5571,
      "kin": 5572,
      "Ġdial": 5573,
      "ĠNov": 5574,
      "Ġaircraft": 5575,
      "ĠGuard": 5576,
      "ĠSher": 5577,
      "ĠGen": 5578,
      "Ġremained": 5579,
      "ĠBrook": 5580,
      "Ġcombat": 5581,
      "ributed": 5582,
      "ĠJesus": 5583,
      "%)": 5584,
      "ĠSaud": 5585,
      "Ġcooper": 5586,
      "ĠDev": 5587,
      "Ġpossibility": 5588,
      "Ġtalked": 5589,
      "Ġguns": 5590,
      "apping": 5591,
      "Ġsquare": 5592,
      "law": 5593,
      "ĠRev": 5594,
      "Ġcapable": 5595,
      "Ġquarterback": 5596,
      "ĠWilliams": 5597,
      "adelph": 5598,
      "Ġtun": 5599,
      "Ġgather": 5600,
      "ĠAut": 5601,
      "Ġvalid": 5602,
      "Ġmaterials": 5603,
      "PR": 5604,
      "Ġclin": 5605,
      "Ġspring": 5606,
      "They": 5607,
      "And": 5608,
      "oma": 5609,
      "Ġdoctor": 5610,
      "Ġboys": 5611,
      "Ġben": 5612,
      "Ġbatter": 5613,
      "ĠRam": 5614,
      "Ġprivacy": 5615,
      "Ġoptim": 5616,
      "ĠMuslims": 5617,
      "MA": 5618,
      "astern": 5619,
      "ĠLong": 5620,
      "Ġapproved": 5621,
      "cos": 5622,
      "ĠOl": 5623,
      "Ġincor": 5624,
      "Ġedge": 5625,
      "Ġtransform": 5626,
      "Ġpanel": 5627,
      "mans": 5628,
      "itors": 5629,
      "asure": 5630,
      "Ġsigns": 5631,
      "Ġcentre": 5632,
      "Ġvideos": 5633,
      "Ġexcited": 5634,
      "bec": 5635,
      "Ġbare": 5636,
      "Ġtrig": 5637,
      "Ġ2003": 5638,
      "Ġminimum": 5639,
      "Ġdifferences": 5640,
      "Ġobjects": 5641,
      "abilities": 5642,
      "osite": 5643,
      "rawn": 5644,
      "Ġglass": 5645,
      "Ġhopes": 5646,
      "ĠAgain": 5647,
      "Ġparliament": 5648,
      "cean": 5649,
      "ĠFig": 5650,
      "Re": 5651,
      "ĠAle": 5652,
      "ĠBest": 5653,
      "Ġeval": 5654,
      "Ġ2001": 5655,
      "Ġmort": 5656,
      "ureau": 5657,
      "Ġtele": 5658,
      "Ġbasically": 5659,
      "ĠPac": 5660,
      "Ġdemocracy": 5661,
      "Ġsought": 5662,
      "Ġforg": 5663,
      "ĠCath": 5664,
      "ourney": 5665,
      "ĠAF": 5666,
      "Ġsevere": 5667,
      "Ġcreation": 5668,
      "Ġpled": 5669,
      "ĠYear": 5670,
      "Ġmode": 5671,
      "Ġarchitect": 5672,
      "li": 5673,
      "ĠHel": 5674,
      "Ġperman": 5675,
      "Ġelimin": 5676,
      "ĠNote": 5677,
      "Ġweapon": 5678,
      "stein": 5679,
      "Ġathlet": 5680,
      "ivered": 5681,
      "pted": 5682,
      "ĠKim": 5683,
      "nell": 5684,
      "Ġment": 5685,
      "ĠNations": 5686,
      "Ġinfrastructure": 5687,
      "Ġindeed": 5688,
      "Ġsuppl": 5689,
      "Ġremaining": 5690,
      "Ġdiscl": 5691,
      "nergy": 5692,
      "iency": 5693,
      "xy": 5694,
      "aled": 5695,
      "Ġcloud": 5696,
      "Ġleads": 5697,
      "ĠUkraine": 5698,
      "adelphia": 5699,
      "gram": 5700,
      "ĠMa": 5701,
      "Ġenh": 5702,
      "Ġreduced": 5703,
      "ooth": 5704,
      "04": 5705,
      "Get": 5706,
      "ache": 5707,
      "amental": 5708,
      "aped": 5709,
      "Ġdelay": 5710,
      "Ġinjured": 5711,
      "Ġsession": 5712,
      "Ġpoliticians": 5713,
      "Ġforget": 5714,
      "Ġdoctors": 5715,
      "iki": 5716,
      "Ġclasses": 5717,
      "life": 5718,
      "vy": 5719,
      "Ġminute": 5720,
      "Ġcurrency": 5721,
      "AF": 5722,
      "pass": 5723,
      "Ġbaby": 5724,
      "idel": 5725,
      "Ġcontrast": 5726,
      "Ġpages": 5727,
      "ĠSing": 5728,
      "Ġ36": 5729,
      "Ġfaces": 5730,
      "Ġdeclared": 5731,
      "Ġupdates": 5732,
      "Ġexamples": 5733,
      "Ġcab": 5734,
      "ĠDani": 5735,
      "ĠView": 5736,
      "ĠSpace": 5737,
      "Ġperformed": 5738,
      "Ġwaste": 5739,
      "Ġrot": 5740,
      "Ġpray": 5741,
      "Ġcoff": 5742,
      "aling": 5743,
      "Ġexcell": 5744,
      "anged": 5745,
      "Ġexplains": 5746,
      "Ġenemy": 5747,
      "Ġlie": 5748,
      "Ġweather": 5749,
      "oples": 5750,
      "abled": 5751,
      "ĠElect": 5752,
      "ĠSystem": 5753,
      "Ġidentify": 5754,
      "Ġtradition": 5755,
      "Ġpicked": 5756,
      "Ġopportunities": 5757,
      "pet": 5758,
      "oria": 5759,
      "Ġadvanced": 5760,
      "ĠSports": 5761,
      "ĠHollywood": 5762,
      "ava": 5763,
      "aza": 5764,
      "Ġbuildings": 5765,
      "care": 5766,
      "power": 5767,
      "Ġwear": 5768,
      "ĠEll": 5769,
      "Ġfindings": 5770,
      "ĠJackson": 5771,
      "Ġsad": 5772,
      "ĠChild": 5773,
      "Ġnumerous": 5774,
      "Ġreaders": 5775,
      "Ġfacts": 5776,
      "Ġnetworks": 5777,
      "Ġwidely": 5778,
      "Ġongoing": 5779,
      "ĠEric": 5780,
      "Ġapps": 5781,
      "Ġguilty": 5782,
      "Ġartists": 5783,
      "Ġwrites": 5784,
      "Ġfairly": 5785,
      "07": 5786,
      "mm": 5787,
      "Ġic": 5788,
      "Ġcro": 5789,
      "Ġbodies": 5790,
      "arters": 5791,
      "Ġliqu": 5792,
      "Ġrent": 5793,
      "ĠMen": 5794,
      "Ġwithd": 5795,
      "ĠDaily": 5796,
      "Ġartist": 5797,
      "zer": 5798,
      "ĠAuthor": 5799,
      "ĠCarl": 5800,
      "ĠPower": 5801,
      "ounded": 5802,
      "ĠForce": 5803,
      "ĠNext": 5804,
      "Ġdismiss": 5805,
      "Con": 5806,
      "Ġswitch": 5807,
      "ĠSov": 5808,
      "ĠLets": 5809,
      "Ġourselves": 5810,
      "Ġfees": 5811,
      "Ġdebut": 5812,
      "Ġordered": 5813,
      "Ġlinked": 5814,
      "free": 5815,
      "Ġphen": 5816,
      "Ġpool": 5817,
      "ĠIre": 5818,
      "ĠWal": 5819,
      "Ġsuffered": 5820,
      "col": 5821,
      "called": 5822,
      "idge": 5823,
      "cohol": 5824,
      "PU": 5825,
      "Ġauth": 5826,
      "duc": 5827,
      "Ġprint": 5828,
      "Ġrealize": 5829,
      "Ġsecretary": 5830,
      "Ġcolleagues": 5831,
      "Ġpal": 5832,
      "ĠAD": 5833,
      "Ġliberal": 5834,
      "ican": 5835,
      "ionally": 5836,
      "essor": 5837,
      "Ġapplied": 5838,
      "lines": 5839,
      "ĠHome": 5840,
      "Ġdiss": 5841,
      "Ġmyster": 5842,
      "Ġflood": 5843,
      "Ġrelevant": 5844,
      "Ġcauses": 5845,
      "Ġcycle": 5846,
      "Ġregulations": 5847,
      "Ġvirtual": 5848,
      "Ar": 5849,
      "ĠCard": 5850,
      "olit": 5851,
      "Ġarmed": 5852,
      "Ġquiet": 5853,
      "Ġexplo": 5854,
      "Ġcorrespond": 5855,
      "Ġrecorded": 5856,
      "onom": 5857,
      "onna": 5858,
      "Ġbatt": 5859,
      "Ġplot": 5860,
      "Ġfaced": 5861,
      "Ġtotally": 5862,
      "ii": 5863,
      "orse": 5864,
      "edia": 5865,
      "Ġproud": 5866,
      "ador": 5867,
      "plom": 5868,
      "Ġargue": 5869,
      ",'": 5870,
      "Ġlit": 5871,
      "Ġcann": 5872,
      "dule": 5873,
      "Ġconfirm": 5874,
      "Ġexplan": 5875,
      "Ġreplaced": 5876,
      "Ġmagn": 5877,
      "ĠĠĠĠ": 5878,
      "ĠPhiladelphia": 5879,
      "=\"": 5880,
      "ĠGar": 5881,
      "Ġspons": 5882,
      "Ġlegit": 5883,
      "Ġopponents": 5884,
      "Ġnecessarily": 5885,
      "Ġessentially": 5886,
      "angers": 5887,
      "ampion": 5888,
      "ĠBlue": 5889,
      "Ġinvestors": 5890,
      "ĠStephen": 5891,
      "ala": 5892,
      "ĠFour": 5893,
      "Ġvan": 5894,
      "Ġlibrary": 5895,
      "ulous": 5896,
      "Ġreporters": 5897,
      "Ġthoughts": 5898,
      "ĠID": 5899,
      "ĠPy": 5900,
      "ulture": 5901,
      "Ġcrack": 5902,
      "ĠClub": 5903,
      "bel": 5904,
      "eer": 5905,
      "Ġwed": 5906,
      "ĠCub": 5907,
      "Ġextent": 5908,
      "Ġresponded": 5909,
      "Ġexercise": 5910,
      "Ġcircumst": 5911,
      "post": 5912,
      "uls": 5913,
      "Ġ34": 5914,
      "Ġactivists": 5915,
      "Americ": 5916,
      "ĠCy": 5917,
      "ĠPR": 5918,
      "iques": 5919,
      "Ġfemin": 5920,
      "OW": 5921,
      "Ġfraud": 5922,
      "ĠMic": 5923,
      "ĠVol": 5924,
      "Ġreference": 5925,
      "Ġprotesters": 5926,
      "Ġdelivered": 5927,
      "Ġversions": 5928,
      "CL": 5929,
      "ket": 5930,
      "erg": 5931,
      "road": 5932,
      "irty": 5933,
      "ĠWood": 5934,
      "Ġaren": 5935,
      "Ġabandon": 5936,
      "Ġcreative": 5937,
      "ĠBarack": 5938,
      "rist": 5939,
      "Ġbon": 5940,
      "Ġsem": 5941,
      "Ġprohib": 5942,
      "Ġhardware": 5943,
      "Ġunlikely": 5944,
      "aints": 5945,
      "Ġadvice": 5946,
      "Ġcombination": 5947,
      "Ġrally": 5948,
      "OD": 5949,
      "icious": 5950,
      "ĠWay": 5951,
      "Ġcaption": 5952,
      "Ġwalking": 5953,
      "Ġconsistent": 5954,
      "ĠPalestinian": 5955,
      "whel": 5956,
      "Ġdynam": 5957,
      "Ġstorage": 5958,
      "ĠRights": 5959,
      "....": 5960,
      "Ġpractices": 5961,
      "Ġdeclined": 5962,
      "uild": 5963,
      "Ġpra": 5964,
      "ĠDie": 5965,
      "Ġsuc": 5966,
      "Ġreportedly": 5967,
      "date": 5968,
      "uous": 5969,
      "Ġblow": 5970,
      "Ġgrab": 5971,
      "Ġreceiving": 5972,
      "iami": 5973,
      "tle": 5974,
      "Ġuniverse": 5975,
      "Ġmoral": 5976,
      "Ġcart": 5977,
      "Ġfranch": 5978,
      "neys": 5979,
      "Ġdiagn": 5980,
      "Ġsubstant": 5981,
      "ette": 5982,
      "ĠFort": 5983,
      "Ġsav": 5984,
      "IF": 5985,
      "Ġtree": 5986,
      "unning": 5987,
      "Ġadds": 5988,
      "Ġbright": 5989,
      "Ġreporting": 5990,
      "Ġharder": 5991,
      "ĠCompany": 5992,
      "Ġrestaurant": 5993,
      "68": 5994,
      "uzz": 5995,
      "ĠFam": 5996,
      "Ġentertain": 5997,
      "Ġcriticism": 5998,
      "Ġturning": 5999,
      "ĠDefense": 6000,
      "Ġing": 6001,
      "Ġcraft": 6002,
      "Ġfish": 6003,
      "ĠItal": 6004,
      "Ġstatements": 6005,
      "Ġconfidence": 6006,
      "ĠPlan": 6007,
      "razy": 6008,
      "top": 6009,
      "Ġgap": 6010,
      "ĠRay": 6011,
      "oked": 6012,
      "Ġscored": 6013,
      "obe": 6014,
      "Ġmoments": 6015,
      "evin": 6016,
      "Ġpushed": 6017,
      "alax": 6018,
      "Ġgod": 6019,
      "ĠSC": 6020,
      "Ġride": 6021,
      "Ġpaint": 6022,
      "Ġdivision": 6023,
      "burg": 6024,
      "can": 6025,
      "rison": 6026,
      "ompl": 6027,
      "Ġoutput": 6028,
      "Ġhighlight": 6029,
      "Ġpatient": 6030,
      "ĠBrad": 6031,
      "Ġrelationships": 6032,
      "chen": 6033,
      "long": 6034,
      "Ġisland": 6035,
      "ĠBru": 6036,
      "arden": 6037,
      "Ġadvent": 6038,
      "ĠMichigan": 6039,
      "Ġtalent": 6040,
      "Tr": 6041,
      "ĠJul": 6042,
      "Ġoffense": 6043,
      "Ġexplos": 6044,
      "Ġsucceed": 6045,
      "Im": 6046,
      "Ġlaugh": 6047,
      "ĠContin": 6048,
      "ĠMcCain": 6049,
      "ĠScot": 6050,
      "ĠExp": 6051,
      "fficient": 6052,
      "cr": 6053,
      "Ġleaves": 6054,
      "Ġadvert": 6055,
      "Ġemissions": 6056,
      "Ġfavour": 6057,
      "Ġsubsequ": 6058,
      "ĠCamer": 6059,
      "resents": 6060,
      "Ġinitially": 6061,
      "ĠIN": 6062,
      "olar": 6063,
      "ĠHen": 6064,
      "ums": 6065,
      "Ġtech": 6066,
      "Ġcoast": 6067,
      "irds": 6068,
      "Ġbehavi": 6069,
      "Ġpure": 6070,
      "Ġrein": 6071,
      "Ġemails": 6072,
      "Ġbrew": 6073,
      "Ġallegations": 6074,
      "fortunately": 6075,
      "Ġtow": 6076,
      "andal": 6077,
      "Ġentered": 6078,
      "Ġmagazine": 6079,
      "Ġaccepted": 6080,
      "Ġcopyright": 6081,
      "stood": 6082,
      "ĠLo": 6083,
      "Ġcontains": 6084,
      "Ġsym": 6085,
      "Ġcheap": 6086,
      "ĠTurkey": 6087,
      "Le": 6088,
      "esc": 6089,
      "oca": 6090,
      "Ġprotests": 6091,
      "Ġyounger": 6092,
      "Ġattempted": 6093,
      "Ġshop": 6094,
      "Ġbug": 6095,
      "Ġwarm": 6096,
      "Ġwire": 6097,
      "ĠMount": 6098,
      "ĠMax": 6099,
      "ĠFurther": 6100,
      "Ġsuicide": 6101,
      "Ġrow": 6102,
      "Ġaccompl": 6103,
      "Ġfundamental": 6104,
      "Ġzone": 6105,
      "Ġimmigrants": 6106,
      "42": 6107,
      "Ġfilled": 6108,
      "Ġlock": 6109,
      "ĠPrem": 6110,
      "ĠVill": 6111,
      "Ġdecre": 6112,
      "Ġpublicly": 6113,
      "Ġincreases": 6114,
      "Ġsuffering": 6115,
      "rd": 6116,
      "ĠBoy": 6117,
      "Ġapprox": 6118,
      "Ġclassic": 6119,
      "ĠRomney": 6120,
      "Ġconsequences": 6121,
      "ĠSea": 6122,
      "ĠPolit": 6123,
      "Ġtargets": 6124,
      "Ġdatab": 6125,
      "Ġfly": 6126,
      "Ġremark": 6127,
      "Ġ2002": 6128,
      "Ġconfig": 6129,
      "Ġlawyer": 6130,
      "Ġboss": 6131,
      "ĠWalk": 6132,
      "Ġmissed": 6133,
      "Ġwal": 6134,
      "orry": 6135,
      "rog": 6136,
      "ĠAge": 6137,
      "ĠLib": 6138,
      "Ġagents": 6139,
      "Ġfollows": 6140,
      "Ġmagic": 6141,
      "Ġhistorical": 6142,
      "Ġancient": 6143,
      "Ġstood": 6144,
      "Ġfewer": 6145,
      "Ġlabel": 6146,
      "Ġsurprised": 6147,
      "ĠColorado": 6148,
      "Ġsister": 6149,
      "Ġdry": 6150,
      "Ġelement": 6151,
      "ĠEnergy": 6152,
      "ffect": 6153,
      "Ġflo": 6154,
      "Ġbitcoin": 6155,
      "Ġske": 6156,
      "Ġexhib": 6157,
      "Ġ48": 6158,
      "Ġflat": 6159,
      "Ġskill": 6160,
      "ĠChristmas": 6161,
      "ĠSpecial": 6162,
      "Ġreferred": 6163,
      "ĠMoore": 6164,
      "Ġroughly": 6165,
      ",[": 6166,
      "Ġtom": 6167,
      "erences": 6168,
      "Ġmanage": 6169,
      "Ġassets": 6170,
      "ĠIrish": 6171,
      "Ġannouncement": 6172,
      "ixt": 6173,
      "ĠTest": 6174,
      "ĠTrib": 6175,
      "amin": 6176,
      "ilit": 6177,
      "Ġrub": 6178,
      "active": 6179,
      "Ġsentence": 6180,
      "Ġinjuries": 6181,
      "ĠCheck": 6182,
      "ĠBoard": 6183,
      "Ġfuck": 6184,
      "Ġneither": 6185,
      "ĠAsia": 6186,
      "ocket": 6187,
      "Ġrepresents": 6188,
      "Ġopponent": 6189,
      "Ġzero": 6190,
      "Ġnewspaper": 6191,
      "born": 6192,
      "foot": 6193,
      "ĠWars": 6194,
      "Ġshots": 6195,
      "ensity": 6196,
      "Ġmotor": 6197,
      "pret": 6198,
      "rors": 6199,
      "Ġgrown": 6200,
      "ĠBell": 6201,
      "ĠFil": 6202,
      "ĠKurd": 6203,
      "Ġcontest": 6204,
      "Ġbreaking": 6205,
      "Ġroute": 6206,
      "Ġemotional": 6207,
      "ĠAriz": 6208,
      "roit": 6209,
      "Ġfort": 6210,
      "Ġjourney": 6211,
      "Ġplayoff": 6212,
      "Ġcouldn": 6213,
      "Ġinstru": 6214,
      "Ġwarning": 6215,
      "Box": 6216,
      "hent": 6217,
      "Ġscript": 6218,
      "Ġmoder": 6219,
      "Ġmanufacture": 6220,
      "ĠDiv": 6221,
      "ĠLake": 6222,
      "Ġ38": 6223,
      "Ġcomfortable": 6224,
      "NC": 6225,
      "mates": 6226,
      "Ġthinks": 6227,
      "enda": 6228,
      "ograp": 6229,
      "Ġbrings": 6230,
      "Ġefficient": 6231,
      "TA": 6232,
      "esome": 6233,
      "Ġresolution": 6234,
      "ĠRef": 6235,
      "Ġdetailed": 6236,
      "host": 6237,
      "Ġlies": 6238,
      "Ġsongs": 6239,
      "Ġpitch": 6240,
      "chain": 6241,
      "ĠIns": 6242,
      "Ġinspired": 6243,
      "Ġimproved": 6244,
      "Ġteachers": 6245,
      "Ġrefugees": 6246,
      "alty": 6247,
      "ĠMiami": 6248,
      "ĠNBA": 6249,
      "Ġtermin": 6250,
      "Ġfrequently": 6251,
      "Ġdeals": 6252,
      "Ġtheme": 6253,
      "Ġbuying": 6254,
      "Ġpromise": 6255,
      "Ġhousehold": 6256,
      "ĠValley": 6257,
      "isms": 6258,
      "acle": 6259,
      "ĠGer": 6260,
      "Ġempt": 6261,
      "Ġyesterday": 6262,
      "ĠAfghanistan": 6263,
      "west": 6264,
      "hew": 6265,
      "ansas": 6266,
      "Ġdesire": 6267,
      "Ġeditor": 6268,
      "Ġexistence": 6269,
      "ĠPerhaps": 6270,
      "tion": 6271,
      "ym": 6272,
      "Ġbond": 6273,
      "Ġfill": 6274,
      "omin": 6275,
      "ĠTony": 6276,
      "Ġnav": 6277,
      "ĠOrgan": 6278,
      "ĠActions": 6279,
      "ĠIreland": 6280,
      "ĠTake": 6281,
      "Ġalg": 6282,
      "Ġanywhere": 6283,
      "Ġwarned": 6284,
      "Ġlisted": 6285,
      "Ġbroadcast": 6286,
      "Ġsubsid": 6287,
      "ĠThree": 6288,
      "ĠStan": 6289,
      "Ġacting": 6290,
      "Ġnomine": 6291,
      "67": 6292,
      "ĠCop": 6293,
      "pes": 6294,
      "Ġrail": 6295,
      "Ġdefined": 6296,
      "Ġholds": 6297,
      "Ġdiplom": 6298,
      "Ġessential": 6299,
      "But": 6300,
      "Ġstorm": 6301,
      "Ġtrick": 6302,
      "Ġwouldn": 6303,
      "Ġcontem": 6304,
      "Ġsomewhat": 6305,
      "Ġguide": 6306,
      "ĠServices": 6307,
      "Ġallegedly": 6308,
      "MS": 6309,
      "ĠSP": 6310,
      "ĠNY": 6311,
      "Ġmeat": 6312,
      "Ġcourts": 6313,
      "Ġbike": 6314,
      "Ġdownt": 6315,
      "Ġgaming": 6316,
      "ĠJord": 6317,
      "Ġshel": 6318,
      "Ġimportance": 6319,
      "iveness": 6320,
      "class": 6321,
      "sters": 6322,
      "Ġadults": 6323,
      "Ġdedicated": 6324,
      "ĠSaudi": 6325,
      "Ġfashion": 6326,
      "Ġthread": 6327,
      "Ġnearby": 6328,
      "What": 6329,
      "Ġterritory": 6330,
      "rich": 6331,
      "ellect": 6332,
      "ĠArch": 6333,
      "ĠGeorg": 6334,
      "Ġtemperature": 6335,
      "mosp": 6336,
      "ato": 6337,
      "Ġkit": 6338,
      "Ġflu": 6339,
      "ĠClass": 6340,
      "New": 6341,
      "Ġsac": 6342,
      "Ġisol": 6343,
      "Ġupper": 6344,
      "cho": 6345,
      "Ġevolution": 6346,
      "Ġresident": 6347,
      "Ġoverwhel": 6348,
      "Ġcrash": 6349,
      "Ġreturns": 6350,
      "Ġthreats": 6351,
      "Ġrequirements": 6352,
      "Ġheavily": 6353,
      "ĠSwed": 6354,
      "Ġcarrying": 6355,
      "och": 6356,
      "Ġexperim": 6357,
      "Ġclosely": 6358,
      "Ġconsumer": 6359,
      "ĠFinally": 6360,
      "ĠSoviet": 6361,
      "BO": 6362,
      "inent": 6363,
      "Ġsnow": 6364,
      "icing": 6365,
      "adow": 6366,
      "urning": 6367,
      "ĠKevin": 6368,
      "Ġstudio": 6369,
      "Ġhoping": 6370,
      "Ġwriters": 6371,
      "Ġcompetitive": 6372,
      "Ġearned": 6373,
      "Ġscheduled": 6374,
      "ĠJr": 6375,
      "Ġ33": 6376,
      "Ġdecline": 6377,
      "Ġserving": 6378,
      "Ġmetal": 6379,
      "Ġemployment": 6380,
      "ko": 6381,
      "agan": 6382,
      "ĠNight": 6383,
      "ĠKen": 6384,
      "Ġentry": 6385,
      "Ġopposite": 6386,
      "Ġillust": 6387,
      "enders": 6388,
      "Ġpromised": 6389,
      "Ġtested": 6390,
      "Ġ1970": 6391,
      "Ġpushing": 6392,
      "ĠAff": 6393,
      "ĠBas": 6394,
      "illance": 6395,
      "Ġcommunication": 6396,
      "Ġdeaths": 6397,
      "Ġwins": 6398,
      "Ġnorthern": 6399,
      "Ġsole": 6400,
      "Ġclient": 6401,
      "Ġdefault": 6402,
      "Blue": 6403,
      "88": 6404,
      "ras": 6405,
      "ĠLove": 6406,
      "unction": 6407,
      "Ġhasnt": 6408,
      "Ġdefinition": 6409,
      "dit": 6410,
      "Ġtiny": 6411,
      "agram": 6412,
      "Ġnoticed": 6413,
      "ĠOF": 6414,
      "Ġplane": 6415,
      "Ġbat": 6416,
      "olve": 6417,
      "emen": 6418,
      "Ġunemploy": 6419,
      "Ġmanner": 6420,
      "Ġresc": 6421,
      "ĠReal": 6422,
      "Ġreput": 6423,
      "Ġphenomen": 6424,
      "ja": 6425,
      "ĠTal": 6426,
      "Ġsharing": 6427,
      "awa": 6428,
      "luding": 6429,
      "ĠUnfortunately": 6430,
      "Ġheads": 6431,
      "Ġinvolving": 6432,
      "43": 6433,
      "bb": 6434,
      "Ġbear": 6435,
      "ether": 6436,
      "ĠDi": 6437,
      "ĠStand": 6438,
      "ĠVide": 6439,
      "Ġindustrial": 6440,
      "Ġtargeted": 6441,
      "itable": 6442,
      "Ġaside": 6443,
      "Ġeverybody": 6444,
      "onymous": 6445,
      "Ġphilosoph": 6446,
      "Ġexcellent": 6447,
      "Ġhur": 6448,
      "level": 6449,
      "ĠOtt": 6450,
      "Ġsyn": 6451,
      "ORE": 6452,
      "Ġcustomer": 6453,
      "Ġlawsuit": 6454,
      "Ġchairman": 6455,
      "comm": 6456,
      "Ġwinner": 6457,
      "Ġauthors": 6458,
      "ĠBrian": 6459,
      "ĠStory": 6460,
      "Ġdiscussed": 6461,
      "Ġstruck": 6462,
      "Ġwalked": 6463,
      "Ġalcohol": 6464,
      "ĠHeres": 6465,
      "ologist": 6466,
      "Ġfacility": 6467,
      "efully": 6468,
      "Ġsweet": 6469,
      "MP": 6470,
      "ena": 6471,
      "ĠTit": 6472,
      "izz": 6473,
      "Ġowned": 6474,
      "Ġdescribe": 6475,
      "66": 6476,
      "ugh": 6477,
      "Ġdu": 6478,
      "ĠWomen": 6479,
      "phy": 6480,
      "Ġmoves": 6481,
      "Ġmistake": 6482,
      "ĠHou": 6483,
      "ĠNob": 6484,
      "Ġflav": 6485,
      "Ġsymbol": 6486,
      "ĠDC": 6487,
      "Ġrequests": 6488,
      "Ġarticles": 6489,
      "Ġpassion": 6490,
      "Ġdealing": 6491,
      "Ġreasonable": 6492,
      "Ġproperties": 6493,
      "ĠJews": 6494,
      "________": 6495,
      "ali": 6496,
      "Ġformed": 6497,
      "Ġ($": 6498,
      "ĠEconom": 6499,
      "ĠWhats": 6500,
      "Ġsigning": 6501,
      "Ġfunctions": 6502,
      "Ġselected": 6503,
      "Ġcontroversial": 6504,
      "name": 6505,
      "inity": 6506,
      "Ġsick": 6507,
      "Ġbra": 6508,
      "asks": 6509,
      "ĠTot": 6510,
      "Ġalt": 6511,
      "ĠWhich": 6512,
      "Ġremote": 6513,
      "ĠDetroit": 6514,
      "inet": 6515,
      "ĠEnd": 6516,
      "Ġobtained": 6517,
      "ĠShare": 6518,
      "Ġdistribution": 6519,
      "Ġmine": 6520,
      "ĠTO": 6521,
      "ĠConference": 6522,
      "ĠAcadem": 6523,
      "Ġwave": 6524,
      "ĠTay": 6525,
      "ĠRog": 6526,
      "ocation": 6527,
      "Ġusual": 6528,
      "Ġ49": 6529,
      "Ġorders": 6530,
      "ĠScient": 6531,
      "05": 6532,
      "iform": 6533,
      "umin": 6534,
      "iously": 6535,
      "Ġupdated": 6536,
      "ĠBalt": 6537,
      "Ġsees": 6538,
      "Ġproof": 6539,
      "rones": 6540,
      "Ġconstant": 6541,
      "Ġkinds": 6542,
      "ĠAmong": 6543,
      "Ġharass": 6544,
      "Ġaspects": 6545,
      "Ġtournament": 6546,
      "Ġnarrow": 6547,
      "word": 6548,
      "Ġcere": 6549,
      "Ġdiet": 6550,
      "ĠMot": 6551,
      "ĠLew": 6552,
      "Ġdiscover": 6553,
      "Ġlocations": 6554,
      "Ġputs": 6555,
      "ĠSpan": 6556,
      "Ġfeatured": 6557,
      "Ġacknowled": 6558,
      "UR": 6559,
      "ĠDV": 6560,
      "atell": 6561,
      "Ġsho": 6562,
      "apse": 6563,
      "Ġconfront": 6564,
      "Ġparticipants": 6565,
      "Ġhotel": 6566,
      "ĠAvenue": 6567,
      "sex": 6568,
      "rive": 6569,
      "Ġcritics": 6570,
      "Ġterrorism": 6571,
      "Ġsplit": 6572,
      "rum": 6573,
      "ĠIP": 6574,
      "Ġslowly": 6575,
      "Ġpurposes": 6576,
      "ĠCharles": 6577,
      "Ġpapers": 6578,
      "Ġdress": 6579,
      "ĠMake": 6580,
      "Ġcausing": 6581,
      "Ġsky": 6582,
      "Ġliterally": 6583,
      "Ġmaximum": 6584,
      "ĠArizona": 6585,
      "IR": 6586,
      "ĠMat": 6587,
      "ao": 6588,
      "anes": 6589,
      "irms": 6590,
      "ĠNAT": 6591,
      "rank": 6592,
      "41": 6593,
      "zens": 6594,
      "Ġrising": 6595,
      "ĠLand": 6596,
      "ĠEduc": 6597,
      "Ġ75": 6598,
      "Ġdestroyed": 6599,
      "Ġsample": 6600,
      "lete": 6601,
      "ĠAL": 6602,
      "ĠDam": 6603,
      "Ġassume": 6604,
      "Ġexplore": 6605,
      "Ġschedule": 6606,
      "Ġsustain": 6607,
      "77": 6608,
      "asters": 6609,
      "ĠCivil": 6610,
      "ĠHas": 6611,
      "ĠUse": 6612,
      "Ġknowing": 6613,
      "Ġpersonally": 6614,
      "Ġwinter": 6615,
      "Ġrepeatedly": 6616,
      "ĠESP": 6617,
      "Ġsomehow": 6618,
      "Ġanswers": 6619,
      "rimination": 6620,
      "Ġmarketing": 6621,
      "Ġurban": 6622,
      "Ġwatched": 6623,
      "Ġsurrounding": 6624,
      "ĠBat": 6625,
      "Ġshif": 6626,
      "Ġunus": 6627,
      "ensus": 6628,
      "Ġcontrolled": 6629,
      "ĠTurk": 6630,
      "ĠSociety": 6631,
      "ĠSS": 6632,
      "ĠDun": 6633,
      "ĠOK": 6634,
      "ĠIndeed": 6635,
      "gery": 6636,
      "ĠBusiness": 6637,
      "Ġcircumstances": 6638,
      "Man": 6639,
      "arry": 6640,
      "ĠLord": 6641,
      "Ġhouses": 6642,
      "aser": 6643,
      "Ġbutton": 6644,
      "weight": 6645,
      "Ġdecent": 6646,
      "ĠSeattle": 6647,
      "Ġbills": 6648,
      "Ġballot": 6649,
      "Ġprecise": 6650,
      "ĠHistory": 6651,
      "page": 6652,
      "Ġvice": 6653,
      "Ġembr": 6654,
      "ĠAmericas": 6655,
      "Ġobserved": 6656,
      "Ġdefeat": 6657,
      "nic": 6658,
      "Ġborrow": 6659,
      "etime": 6660,
      "Ġju": 6661,
      "Ġagenda": 6662,
      "Ġdesper": 6663,
      "Ġexposed": 6664,
      "Ġjournalists": 6665,
      "hus": 6666,
      "Ġrealized": 6667,
      "Ġproperly": 6668,
      "ĠJordan": 6669,
      "uable": 6670,
      "Ġaf": 6671,
      "Ġdeleg": 6672,
      "Ġcomparison": 6673,
      "sell": 6674,
      "ĠItaly": 6675,
      "ĠYouT": 6676,
      "Ġbasket": 6677,
      "Ġvillage": 6678,
      "lv": 6679,
      "ati": 6680,
      "oric": 6681,
      "Ġshes": 6682,
      "Ġacts": 6683,
      "Ġtrees": 6684,
      "ĠAnth": 6685,
      "Shop": 6686,
      "Ġwelcome": 6687,
      "Ġcoffee": 6688,
      "Ġsand": 6689,
      "ashes": 6690,
      "ĠDid": 6691,
      "Ġpolls": 6692,
      "Ġimmediate": 6693,
      "Ġbegins": 6694,
      "When": 6695,
      "ĠCirc": 6696,
      "anges": 6697,
      "Ġconstit": 6698,
      "Ġdogs": 6699,
      "Ġ>>": 6700,
      "ĠJersey": 6701,
      "Ġsuddenly": 6702,
      "ĠPan": 6703,
      "Ġcolon": 6704,
      "Ġideal": 6705,
      "ĠOrig": 6706,
      "ĠKorean": 6707,
      "Ġcontributed": 6708,
      "uated": 6709,
      "iner": 6710,
      "Ġped": 6711,
      "Ġlinks": 6712,
      "ĠSaf": 6713,
      "Ġupcoming": 6714,
      "ĠYeah": 6715,
      "Ġgovernor": 6716,
      "2016": 6717,
      "Ġgang": 6718,
      "ĠLuc": 6719,
      "Ġbaseball": 6720,
      "cons": 6721,
      "water": 6722,
      "Ġwake": 6723,
      "Ġbunch": 6724,
      "Ġstronger": 6725,
      "ĠCommunity": 6726,
      "Cl": 6727,
      "Ġtrib": 6728,
      "Ġpod": 6729,
      "ĠLive": 6730,
      "Ġunknown": 6731,
      "Ġprotected": 6732,
      "Ġcutting": 6733,
      "Ġlatter": 6734,
      "Ġfolks": 6735,
      "ĠCruz": 6736,
      "VER": 6737,
      "aire": 6738,
      "Ġcongress": 6739,
      "ĠDNA": 6740,
      "umer": 6741,
      "ĠJo": 6742,
      "ĠJosh": 6743,
      "Ġnewslet": 6744,
      "Ġrisks": 6745,
      "Ġfifth": 6746,
      "ĠCO": 6747,
      "Ġatmosp": 6748,
      "eping": 6749,
      "Ġregional": 6750,
      "Ġoblig": 6751,
      "Ġsimpl": 6752,
      "That": 6753,
      "Ġticket": 6754,
      "style": 6755,
      "ĠSuch": 6756,
      "Ġallies": 6757,
      "Ġtrading": 6758,
      "Ġtypical": 6759,
      "Ġinfl": 6760,
      "ĠIndepend": 6761,
      "Ġchoices": 6762,
      "Ġdeeply": 6763,
      "hetic": 6764,
      "ĠRuby": 6765,
      "fast": 6766,
      "Ġwest": 6767,
      "Ġhall": 6768,
      "ĠSnow": 6769,
      "Ġmeetings": 6770,
      "Ġcommitment": 6771,
      "pan": 6772,
      "ĠSn": 6773,
      "ĠSar": 6774,
      "ĠBra": 6775,
      "usal": 6776,
      "ĠNick": 6777,
      "Ġchain": 6778,
      "Ġchampionship": 6779,
      "Ġanymore": 6780,
      "Ġattacked": 6781,
      "ographic": 6782,
      "EA": 6783,
      "Ġbid": 6784,
      "ĠCH": 6785,
      "Ġmedic": 6786,
      "Ġposts": 6787,
      "ĠAgency": 6788,
      "Ġaudio": 6789,
      "cers": 6790,
      "orith": 6791,
      "Ġchose": 6792,
      "pected": 6793,
      "Ġdistinct": 6794,
      "Ġbench": 6795,
      "300": 6796,
      "pool": 6797,
      "hers": 6798,
      "rence": 6799,
      "Ġphones": 6800,
      "Ġtort": 6801,
      "Ġevil": 6802,
      "Ġroster": 6803,
      "Ġdesk": 6804,
      "Ġproved": 6805,
      "Ġmotion": 6806,
      "Ġclubs": 6807,
      "Ġencourage": 6808,
      "ĠKelly": 6809,
      "ĠCross": 6810,
      "Ġchannel": 6811,
      "ĠInf": 6812,
      "Ġfee": 6813,
      "Ġregularly": 6814,
      "Ġapproval": 6815,
      "ĠDaniel": 6816,
      "woman": 6817,
      "ĠThus": 6818,
      "Ġ64": 6819,
      "ĠNetwork": 6820,
      "lers": 6821,
      "oration": 6822,
      "igation": 6823,
      "Ġamounts": 6824,
      "athan": 6825,
      "Ġprimarily": 6826,
      "Ġhonor": 6827,
      "ĠDownload": 6828,
      "ĠNASA": 6829,
      "ĠSpanish": 6830,
      "Ġhunt": 6831,
      "Ġnative": 6832,
      "Ġmanip": 6833,
      "Ġsituations": 6834,
      "ĠDavis": 6835,
      "Ġscenes": 6836,
      "fr": 6837,
      "lo": 6838,
      "Ġsending": 6839,
      "Ġfold": 6840,
      "Ġmurd": 6841,
      "Ġren": 6842,
      "Ġstuck": 6843,
      "ĠBa": 6844,
      "ĠNBC": 6845,
      "Ġvent": 6846,
      "Ġincl": 6847,
      "ĠChampionship": 6848,
      "Ġblame": 6849,
      "Ġterrible": 6850,
      "Ġcommunications": 6851,
      "Ġstrongly": 6852,
      "Ġsquad": 6853,
      "Photo": 6854,
      "08": 6855,
      "DS": 6856,
      "ference": 6857,
      "Ġtag": 6858,
      "Ġmouth": 6859,
      "ĠTurn": 6860,
      "otes": 6861,
      "ĠCall": 6862,
      "Ġcampus": 6863,
      "Ġdirected": 6864,
      "Ġfacilities": 6865,
      "Ġjoint": 6866,
      "friend": 6867,
      "Ġgro": 6868,
      "Ġforth": 6869,
      "Ġadult": 6870,
      "Ġenemies": 6871,
      "ĠItalian": 6872,
      "fire": 6873,
      "Ġfasc": 6874,
      "olt": 6875,
      "ĠInvest": 6876,
      "Ġanyway": 6877,
      "Ġunderstood": 6878,
      "Ġfinds": 6879,
      "Ġrejected": 6880,
      "01": 6881,
      "Pro": 6882,
      "Ġeating": 6883,
      "eman": 6884,
      "Ġchosen": 6885,
      "Ġintellect": 6886,
      "Ġspin": 6887,
      "Ġconscious": 6888,
      "Ġregions": 6889,
      "ifications": 6890,
      "Ġlimits": 6891,
      "Ġaggressive": 6892,
      "Ġmerely": 6893,
      "mal": 6894,
      "Ġtaught": 6895,
      "itals": 6896,
      "ĠFund": 6897,
      "allas": 6898,
      "ĠAssad": 6899,
      "GBT": 6900,
      "ipl": 6901,
      "ĠWeve": 6902,
      "Ġextended": 6903,
      "ĠBlock": 6904,
      "ĠPhone": 6905,
      "Ġarguments": 6906,
      "Ġaccurate": 6907,
      "Ġcrazy": 6908,
      "Ġanx": 6909,
      "oming": 6910,
      "utral": 6911,
      "Ġconver": 6912,
      "ules": 6913,
      "Ġ37": 6914,
      "Ġwarming": 6915,
      "Ġengage": 6916,
      "Ġfighters": 6917,
      "Ġdrawn": 6918,
      "Ġkil": 6919,
      "Ġsupports": 6920,
      "star": 6921,
      "Ġdriven": 6922,
      "ĠKey": 6923,
      "Ġsurveillance": 6924,
      "ĠHouston": 6925,
      "CE": 6926,
      "twitter": 6927,
      "esh": 6928,
      "ĠMS": 6929,
      "Ġseats": 6930,
      "ĠON": 6931,
      "orted": 6932,
      "Ġintense": 6933,
      "Ġlawmakers": 6934,
      "Ġequival": 6935,
      "dro": 6936,
      "Ġwestern": 6937,
      "utch": 6938,
      "rome": 6939,
      "Ġdisag": 6940,
      "list": 6941,
      "vin": 6942,
      "ingu": 6943,
      "ĠSouthern": 6944,
      "Ġstack": 6945,
      "abb": 6946,
      "Ġacce": 6947,
      "Ġfunny": 6948,
      "Ġparam": 6949,
      "Ġscheme": 6950,
      "Ġlicense": 6951,
      "Ġsympt": 6952,
      "Ġduty": 6953,
      "Ġrival": 6954,
      "ĠDu": 6955,
      "Ġchampion": 6956,
      "ĠDoes": 6957,
      "Ġexciting": 6958,
      "aaaa": 6959,
      "BlueBox": 6960,
      "',": 6961,
      "85": 6962,
      "rating": 6963,
      "isan": 6964,
      "Ġinqu": 6965,
      "ĠCast": 6966,
      "Ġstrange": 6967,
      "Ġattended": 6968,
      "Ġpromote": 6969,
      "ĠDemocrat": 6970,
      "Ġdollar": 6971,
      "Ġ?": 6972,
      "Ġcup": 6973,
      "ĠFord": 6974,
      "ĠVeg": 6975,
      "Ġofficially": 6976,
      "Ġrecognize": 6977,
      "Al": 6978,
      "ĠCIA": 6979,
      "Ġsomewhere": 6980,
      "Ġmainstream": 6981,
      "Ġlikes": 6982,
      "watch": 6983,
      "ĠCome": 6984,
      "ĠHot": 6985,
      "Ġrum": 6986,
      "ĠLy": 6987,
      "ĠTheyre": 6988,
      "Ġretire": 6989,
      "Ġaimed": 6990,
      "def": 6991,
      "orough": 6992,
      "Ġhang": 6993,
      "Ġgonna": 6994,
      "Ġrig": 6995,
      "ĠLittle": 6996,
      "oster": 6997,
      "Ġ55": 6998,
      "Ġinterpret": 6999,
      "Ġtransp": 7000,
      "ciples": 7001,
      "Ġfarmers": 7002,
      "Ġmatches": 7003,
      "Ġperfectly": 7004,
      "ĠSometimes": 7005,
      "Ġapproximately": 7006,
      "CS": 7007,
      "owered": 7008,
      "Ġdozen": 7009,
      "Ġincent": 7010,
      "Ġdrag": 7011,
      "Ġalongside": 7012,
      "Ġteaching": 7013,
      "owed": 7014,
      "Ġconvent": 7015,
      "Ġdatabase": 7016,
      "ĠYouTube": 7017,
      "dog": 7018,
      "ĠData": 7019,
      "ĠJoin": 7020,
      "Ġclar": 7021,
      "osexual": 7022,
      "Ġtopic": 7023,
      "Ġresulting": 7024,
      "Ġrepresented": 7025,
      "Ġinnoc": 7026,
      "Sp": 7027,
      "ilarly": 7028,
      "ĠDig": 7029,
      "Ġalive": 7030,
      "Ġpeoples": 7031,
      "ĠVis": 7032,
      "Ġincredibly": 7033,
      "anchester": 7034,
      "nam": 7035,
      "Ġsouthern": 7036,
      "ĠCare": 7037,
      "Ġnobody": 7038,
      "Ġblocks": 7039,
      "Ġexplanation": 7040,
      "erry": 7041,
      "ĠSir": 7042,
      "imore": 7043,
      "Ġstadium": 7044,
      "Ġtheyve": 7045,
      "ĠVan": 7046,
      "Ġfixed": 7047,
      "Ġempty": 7048,
      "Ġheight": 7049,
      "Ġchances": 7050,
      "Ġabortion": 7051,
      "Ġtea": 7052,
      "Ġclaiming": 7053,
      "Ġpersons": 7054,
      "Ġstretch": 7055,
      "Ġpermanent": 7056,
      "69": 7057,
      "II": 7058,
      "wan": 7059,
      "Ġring": 7060,
      "inding": 7061,
      "Ġrecon": 7062,
      "Ġfarm": 7063,
      "Ġdepth": 7064,
      "Ġprofile": 7065,
      "ĠDevelopment": 7066,
      "ua": 7067,
      "Ġpic": 7068,
      "ĠCD": 7069,
      "ĠCost": 7070,
      "Ġselection": 7071,
      "izon": 7072,
      "ĠServer": 7073,
      "Ġmixed": 7074,
      "EW": 7075,
      "link": 7076,
      "Ġfirms": 7077,
      "Ġeast": 7078,
      "Ġgall": 7079,
      "ĠOs": 7080,
      "Ġnewly": 7081,
      ".\"[": 7082,
      "upid": 7083,
      "arsh": 7084,
      "Ġcorruption": 7085,
      "ĠProgram": 7086,
      "ĠMrs": 7087,
      "Ġcondem": 7088,
      "Ġruled": 7089,
      "NSW": 7090,
      "verty": 7091,
      "ĠFre": 7092,
      "abis": 7093,
      "essed": 7094,
      "Ġnarrative": 7095,
      "illy": 7096,
      "Ġexcess": 7097,
      "ĠLight": 7098,
      "ĠAdv": 7099,
      "Ġpoverty": 7100,
      "Ġangry": 7101,
      "lls": 7102,
      "iger": 7103,
      "osis": 7104,
      "ĠOper": 7105,
      "Ġ39": 7106,
      "Ġimpressive": 7107,
      "intend": 7108,
      "Ġprivile": 7109,
      "ivery": 7110,
      "Ġpip": 7111,
      "acter": 7112,
      "Ġrus": 7113,
      "ĠDar": 7114,
      "agg": 7115,
      "ĠUt": 7116,
      "Ġfields": 7117,
      "Ġparking": 7118,
      "Ġminority": 7119,
      "dy": 7120,
      "Ġlights": 7121,
      "ĠEastern": 7122,
      "Ġimper": 7123,
      "Ġroot": 7124,
      "Ġworldwide": 7125,
      "Ġemployee": 7126,
      "Ġfalling": 7127,
      "iscons": 7128,
      "ĠLinux": 7129,
      "Ġstead": 7130,
      "Ġneck": 7131,
      "Ġworried": 7132,
      "ĠAsh": 7133,
      "Ġsolve": 7134,
      "ĠSenator": 7135,
      "ĠSeries": 7136,
      "Ġestimates": 7137,
      "ĠJudge": 7138,
      "Ġalgorith": 7139,
      "OC": 7140,
      "ĠMoh": 7141,
      "ĠMajor": 7142,
      "iev": 7143,
      "Ġintention": 7144,
      "Ġexplicit": 7145,
      "Ġanticip": 7146,
      "Ġelsewhere": 7147,
      "Ġcrypt": 7148,
      "bal": 7149,
      "ĠManchester": 7150,
      "ĠPay": 7151,
      "ĠHom": 7152,
      "ĠNever": 7153,
      "ials": 7154,
      "Ġunw": 7155,
      "azi": 7156,
      "Ġkeeps": 7157,
      "Ġaffili": 7158,
      "ocaust": 7159,
      "Ġflex": 7160,
      "Ġconstantly": 7161,
      "Ġdrinking": 7162,
      "FF": 7163,
      "ref": 7164,
      "umber": 7165,
      "Ġinstalled": 7166,
      "Ġinspir": 7167,
      "Ġgenerated": 7168,
      "ĠWithout": 7169,
      "Ġsuccessfully": 7170,
      "TH": 7171,
      "cur": 7172,
      "Ġcos": 7173,
      "esy": 7174,
      "Ġconven": 7175,
      "Ġoutcome": 7176,
      "Ġgenerate": 7177,
      "ĠAdminist": 7178,
      "Ġfranchise": 7179,
      "aed": 7180,
      "Ġholid": 7181,
      "ĠWater": 7182,
      "kel": 7183,
      "ĠUb": 7184,
      "Ġunp": 7185,
      "Ġpersonnel": 7186,
      "Ġgotten": 7187,
      "Ġexpectations": 7188,
      "ĠDisney": 7189,
      "ĠCatholic": 7190,
      "Ġfake": 7191,
      "ĠIT": 7192,
      "iants": 7193,
      "ĠMcG": 7194,
      "Ġthreatened": 7195,
      "Ġescape": 7196,
      "ima": 7197,
      "ĠClick": 7198,
      "ĠParliament": 7199,
      "Ġhaven": 7200,
      "Ġending": 7201,
      "ĠBuild": 7202,
      "AY": 7203,
      "On": 7204,
      "cles": 7205,
      "ĠCre": 7206,
      "Ġking": 7207,
      "Ġrecovery": 7208,
      "Ġrelief": 7209,
      "inson": 7210,
      "ĠLabor": 7211,
      "Ġincredible": 7212,
      "aus": 7213,
      "uine": 7214,
      "Ġties": 7215,
      "Ġflying": 7216,
      "Ġham": 7217,
      "Ġwelf": 7218,
      "ĠHave": 7219,
      "ĠDallas": 7220,
      "ĠRick": 7221,
      "ĠThrough": 7222,
      "Ġbuff": 7223,
      "Ġbrut": 7224,
      "iscal": 7225,
      "bar": 7226,
      "gun": 7227,
      "Ġporn": 7228,
      "alle": 7229,
      "ĠBowl": 7230,
      "ĠPS": 7231,
      "ĠStat": 7232,
      "Ġscores": 7233,
      "Ġvisited": 7234,
      "Ġregistered": 7235,
      "ez": 7236,
      "Ġreward": 7237,
      "amber": 7238,
      "ĠMu": 7239,
      "Ġfeedback": 7240,
      "Ġautomatically": 7241,
      "Ġwelfare": 7242,
      "inas": 7243,
      "Ġclients": 7244,
      "Ġcompre": 7245,
      "Ġentit": 7246,
      "Ġengaged": 7247,
      "regon": 7248,
      "ĠWhether": 7249,
      "HD": 7250,
      "Ġtoler": 7251,
      "Ġhits": 7252,
      "sea": 7253,
      "Ġweird": 7254,
      "Ġ400": 7255,
      "ĠAsian": 7256,
      "prise": 7257,
      "ĠWilson": 7258,
      "va": 7259,
      "ĠDark": 7260,
      "ĠGiven": 7261,
      "Ġcoordin": 7262,
      "Ġcounty": 7263,
      "Ġinformed": 7264,
      "ĠPlus": 7265,
      "Ġparticipate": 7266,
      "profit": 7267,
      "Ġsup": 7268,
      "ĠUFC": 7269,
      "Ġrecru": 7270,
      "ĠAdam": 7271,
      "Ġregardless": 7272,
      "lock": 7273,
      "mont": 7274,
      "ĠWiscons": 7275,
      "Ġhabit": 7276,
      "Ġexists": 7277,
      "Ġaccomp": 7278,
      "Ġsurgery": 7279,
      "Ġracial": 7280,
      "Ġtroub": 7281,
      "inos": 7282,
      "Ġboot": 7283,
      "Ġpace": 7284,
      "ĠAp": 7285,
      "ĠCS": 7286,
      "ighter": 7287,
      "quarters": 7288,
      "athy": 7289,
      "viously": 7290,
      "Ġprocesses": 7291,
      "Ġconcluded": 7292,
      "Ġwithdraw": 7293,
      "itarian": 7294,
      "ĠHay": 7295,
      "ĠFood": 7296,
      "ĠKn": 7297,
      "Ġcomprom": 7298,
      "ishment": 7299,
      "Ġprovince": 7300,
      "Ġmarked": 7301,
      "eland": 7302,
      "Ġ42": 7303,
      "ĠMcD": 7304,
      "ĠBaltimore": 7305,
      "ĠESPN": 7306,
      "world": 7307,
      "aron": 7308,
      "Ġru": 7309,
      "earing": 7310,
      "ologists": 7311,
      "Ġobser": 7312,
      "Ġmovements": 7313,
      "Ġvolume": 7314,
      "Ġassistance": 7315,
      "Ġpilot": 7316,
      "51": 7317,
      "boy": 7318,
      "stone": 7319,
      "ĠInformation": 7320,
      "Ġdepending": 7321,
      "Ġ1999": 7322,
      "ĠMiller": 7323,
      "ĠForeign": 7324,
      "Ġbanned": 7325,
      "ĠSat": 7326,
      "ĠBry": 7327,
      "ifies": 7328,
      "ĠFoot": 7329,
      "Ġsomebody": 7330,
      "Ġfeelings": 7331,
      "ĠNHL": 7332,
      "bour": 7333,
      "ean": 7334,
      "iy": 7335,
      "athered": 7336,
      "Ġbes": 7337,
      "ĠCA": 7338,
      "ĠMid": 7339,
      "Ġdiscipl": 7340,
      "aturally": 7341,
      "ĠEmail": 7342,
      "Ġmachines": 7343,
      "Ġresistance": 7344,
      "ĠRadio": 7345,
      "Ġscoring": 7346,
      "Ġdefence": 7347,
      "Ġsolutions": 7348,
      "ĠProfessor": 7349,
      "Ġtaste": 7350,
      "Ġtied": 7351,
      "ĠIce": 7352,
      "ĠBox": 7353,
      "ĠNavy": 7354,
      "Ġwerent": 7355,
      "Ġstrikes": 7356,
      "Ġcaptured": 7357,
      "ĠGeorgia": 7358,
      "ba": 7359,
      "ding": 7360,
      "Ġtruck": 7361,
      "Ġcomponents": 7362,
      "Ġeverywhere": 7363,
      "Ġexpression": 7364,
      "ĠZeal": 7365,
      "ĠCoast": 7366,
      "Ġdowntown": 7367,
      "Ġreputation": 7368,
      "game": 7369,
      "po": 7370,
      "rage": 7371,
      "Ġok": 7372,
      "Ġunex": 7373,
      "ĠHead": 7374,
      "type": 7375,
      "scape": 7376,
      "ESS": 7377,
      "Ġthousand": 7378,
      "zy": 7379,
      "Ġhidden": 7380,
      "istent": 7381,
      "Ġassert": 7382,
      "Ġstrict": 7383,
      "Ġdeveloper": 7384,
      "Ġlawyers": 7385,
      "Ġacademic": 7386,
      "ĠEducation": 7387,
      "ĠOsc": 7388,
      "Ġdozens": 7389,
      "Ġmedium": 7390,
      "Ġcapture": 7391,
      "Ġimplementation": 7392,
      "Ġrarely": 7393,
      "Ġcrucial": 7394,
      "ĠConstitution": 7395,
      "Ġnominee": 7396,
      "writ": 7397,
      "ogether": 7398,
      "Ġenable": 7399,
      "Ġphase": 7400,
      "ĠGlobal": 7401,
      "Ġpenalty": 7402,
      "Ġadopted": 7403,
      "Ġbattery": 7404,
      "Getty": 7405,
      "making": 7406,
      "rete": 7407,
      "Ġsoul": 7408,
      "Ġthick": 7409,
      "ĠGall": 7410,
      "ĠAlab": 7411,
      "Ġcountrys": 7412,
      "Ġvari": 7413,
      "Ġapartment": 7414,
      "Ġhistoric": 7415,
      "ĠAttorney": 7416,
      "ĠAcademy": 7417,
      "1000": 7418,
      "Ġsatell": 7419,
      "Ġalien": 7420,
      "Ġcompens": 7421,
      "Ġroles": 7422,
      "Ġfounder": 7423,
      "Ġcontinuing": 7424,
      "ĠEngine": 7425,
      "Ġloan": 7426,
      "Ġgranted": 7427,
      "idelines": 7428,
      "da": 7429,
      "that": 7430,
      "Ġuniform": 7431,
      "untu": 7432,
      "Ġgenuine": 7433,
      "Ġmel": 7434,
      "Ġinev": 7435,
      "Ġconvention": 7436,
      "Ġsufficient": 7437,
      "redit": 7438,
      "Ġextrem": 7439,
      "Ġraising": 7440,
      "Ġlaid": 7441,
      "ĠCentre": 7442,
      "Ġcomplaint": 7443,
      "Ġsettlement": 7444,
      "Ġprinciples": 7445,
      "ĠObamas": 7446,
      "mo": 7447,
      "Ġwage": 7448,
      "ĠBull": 7449,
      "Ġdisaster": 7450,
      "Ġpayment": 7451,
      "Ġtechnologies": 7452,
      "Ġphysic": 7453,
      "American": 7454,
      "ĠDiego": 7455,
      "alaxy": 7456,
      "ĠTurkish": 7457,
      "rad": 7458,
      "repre": 7459,
      "ĠCa": 7460,
      "ĠLGBT": 7461,
      "ĠEp": 7462,
      "ĠOregon": 7463,
      "Ġplug": 7464,
      "oval": 7465,
      "Ġexposure": 7466,
      "Ġtechniques": 7467,
      "Ġepisodes": 7468,
      "Ġtor": 7469,
      "Ġven": 7470,
      "aug": 7471,
      "obile": 7472,
      "ĠReview": 7473,
      "Ġvoter": 7474,
      "ĠWisconsin": 7475,
      "09": 7476,
      "htt": 7477,
      "Ġbath": 7478,
      "ĠBible": 7479,
      "ĠHospital": 7480,
      "Ġproducer": 7481,
      "Ġformat": 7482,
      "Ġencoun": 7483,
      "Ġroutine": 7484,
      "reprene": 7485,
      "uan": 7486,
      "Ġloud": 7487,
      "olis": 7488,
      "Ġshock": 7489,
      "Ġpasses": 7490,
      "ĠSams": 7491,
      "ĠBelg": 7492,
      "Ġpatterns": 7493,
      "Ġprinciple": 7494,
      "een": 7495,
      "raid": 7496,
      "Ġfounded": 7497,
      "ĠHarry": 7498,
      "Ġdegrees": 7499,
      "ĠPutin": 7500,
      "lights": 7501,
      "Ġitem": 7502,
      "Ġvaluable": 7503,
      "Ġequivalent": 7504,
      "86": 7505,
      "Ġsaved": 7506,
      "ilipp": 7507,
      "Ġconsumption": 7508,
      "ĠMarket": 7509,
      "Ġvacc": 7510,
      "Ġpounds": 7511,
      "ĠPot": 7512,
      "87": 7513,
      "DB": 7514,
      "cus": 7515,
      "rently": 7516,
      "Ġbehalf": 7517,
      "Ġelite": 7518,
      "Ġmaint": 7519,
      "Ġorganized": 7520,
      "Ġhumanity": 7521,
      "Ps": 7522,
      "Ġinner": 7523,
      "Ġdim": 7524,
      "Ġdict": 7525,
      "ĠKent": 7526,
      "Ġregister": 7527,
      "ĠSeveral": 7528,
      "hips": 7529,
      "Ġconstitutional": 7530,
      "Ġresulted": 7531,
      "Ġnegotiations": 7532,
      "ĠJoseph": 7533,
      "Os": 7534,
      "Ġble": 7535,
      "Ġho": 7536,
      "Ġthin": 7537,
      "ctic": 7538,
      "Ġcomic": 7539,
      "ĠGov": 7540,
      "icken": 7541,
      "Ġmainly": 7542,
      "Ġtitles": 7543,
      "Ġvirus": 7544,
      "No": 7545,
      "Ġsight": 7546,
      "Ġfought": 7547,
      "ceived": 7548,
      "ĠHo": 7549,
      "ĠHaving": 7550,
      "Ġexceed": 7551,
      "Ġdeck": 7552,
      "ĠAlbert": 7553,
      "Ġcampaigns": 7554,
      "ĠChristians": 7555,
      "Ġsanctions": 7556,
      "ĠSquare": 7557,
      "ĠTaylor": 7558,
      "ĠAnthony": 7559,
      "PM": 7560,
      "Ġiron": 7561,
      "ĠTed": 7562,
      "olars": 7563,
      "Ġenthus": 7564,
      "Ġsubjects": 7565,
      "Ġenjoyed": 7566,
      "Ġawesome": 7567,
      "Ġassistant": 7568,
      "Ġexclusive": 7569,
      "elect": 7570,
      "gender": 7571,
      "Ġtall": 7572,
      "Ġshares": 7573,
      "ĠStart": 7574,
      "Ġworker": 7575,
      "Ġlegs": 7576,
      "sylv": 7577,
      "Ġfears": 7578,
      "etts": 7579,
      "ĠRon": 7580,
      "ĠFull": 7581,
      "ĠGirl": 7582,
      "Ġflaw": 7583,
      "Ġinfect": 7584,
      "Ġindicate": 7585,
      "ĠPacific": 7586,
      "acare": 7587,
      "owa": 7588,
      "ĠCat": 7589,
      "ĠBad": 7590,
      "Ġshr": 7591,
      "ĠAssembly": 7592,
      "Ġ95": 7593,
      "Ġemerged": 7594,
      "Ġchallenging": 7595,
      "Ġestablishment": 7596,
      "ca": 7597,
      "ho": 7598,
      "ystem": 7599,
      "ora": 7600,
      "Ġbom": 7601,
      "ouch": 7602,
      "lder": 7603,
      "ĠViet": 7604,
      "Ġlegend": 7605,
      "Ġconclusion": 7606,
      "Ġstations": 7607,
      "riers": 7608,
      "Ġ1960": 7609,
      "Ġmayor": 7610,
      "Ġreturning": 7611,
      "Ġ0100": 7612,
      "Ġsurvive": 7613,
      "Ġvulnerable": 7614,
      "uros": 7615,
      "ĠWas": 7616,
      "ĠGun": 7617,
      "Ġplastic": 7618,
      "tra": 7619,
      "Ġtox": 7620,
      "arms": 7621,
      "ĠNorthern": 7622,
      "Ġships": 7623,
      "Ġouts": 7624,
      "Ġuncom": 7625,
      "Ġactor": 7626,
      "Ġmonit": 7627,
      "ĠClint": 7628,
      "Ġprominent": 7629,
      "ĠPennsylv": 7630,
      "ĠKennedy": 7631,
      "rific": 7632,
      "Ġyield": 7633,
      "ĠPerson": 7634,
      "ĠRose": 7635,
      "Ġproven": 7636,
      "Ġextensive": 7637,
      "Ġcounsel": 7638,
      "han": 7639,
      "Ġbars": 7640,
      "Ġrecip": 7641,
      "Ġsmooth": 7642,
      "Ġdiscrimination": 7643,
      "Ġbusy": 7644,
      "html": 7645,
      "Ġbranch": 7646,
      "Ġluck": 7647,
      "ĠSony": 7648,
      "ĠSource": 7649,
      "ĠHard": 7650,
      "Ġraces": 7651,
      "ĠLog": 7652,
      "Ġconspir": 7653,
      "Ġremem": 7654,
      "Ġdemands": 7655,
      "Ġmilk": 7656,
      "Ġphotograph": 7657,
      "ĠMusic": 7658,
      "Ġrecognized": 7659,
      "ĠAlabama": 7660,
      "ta": 7661,
      "Ġcited": 7662,
      "Ġnut": 7663,
      "ila": 7664,
      "Ġphr": 7665,
      "Ġvisitors": 7666,
      "Ġpriority": 7667,
      "Ġreferring": 7668,
      "Ġpassengers": 7669,
      "ĠCBS": 7670,
      "ĠWik": 7671,
      "ĠHell": 7672,
      "Ġ65": 7673,
      "Ġpropag": 7674,
      "ĠIraqi": 7675,
      "Ġresource": 7676,
      "Ġelectricity": 7677,
      "Ġridic": 7678,
      "My": 7679,
      "inations": 7680,
      "Ġwid": 7681,
      "ĠEs": 7682,
      "usted": 7683,
      "ĠArm": 7684,
      "Ġpossession": 7685,
      "Ġrespectively": 7686,
      "Ġastron": 7687,
      "Ġ>>>": 7688,
      "ilton": 7689,
      "aven": 7690,
      "Ġconvin": 7691,
      "ĠSpring": 7692,
      "Ġtackle": 7693,
      "inem": 7694,
      "Ġsin": 7695,
      "Ġmail": 7696,
      "ĠAS": 7697,
      "ĠReuters": 7698,
      "Ġwonderful": 7699,
      "Ġbarely": 7700,
      "ĠSamsung": 7701,
      "74": 7702,
      "bury": 7703,
      "df": 7704,
      "ĠKat": 7705,
      "Ġblind": 7706,
      "fall": 7707,
      "gro": 7708,
      "Ġmaps": 7709,
      "Ġexternal": 7710,
      "Ġlanguages": 7711,
      "ĠGetty": 7712,
      "Ġunusual": 7713,
      "inch": 7714,
      "plate": 7715,
      "Ġenorm": 7716,
      "Ġmyth": 7717,
      "Ġheaded": 7718,
      "Ġlistening": 7719,
      "62": 7720,
      "vard": 7721,
      "ockey": 7722,
      "Ġcha": 7723,
      "acking": 7724,
      "Ġagric": 7725,
      "ibilities": 7726,
      "Ġdeliber": 7727,
      "Ġveget": 7728,
      "Ġliked": 7729,
      "Ġliquid": 7730,
      "ĠAND": 7731,
      "ulating": 7732,
      "ĠNOT": 7733,
      "Ġbacked": 7734,
      "Ġgoods": 7735,
      "Ġdescribes": 7736,
      "Ġfootage": 7737,
      "Ġutil": 7738,
      "car": 7739,
      "Ġhired": 7740,
      "ĠSure": 7741,
      "ĠRoyal": 7742,
      "Ġcareful": 7743,
      "Ġoperate": 7744,
      "An": 7745,
      "Ġcable": 7746,
      "Ġrely": 7747,
      "ĠSN": 7748,
      "Ġstable": 7749,
      "ĠGreg": 7750,
      "ĠJac": 7751,
      "Ġads": 7752,
      "Ġinterface": 7753,
      "Ġcompete": 7754,
      "Ġtracks": 7755,
      "ĠLewis": 7756,
      "cow": 7757,
      "ye": 7758,
      "ĠTem": 7759,
      "etary": 7760,
      "Ġproducing": 7761,
      "ĠDead": 7762,
      "Ġcollected": 7763,
      "ĠMagic": 7764,
      "ĠFamily": 7765,
      "lah": 7766,
      "ington": 7767,
      "ami": 7768,
      "abs": 7769,
      "Ġdisorder": 7770,
      "iffs": 7771,
      "Ġfinance": 7772,
      "Ġretired": 7773,
      "ĠMedical": 7774,
      "Ġportion": 7775,
      "Ġveteran": 7776,
      "ĠDVD": 7777,
      "AA": 7778,
      "TER": 7779,
      "Ġcontribute": 7780,
      "Ġprogramming": 7781,
      "ĠRelated": 7782,
      "ĠPremier": 7783,
      "Ġsymptoms": 7784,
      "ĠZealand": 7785,
      "Ġtap": 7786,
      "Ġtherap": 7787,
      "Ġhole": 7788,
      "ĠSound": 7789,
      "away": 7790,
      "ĠAlban": 7791,
      "Ġsignal": 7792,
      "Ġshortly": 7793,
      "Ġtemporary": 7794,
      "Ġterrorists": 7795,
      "Ġplatforms": 7796,
      "Ġintellectual": 7797,
      "%.": 7798,
      "rep": 7799,
      "Ġwine": 7800,
      "Ġstupid": 7801,
      "ĠBuff": 7802,
      "ĠExt": 7803,
      "ogen": 7804,
      "Ġobst": 7805,
      "Ġspeaks": 7806,
      "Ġjournalist": 7807,
      "Ġlicens": 7808,
      "ĠGreek": 7809,
      "ĠBernie": 7810,
      "Ġsamples": 7811,
      "ĠHenry": 7812,
      "worth": 7813,
      "ĠEarlier": 7814,
      "ĠKings": 7815,
      "Ġregulation": 7816,
      "aze": 7817,
      "burgh": 7818,
      "Ġincorpor": 7819,
      "Ġoverwhelming": 7820,
      "ĠAC": 7821,
      "Ġstim": 7822,
      "ĠRus": 7823,
      "ĠFO": 7824,
      "ria": 7825,
      "Ġspr": 7826,
      "Ġoverse": 7827,
      "Ġentering": 7828,
      "ĠRoman": 7829,
      "ĠUsing": 7830,
      "Ġacceler": 7831,
      "rations": 7832,
      "Ġhide": 7833,
      "ifer": 7834,
      "ĠBeach": 7835,
      "Ġ150": 7836,
      "Ġreducing": 7837,
      "ĠKeep": 7838,
      "Ġuncertain": 7839,
      "ĠScotland": 7840,
      "59": 7841,
      "rets": 7842,
      "Ġpermission": 7843,
      "Ġfrag": 7844,
      "ĠSpain": 7845,
      "Ġmenu": 7846,
      "Ġtaxpay": 7847,
      "Ġcreates": 7848,
      "Ġprofession": 7849,
      "Ġreforms": 7850,
      "ĠPennsylvania": 7851,
      "Ġgathered": 7852,
      "Ġjury": 7853,
      "Ġjazz": 7854,
      "Ġadvis": 7855,
      "Ġboat": 7856,
      "Ġvisible": 7857,
      "appy": 7858,
      "Ġrepresentative": 7859,
      "Ġbasketball": 7860,
      "har": 7861,
      "Ġwww": 7862,
      "ĠHit": 7863,
      "ĠList": 7864,
      "Ġsharp": 7865,
      "Ġhandful": 7866,
      "Ġextension": 7867,
      "Ġ99": 7868,
      "Ġforever": 7869,
      "Ġfeaturing": 7870,
      "Ġlosses": 7871,
      "ĠVegas": 7872,
      "Ġconvinced": 7873,
      "Ġbail": 7874,
      "Ġdinner": 7875,
      "Ġhook": 7876,
      "idency": 7877,
      "ĠMuseum": 7878,
      "ĠForm": 7879,
      "ĠNation": 7880,
      "Ġwomens": 7881,
      "ĠExper": 7882,
      "pread": 7883,
      "ĠFair": 7884,
      "Ġdeserv": 7885,
      "ĠMayor": 7886,
      "Ġdevast": 7887,
      "Ġpractical": 7888,
      "Ġcomplicated": 7889,
      "Ġafraid": 7890,
      "ded": 7891,
      "asion": 7892,
      "ĠMoon": 7893,
      "ĠFred": 7894,
      "ĠLind": 7895,
      "ĠAustin": 7896,
      "Ġsuggesting": 7897,
      "ĠPatrick": 7898,
      "Ġindependence": 7899,
      "ĠMexican": 7900,
      "Ġsuspended": 7901,
      "Ġdemocratic": 7902,
      "ĠObamacare": 7903,
      "ĠColumbia": 7904,
      "ĠCameron": 7905,
      "dis": 7906,
      "ĠPit": 7907,
      "ĠPist": 7908,
      "Ġinvited": 7909,
      "Ġextract": 7910,
      "Ġfriendly": 7911,
      "Ġviewers": 7912,
      "Ġfailing": 7913,
      "Ġreduction": 7914,
      "Ġachieved": 7915,
      "Ġefficiency": 7916,
      "heast": 7917,
      "inf": 7918,
      "ĠBall": 7919,
      "anted": 7920,
      "Ġperpet": 7921,
      "Ġspark": 7922,
      "ĠDeath": 7923,
      "idespread": 7924,
      "Ġdelivery": 7925,
      "Ġpurchased": 7926,
      "79": 7927,
      "gener": 7928,
      "Ġaver": 7929,
      "erts": 7930,
      "ĠWW": 7931,
      "ĠUlt": 7932,
      "Ġpeak": 7933,
      "Ġanybody": 7934,
      "angel": 7935,
      "Ġchecks": 7936,
      "ĠPhilipp": 7937,
      "Ġstatistics": 7938,
      "Ġcameras": 7939,
      "Ġcontroversy": 7940,
      "Ġstructures": 7941,
      "PG": 7942,
      "Ġfiscal": 7943,
      "ĠAction": 7944,
      "Ġobtain": 7945,
      "Ġdeeper": 7946,
      "Ġcollapse": 7947,
      "Ġprepare": 7948,
      "Ġexception": 7949,
      "ĠAPI": 7950,
      "Ġrapidly": 7951,
      "CD": 7952,
      "iens": 7953,
      "pie": 7954,
      "ĠSH": 7955,
      "ethe": 7956,
      "ĠColl": 7957,
      "Ġdoors": 7958,
      "Ġcomputers": 7959,
      "Ġassociation": 7960,
      "So": 7961,
      "Ġmos": 7962,
      "Ġdiversity": 7963,
      "ĠMir": 7964,
      "ĠBah": 7965,
      "usions": 7966,
      "outube": 7967,
      "ĠJason": 7968,
      "Ġprofits": 7969,
      "ĠAmendment": 7970,
      "Ġcategory": 7971,
      "ĠVideo": 7972,
      "Ġcomprehens": 7973,
      "EG": 7974,
      "ais": 7975,
      "Ġstab": 7976,
      "Ġattacking": 7977,
      "ĠMinnes": 7978,
      "Ġmissile": 7979,
      "Ġauthent": 7980,
      "Ġimprovements": 7981,
      "Ġengineering": 7982,
      "Ġtickets": 7983,
      "Ġcoalition": 7984,
      "ĠConservative": 7985,
      "eers": 7986,
      "ĠSix": 7987,
      "Ġriver": 7988,
      "ested": 7989,
      "Ġperm": 7990,
      "teen": 7991,
      "Ġconservatives": 7992,
      "Ġ44": 7993,
      "Ġindicated": 7994,
      "Ġshouldnt": 7995,
      "month": 7996,
      "ĠOlympic": 7997,
      "ni": 7998,
      "zing": 7999,
      "itar": 8000,
      "rolled": 8001,
      "ĠCL": 8002,
      "inking": 8003,
      "Ġguest": 8004,
      "Ġoffices": 8005,
      "Ġinterviews": 8006,
      "Ġlogic": 8007,
      "Ġstruggling": 8008,
      "Ġfantasy": 8009,
      "rell": 8010,
      "Ġsoph": 8011,
      "Ġwing": 8012,
      "Ġwars": 8013,
      "icity": 8014,
      "ĠTun": 8015,
      "Ġproport": 8016,
      "osit": 8017,
      "aph": 8018,
      "Ġrose": 8019,
      "Ġsynt": 8020,
      "Ġdiscovery": 8021,
      "Ġphotograp": 8022,
      "Ġbrothers": 8023,
      "Ġunemployment": 8024,
      "\"]": 8025,
      "Ġwidespread": 8026,
      "Ġloyal": 8027,
      "ĠIowa": 8028,
      "Ġgained": 8029,
      "Ġupset": 8030,
      "Ġreporter": 8031,
      "lessly": 8032,
      "Ġpopulations": 8033,
      "ĠGraham": 8034,
      "72": 8035,
      "Ġtape": 8036,
      "store": 8037,
      "ĠSet": 8038,
      "ĠWH": 8039,
      "Ġchart": 8040,
      "izer": 8041,
      "Ġcontrols": 8042,
      "ĠGolden": 8043,
      "ĠTown": 8044,
      "ĠMain": 8045,
      "Ġrural": 8046,
      "icket": 8047,
      "news": 8048,
      "Ġownership": 8049,
      "Ġatmosphere": 8050,
      "400": 8051,
      "63": 8052,
      "mate": 8053,
      "Ġpump": 8054,
      "Ġasks": 8055,
      "ĠRen": 8056,
      "Ġcontained": 8057,
      "Ġ->": 8058,
      "Ġ1998": 8059,
      "Ġmanufacturing": 8060,
      "Ġpetition": 8061,
      "ked": 8062,
      "Ġtasks": 8063,
      "Ġhitting": 8064,
      "Ġflash": 8065,
      "Ġcollective": 8066,
      "ĠKingdom": 8067,
      "Ġbegun": 8068,
      "Ġscrut": 8069,
      "Ġfruit": 8070,
      "Ġgam": 8071,
      "ĠHop": 8072,
      "ĠLear": 8073,
      "acked": 8074,
      "Ġbridge": 8075,
      "including": 8076,
      "ĠBroad": 8077,
      "inois": 8078,
      "Ġcovering": 8079,
      "ĠMatthew": 8080,
      "ihad": 8081,
      "rical": 8082,
      "ses": 8083,
      "ĠTenn": 8084,
      "ĠIndones": 8085,
      "Ġelectronic": 8086,
      "Ġgrounds": 8087,
      "Ġimplemented": 8088,
      "Ġopinions": 8089,
      "ĠUbuntu": 8090,
      "ĠTR": 8091,
      "ĠSus": 8092,
      "opher": 8093,
      "ĠLiver": 8094,
      "Ġ41": 8095,
      "ĠReport": 8096,
      "Ġorganic": 8097,
      "Ġdescription": 8098,
      "Ġwalls": 8099,
      "Ġfab": 8100,
      "ĠPL": 8101,
      "ĠRos": 8102,
      "Ġneutral": 8103,
      "ĠOak": 8104,
      "Ġformal": 8105,
      "Ġforgot": 8106,
      "Ġtip": 8107,
      "Ġocean": 8108,
      "ĠCra": 8109,
      "Ġshit": 8110,
      "ĠJava": 8111,
      "Ġwheel": 8112,
      "Ġarrange": 8113,
      "olds": 8114,
      "Ġcolors": 8115,
      "Ġedition": 8116,
      "Ġestimate": 8117,
      "Ġviewed": 8118,
      "Ġactivist": 8119,
      "ĠPatri": 8120,
      "ĠBelow": 8121,
      "Ġignored": 8122,
      "800": 8123,
      "EF": 8124,
      "bn": 8125,
      "Ġlucky": 8126,
      "ĠLow": 8127,
      "sole": 8128,
      "Ġcoaches": 8129,
      "Ġdepends": 8130,
      "Ġletters": 8131,
      "Ġ1997": 8132,
      "73": 8133,
      "QL": 8134,
      "bow": 8135,
      "case": 8136,
      "ĠFreedom": 8137,
      "Ġexport": 8138,
      "Ġpresc": 8139,
      "Ġintervention": 8140,
      "Ġserves": 8141,
      "ĠAllen": 8142,
      "Ġjoining": 8143,
      "Ġattempting": 8144,
      "ĠBrewing": 8145,
      "Ġadvertising": 8146,
      "ĠOscar": 8147,
      "Ġtheat": 8148,
      "Ġyellow": 8149,
      "ĠNev": 8150,
      "Ġkm": 8151,
      "Ġamid": 8152,
      "ĠYoure": 8153,
      "Ġreviews": 8154,
      "ĠAnton": 8155,
      "Ġunclear": 8156,
      "Ġreferend": 8157,
      "))": 8158,
      "fare": 8159,
      "Ġfault": 8160,
      "Ġfulf": 8161,
      "Ġdad": 8162,
      "Ġthrown": 8163,
      "igare": 8164,
      "ĠPA": 8165,
      "ĠHT": 8166,
      "Ġrational": 8167,
      "ĠLim": 8168,
      "ĠOnt": 8169,
      "aching": 8170,
      "ĠShort": 8171,
      "enez": 8172,
      "Ġswim": 8173,
      "Ġdrawing": 8174,
      "Ġadvocates": 8175,
      "Ġbrowser": 8176,
      "Ġcannabis": 8177,
      "Ġlegitimate": 8178,
      "ĠPen": 8179,
      "Ġspoken": 8180,
      "Ġrecording": 8181,
      "ĠControl": 8182,
      "Ġcitizen": 8183,
      "ĠOklah": 8184,
      "cific": 8185,
      "enter": 8186,
      "Ġranks": 8187,
      "ĠGT": 8188,
      "Ġappointed": 8189,
      "Ġentreprene": 8190,
      "Ġestate": 8191,
      "ĠiP": 8192,
      "Ġvirtually": 8193,
      "ĠGreece": 8194,
      "UL": 8195,
      "ĠHor": 8196,
      "ĠStadium": 8197,
      "aunt": 8198,
      "iana": 8199,
      "Ġaffairs": 8200,
      "ĠiOS": 8201,
      "RS": 8202,
      "hour": 8203,
      "Ġdump": 8204,
      "igs": 8205,
      "ura": 8206,
      "ĠUr": 8207,
      "rous": 8208,
      "iversary": 8209,
      "Ġpayments": 8210,
      "anny": 8211,
      "Ġimprovement": 8212,
      "fol": 8213,
      "tering": 8214,
      "Ġsoil": 8215,
      "Ġscandal": 8216,
      "Ġactors": 8217,
      "Ġpresum": 8218,
      "Ġcarefully": 8219,
      "Ġaddressed": 8220,
      "Ġsteel": 8221,
      "Ġranked": 8222,
      "Ġentertainment": 8223,
      "'.": 8224,
      "02": 8225,
      "Ġpuzz": 8226,
      "Ġele": 8227,
      "Ġgear": 8228,
      "ĠSa": 8229,
      "udes": 8230,
      "ĠYemen": 8231,
      "ictions": 8232,
      "Ġtrail": 8233,
      "Ġprocessing": 8234,
      "Ġmeasured": 8235,
      "Ġsettings": 8236,
      "Ġcertific": 8237,
      "Ġtomorrow": 8238,
      "She": 8239,
      "oen": 8240,
      "section": 8241,
      "rient": 8242,
      "ĠGaza": 8243,
      "ĠEvent": 8244,
      "Ġshout": 8245,
      "Ġclosing": 8246,
      "ordon": 8247,
      "ĠLeon": 8248,
      "EE": 8249,
      "ĠRand": 8250,
      "Ġvital": 8251,
      "Ġcomponent": 8252,
      "ounced": 8253,
      "Ġfunded": 8254,
      "who": 8255,
      "iences": 8256,
      "Ġimproving": 8257,
      "Ġminds": 8258,
      "Ġsalary": 8259,
      "Ġstayed": 8260,
      "Ġnormally": 8261,
      "Ġillness": 8262,
      "89": 8263,
      "To": 8264,
      "wr": 8265,
      "itary": 8266,
      "ĠCro": 8267,
      "ivals": 8268,
      "ĠConnect": 8269,
      "ĠPolicy": 8270,
      "Ġbarrel": 8271,
      "Ġrevel": 8272,
      "Ġreven": 8273,
      "ĠCode": 8274,
      "ĠMORE": 8275,
      "ĠPent": 8276,
      "ĠHun": 8277,
      "Ġprote": 8278,
      "Ġcontaining": 8279,
      "Ġovert": 8280,
      "Ġfoundation": 8281,
      "ĠBrother": 8282,
      "Ġsensitive": 8283,
      "Ġacquired": 8284,
      "iary": 8285,
      "ĠABC": 8286,
      "Ġscream": 8287,
      "Ġsurf": 8288,
      "Ġprogressive": 8289,
      "Ġversus": 8290,
      "aska": 8291,
      "Ġwealthy": 8292,
      "ls": 8293,
      "Ġvary": 8294,
      "ipal": 8295,
      "Ġbrill": 8296,
      "annels": 8297,
      "Ġracist": 8298,
      "ĠIllinois": 8299,
      "Ġrecommended": 8300,
      "Ġethnic": 8301,
      "ĠMoscow": 8302,
      "maker": 8303,
      "Ġtank": 8304,
      "ĠLater": 8305,
      "ptions": 8306,
      "Ġproviders": 8307,
      "Ġpolitically": 8308,
      "ikes": 8309,
      "ĠMinistry": 8310,
      "ommod": 8311,
      "Ġroads": 8312,
      "Ġcontracts": 8313,
      "Ġcorporations": 8314,
      "Ġscenario": 8315,
      "Ġphilosophy": 8316,
      "ĠNATO": 8317,
      "!)": 8318,
      "urb": 8319,
      "ĠBudd": 8320,
      "ultane": 8321,
      "Ġgrass": 8322,
      "Ġdistract": 8323,
      "Ġcapabilities": 8324,
      "Ġdrives": 8325,
      "ĠCorpor": 8326,
      "Ġconvicted": 8327,
      "otype": 8328,
      "Ġcock": 8329,
      "ĠTan": 8330,
      "agh": 8331,
      "Ġprev": 8332,
      "Ġshoulder": 8333,
      "Ġwarrant": 8334,
      "ĠBloom": 8335,
      "Ġpromises": 8336,
      "Ġdestruction": 8337,
      "Ġdynamic": 8338,
      "OV": 8339,
      "dri": 8340,
      "Ġ~": 8341,
      "asi": 8342,
      "igen": 8343,
      "iley": 8344,
      "phones": 8345,
      "Ġinteract": 8346,
      "Ġpersonality": 8347,
      "interest": 8348,
      "Ġapolog": 8349,
      "Ġcyber": 8350,
      "ĠAssociated": 8351,
      "52": 8352,
      "iti": 8353,
      "oured": 8354,
      "Ġelev": 8355,
      "ĠChel": 8356,
      "Ġrating": 8357,
      "Ġ2019": 8358,
      "achus": 8359,
      "Ġrecover": 8360,
      "Ġpublication": 8361,
      "Ġheading": 8362,
      "Ġ1996": 8363,
      "ĠSpeaking": 8364,
      "ĠDesign": 8365,
      "ĠIII": 8366,
      "Ġstrategic": 8367,
      "ĠFigure": 8368,
      "Ġbehaviour": 8369,
      "Ġreferendum": 8370,
      "eals": 8371,
      "heim": 8372,
      "orable": 8373,
      "Ġgift": 8374,
      "igible": 8375,
      "ĠMah": 8376,
      "pload": 8377,
      "Ġunions": 8378,
      "vernment": 8379,
      "Ġextend": 8380,
      "Ġdistributed": 8381,
      "Ġmistakes": 8382,
      "Ġguarantee": 8383,
      "ĠBrooklyn": 8384,
      "53": 8385,
      "Ġhun": 8386,
      "uties": 8387,
      "ĠNorm": 8388,
      "Ġplate": 8389,
      "Ġtrained": 8390,
      "atern": 8391,
      "Ġindex": 8392,
      "Ġstatist": 8393,
      "Ġinvolvement": 8394,
      "ĠOklahoma": 8395,
      "uce": 8396,
      "ĠTri": 8397,
      "Ġlin": 8398,
      "Ġcomedy": 8399,
      "Ġmanif": 8400,
      "ĠAltern": 8401,
      "Ġ1994": 8402,
      "ĠHarvard": 8403,
      "Ġcomplaints": 8404,
      "Ġuniversities": 8405,
      "Ġbreath": 8406,
      "aning": 8407,
      "ĠRun": 8408,
      "Ġjur": 8409,
      "Ġcenters": 8410,
      "Ġhardly": 8411,
      "Ġtestim": 8412,
      "ĠExec": 8413,
      "Ġpregnancy": 8414,
      "ĠMinnesota": 8415,
      "\")": 8416,
      "found": 8417,
      "then": 8418,
      "isa": 8419,
      "ĠSU": 8420,
      "owing": 8421,
      "sect": 8422,
      "ĠProv": 8423,
      "Ġdeputy": 8424,
      "ĠBooks": 8425,
      "Ġscholars": 8426,
      "ĠClintons": 8427,
      "tons": 8428,
      "Ġmo": 8429,
      "Ġlists": 8430,
      "ĠCreat": 8431,
      "Ġforest": 8432,
      "Ġabsence": 8433,
      "Ġappreciate": 8434,
      "Ad": 8435,
      "mary": 8436,
      "xit": 8437,
      "Ġtail": 8438,
      "Ġfro": 8439,
      "ĠCook": 8440,
      "Ġyoud": 8441,
      "ĠFive": 8442,
      "Ġovers": 8443,
      "Ġtechnique": 8444,
      "Ġconnections": 8445,
      "ĠTechnology": 8446,
      "56": 8447,
      "Ġmic": 8448,
      "Ġlying": 8449,
      "ĠSant": 8450,
      "ĠAward": 8451,
      "olen": 8452,
      "ĠRoss": 8453,
      "ĠFed": 8454,
      "obs": 8455,
      "Ġdivor": 8456,
      "Ġencouraged": 8457,
      "Ġdemonstrated": 8458,
      "Ġbeliefs": 8459,
      "ĠChildren": 8460,
      "Ġingred": 8461,
      "57": 8462,
      "Ġdance": 8463,
      "etch": 8464,
      "imp": 8465,
      "ĠDal": 8466,
      "ĠLas": 8467,
      "Ġaccommod": 8468,
      "Ġconcrete": 8469,
      "Ġinvestigate": 8470,
      "Ġdiscussions": 8471,
      "Ġreaching": 8472,
      "Ġdrama": 8473,
      "Ġ%": 8474,
      "aria": 8475,
      "Ġprosec": 8476,
      "ĠAndre": 8477,
      "Ġheadquarters": 8478,
      "ĠXbox": 8479,
      "Ġcompanys": 8480,
      "ĠHarris": 8481,
      "ĠPalestinians": 8482,
      "ĠSilver": 8483,
      "ĠNSA": 8484,
      "Ġinstrument": 8485,
      "ĠDivision": 8486,
      "By": 8487,
      "bell": 8488,
      "acon": 8489,
      "Ġrom": 8490,
      "ĠRa": 8491,
      "ĠNic": 8492,
      "esty": 8493,
      "archy": 8494,
      "Ġhandling": 8495,
      "ĠBerlin": 8496,
      "Ġupgrade": 8497,
      "ĠLiverpool": 8498,
      "iro": 8499,
      "isons": 8500,
      "ĠTen": 8501,
      "Ġrender": 8502,
      "Ġnotion": 8503,
      "ĠEth": 8504,
      "ources": 8505,
      "Ġeastern": 8506,
      "Ġfallen": 8507,
      "Ġwebsites": 8508,
      "flix": 8509,
      "Ġconversations": 8510,
      "Ġdramatic": 8511,
      "Ġawarded": 8512,
      "Ġclothes": 8513,
      "ĠFootball": 8514,
      "54": 8515,
      "eding": 8516,
      "Ġfate": 8517,
      "Ġmuseum": 8518,
      "Ġdrew": 8519,
      "Ġnaturally": 8520,
      "ĠRac": 8521,
      "Ġscreens": 8522,
      "Ġtransactions": 8523,
      "ĠBeing": 8524,
      "Ġemployed": 8525,
      "ointment": 8526,
      "Ġrestrictions": 8527,
      "Ġtweeted": 8528,
      "Ġlobby": 8529,
      "ĠBon": 8530,
      "screen": 8531,
      "Ġpoly": 8532,
      "Ġequally": 8533,
      "ĠSmart": 8534,
      "Ġexpanded": 8535,
      "Ġconventional": 8536,
      "achusetts": 8537,
      "Ġthrew": 8538,
      "Ġraw": 8539,
      "abeth": 8540,
      "amps": 8541,
      "ounce": 8542,
      "Ġchest": 8543,
      "199": 8544,
      "Ġadmit": 8545,
      "Ġsuffer": 8546,
      "ĠPortland": 8547,
      "Ġassumed": 8548,
      "Ġtransportation": 8549,
      "Ġabandoned": 8550,
      "Ġbonus": 8551,
      "Ġdisagree": 8552,
      "front": 8553,
      "ĠAst": 8554,
      "ĠAud": 8555,
      "Ġsty": 8556,
      "ĠPass": 8557,
      "rix": 8558,
      "Ġaccus": 8559,
      "ĠSean": 8560,
      "Ġmarks": 8561,
      "Ġmembership": 8562,
      "Ġlandscape": 8563,
      "Ġlowest": 8564,
      "ĠEveryone": 8565,
      "arrass": 8566,
      "Ġconsistently": 8567,
      "Ġeggs": 8568,
      "Ġstages": 8569,
      "ĠPT": 8570,
      "iller": 8571,
      "oding": 8572,
      "Ġabst": 8573,
      "Ġinvestigators": 8574,
      "Ġfantastic": 8575,
      "Ġhypot": 8576,
      "58": 8577,
      "LY": 8578,
      "Un": 8579,
      "Ġtone": 8580,
      "Ġwages": 8581,
      "ĠDO": 8582,
      "ĠIntelligence": 8583,
      "Ġbeauty": 8584,
      "ĠQueen": 8585,
      "Ġshopping": 8586,
      "itage": 8587,
      "Ġfing": 8588,
      "ĠHind": 8589,
      "pled": 8590,
      "weet": 8591,
      "Ġobs": 8592,
      "Ġcriticized": 8593,
      "Ġunexpected": 8594,
      "inction": 8595,
      "Ġdub": 8596,
      "Ġvend": 8597,
      "Ġ2020": 8598,
      "Ġincidents": 8599,
      "ĠCommon": 8600,
      "Ġperforming": 8601,
      "Ġsalt": 8602,
      "Ġbreaks": 8603,
      "Ġproposals": 8604,
      "Ġenormous": 8605,
      "AB": 8606,
      "lad": 8607,
      "ĠJam": 8608,
      "ĠJenn": 8609,
      "ĠChair": 8610,
      "ĠTherefore": 8611,
      "Ġbrown": 8612,
      "Ġblockchain": 8613,
      "06": 8614,
      "TR": 8615,
      "bro": 8616,
      "wa": 8617,
      "Ġsorry": 8618,
      "Ġwra": 8619,
      "Ġunpre": 8620,
      "Ġpreced": 8621,
      "Ġsmell": 8622,
      "Ġacid": 8623,
      "ĠEnvironment": 8624,
      "ĠEmpire": 8625,
      "rooms": 8626,
      "Ġhorror": 8627,
      "Ġprisoners": 8628,
      "Ġentitled": 8629,
      "ML": 8630,
      "bian": 8631,
      "iate": 8632,
      "ito": 8633,
      "Ġfestival": 8634,
      "Ġanger": 8635,
      "ira": 8636,
      "isting": 8637,
      "Ġ46": 8638,
      "Ġ1992": 8639,
      "books": 8640,
      "Ġdomain": 8641,
      "Image": 8642,
      "Ġphenomenon": 8643,
      "Ġbub": 8644,
      "Ġmarch": 8645,
      "icism": 8646,
      "ammed": 8647,
      "ĠBud": 8648,
      "Ġwhos": 8649,
      "emed": 8650,
      "Ġ57": 8651,
      "Ġdefine": 8652,
      "Ġdrone": 8653,
      "cover": 8654,
      "Ġjudges": 8655,
      "Ġgenetic": 8656,
      "Ġsuspected": 8657,
      "ĠCrime": 8658,
      "ĠMassachusetts": 8659,
      "mod": 8660,
      "ĠHold": 8661,
      "ĠGulf": 8662,
      "Ġsugar": 8663,
      "ĠOcc": 8664,
      "Ġje": 8665,
      "Ġsmoke": 8666,
      "tenance": 8667,
      "ĠEdit": 8668,
      "Ġlayer": 8669,
      "Ġqualified": 8670,
      "Ġsubsequent": 8671,
      "ĠWalker": 8672,
      "ĠAdministration": 8673,
      "ĠTro": 8674,
      "ĠBang": 8675,
      "ĠRather": 8676,
      "unior": 8677,
      "ĠKansas": 8678,
      "Ġsimultane": 8679,
      "Ġencry": 8680,
      "Ġawareness": 8681,
      "ĠAtlantic": 8682,
      "ĠSupport": 8683,
      "AG": 8684,
      "sa": 8685,
      "wo": 8686,
      "youtube": 8687,
      "ouri": 8688,
      "ĠAz": 8689,
      "igg": 8690,
      "Ġstability": 8691,
      "ĠFix": 8692,
      "ĠLine": 8693,
      "Ġcrimin": 8694,
      "ospitals": 8695,
      "Ġcommonly": 8696,
      "iel": 8697,
      "era": 8698,
      "ĠHann": 8699,
      "itionally": 8700,
      "Ġ47": 8701,
      "Ġcovers": 8702,
      "Ġpreserv": 8703,
      "Ġsubmitted": 8704,
      "Ġproducers": 8705,
      "ancou": 8706,
      "Ġ1995": 8707,
      "Ġprotecting": 8708,
      "ĠJustin": 8709,
      "ĠWarren": 8710,
      "Ġpublisher": 8711,
      "ĠArabia": 8712,
      "Ġliterature": 8713,
      "Ġrestaurants": 8714,
      "cia": 8715,
      "orneys": 8716,
      "Ġgent": 8717,
      "ĠSad": 8718,
      "utive": 8719,
      "ĠCore": 8720,
      "ĠHon": 8721,
      "Ġmanagers": 8722,
      "Ġspaces": 8723,
      "Ġmini": 8724,
      "Ġfoods": 8725,
      "Ġdivided": 8726,
      "Ġodds": 8727,
      "oice": 8728,
      "Ġinject": 8729,
      "Ġles": 8730,
      "thon": 8731,
      "ĠAnderson": 8732,
      "ĠUnlike": 8733,
      "Ġportray": 8734,
      "ĠRoberts": 8735,
      "Ġembarrass": 8736,
      "ĠRemember": 8737,
      "Ġharassment": 8738,
      "oj": 8739,
      "Ġpin": 8740,
      "Ġdrones": 8741,
      "Ġlands": 8742,
      "ĠWould": 8743,
      "ĠDream": 8744,
      "Ġjoy": 8745,
      "ĠUnt": 8746,
      "Ġquote": 8747,
      "Ġtwenty": 8748,
      "Ġunderlying": 8749,
      "ĠSeason": 8750,
      "Ġmodule": 8751,
      "ĠSyd": 8752,
      "Ġ1993": 8753,
      "Ġmedicine": 8754,
      "ĠSon": 8755,
      "ĠBridge": 8756,
      "umes": 8757,
      "aki": 8758,
      "ordinary": 8759,
      "ultural": 8760,
      "ika": 8761,
      "Ġprompt": 8762,
      "Ġcalm": 8763,
      "Ġcasual": 8764,
      "core": 8765,
      "Ġhasn": 8766,
      "ĠFormer": 8767,
      "ĠBlake": 8768,
      "ĠBeij": 8769,
      "Ġregistration": 8770,
      "ĠCharlie": 8771,
      "senal": 8772,
      "ĠMichel": 8773,
      "Ġgross": 8774,
      "Ġrecall": 8775,
      "Ġ43": 8776,
      "ĠGovernor": 8777,
      "Ġthrowing": 8778,
      "ĠMaryland": 8779,
      "####": 8780,
      "Ġacknowledged": 8781,
      "Ġinquir": 8782,
      "600": 8783,
      "LC": 8784,
      "cling": 8785,
      "yo": 8786,
      "Ġfinger": 8787,
      "Ġrear": 8788,
      "Ġgains": 8789,
      "irk": 8790,
      "irts": 8791,
      "Ġdelic": 8792,
      "ĠVancou": 8793,
      "Ġinvent": 8794,
      "ĠLeader": 8795,
      "Ġreads": 8796,
      "Ġseemingly": 8797,
      "Ġinvestigations": 8798,
      "ĠEliz": 8799,
      "ĠAnti": 8800,
      "ĠIndiana": 8801,
      "ĠAtlanta": 8802,
      "Ġprosecutors": 8803,
      "intendo": 8804,
      "%,": 8805,
      ".-": 8806,
      "held": 8807,
      "Ġbeach": 8808,
      "agraph": 8809,
      "ĠFR": 8810,
      "Ġconsent": 8811,
      "urns": 8812,
      "Ġservers": 8813,
      "Ġreplied": 8814,
      "Ġrepresenting": 8815,
      "Ġpremium": 8816,
      "cut": 8817,
      "Ġtips": 8818,
      "ĠSol": 8819,
      "ĠFestival": 8820,
      "Ġcompe": 8821,
      "cience": 8822,
      "AND": 8823,
      "Ġassessment": 8824,
      "Ġinflation": 8825,
      "fund": 8826,
      "lay": 8827,
      "ĠTour": 8828,
      "ĠCapt": 8829,
      "ĠGre": 8830,
      "wered": 8831,
      "Ġinterpre": 8832,
      "Ġhanded": 8833,
      "Ġpresidents": 8834,
      "Ġstriking": 8835,
      "ĠMarsh": 8836,
      "Ġfighter": 8837,
      "ĠGuardian": 8838,
      "Ġadventure": 8839,
      "aeda": 8840,
      "ĠRoy": 8841,
      "thur": 8842,
      "ĠJere": 8843,
      "Ġ51": 8844,
      "Ġinsisted": 8845,
      "Ġtransit": 8846,
      "Ġtransgender": 8847,
      "there": 8848,
      "Ġdrove": 8849,
      "ĠNetflix": 8850,
      "Ġwhis": 8851,
      "ĠHur": 8852,
      "Ġrhet": 8853,
      "ĠDog": 8854,
      "ĠField": 8855,
      "Ġexit": 8856,
      "plus": 8857,
      "inder": 8858,
      "veland": 8859,
      "sels": 8860,
      "ernel": 8861,
      "Ġchildhood": 8862,
      "Ġerrors": 8863,
      "Ġsubstantial": 8864,
      "bul": 8865,
      "imm": 8866,
      "Ġrush": 8867,
      "Ġsaving": 8868,
      "Ġintr": 8869,
      "Ġremoval": 8870,
      "lando": 8871,
      "Ġfactory": 8872,
      "Ġargues": 8873,
      "Ġbottle": 8874,
      "Ġmerch": 8875,
      "Ġinitiative": 8876,
      "Ġcooperation": 8877,
      "03": 8878,
      "BN": 8879,
      "Big": 8880,
      "rance": 8881,
      "Ġmask": 8882,
      "enth": 8883,
      "ĠCustom": 8884,
      "ĠMach": 8885,
      "ĠMuch": 8886,
      "ĠBal": 8887,
      "ĠWolf": 8888,
      "ĠNone": 8889,
      "asted": 8890,
      "uests": 8891,
      "comp": 8892,
      "ĠRepresent": 8893,
      "scale": 8894,
      "ĠPlace": 8895,
      "ĠHamilton": 8896,
      "Ġframework": 8897,
      "Ġsupplies": 8898,
      "ĠRussell": 8899,
      "61": 8900,
      "eters": 8901,
      "ĠCab": 8902,
      "child": 8903,
      "acket": 8904,
      "Ġspots": 8905,
      "Ġignore": 8906,
      "Ġmargin": 8907,
      "TP": 8908,
      "ester": 8909,
      "icts": 8910,
      "ĠTs": 8911,
      "Ġnerv": 8912,
      "Ġreverse": 8913,
      "aya": 8914,
      "ĠBand": 8915,
      "ĠFer": 8916,
      "uman": 8917,
      "Ġattached": 8918,
      "Ġemp": 8919,
      "Ġhomeless": 8920,
      "Ġuniversal": 8921,
      "</": 8922,
      "Ġcust": 8923,
      "ĠGordon": 8924,
      "unes": 8925,
      "berry": 8926,
      "Ġ1950": 8927,
      "Ġfails": 8928,
      "Ġinvestigating": 8929,
      "Ġmusical": 8930,
      "Ġburning": 8931,
      "ĠBruce": 8932,
      "count": 8933,
      "vity": 8934,
      "itol": 8935,
      "alysis": 8936,
      "uted": 8937,
      "Ġweigh": 8938,
      "ĠPict": 8939,
      "Ġages": 8940,
      "Ġdisrupt": 8941,
      "ĠPhill": 8942,
      "Ġrooms": 8943,
      "ĠMoreover": 8944,
      "Ġparticipation": 8945,
      "Ġordinary": 8946,
      "Ġultimate": 8947,
      "Ġceleb": 8948,
      "Ġaffordable": 8949,
      "========": 8950,
      "Ġdismissed": 8951,
      "Ġsemi": 8952,
      "ĠBatman": 8953,
      "Ġconspiracy": 8954,
      "ped": 8955,
      "omes": 8956,
      "Ġnic": 8957,
      "irlf": 8958,
      "ĠWat": 8959,
      "oret": 8960,
      "Ġchannels": 8961,
      "Ġabroad": 8962,
      "Ġremarks": 8963,
      "Ġkeys": 8964,
      "ĠOnline": 8965,
      "Ġtrem": 8966,
      "Ġauto": 8967,
      "Ġarrive": 8968,
      "Ġutility": 8969,
      "Ġemotions": 8970,
      "ught": 8971,
      "83": 8972,
      "EP": 8973,
      "itter": 8974,
      "Ġbureau": 8975,
      "arre": 8976,
      "Ġthorough": 8977,
      "ĠNon": 8978,
      "ĠJay": 8979,
      "Ġclassified": 8980,
      "Ġappearances": 8981,
      "government": 8982,
      "Ġwindows": 8983,
      "Ġcontributions": 8984,
      "ĠMississ": 8985,
      "irlfriend": 8986,
      "zed": 8987,
      "Ġ\\": 8988,
      "Ġtens": 8989,
      "Ġstone": 8990,
      "ĠHong": 8991,
      "ĠDisc": 8992,
      "ĠChinas": 8993,
      "Ġreader": 8994,
      "Ġformation": 8995,
      "Ġarguing": 8996,
      "backs": 8997,
      "Ġreplacement": 8998,
      "ĠDenver": 8999,
      "Ġkilomet": 9000,
      "greg": 9001,
      "rity": 9002,
      "Ġbread": 9003,
      "Ġbias": 9004,
      "Ġmad": 9005,
      "ĠTai": 9006,
      "ĠAk": 9007,
      "ĠBron": 9008,
      "keep": 9009,
      "ĠRest": 9010,
      "oded": 9011,
      "ĠThird": 9012,
      "ĠTrade": 9013,
      "Ġsmoking": 9014,
      "Ġgreatly": 9015,
      "Ġviolation": 9016,
      "ĠFront": 9017,
      "Ġcoaching": 9018,
      "ĠType": 9019,
      "********": 9020,
      "Ġtactics": 9021,
      "Ġholiday": 9022,
      "ĠChelsea": 9023,
      "Ġcoc": 9024,
      "Ġdiverse": 9025,
      "ĠFall": 9026,
      "Ġcance": 9027,
      "ĠThink": 9028,
      "ignment": 9029,
      "Ġsheet": 9030,
      "Ġdonations": 9031,
      "Ġsentenced": 9032,
      "ĠCooper": 9033,
      "ĠBuy": 9034,
      "ĠCapital": 9035,
      "Ġtrigger": 9036,
      "from": 9037,
      "ĠOx": 9038,
      "Ġdepression": 9039,
      "ĠIndust": 9040,
      "Ġelectoral": 9041,
      "Ġcounts": 9042,
      "Star": 9043,
      "Ġstepped": 9044,
      "lan": 9045,
      "made": 9046,
      "Ġfoss": 9047,
      "Ġlocked": 9048,
      "ĠHoll": 9049,
      "Ġexem": 9050,
      "Ġchapter": 9051,
      "Ġshell": 9052,
      "Ġstudied": 9053,
      "ĠLeban": 9054,
      "Ġwarn": 9055,
      "Ġrequiring": 9056,
      "ĠEverything": 9057,
      "ĠUpdate": 9058,
      "ocolate": 9059,
      "Ġanxiety": 9060,
      "Ġinnocent": 9061,
      "iability": 9062,
      "orous": 9063,
      "ĠMun": 9064,
      "ols": 9065,
      "Ġoutrage": 9066,
      "Ġnoise": 9067,
      "Ġreliable": 9068,
      "Ġmonitor": 9069,
      "Ġlegacy": 9070,
      "Ġrepresentatives": 9071,
      "Ġcircle": 9072,
      "enezuel": 9073,
      "Ġbrilliant": 9074,
      "tail": 9075,
      "hero": 9076,
      "Ġfur": 9077,
      "Ġsteal": 9078,
      "Ġconsole": 9079,
      "Ġshame": 9080,
      "ĠOpp": 9081,
      "Ġscar": 9082,
      "Ġscope": 9083,
      "Ġweekly": 9084,
      "Ġhoped": 9085,
      "Ġinvolves": 9086,
      "Ġjudgment": 9087,
      "Ġphysically": 9088,
      "Ġloans": 9089,
      "ĠMorris": 9090,
      "Ġspokeswoman": 9091,
      "ĠVancouver": 9092,
      "Cont": 9093,
      "Int": 9094,
      "tes": 9095,
      "uits": 9096,
      "Ġlunch": 9097,
      "Ġstolen": 9098,
      "agu": 9099,
      "uma": 9100,
      "ĠLS": 9101,
      "ĠEb": 9102,
      "ogy": 9103,
      "Ġcompare": 9104,
      "Ġattitude": 9105,
      "comes": 9106,
      "Ġfundra": 9107,
      "Ġoccurs": 9108,
      "Ġfalls": 9109,
      "Ġcontrad": 9110,
      "Ġexclus": 9111,
      "Be": 9112,
      "jud": 9113,
      "ports": 9114,
      "ints": 9115,
      "Ġwider": 9116,
      "Ġmac": 9117,
      "ĠSab": 9118,
      "ĠSud": 9119,
      "ĠBoe": 9120,
      "ĠDave": 9121,
      "ĠLarry": 9122,
      "Ġnoting": 9123,
      "assador": 9124,
      "Ġprovision": 9125,
      "Ġcitys": 9126,
      "Ġloose": 9127,
      "Ġpursue": 9128,
      "Ġprecisely": 9129,
      "Ġsne": 9130,
      "Ġlun": 9131,
      "icking": 9132,
      "Ġstudying": 9133,
      "Ġinterior": 9134,
      "ĠShould": 9135,
      "Ġprotocol": 9136,
      "Ġvisiting": 9137,
      "ublished": 9138,
      "ĠAbb": 9139,
      "Ġconsideration": 9140,
      "Ġdispute": 9141,
      "ĠHawai": 9142,
      "Ġmortg": 9143,
      "uction": 9144,
      "inite": 9145,
      "Ġwaves": 9146,
      "ĠSom": 9147,
      "ĠCredit": 9148,
      "ĠPop": 9149,
      "ĠGB": 9150,
      "Ġvoid": 9151,
      "ocument": 9152,
      "Ġgrid": 9153,
      "ĠHoward": 9154,
      "Ġlessons": 9155,
      "Ġresponses": 9156,
      "ĠSimon": 9157,
      "Ġspectrum": 9158,
      "Ġmoderate": 9159,
      "Ġmonitoring": 9160,
      "(\"": 9161,
      "dr": 9162,
      "ĠTower": 9163,
      "Ġrend": 9164,
      "Ġec": 9165,
      "ĠPo": 9166,
      "ĠEnt": 9167,
      "Ġguidelines": 9168,
      "Ġinteraction": 9169,
      "hesis": 9170,
      "Ġimportantly": 9171,
      "Ġrecognition": 9172,
      "Ġimplications": 9173,
      "Ġcoinc": 9174,
      "Ġconstitu": 9175,
      "Ġcomprehensive": 9176,
      "rec": 9177,
      "orius": 9178,
      "ĠTok": 9179,
      "geon": 9180,
      "ipedia": 9181,
      "Ġdispl": 9182,
      "Ġmaintenance": 9183,
      "ĠManagement": 9184,
      "Ġeducational": 9185,
      "Ġstaying": 9186,
      "Ġemerging": 9187,
      "Ġstruggled": 9188,
      "Ġtemperatures": 9189,
      "Ġmirror": 9190,
      "Ġsavings": 9191,
      "Ġskept": 9192,
      "ĠSydney": 9193,
      "Ġmole": 9194,
      "ĠLink": 9195,
      "ĠLocal": 9196,
      "ĠGary": 9197,
      "Ġwhereas": 9198,
      "Ġinspect": 9199,
      "ĠEdward": 9200,
      "Ġcapitalism": 9201,
      "ĠMetro": 9202,
      "Ġsmartphone": 9203,
      "Ġexpanding": 9204,
      "Ġtestimony": 9205,
      "76": 9206,
      "buster": 9207,
      "ds": 9208,
      "Ġbirds": 9209,
      "ĠSanta": 9210,
      "ĠHa": 9211,
      "ĠDer": 9212,
      "ĠNintendo": 9213,
      "Ġtheyll": 9214,
      "apolis": 9215,
      "ĠKnow": 9216,
      "iano": 9217,
      "ounding": 9218,
      "ĠProp": 9219,
      "Ġhomosexual": 9220,
      "ĠOthers": 9221,
      "Ġhorse": 9222,
      "Ġnomination": 9223,
      "ĠEgyptian": 9224,
      "ixture": 9225,
      "rimin": 9226,
      "Ġhospitals": 9227,
      "Ġcompat": 9228,
      "pha": 9229,
      "Ġrelax": 9230,
      "Ġasset": 9231,
      "Ġhelpful": 9232,
      "ieties": 9233,
      "Ġtries": 9234,
      "Ġdesigns": 9235,
      "Ġsixth": 9236,
      "Ġmidfield": 9237,
      "Ġracism": 9238,
      "Ġsatellite": 9239,
      "ĠPitts": 9240,
      "Ex": 9241,
      "With": 9242,
      "fts": 9243,
      "hatt": 9244,
      "encing": 9245,
[...]
